#version: 0.2 - Trained by `huggingface/tokenizers`
l a
â Ģ
s h
d a
n i
g a
âĢ ĺ
r i
l i
Ġ b
t i
m a
d i
c h
Ġ t
s i
Ġ o
Ġ k
a r
la r
Ġ q
n g
y a
ga n
r a
o n
Ġ h
v a
Ġb o
i l
Ġ y
ni ng
la ri
sh i
Ġ s
g i
Ġ va
t a
Ġ a
Ġ m
Ġ i
Ġ e
Ġ u
Ġ ma
o r
Ġt a
ch i
da n
n a
z i
k i
k a
m i
m o
u n
s a
Ġb i
la n
Ġh a
ch a
li k
r o
d e
Ġk o
Ġ x
a t
e r
y o
l o
y i
q i
Ġ j
s t
Ġq i
Ġ f
Ġm u
l gan
Ġk e
Ġ âĢ
Ġt o
Ġy o
q a
Ġ sh
da gi
u r
Ġs o
b i
v o
Ġ p
Ġq o
Ġ B
ri sh
Ġ da
Ġ S
la sh
d o
a y
âĢ Ŀ
n o
Ġ A
a b
e n
u v
Ġbi lan
Ġha m
Ġ M
Ġ ya
âĢ Ļ
Ġi sh
la di
si ya
li gi
Ġ 1
Ġ 2
Ġt u
a n
Ġu ch
r e
Ġqi li
Ġb e
s o
Ġ de
a l
Ġ O
ĠâĢ ľ
st on
la b
i z
li b
b e
Ġ T
ar a
i r
q da
t o
a v
Ġbo sh
lar ni
Ġk u
ga ni
Ġuch un
t gan
Ġb u
l di
a h
j a
ar o
si da
la t
l u
Ġ na
z a
z o
b o
ya t
u l
u q
z be
li shi
Ġta sh
Ġ ra
Ġh o
Ġy il
ki ston
Ġ R
Ġt e
ti sh
b a
Ġbi r
Ġ chi
i y
u d
Ġ K
0 0
e t
Ġk i
li sh
zbe kiston
on a
mo qda
mi z
ti b
Ġ U
u s
lari ni
Ġq il
o y
Ġ (
o t
lar ga
ki n
lar ning
Â »
Â «
Ġk a
f a
s p
Ġ do
h a
k o
l e
u ri
ka t
Ġj a
o li
Ġs a
Ġa y
lan gan
Ġ I
la ni
ĠB u
ra t
Ġ v
ya ti
Ġ ch
l ma
Ġ g
e v
ng i
en t
il o
Ġm i
ĠS h
Ġ2 0
y di
ri b
Ġva zi
ti rish
Ġt ar
ma n
yi cha
uv chi
b u
Ġb er
ri n
m p
Ġ Â«
ab ar
Ġy u
s ti
lar da
Ġ Y
Ġda v
Ġh i
Ġi n
lari ga
ma t
Ġ n
Ġ si
Ġo r
k il
Ġx o
Ġ P
S h
k or
ni ya
Ġe ti
Ġx abar
Ġ Q
u b
Ġ N
k t
mo ni
l ga
u m
o sh
ka zi
Ġa v
Ġ ti
ro q
Ġqili sh
Ġ 3
ti da
Ġ re
m on
o s
ri lgan
Ġ D
de n
li y
Ġ H
lo v
ĠâĢ Ķ
Ġku ni
yo t
Ġsh u
Ġ J
yi n
i n
yo tgan
Ġha qi
di r
si z
Ġdav lat
Ġsh ah
Ġf a
y il
Ġ X
f i
h i
Ġmu m
Ġ Ġ
Ġmum kin
o v
Ġtash kil
ra di
Ġq a
Ġh u
Ġto moni
Ġ no
or t
Ġq ay
li q
Ġ F
si ni
u t
Ġv ilo
Ġe sa
de k
Ġ G
ma s
zi den
Ġo shi
Ġq ar
Ġa ma
re ziden
di m
Ġx iz
Ġtomoni dan
ra k
Ġde b
o ri
si ga
un da
x ona
mi y
lu m
Ġb a
Ġa so
li ka
Ġma r
Ġo lib
na di
m u
ub lika
sp ublika
bi y
Ġqili n
sh a
b at
Ġsh a
k u
ĠâĢ ĵ
Ġm e
li m
Ġm il
lar dan
ga r
m la
o l
2 0
Ġhi so
mi da
r sa
q ar
Ġma h
da m
Ġda vo
Ġ 5
ma ti
k ent
lari da
Ġbo r
âĢ ľ
ĠM a
z ar
Ġt ur
Ġ ni
li n
Ġ L
Ġva q
d da
Ġb ar
ĠR e
Ġi k
t di
t e
o ra
Ġj oy
osh kent
ti lgan
Ġya ngi
z il
Ġh ar
s ta
si ning
chi lik
Ġ 4
sh bu
Ġ20 1
Ġham da
lu mo
Ġbosh qa
Ġ V
Ġ E
ligi ni
Ġ C
Ġi m
ma ni
Ġf o
r u
bi r
d or
Ġk un
shi cha
ra n
Ġhaqi da
Ġ lo
da r
v i
ni q
Ġma mla
Ġj i
lari ning
Ġm o
Ġk or
y u
ri da
lumo t
s u
a niya
e k
Ġy e
ta di
Ġvazi r
Ġy i
Ġe ga
Ġ ga
ta b
ti r
di y
Ġq u
q at
âĢĿ ,
os siya
n ga
Ġha qda
a s
zi r
ĠRe spublika
Ġmi ng
al q
Ġs u
ning dek
Ġda ra
Ġqil di
Ġbe ri
y or
Ġke rak
Ġo lish
Ġh ud
si y
f o
d u
oy da
q o
uq aro
Ġo ldi
d bir
Ġ 7
Ġmamla kat
Ġi j
r ta
Ġf oyda
x s
m mo
mp aniya
qi n
f ar
Ġqil gan
Ġama lga
t siya
Ġra h
Ġe di
b or
Ġto p
Ġdara ja
Ġish lab
si dagi
Ġs ab
Ġhiso b
la nadi
Ġmil li
Ġe tish
e l
Ġchi qa
lani sh
Ġ 6
Ġf uqaro
j i
ma si
ta n
lan di
Ġyo sh
ĠT oshkent
Ġp reziden
Q Sh
Ġ ro
Ġe ng
e s
Ġav to
Ġik ki
Ġdo l
Ġvilo yati
Ġ vo
x i
la y
Ġy et
l gani
va l
Ġa niq
. âĢľ
ga cha
Ġ ri
l moqda
Ġchi qi
e ri
Ġyo ki
Ġfa oli
ĠR ossiya
gi ya
ng iz
Ġu ning
t ka
Ġho lat
l da
Ġh ara
00 0
Ġq at
zi m
s on
h o
ti ro
lari dan
Ġxiz mat
ti n
g u
la gan
yi ha
an da
Ġ di
unda y
ĠSh u
la yotgan
' m
ma r
Ġu shbu
si dan
Ġsab ab
Ġki ri
mo q
v iy
Ġhu j
un dan
Ġya na
z u
l sa
M a
Ġy or
Ġbar cha
Ġa h
Ġbe l
lash ti
Ġchi q
Ġja mo
ki d
Ġki shi
t da
Ġna far
j at
) ,
Ġtu mani
t kazi
Ġma v
p i
Ġko mpaniya
ĠRespublika si
Ġ 8
ĠS a
Ġs ay
p a
Ġq ab
o g
sa n
Ġor qa
lo t
Ġy er
Ġri vo
ti ni
Ġqar shi
Ġma q
Ġma sa
Ġ d
Ġish tiro
Ġlo yiha
rin chi
Ġta q
Ġbel gi
v ar
Ġber di
Ġqi s
Ġf i
Ġvazir ligi
Ġshah ar
ĠA QSh
lash tirish
ti ja
Ġfo iz
Ġn ar
Ġta lab
ir us
Ġq on
Ġu ni
Ġn e
Ġ zar
ra sh
q ti
Ġx alq
k tab
k ur
Ġqab ul
Ġ il
r on
Ġte z
Ġp ro
Ġb il
Ġe mas
ra sida
Ġqilin gan
Ġq uri
x shi
ri ga
Ġu y
t er
ma y
ni y
Ġho ki
Ġrivo j
Ġmaq sa
lan tirish
Ġta n
Ġbi z
Ġe ka
Ġsh ar
ma gan
l on
Ġ shi
Ġorqa li
Ġp ay
n di
Ġbe rish
Ġhara kat
na li
e y
Ġmasa la
Ġ -
mo l
Ġta y
o ni
Ġya xshi
kor lik
ri ni
Ġh uq
Ġp a
Ġtay yor
Ġta dbir
sa l
Ġso ha
va t
Ġma n
Ġq ara
d on
at ta
Ġ1 0
Ġxiz mati
Ġbo g
Ġb an
Ġa lo
ladi gan
Ġo lgan
Ġmilli on
Ġvilo yat
ti ga
Ġm un
b il
Ġ1 9
Ġra s
Ġbosh qar
y ev
Ġtu sh
shi ni
Ġma y
Ġdo ir
di da
ĠĠ ĠĠ
Ġx av
er g
Ġo lin
x ta
Ġda st
ĠY a
Ġah oli
le kt
yot gani
k li
Â» ,
Ġe tgan
ba ri
p ort
Ġna tija
ĠN a
bo l
ori y
ko ni
Ġdavo mida
z kur
Ġsa q
qti so
u z
ti mo
Ġy uq
qa n
lo q
j on
Ġe t
Ġdo i
Ġxo dim
Ġ 9
Ġbi rinchi
i da
zi mi
ri m
B u
Ġmah su
on av
o m
Ġi s
Ġrah bari
na t
lma gan
chi lar
il gan
Ġyu za
v er
Ġke yin
ta si
b r
ĠC h
Ġk atta
onav irus
Ġoshi rish
sp ort
Ġq anda
ya p
yi sh
x bor
ĠQ o
shi sh
z ga
lik da
Ġsi fa
Ġfaoli yati
Ġ za
ev ro
ta x
Ġte x
Ġsha xs
Ġo i
v e
Ġyil da
Ġqili b
Ġ cha
Ġeti lgan
ra m
Ġma j
h at
Ġish lar
ti q
no yat
la ydi
Ġim koni
Ġtu man
ni da
q uv
ri k
Ġxav f
zil gan
zu ga
ri ya
Ġo y
mi r
un yo
Ġch e
Ġishtiro k
Ġmun o
M av
Ġyor dam
Sh u
Ġmahsu lot
Ġta s
Ġa k
Ġch ora
Ġka sal
Ġya qin
Ġqanda y
li ni
xbor ot
Ġme h
âĢ Ķ
shi m
b ar
Ġpreziden ti
ur u
Ġbu y
i t
a ri
Mav zuga
Ġp ar
Ġbo la
Ġj u
e ch
Ġi chi
siya si
Ġras miy
Ġo yi
Ġhud ud
us u
i sh
Ġbe radi
Ġber gan
Ġja vo
Ġqay ta
Ġy ara
chi si
Ġkor onavirus
ut bol
do v
Ġk on
lani shi
Ġtash qa
Ġjamo a
Ġmar kazi
no ma
lik lar
Ġe k
Ġm l
Ġqay d
li ya
Ġma s
Ġo dam
Ġhuj jat
ma ydi
Ġyuq ori
Ġni s
Ġmah al
Ġke l
lash gan
Ġjavo b
Ġhud u
Ġb ah
Ġ1 5
av do
lo giya
Ġnis ba
i to
k ra
Ġu n
lma ydi
timo iy
Ġma t
mi n
sh li
Ġnisba tan
Ġshah ri
Ġre ja
Ġj oriy
Ġe lekt
Ġshu ningdek
ri sida
Ġho lda
Ġ Z
Ġhar biy
Ġu larning
Ġa j
Ġta kli
ĠT a
Ġxalq aro
Ġqon un
Ġtashqa ri
Ġmuno sa
ĠM u
zi yo
ri shi
Ġqi ladi
et r
Ġa xborot
. Â«
si ta
mo ya
Ġbir ga
Ġka m
lani b
mo bil
a m
Ġg uru
Ġhu ku
Ġmi q
Ġf ar
Ġke lgan
Ġs uv
i zi
Ġde ya
z m
Ġshar t
Ġku ch
Ġu lar
sh da
ro ja
Ġke lib
na l
Ġp ul
or o
bu ot
Ġte le
Ġo g
rsa t
sa ri
Ġf utbol
Ġs avdo
ito y
Ġqar or
Ġber moqda
Ġmu dda
Ġso ni
Ġsifa tida
di q
Ġham korlik
shi na
Ġmu ho
li da
Ġbi ri
ri ladi
Ġyil ning
Ġtashkil ot
Ġ tib
Ġdavo m
Ġj o
Ġi qtiso
dar yo
r gan
Ġs ud
i ston
Ġti zimi
Ġa n
Ġs e
Ġrivoj lantirish
a mmo
Ġju da
Ġka bi
ĠT o
Ġ la
b la
ch ki
ri lishi
Ġqa dar
yo l
zbekiston da
ĠM ir
y e
Ġha y
Ġeka n
Ġmat buot
li mi
Ġte gi
no v
Ġvaq t
Ġho zir
Ġvazi ri
i na
shim cha
Ġor tiq
Ġo qi
Ġa g
j ud
Ġaso siy
Ġmu ammo
1 9
x a
Ġ ar
k si
Ġso at
lov chi
Ġna fa
oli ya
Ġyuza sidan
Ġbe rilgan
Ġmu roja
ĠP reziden
av lat
ĠM ar
Ġij timoiy
rash uv
to ri
Ġe tdi
Ġs port
D ar
la m
Ġyi g
Ġja mi
Ġmu hi
Ġchiqa rish
la shi
li ga
xs us
mp i
gani ni
Ġtakli f
Ġy uri
Ġav val
Ġtaq dim
Ġd unyo
i s
p o
Ġtegi shli
Ġtu shi
Ġa s
m ma
yap ti
uri y
g ram
Ġh ech
ri ldi
zo d
Ġvo sita
Ġaso sida
Ġk ar
Ġga z
ay on
i de
Ġxavf siz
lari miz
ro v
ka ma
Ġolin gan
t ar
Ġavto mobil
Y a
2 1
ĠT ur
Ġmav jud
cha si
Ġji noyat
Ġhi moya
mo v
ĠT e
Ġdol lar
Ġke nga
Ġqilin di
z or
p e
Ġfi k
qi q
Ġoi la
Dar yo
kin chi
mi ni
Ġta ri
Ġma ktab
q on
sh ga
Ġtop shi
ti shi
rin bo
ya n
Ġkor xona
T a
Ġvazi yat
de mi
ra l
d diy
ĠI I
lik ka
ti ning
ĠV a
ni ga
Ġt ran
bla g
Ġma blag
Ġo chi
Ġmuroja at
Ġma xsus
la ma
u ra
Ġna zo
as sa
Ġ1 2
Ġmaqsa dida
kra ina
Ġish lari
na n
Ġhuq uq
u qi
ĠA b
ĠK o
Ġde di
i m
l lab
ĠB i
as si
Ġq aro
Ġqo ldi
ĠI n
lashti rilgan
ti bi
Ġbo ra
Ġpreziden t
ri j
Ġtas diq
li g
Ġqili ni
Ġto mon
um la
ah on
ta miz
assa sa
st e
lishi cha
sti t
Ġfoyda lanish
ro l
un ga
Ġa yol
Ġma zkur
a di
s la
A v
zi ga
Ġta h
Ġmu assasa
er ma
Ġsaq lash
r gani
si on
mar qan
t lar
yil da
Ġshah rida
z da
Ġqo lgan
Ġtur li
k on
lan uvchi
ra b
lik ni
tax assi
Ġor gan
Ġde gan
ĠH a
Ġmar ta
ni ni
Ġtar moq
Ġva kil
Ġvazi fa
Ġxo rij
e a
Ġya k
Ġhoki mi
Ġ1 1
Ġu mu
uv i
x on
Ġalo qa
di k
Ġki m
Ġyo g
Ġtu g
umla dan
r na
Ġhoki m
Ġha vo
f ot
Ġag ent
ar d
C h
ĠX itoy
Ġtar tib
sa t
Ġke lish
p re
ar li
ba tida
Ġsi yo
Ġay ti
Ġaj ra
Ġe tadi
rinbo sari
Ġb al
o h
Ġqi sh
ĠY evro
z gar
p roq
zbe k
Ġde ydi
ĠH o
ta k
ti miz
lishi ni
Ġch ek
Ġmu sta
Ġso dir
Ġda r
Ġban k
m or
yi ladi
Ġshi fo
Ġyet kazi
Ġmunosa bat
Ġbil dir
Ġmu x
sh ni
f t
s qi
s e
e ya
Ġtar qa
taxassi s
Ġma shina
Ġno m
ĠB o
Ġya sh
Ġne cha
Ġaso s
Ġbi no
Ġfa qat
ya br
p ar
Ġmuhi m
Ġmil liy
e ta
lash ga
ni k
Ġso g
hi da
o q
ver si
ĠK or
Ġrah bar
marqan d
ri f
Ġuch rashuv
Ġna v
Ġ1 6
ti rib
Ġ3 0
f on
z at
Ġo sh
Ġla vo
shi ga
Ġo l
Ġu nga
Ġyu k
Ġyosh li
ri y
av kat
Ġx usu
vo z
Ġi sta
Ġtex no
Ġsh unday
âĢĿ .
Ġbelgi langan
ĠK a
Ġmu vo
Ġin son
an ba
av iy
lo m
ti dan
ki ya
ĠMir ziyo
Ġm oliya
Ġmaj b
20 1
Ġe r
Ġ1 4
s s
k s
Ġa t
Ġ1 8
n er
T oshkent
Ġi y
x o
Ġhisob lanadi
Ġyu z
ti ldi
Ġ ru
yi b
Ġku za
Ġml n
fi q
Ġp o
Ġ2 00
ri lmoqda
Ġv ide
sla tib
Ġ2 5
tka zilgan
t uvchi
Ġta ni
ka z
vi shda
' t
Ġchiqi sh
ma ra
ĠMirziyo yev
Ġm en
Ġs ar
Ġ z
u lo
Ġra vishda
Ġ1 3
Ġm etr
ng gi
Ġyo z
quv vat
erg ov
Ġyana da
rat siya
bi q
t un
m eri
Ġfaoli yat
ka m
Ġe h
z on
Ġxodim lari
Ġyu bo
ĠD avlat
Ġhuq uqi
tir gan
Ġku ti
Ġb unday
ya si
t on
Ġmuvo fiq
Ġoyi da
Ġdoi rasida
ĠU kraina
Ġvaq tida
Ġ20 20
ri sidagi
Ġjoy lashgan
Ġso v
Ġichi da
Ġsay lov
yi dagi
na lish
gu st
tkazi sh
be k
gi k
ay li
ti rilgan
ligi ga
d di
Ġde yiladi
zi ni
Ġ "
Ġna mo
Ġa l
lo k
Ġp oy
Ġhaqi dagi
j o
Ġmu taxassis
Ġeti ldi
Ġ1 7
Ġyer da
Ġij ro
moq chi
Ġni ma
Ġzar ur
Ġkompaniya si
en tab
zo g
Shu ningdek
Ġte k
Ġi ste
meri ka
Ġtu f
Ġe tib
val roq
Ġga p
Ġx ona
zo q
Ġ 0
Ġmi n
Ġqi zi
ĠShu ningdek
Ġk lu
ĠK e
Ġsa mara
Ġik kinchi
Ġtuf ayli
) .
f ta
z an
ti yo
m e
ri q
ĠR a
mar t
bi yot
Ġuni versi
k siya
si yo
Ġmiq do
an u
ĠI s
Ġbo sqi
ar g
Ġin f
Ġso liq
2 2
ĠYevro pa
Ġhiso bi
do ra
Ġboshqar masi
Ġsha k
mi s
do sh
si q
rta sida
Ġx ari
Ġim zo
Ġma sh
za di
Ġmilli ard
1 2
Ġnazo rat
Ġelekt r
Ġho la
bo d
Ġbah o
Ġk unda
Ġqat or
Ġra i
Ġsh aro
q il
Ġo sti
Ġin ter
ĠSh avkat
ĠA f
Ġmeh nat
Ġmuho kama
li s
t ga
Ġtu radi
ta m
Ġin ve
Ġumu miy
ĠM ah
Ġchiqi b
Ġj ara
Ġre spublika
Ġtek shi
si n
Ġtexno logiya
Ġqi y
entab r
cha lik
E slatib
m il
Ġs an
Ġna sh
Ġjara yo
ga ra
i fa
lo h
Ġlo zim
m ni
ĠU ning
Ġguru h
Ġ201 9
ĠL e
Ġbe mor
Ġo ch
ĠA mmo
Ġmay don
Ġti zim
. .
i ga
ĠY o
Ġi chki
Ġoqi batida
ĠS o
kazi y
x at
mi ga
Ġy ur
Ġsabab li
ti ladi
r d
u niy
lma s
Ġalo hida
z lar
Ġmahal liy
Ġe l
Ġu larni
z lariga
ĠT ra
Ġfo izi
Ġvo q
Ġoldi n
ĠB a
Ġi shi
Ġnar sa
m g
Ġi dora
Ġish ga
tka z
Ġye tak
d ro
Ġtar ki
g un
Ġvaq tda
Ġu sti
Ġj umladan
il di
Ġch o
Ġtash qi
ĠSa marqand
s ul
Ġta yin
Ġsu rat
m lik
la yotgani
liq ni
di sa
ti ka
lo g
Ġish on
Ġagent ligi
si l
Ġbu tun
Ġra qa
Ġsa vo
Ġjamo at
chi lari
ab a
Ġmahal la
j al
gi na
Ġvoq ea
p lab
pre l
Ġha l
Ġdi re
Ġfoiz ga
Ġbosh lab
Ġva fot
na sh
n et
Ġvide o
Ġqu yidagi
Ġa mmo
Ġay b
ka br
ara f
m ga
Ġqili nadi
Ġhuku mat
Ġso tib
al b
lar dagi
Ġha fta
un ki
Ġ201 8
ĠKor eya
Ġat ro
Av valroq
no at
Ġyi li
s ki
ĠII B
d r
zi da
ri dan
âĢ ĵ
zi ning
ti v
Ġ r
ta yotgan
lishi ga
z aro
b us
Ġke ng
ma d
Ġvakil lari
si b
rsa tish
v on
kt or
Ġeti ladi
rish ga
mi tasi
Ġtumani da
ur nali
Ġf il
Ġfaoliyati ni
ĠA y
H o
gu ngi
ĠJ a
ĠA l
ka n
ay d
Ġtib biy
Ġche gara
mo dda
rsat ki
Ġo liy
la na
Ġmaqsa d
c e
Ġza mon
Ġsh o
Ġin stit
r ga
Ġama l
ri ta
ĠB osh
ndi jon
Ġyak un
Ġhuku mati
T o
Ġ2 4
Ġbil di
Ġpro ku
ĠB iz
Ġqish loq
Ġnar xi
e ro
Ġo ladi
Ġyil dan
Ġay tgan
Ġchi qar
a ti
Ġhay dov
Ġha j
Ġt or
Ġi bo
Ġya n
Ġo mma
ĠB e
k tori
Ġqo ida
Ġek sp
Ġq ur
chi k
bo t
Ġkun du
Ġj alb
u li
Ġil miy
Ġnatija sida
Ġke tgan
t s
Ġj aro
Ġjo yi
y xat
Ġrai si
yo ti
d qiq
le gram
ma di
Ġiqtiso diy
i ni
sh anba
q uvchi
s k
ĠM e
Ġx at
ti k
de r
Ġya sha
ĠA n
lab a
rita niya
Ġo rasida
r g
Ġp i
Ġu z
Ġ du
rat ura
Ġhuj um
x oro
r di
Ġ li
N a
Ġnar x
Ġt ergov
ro z
t li
ktab r
R e
Ġtu rib
f fa
Ġpay do
yil ning
gar lik
ĠTra mp
f at
di ya
li l
Ġ1 00
Ġbal ki
Ġmu va
ĠU shbu
zi b
Ġu chi
Ġka nali
ĠTur kiya
Ġbo zor
Ġta j
ĠU lar
Ġ2 3
Ġyetkazi b
Ġfik r
Ġj ar
lan gani
Ġquri lish
Ġnav bat
1 0
r t
Ġqaro ri
Ġtadbir kor
li ng
Ġu zoq
ta dbir
Ġyi rik
ta l
Ġso biq
Ġchiq qan
Ġish la
yil gan
Ġsha x
ĠM i
Ġdast ur
ja ligi
o d
Ġha lok
Ġfa ol
dqiq ot
b on
Ġq uv
Ġhudu di
sti tsiya
Ġxorij iy
Ġ201 7
Ġmuva ffa
Ġtib biyot
oni ston
sh ma
t ti
Ġzar ar
Ġku cha
Ġ20 21
Ġqil moqda
p p
Ġ2 2
Ġbo zo
ko v
Ġjoy larda
tish ga
Ġti k
Ġk ir
n e
Ġko mp
Ġdast uri
Ġqis mi
Ġaso san
Ġp oli
qi qa
sha di
ta t
Ġqi la
Ġtar tibi
ni b
Ġcha qi
Ġtu ri
Ġshart noma
on al
to v
yi ngi
b ay
Ġfar zan
ĠBi roq
p u
shi da
lo gik
Ġpay tda
ĠMar kaziy
h bat
zi ya
Ġzamon aviy
Ġimkoni yat
ĠQo zog
ĠA v
Ġq an
ni ka
Ġma da
ng il
ri ba
S a
Ġta bi
B undan
Ġ5 0
Ġke ladi
Ġo pe
Ġbosh lig
Ġi sti
ĠX alq
l g
y lab
ner giya
Ġml rd
n es
yu k
Ġnamo yish
Ġno mi
Ġkundu zi
Ġb ayon
Ġx a
Ġta x
Ġay rim
Ġo ra
Ġja zo
Ġqili shi
Ġke t
n chi
qi y
man gan
Ġviloyati da
z g
Ġch et
Q o
la k
r or
ĠO siyo
Ġbi roq
h e
R ossiya
u sh
Ġru x
s sa
Ġva ki
Ġil k
Ġj urnali
Ġe nergiya
f or
ĠB undan
Ġe rish
en ti
Ġ le
x ir
in lash
Ġtalab a
Ġma ro
Ġo b
Ġtran sport
ĠD e
Ġtash rif
ĠTe legram
g ona
Ġba ja
Ġyan var
Ġ2 1
m da
a laba
Ġke lishi
Ġko mis
m li
tka zil
Ġs ah
Ġke chasi
Ġshak l
Ġiqtiso di
n da
rsatki ch
Ġibo rat
Ġj ahon
Ġqu rol
Ġsa mol
Ġche mpi
Ġki rish
m er
Ġmeh mon
Ġtaj riba
Ġuniversi te
Ġa kt
k ilo
re di
K o
Ġman ba
ta qa
Ġo ta
rta sidagi
l jal
3 0
ka ti
y ti
st er
ĠD a
Ġeti lishicha
ma k
Ġhudu dida
Ġav i
Ġna zar
zir lar
Ġkasal lik
qi sh
Ġm os
Ġqili shicha
ĠPreziden t
bi ri
Ġho disa
ir g
k e
Ġshu g
I n
yati ni
ĠHo zir
Ġorgan lari
Ġtush un
lani shicha
Ġ dan
bi ya
ev ral
ĠAb du
Ġi liq
Ġishtiro ki
anu biy
erma niya
ĠS u
ksi na
Ġyo zadi
ĠS ha
Ġu yi
qa l
Ġish lash
Ġg o
ĠF a
Ġo zod
sh qa
Ġqilish ga
M u
lin gan
Ġbola lar
Ġu st
ma l
Ġis siq
Ġu ru
Ġs tan
Ġguru hi
sti k
ĠN e
Ġproku ratura
Q ayd
gar chilik
ĠO liy
Ġta v
Ġte ng
Ġrux sat
Ġvaki li
izi ston
ma lar
ov chi
Ġtur gan
B iz
Ġbuy on
ti ra
lgani ni
Ġbo j
m dan
Ġ2 7
A QSh
qi tuvchi
Ġg ol
to b
Ġx aba
ĠN o
p og
demi ya
Ġdire ktori
na da
o ya
lab ki
ĠB ritaniya
la ja
tti fo
Ġko dek
Ġtez likda
fa a
Ġyara tish
ti lishi
I D
il liy
zga rib
Ġmu h
ĠF arg
Ġtarki bi
Ġke ldi
Ġo lma
Ġsa lo
k va
č Ċ
qi b
Ġqil uvchi
Ġaniq langan
i b
kat siya
Ġbuy ur
ĠAf g
Ġinve stitsiya
Ġmu l
Ġg e
Ġa lma
k ara
chi ligi
y tirish
lumot lar
va n
f er
Ġjar ayon
yi shi
Ġk ilo
Ġmin taqa
Ġ gi
aro rat
zi q
e ra
Ġsu hbat
Ġi zo
Ġfuqaro lar
Ġnafa ri
Ġhu z
Ġpar ti
Ġda ro
Ġu yu
Ġquri lma
Ġo na
kid la
Ġyash ovchi
S S
h on
Ġfutbol chi
Ġo voz
ĠĠĠĠ ĠĠ
Ġbe sh
a li
Ġa ka
Ġva ksina
Ġhuz uri
do faa
ĠQ ora
Ġdaraja da
in garchilik
Ġmusta h
i ch
ch on
Ġu larga
Ġmar kaz
Ġe shi
zo kara
er t
o k
Ġtush gan
Ġi x
Ġmay do
Ġ2 8
Ġt er
Ġp an
U shbu
zbekiston ning
' s
vo iy
Ġpoy tax
k ki
d j
Ġs t
Ġk ur
mo g
Ġuch ra
Ġkuch li
Ġs ta
Ġayti shicha
ĠK u
sta n
mas lik
Ġs al
Ġman fa
mu sh
Ġja ng
Ġ2 6
ĠR o
Ġke chi
ba qa
Ġyor da
Ġvosita lari
Ġyangi lik
Ġxavfsiz lik
Ġkun lari
a z
Ġye tish
os kva
Ġsi z
ĠLe kin
qal pog
Ġtav siya
ĠP u
2 4
Ġle kin
Ġay tib
Ġbe kor
Ġt on
ĠS e
Ġomma viy
lan moqda
Ġ 000
Ġochi q
mu ni
Ġke yingi
e de
ba ti
Ġberi ldi
q qi
i bor
ah o
ra ti
z lari
Ġmar t
Ġya rim
m etr
d ul
Ġet moqda
ĠM en
Ġma qo
Ġde pu
g o
Ġun da
Ġku ra
Ġg u
Ġbosqi ch
Ġsavo l
Ġtash kilo
h ur
ka k
Ġo xi
Ġboj xona
Ġjaro hat
i noyat
Ġya ku
Ġta qiq
Ġqi yin
Ġkenga shi
Ġton na
i no
Ġti n
p er
Ġega l
Ġtabi iy
Ġxari d
Ġmanfa at
Ġham ma
Ġshaxs lar
ri za
si m
ri layotgan
Ġodam lar
Ġbildir di
Ġtu ga
Â ·
ĠNa mangan
Ġyil lik
bat ta
Ġshahri dagi
Ġha yot
Ġkar an
mas dan
loq ot
Ġmustah kam
Ġ ziyo
M T
Ġtayyor lash
ji kiston
Ġku rash
Ġinstit u
moni y
s b
shi b
Ġx ara
y xa
5 0
Ġqu lay
Ġmo dda
en siya
Ġbi t
ran siya
ĠB ir
Ġ19 9
Ġe ndi
en e
Ġsi nov
Ġoldi ni
shqa daryo
Ġjamoa si
po niya
Ġesa di
Ġhokim ligi
Ġp e
Ġloyiha si
ljal langan
Ġishon ch
Ġu sh
kidla shicha
Ġmasala lari
kid lanishicha
so baqa
ĠA ndijon
Ġav gust
Ġij o
ga ri
Ġosti da
Ġe va
Ġnash ri
Ġkelish uv
ni yat
Ġ W
ĠTa sh
Ġshifo kor
Ġyu bor
Ġiy ul
ĠVa zirlar
a shqadaryo
u k
Ġu s
Ġ ara
Ġbiz nes
Ġshifo xona
Ma zkur
Ġmu zokara
Ġtele fon
Ġyo ng
Ġk redi
Ġha li
mas ligi
Ġsharo it
Ġpoli tsiya
ri fi
gani dan
Ġmamlakat da
Ġy ar
Ġmux biri
Ġdol larga
B ar
m mat
V a
ĠA gar
Ġhuzuri dagi
Ġkiri tish
Ġmiq dor
ye kt
sa b
Ġbo rish
la ka
lik lari
Ġva ko
tir di
ĠN i
Ġu m
Ġta dqiqot
uvchi lar
Ġoi d
sa ngiz
Ġbirga likda
Ġay nan
modda si
ĠS i
Ġlavo zimi
Ġatro fi
qon uniy
Ġmuvaffa qi
Ġun dan
Ġ4 0
Ġyuza ga
mi yat
Ġki chik
y na
Ġy evro
Ġo li
Ġkoronavirus ga
Ġbo y
erg e
Ġki rib
Ġ201 6
Ġsamara li
j u
ĠA merika
Ġbo rasida
ĠBu xoro
Ġxusu siy
Ġa riza
yo h
zbekiston ga
Ġa f
zi sh
Ġo v
lumot lariga
za x
Ġsah ifa
Ġqi mmat
Ġtar zda
yo q
Ġne ft
Ġdo ri
ĠG ermaniya
ch e
r uv
ĠQ irg
b an
ĠE ron
lan d
Ġbosh ladi
lari dagi
ĠP o
Ġtani sh
Ġmiqdo ri
Ġsar f
ĠSh i
Ġinter net
er ti
i lish
Ġke s
Ġek sport
la hat
Ġpa la
na lishi
Ġji ddiy
Ġbi roz
uri ya
Ġay ni
T e
ah ar
Ġp ort
s um
Ġma so
ka si
Ġizo h
Ġama li
Ġmu loqot
Ġsa na
Ġelekt ron
Ġo lishi
ĠPreziden ti
Ġsoha sida
Ġtin ch
ran sport
Ġyil larda
qar or
rgani sh
or ta
Ġko m
Ġmahsulot lari
ek siya
Ġchiq di
Ġa ero
Ġr us
Ho zir
Ġjurnali st
A y
Ġqiy mati
Ġ2 9
mi ta
ĠYa ngi
s el
ma lari
ĠJ o
z al
Ġsamol yot
Ġtez kor
Ġ @
Ġye tib
Ġdoi miy
ĠNa voiy
t et
ĠM illiy
iz zax
Ġtu tilgan
A V
Ġak siya
ur xon
ov qat
av q
ĠE r
ng li
i d
siz lik
Ġdaro mad
Ġklu b
Ġmuvaffaqi yat
s ga
Ġis loh
Ġbu dj
Ġpa st
vo h
Ġtizimi ni
ĠJ anubiy
bu na
S o
Ġre ji
Ġi z
ko mil
ri lib
p ul
Ġb ay
Ġmusta qil
Ġkes kin
Ġko tibi
Ġberi ladi
Ġsiyo siy
Ġer kin
q u
y gan
Ġka may
Ġmas lahat
ĠJ inoyat
Ġikki ta
ti radi
Ġde y
zga rish
ĠM o
Ġde kabr
Ġma te
shi n
Ġqilini shicha
Ġuyu sh
r en
Ġqi z
ĠM oskva
l yu
Ġo buna
Ġta komil
Ġklu bi
Ġma laka
k ar
quvvat lash
Ġmo de
Ġba g
Ġpa sa
ulo sa
lish ni
y on
Ġto var
Ġf or
Ġja ri
Ġja mg
Ġdavlat lar
Ġer kak
Ġmu rab
tib or
Ġmu sobaqa
Ġming dan
v or
Ġyosh lar
Ġxara jat
t araf
Ġharakat lari
Ġtomon lama
Ġbo rib
Ġhaydov chi
q dan
ĠK un
m lar
Ġte st
Ġqu rish
k ka
Ġs ub
Ġsh ta
B i
Ġxo di
Ġno qonuniy
ri al
Ġke layotgan
Ġke tdi
p siya
Ġimkoni yati
1 5
Ġbit ta
ĠPu tin
Ġe rta
Ġbu gungi
Ġx il
k ro
Ġtash ab
Ġa prel
t lari
Ġya gona
iy ul
Ġbe ra
Ġnafa qat
Ġno yabr
mu a
in di
Ġvaq ti
lik dan
Ġqilini shi
lash di
Ġeka nini
Ġt erma
Ġyorda mida
t ur
Ġji s
Ġmav sum
Ġdast labki
Ġan cha
Ġtadbir korlik
f es
Ġfoyda lanuvchi
mi d
Ġch og
bu zar
ut er
ĠL i
Ġs entabr
Ġreja lashtirilgan
Ġay tdi
Ġfarzan d
tadi gan
Ġta ya
rat siyasi
Ġah vo
un cha
Ġmu ko
ĠA J
T ur
al qi
miz da
ĠH u
Ġa ha
Ġji hat
Ġd ona
Ġsi fat
Ġma g
kid ladi
Ġban ki
a na
Ġbar taraf
Ġo ziq
ur g
ĠH arorat
Ġkura shish
Ġavi a
Ġqan cha
Ġmaso fa
Ġda qiqa
B o
Ġmoliya viy
z e
Ġti l
Ġhara kati
Ġtex nika
en ga
sh o
Ġnazar da
D avlat
ĠA r
c om
xir gi
mani ston
ĠMa j
ligi da
usu san
al li
Ġak s
rat e
Ġpar lam
si r
avq ulo
Ġchiqa rilgan
Ġkaran tin
v ir
Ġyo pi
Y o
Ġmunosa bati
Ġhola ti
w w
Ġtar mog
Ġba za
lan ma
avqulo dda
Ġsa noat
mo liy
par tam
ĠTo jikiston
Ġtur mush
sh on
Ġka mida
Ġ zo
at siya
Ġmash hur
Ġmajb ur
p ay
j oy
Ġxizmat lari
s mi
sa k
qtiso diy
Ġbildir gan
Ġo n
Ġba j
Ġbo rilmoqda
indi ston
Ġin sp
Ġolin di
Ġx ulosa
t to
Ġtaq dir
Ġvazir lik
Ġtartib da
reziden t
um li
t u
bi li
ĠX o
Ġshax siy
or ti
lumot larga
Ġtex nik
Ġtah lil
Ġish chi
s entabr
Ġb undan
ab r
Ġji ho
Ġsa far
Ġxona don
Ġberilgan di
Ġye ngil
Ġsurat ga
t si
fa za
zo lari
ek un
ttifo qi
Ġvaq tin
av gust
Ġuniversite ti
Ġyetak chi
Ġtaya nib
Ġbozo ri
ha mma
h qon
ĠS an
ĠCh unki
Ġtar biya
Ġ âĢĺ
ĠCh e
ch ta
Ġte mir
urxon daryo
ĠU nda
be kt
Ġjami yat
Ġi mp
er mer
on un
Ġha tto
Ġqis qa
Ġf an
Ġyo zi
Ġmuho faza
yotgani ni
Ġjari ma
s ur
2 5
zat siya
Ġmaj mua
Ġqara tilgan
Ġbu ni
min lash
zi mida
Ġturib di
Ġrahbar lari
Ġban d
zbekiston lik
Ġtan lov
Ġoshi riladi
Ġn uq
Ġtushi b
Ġbar qaror
Ġtari qa
Ġke ch
Ġhaj mi
Ġ6 0
ĠY e
ta liya
sa lan
Ġhujjat lar
Ġvako lat
ddi n
Ġo q
Ġv irus
u diya
Ġ3 1
U ning
x t
ĠH ar
Ġx alqi
Ġbosh lagan
ĠO AV
Ġxabar da
Ġto za
b ul
zgar tirish
.. .
sti ka
ĠSh ar
rta cha
l lari
d ri
" ,
lu b
Ġqara may
Ġtele ka
Ġo bekt
Ġber uvchi
Ġyet arli
k lar
Ġq ut
Ġs mart
k kinchi
Ġj an
mo sha
Ġtari x
Ġbah s
tir uvchi
lan magan
ĠK on
di ga
dor lik
Ġb unga
ay ev
ĠĠĠĠ ĠĠĠĠ
ĠF ransiya
Ġye chi
Ġ _
Ġbor moqda
Ġholat da
Ġkiri tilgan
Ġt ara
Ġiqtisodi yot
Ġdey arli
Ġkomis siya
Ġparti ya
ĠA h
ĠL iga
lay n
e va
lanadi gan
Ġalma sh
Ġviloyati ning
ĠAb dul
rsa tilgan
ĠB MT
l er
Ġto g
ka timiz
Ġqilish ni
Ġjis moniy
ĠQora qalpog
Ġ5 00
ga ch
H u
Ġtakomil lashtirish
Ġmav zu
Ġiy un
O V
ĠV ladi
Ġdav r
Ġqilgan di
ĠS uriya
Ġu lu
Ġf on
le ga
Ġhisob ga
shi dan
Ġbora da
ĠL o
so s
K e
ri sa
Ġyo mon
Ġope ratsiya
Ġza vo
K or
Ġgu voh
r to
Ġjamoat chilik
ĠJ izzax
ĠYa poniya
Ġki yi
Ġolish ga
or lar
uq ur
Ġkodek sining
lana yotgan
ĠU larning
Ġki tob
la shish
ti l
Ġqo p
Ġnom zod
rna tilgan
Ġbe rib
Ġtekshi ruv
Ġji no
Ġisloh ot
2 3
Ġqo ra
k eta
ĠHa vo
ĠSha mol
Ġtan qi
te x
o lib
tkazil di
Ġkilo metr
Ġxodi mi
Ġ ilo
miz ni
laja k
Ġqa chon
vi ch
Ġeti lishi
f e
di gan
Ġeva ziga
s siya
Ġn or
x abar
ĠSh undan
Ġ201 5
en ko
Ġlavo zim
xi ra
Ġtashkilo ti
Ġst rate
miz ga
Ch J
Ġtashkilot lar
P rezident
Ġki no
Ġtumani dagi
sta gram
Ġham kor
Ġyil ga
niq sa
Ġsharo i
Ġdi p
yan var
bo ok
onal d
Ġeh tiyo
di ni
b al
Ġch or
lar us
Ġch unki
ora zm
B a
ta tsiya
Ġde partam
ud di
q li
re ss
Ġtari xi
Ġfik ri
ski y
Ġf ermer
Ġpro fes
ĠM ChJ
Ġsov uq
Ġov qat
D a
ir daryo
Ġqat nash
ti ng
Ġqay si
Ġo ktabr
bo yev
Ġo lim
Ġsha mol
Ġti li
landi ya
Ġekan ligini
t ransport
Ġyi gi
M ar
Ġyuri dik
Ġu cha
Ġboshqar uvi
ce book
ti lmoqda
Ġ zi
Ġto ifa
Ġb ara
Ġto mosha
ch oq
o ktabr
Ġ20 22
Ġeka ni
Ġdepu tat
ma siga
q qat
Ġch uqur
ĠP a
mi nan
Ġqo lish
Ġy on
laydi gan
lega tsiya
Ġmuammo lar
Ġmate rial
d lar
ĠIs lom
Ġre yti
ru psiya
ĠMa zkur
Ġuchi nchi
ar di
ĠQ u
20 20
Ġsh eri
muni katsiya
ĠVladi mir
le k
hamma d
M an
ara kat
ku na
Ġishtiroki da
r um
Ġaniq lash
Ġsaq lab
Ġhozir gi
m ent
zbekiston dagi
Ġka sb
y s
Ġs ur
Ġhozir da
lashi b
l li
Ya ngi
T A
st ra
Ġmul k
Ġmu alli
Ġor gani
l lar
b er
iy un
Ġe m
ĠL a
ĠMah kama
Ġ( âĢľ
son li
Ġza xira
ĠSh o
oro zi
sh yo
p chilik
u ni
ĠG a
Ġkuti lmoqda
Ġbosqi chi
Ġbo radi
stit ut
Ġmo ddiy
v yu
bi t
Ġhu k
Ġko l
Ġkredi t
Ġmudda t
sel ona
Ġboshqa rish
Ġmaro si
ri lgani
i shi
ngiz ni
Ġmu z
q ul
Ġmajb uriy
lo s
M e
ĠBu yuk
Ġsi n
Ġqar z
xona si
Ġog oh
Ġj abr
. _
ilo v
Ġde hqon
Ġmu dofaa
Ġtar k
Ġ7 0
Ġsiyo sa
lash ni
Ġholat lari
ĠXalq aro
Ġzar ba
Ġsan ksiya
Ġqa vat
Ġberi shi
Ġxo s
zi n
Ġk m
Ġimkoni ni
Ġbor gan
Ġtran s
ka b
tish ni
ĠBu ning
ar b
Ġfo to
Ġinstitu ti
tir moqda
Ġchek lov
Ġdav rida
Ġjarayo ni
Ġeti shi
t ma
ch rashuv
Ġka dr
Ġsu di
Ġya shi
ul du
Ġnavbat dagi
no yabr
i g
k et
sp aniya
u lot
Ġbu zi
d liya
Ġn orozi
Ġbosh langan
9 9
Ġu lardan
r niga
ĠRossiya ning
Ġtur dagi
Ġtash rifi
Ġeh ti
ĠS urxondaryo
a prel
Ġkuti lmaydi
Â» .
ĠA ra
ko mpaniya
Ġa u
Ġkenga ytirish
st ru
Ġsiyo sat
Ġf evral
Ġo ddiy
Ġde legatsiya
Ġmash g
Ġhudu diy
Ġberi shicha
Ġusti dan
st oni
Ġku zat
lumot larni
M en
Ġim kon
zil ma
ĠQ ashqadaryo
rin da
ĠL u
Ġa ta
Ġno ma
OV ID
Ġbo is
Re al
to riya
Ġ3 5
Ġboshqar uv
Ġim tiyo
qo bat
Ġra keta
Ġmahsulot lar
mon ov
ĠS og
mla kat
Ġjarayo nida
de kabr
Ġbu ning
Ġhi s
Ġva lyu
ĠY u
Ġxaba riga
Ġqis qar
Ġfoyda lani
Ġa gar
rin ni
1 8
Ġakt yor
p ov
Ġya qi
yap miz
1 7
ĠB ar
lar aro
mati k
yxat dan
Ġjavob gar
Ġetish ga
Ġjino iy
ĠB unday
K a
za m
Ġavto bus
ro il
Ġra d
e z
ĠH indiston
lay ev
Ġaniq landi
Ġan ju
li ning
da l
al la
Ġyasha sh
Ġsoha sidagi
Ġxavfsiz ligi
tkazi b
i lishi
Ġaha miyat
ĠH am
Ġavto ma
Ġna mu
zi z
Ġish larini
sa m
ĠK ari
Ġda m
Ġyet ka
Ġfi li
ka masi
Ġ8 0
Ġkon s
Ġhamkorlik ni
Ġo da
tija da
Ġel chi
Ġnuq ta
tadbir lar
g or
Ġxo h
Ġ9 0
ĠKe yin
X alq
te l
Ġe n
f f
Ġdar s
' d
H a
Ġqi layotgan
gan di
Ġijo biy
ĠJ ahon
Ġavval roq
Ġb aro
Ġstan dar
on lar
Ġix ti
Ġmah rum
Ġtarmoq larda
ĠRespublika sining
Bar selona
ĠR ah
si sh
Ġchiqar uvchi
Ġama liy
Ġo la
I A
Ġri oya
gan da
ĠD onald
Ġbosh la
Ġtax minan
Ġmarkazi y
sur s
l lani
Ġp un
i ro
Ġoy lik
Ġs eri
Ġke tishi
t ni
Ġmuassasa lari
Ġmamla katimiz
Ġso lish
Ġon layn
Ġvalyu ta
lik ning
Ġga pi
Ġe ri
20 19
Ġbu gun
Ġpa xta
Ġtop ish
Ġquri lishi
Ġinter vyu
chi q
rish ni
kt ar
L i
ĠB er
Ġo xirgi
Ġtas vir
Ġke cha
ĠA s
Ġil gari
iz a
ĠS irdaryo
A l
Ġjiho z
Ġshar qdan
gi da
Ġa ng
mi no
Ġal batta
lash uv
ĠX orazm
ĠD i
on anda
ĠMu hammad
Ġcha lingan
B ir
jo rat
Ġfil m
shi q
A T
Ġqon uniy
Ġra qobat
ĠC OVID
Ġatrofi da
Ġdaraja si
ri ladigan
ĠP e
q nash
Ġmaqo la
Ġayol lar
Ġsh uncha
Ġteleka nali
Ġha yo
1 1
Ġni zo
Ġatro f
ĠZ a
lar di
Ġish lagan
Ġxizmat lar
maydi gan
Ġmo bil
Ġf un
Ġmiqdo rida
Ġhuquqi y
ja lik
Ġyet di
miz ning
z A
ĠToshkent da
G az
erge tika
ĠE ndi
da v
ĠTash qi
shi ng
Ġhamkorlik da
g oh
ĠQ onun
Ġchora lar
Ġyo mg
ah ra
Ġge ktar
Ġqo ladi
demi yasi
Ġparlam ent
Ġucha st
Ġmux lis
i qtisodiy
Ġta mo
rga z
ha ti
ĠII V
Ġmo bay
Ġol tin
tkazi ladi
Ġavtoma shina
ĠI chki
Ġqil gani
Ġqat na
Ġsmart fon
di o
lu bi
Ġdip lo
ka sh
na ti
Ġro zi
I V
lmas ligi
um on
Ġziyo d
4 0
ĠMa salan
Ġre surs
Ġoldi da
Ġholat lar
Ġisti q
rini sh
Ġpan demiya
t moqda
t ra
j jat
ĠK im
lu g
Ġmasala lar
201 8
Ġar zon
l yat
Ġxat o
Ġturi zm
Ġpay t
Ġmobay nida
et ro
Ġbo xabar
t qi
Ġme xa
Ġtayyor garlik
qi smi
Ġmiqdor da
Ġij ara
S port
Ġoch ko
s ka
Ġmaydo ni
Ġista sangiz
P a
Ġke lmoqda
B e
p ol
Ġyil lar
i yo
Ġbi ti
Ġsu rish
Ġbi lim
Ġta na
Ġmu ta
Ġhi ssa
Ġoshi rilgan
Ġli ts
A R
le ks
chi b
Ġtaq di
ĠAra bi
Ġchempi ona
Ġjami yati
rat u
che ster
Ġmamlakat ning
Ġsu g
ĠK enga
Ġtop ilgan
ĠC hi
L o
ĠN ur
yin da
Ġavval gi
Ġfikri cha
Ġhozir cha
Ġqar ab
Ġsalo hi
ĠF ar
m et
Ġnamu na
Ġba land
Ġmuzokara lar
Ġamali yot
vo sti
t or
ĠAQSh ning
w it
Ġo lini
Ġbiz ning
Ġehtiyo j
Ġa da
Ġixti sos
X itoy
1 6
ĠU nga
Ġbaj ar
Ġha yoti
Ġol ti
Ġqa moq
lay man
Ġs ut
ligi dan
Ġmurab biy
Ġbir or
bo y
sa ddi
In ter
gi ch
ĠN or
ya di
Ġtartib ga
r ma
Ġsha kli
ĠA ng
lma di
ĠK ar
Ġmi jo
. âĢĶ
Ġviloyat larida
ti hon
Ġkiri ti
Ġak sari
Ġus kuna
Ġrahbari yati
ĠB ay
Ġyangilik laridan
Ġx ay
na yotgan
K un
Ġxusu san
ĠMahkama sining
Ġha q
ngiz ga
yi da
bi ni
Ġqilingan di
ĠShi moliy
Ġ3 00
riy b
Ġchiqi shi
ĠU ni
fi lak
Ġ19 8
Ġhisobi ga
Ġkol le
x sha
Ġraqa m
Ġaholi ning
ĠT he
ĠBe larus
Ġtara qqi
to sh
ĠD o
Ġho sil
Ġsay yoh
ta zam
Ġv e
ĠArabi stoni
20 21
Ġrivoj lanish
sh anda
vat sion
Ġtasdiq langan
Ya nada
Ġso tish
lanishi ga
h arakat
k er
k ta
Ġu l
lma sa
tadbir lari
Ġhisobi dan
Ġj on
Ay ni
f evral
Ġmajb uri
Ġqavat li
mu ro
Ġakt risa
Ġhola tiga
ĠI taliya
Ġqa riyb
lish er
tir uv
Ġin no
Ġmutaxassis lar
Ġumu man
Ġke tish
B osh
sa noat
Ġre kor
Ġ +
Ġbar po
Ġxaba rida
Ġbudj et
Ġv er
Ġsheri k
mi sh
jon ov
Ġsal biy
Ġaholi si
zo si
ĠAy ni
ko m
ekun d
dav lat
lo l
Ġuru sh
Ġya dro
Ġyu t
Ġva z
o z
Ġyil gi
Ġho l
ra fi
us ta
la ti
ga z
1 3
Ġmada niyat
ek siyasi
wit ter
Ġkam era
Ġusti da
Bu gun
Ġqi ladigan
Ġkor rupsiya
lash adi
Ġoshi rilishi
Ġtopshi riq
Ġshahri ning
s ekund
Ġne chta
Ġdoi m
Ġka fo
ra y
bat ga
Ġtur ar
w s
Ġinf ratu
Ġso t
Ġmada niy
Ġkel gu
li dan
Ġmun tazam
Ġu sta
ĠShu ning
r ni
Ġi no
ti riladi
Ġekan ligi
2 00
. "
6 0
chi larning
Ġter ror
Ġo lmaydi
Ġchiq ilgan
o va
Ġinf eksiya
Ġu sul
R o
Ġa merika
Ġkel tirib
ĠX ususan
li si
Ġ3 3
Ġf avqulodda
D e
mon lar
Ġro ssiya
Ġmehmon xona
Ġay tish
la v
Ġbuy um
ish langan
z larini
Ġoli nadi
Ġto sh
j timoiy
Ġsov g
rsa tgan
y er
ĠSa udiya
Ġhuquq lari
1 4
t en
Ġmuvaffaqiyat li
man d
Ġelekt ro
Ġum um
Ġe s
Ġkun lik
u mi
Ġdol larni
Ġino batga
o logiya
bi n
ĠK i
Ġbarcha si
Ġgap ir
layotgani ni
ur mat
A gar
Ġtah di
Ta dbir
ot or
ĠE l
Ġo son
un ar
Ġg umon
k maniston
Ġkuch lari
Ġhaqi qiy
Ġqaro riga
Ġpala tasi
Ġbi rida
Ġsifat li
l ni
Ġuchast ka
Ġbo shida
uq uqi
sion al
Ġmumkin ligini
Ġe ko
Ġmustahkam lash
at r
o logik
p s
Ġku chi
uv or
Ġuniversi tet
2 7
v ka
Ġav va
Ġs um
Ġmas ji
âĢ ¢
Ġimp ort
Ġma na
a da
Ġay landi
Ġpar voz
Ġsamara dor
mo kra
Ġu rib
Ġim tihon
ro ri
Ġoshirish ga
ub ha
zbe ki
ni m
Ġmi g
Ġvazirligi ning
Ġchiqa rib
Ġmuko fot
Ġsh undan
va riya
Ġust uvor
ĠBi rinchi
fi ga
T u
Ġmav su
d dan
ĠF ede
lo bal
Ġq or
Ġyara tilgan
Ġt araf
Ġ201 4
Ġbu lu
m uriy
Ġmamlakat lar
J a
Man chester
Ġm ol
Ġay lan
Ġmexa ni
uquqi y
stitut siya
Ġbaro bar
Ġmasala si
Ġoqi bat
Ġmudda ti
Ġme va
Ġhudud larda
Ġp re
d lik
Ġboshqar ma
Ġtashkilot lari
TA SS
ro s
Ġs er
i ning
Ġnav batida
ĠMaj lis
Ġmuta saddi
Ġreja lash
ĠHozir da
e sti
Ġuy g
q qa
m en
Ġkasal xona
liy ev
Ġamal dagi
Ġuch ta
do ri
Ġbosh landi
Ġhudud larida
Ġar mi
Ġbora yotgan
Ġx uddi
lo kat
Ġdol lari
Ġmarkazi da
A ndijon
Ġberish ni
Ġo k
Ġu mid
i dan
ya ga
b erg
Ġay niqsa
Ġreja lashti
ng da
Ġichi ga
ti dagi
201 7
Ġxav fi
gani da
dir uv
Ġdoi ra
A r
M i
Ġfuqaro lari
Ġsab a
z lik
Ġinstit ut
lani shini
o yib
Ġbayon ot
cha sida
ĠS ar
s us
Ġjoyi da
ni ta
Ġtax min
da qiqa
g e
Ġay tilgan
ĠJ on
Ġman sab
Ġni shon
Ġyo tqi
Ġfuqaro larning
2 8
lgan di
no masi
Ġs un
ta f
kid lab
Ġkomis siyasi
Ġma kta
Ġga cha
ĠQ ar
qo mat
Ġkam chilik
ĠIs roil
p ro
A n
Ġtushi shi
Ġhokimi yat
Ġbelgi lab
zo da
sh t
pp le
; _
Ġfoydalanish ga
Ġdunyo ning
S u
ĠY er
Ġdi z
ĠB unda
Ġvaziyat ni
Ġqa m
Bu xoro
s or
Ġpro filak
yxat ga
ri ng
Ġf ede
Ġshi ko
Ġqila miz
Ġchiqa di
do lat
ra zi
ĠKari mov
or k
ti rildi
lsa k
Ġnatija lari
Ġqis m
lyat siya
Q S
tkaz gan
li mpi
ĠP ro
Q ora
ra gan
Ġqur bon
Ġnash r
Ġo lmagan
ĠFa cebook
Ġ4 6
Ġaloqa lar
ha vo
unyo d
yil di
Ġ4 5
Ġsta ti
Ġmu o
Ġsalo mat
ĠI spaniya
Ġtayin landi
Ġhi b
nita riya
Ġmen ga
Ġyozi shicha
erti fi
Ġe ski
Ġyil gacha
Ġish larni
ĠChe mpi
qi shga
l lash
Ġeh timo
tirish ga
Ġilo va
Ġisti qomat
vo sita
Ġy uldu
Ġpi yo
Ġmudda tli
rto g
bit uriy
re y
X abar
Ġmudda tga
o ta
Ġdavo lash
Ġquv vat
Ġbiz ga
bituriy ent
ĠNa tijada
Ġkun larda
shing ton
Ġre k
Ġstan siya
ni sh
Ġichi mlik
Ġqay er
u so
va y
Ġistiq bol
Ġsay tida
Ġjihat dan
Ġav lo
Ġtashab bus
mi t
la s
rsa tib
ilish da
ĠS iz
Ġtop gan
ara di
Ġbe pul
Ġkafo lat
F a
ĠG o
g on
Ġbosh chiligi
Ġb ur
Ġviloyat lari
Ġp orta
Ġ3 4
ĠO q
Ġdepartam enti
D R
Ġkar ta
Ġvazifa sini
taf sil
Ġvaqtin cha
uri yati
lov chilar
tin chi
Ġxavf li
Ġtayin langan
Ġ3 2
Ġavto mo
ar masi
Ġka ma
t r
ma yapti
Ġxabar lar
en ziya
Ġu lg
la moqda
Ġyet kaz
cha n
vo za
Ġrus umli
Ġta k
g no
Ġyer ga
To lib
Ġbulu tli
Ġpoy ez
E S
Ġyash ay
Ġ lab
Hozir da
tkaz di
ĠRossiya da
Ġhuk m
zi lar
kid lagan
Ġe pi
Ġqizi q
Ġnomi dagi
âĢĿ .âĢľ
Ġtadbir lar
t t
Ġz ona
ĠA lisher
Ġdavlat lari
l dan
ĠA ir
Ġre a
u f
so l
bi da
ma tov
Ġtu za
Ġay t
Ġbu z
Ġavia kompaniya
T M
ĠP ar
Ġka pi
F A
Ġta la
Ġdunyo da
Ġki radi
Ġqish log
i roq
Ġsh ubha
an di
Ġvo z
Ġqo zon
Ġqilin moqda
9 0
Ġtanqi d
s ning
Ġyetak chisi
na y
Ġjoy lashti
Ġmumkin ligi
vi ga
zar b
ti layotgan
gi ron
Ġberish ga
Ġjo iz
Ġrossiya lik
ĠI sh
Gaz eta
ĠRossiya ga
Ġtinch lik
ilo yat
Ġkiri tgan
Ġs ertifi
rak kab
ta sh
Ġtu zi
zbeki stan
Ġdol lardan
Ġh aro
8 0
Ġora da
n dan
ri gacha
zi dan
Ġtar g
u y
Ġenergiya si
yo sh
Ġ3 7
Ġdu ch
Ġti jorat
ch ka
ĠJa mo
ĠQ ur
Ġo mil
ĠZ o
Ġk lini
j ayev
o da
Ġs ara
Ġmahsulot larini
Ġmu si
rgani b
I s
ri ka
Ġchempi on
ĠM at
Ġyubor gan
iy ev
Ġaero p
Ġni qo
Ġpoytax t
Ġye tgan
ra yotgan
Ġqat ori
Ġajra tilgan
Ġish dan
Ġbelgi landi
Ġsa no
sa y
2 6
ĠU s
U chrashuv
Ġogoh lan
Ġehti yot
ye va
ni dan
ĠU lug
y ur
Ġi ttifoqi
rsa tadi
Ġ3 6
hon e
Ġsh unda
Ġfoyda li
J oriy
Ġyubo rilgan
ĠM oliya
ĠSh ah
Ġkel tirilgan
uq ori
ti ladigan
ur ta
bi ga
Ġqa dam
Ġmoliya lashtirish
b urg
j aro
Ġtexnologiya lari
Ġkishi ga
Ġosh gan
Ġk g
Ġbosh lanadi
lek san
Ġyur gan
Ġoxi rida
Ġberi lishi
Ġqonun chilik
la ver
Ġra g
Ġyo lg
Ġqat tiq
Ġfuqaro lik
Ġyaxshi lash
Ġm etro
Ġfar q
Ġeri shish
Ġdollar lik
li dagi
le y
Ġhudud da
Ġa na
Ġtaraqqi yot
ti rishi
Ġta b
Ġke lajak
Ġmuvaffa q
Ġcho p
Ġnom li
Ġhay von
Ġaj oyib
Ġjavob garlik
k ul
Ġloyiha lar
Ġprokuratura si
Ġtu zilgan
Ġpala ta
Sa marqand
Ġlavozimi ga
me dov
Tolib on
Ġx onanda
Ġanju mani
e ni
Ġdol zarb
v et
tkazi lishi
ku mat
ĠO ta
lma y
Ġishtirok chi
Ġmu rakkab
ĠT i
Ġbay ram
ti lgani
Ġo fi
U kraina
Ġbayon o
Ġa d
cha k
qin di
ĠMu dofaa
ĠBay den
ngli z
Ġna q
yil dan
Ġp la
ish loq
Ġyigi t
ĠNo vosti
Ġamerika lik
m ning
Ġtah ri
Ġkiri tdi
ĠC o
N e
p rik
Ġtarix iy
ta ba
ar biy
ora toriya
s no
ru g
Ġkasal lanish
Ġkucha yishi
on don
Ġxo tira
ĠT u
Ġdunyo dagi
chi ning
t ki
y uter
Ġti zimida
ww w
o p
ĠI kkinchi
ĠM an
ud j
il on
Ġku tib
Ġkorxona si
stru ksiya
Ġtahdi d
osh lar
ĠB an
Ġbor ligi
Ġtaqdir da
L e
Ġbe vosita
Ġmin nat
Ġkun ga
langan lar
Ġin sho
Ġyubo rish
Ġoshi b
Ġkerak ligini
ban k
Ġshakl lantirish
Ġtadbirkor lar
/ /
Re spublika
ki tob
Ġda lil
to j
Ġuz un
Ġo m
Ġyu rak
Ġb y
razi liya
Ġra is
yi ni
Ġtashab bu
: //
z li
zo v
ĠT er
P hone
rgaz ma
d ra
ha m
Ġman zil
Ġv iza
Ġkiyi m
r nini
yil gi
Ġhisobi da
ĠMah kamasi
A f
Ġqis mida
st lar
Ġr ub
3 5
Ġust un
Ġshiko yat
ro h
Ġqo lib
Ġkishi ni
Ġul kan
ir lash
Ġkir gan
limi ga
Ġxodim lar
Ġke lgani
Ġfuqaro si
Ġqis mini
Ġinve st
Ġtu shadi
ĠA k
Ġtu rish
Ġaholi ga
Ġu ndi
Ġkun dan
X DR
Ġhuquq buzar
Ġjaro hati
Ġyar at
Ġbaja rish
mokra tik
Ġdar voza
Ġxusu siya
Ġqilish da
va ti
Ġa bituriyent
Ġkuni ga
Ġmaro taba
Ġfoiz ni
ĠS ay
cha lari
rat or
mas ligini
ĠKenga shi
gi ni
Ġkim yo
Ġmu sul
zi tsiya
aro v
ĠF o
Ġin qi
za vo
yil larda
Ġmintaqa viy
Ġas r
Ġq ahra
Ġv i
Ġo ladigan
Ġb ren
Ġya l
Ġchek langan
Ġhujjat larni
ni dagi
Ġbosh laydi
stra liya
la miz
Ġbo rilgan
ĠP ol
ĠTur kmaniston
Ġu rin
Ġavtomobil lar
Ġq al
Sh ID
Ġtarkibi da
4 5
Ġyu m
Ġm on
Ġloyiha sini
Ġmudda tda
Ġbir lash
Ġhiso bot
Ġfaqat gina
ĠI l
l et
F Y
Ġmuh toj
ĠB unga
Ġmode l
Ġe ki
Ġrek lama
Ġo lgani
ev ra
Ġniqo b
Ġ19 7
zgarish lar
d ga
av f
Ġsurish tiruv
es si
Ġis mli
la si
Ġqo g
Ġqa rin
di l
ya b
Ġchiq qa
Ġ4 00
Ġe ta
qa si
eri ya
Ġdi qqat
vi de
Ġen ergetika
Ġlits enziya
Ġbuyur tma
Ġchi qindi
ri an
Ġish ni
lashti rib
ar ma
ĠO lma
Ġnazo rati
rna tish
Ġmuno sib
Ġke tadi
mo va
sh ar
lik dagi
bo sqi
ĠD il
Ġke lin
ĠX u
Ġqo lmoqda
Ġno to
ĠR us
ĠQonun chilik
x ti
Ġsahifa sida
ĠM ay
ĠA leksan
Ġsaba bi
Ġchiq ildi
ĠIn ter
fer ensiya
ta ri
Ġras man
Ġchora lari
Y evro
Ġde ngiz
at ar
lat for
d ning
Ġmaydon ga
Ġta si
Ġnafar ga
zi la
Ġmualli f
Ġne ga
Ġberadi gan
lay miz
Ġs ev
Ġ15 0
Ġoila viy
Ġstrate giya
Ġkucha ytirish
AT O
l cha
ma gani
R a
ĠJ umladan
p ta
Ġdi niy
Ġming ta
Ġbora sidagi
Ġeksp erti
Ġuy da
xsha sh
Ġishonch li
l dosh
us xa
Ġmi kro
m ur
re m
H T
Ġshaxs larga
Ġu za
v ey
Ġno giron
mo s
ma sa
ĠK om
Ġortiq cha
Ġse zilar
Ġxa vo
k um
Ġsi r
ĠIIB B
Ġh urmat
Ġparti yasi
Ġbo rishi
Ġqa zib
Ġ7 5
Ġ3 8
lov lar
Ġmansab dor
Ġquri lgan
E ng
ĠMe h
Ġtalaba lar
ĠV i
ĠT ergov
ĠDa st
st r
h uquqiy
Ġob yekt
Ġrekor d
Ġhib sga
Ġra qib
N o
Ġbo shidan
v in
Ġuch rash
Ġay langan
Ġij od
Tur kiya
Ġinno vatsion
ri g
Ġme ni
lgan lar
Ġgaz eta
to l
Ġfoiz dan
log er
tt ps
Ġsezilar li
D i
Q ar
Ġmajburi yat
Ġlavo zimida
y us
Ġaero port
Ġkeyin chalik
3 7
Ġsi g
ĠI ttifoqi
Ġet gani
Ġoshi rilayotgan
larimiz ni
Ġpiyo da
niq li
Ġyetkazi sh
Ġbudj e
Ġtush di
ti y
Ġvaz n
Ġsa fi
e la
Ġmamlakat lari
Ġxari dor
uri lish
ra miz
Ġfar moni
Ġn usxa
may man
da sh
Ġkom munikatsiya
Ġchiqarish ni
Ġhududi ga
Ġulg ur
Ġbo ks
Ġlab oratoriya
Ġ lib
Ġbaho lash
Ġham masi
Ġtu zil
shi d
ĠT im
Ġmu t
Ġprofilak tika
Ġkorxona lar
j ab
yi q
Ġt en
Ġyi liga
Ġdaraja dagi
Ġta shish
ngi da
j ir
r mon
de s
y ut
Ġraqa mli
Ġke ma
Ġolish ni
Ġfoyda langan
f ir
ti rilishi
ĠO zar
chi larga
Ġvaziyat lar
oli q
radi gan
p in
Ġvaziri ning
ĠA dliya
z gi
Ġjoy da
Ġosh di
te pa
Ġch ar
Ġaniq lik
ov ar
c a
Hu jjat
Ġharakat lar
q ligi
Ġqara ganda
Ġfa x
z dan
Ġsa m
Ġdepu ta
lari m
ĠA li
p ur
mo m
Ġna za
Ġre ys
u g
la gani
Ġbo ri
ĠE ng
Ġi Phone
Ġke tayotgan
Ġsa yo
Ġsut ka
ĠO limpi
M ah
q ara
s ar
Ġqo lishi
Ġming ga
ĠAQSh da
Ġfaoliyati ga
Qo zog
Ġdiz ay
ĠY un
Ġfil mi
i bo
Ġt ri
Ġhaqi qat
Ġkelishi b
na b
kor lar
ĠKe chasi
ligi ning
ning iz
Ġshu ni
ve d
te d
ĠE n
Ġega si
f iy
ti ri
un os
Q u
yo b
Ġhujjat lari
kid lash
yu ro
Ġjoyi ga
Ġp u
ĠKo mpaniya
R IA
Ġmuammo larni
Ġhiso bo
ch il
Ġyoz gan
Ġkerak li
Ġfon di
l ya
laver sa
Ġxavo tir
sa v
Ġuz ay
Ġpe da
Ġtran sp
99 8
Ġsha f
en d
ĠSh unday
ĠPreziden tining
Ġbo s
lish ga
lga ch
ĠMa k
Ġloyiha larni
yoh van
a tilgan
Ġke si
sti n
Ġkompaniya lari
Ġtexnologiya lar
S e
Ġyet magan
Ġkomp yuter
Ġtarqa lgan
Ġpun kt
ĠF or
Ġyo ri
bosqi ch
Ġish laydi
Ġkur s
Ġyaku niga
di rov
Ġbir ja
den t
Ġi ngliz
Ġ zim
qi bat
20 22
Ġtekshi rish
Ġku t
Ġshifokor lar
Ġmo ni
Ġozod likdan
o mi
ĠB el
ĠF i
Ġdav ri
Ġp latfor
Ġoy larida
ĠF er
ttifo q
ĠT IV
st ora
ĠM FY
Ġra ng
Ġtarmoq lari
Ġs ent
Ġona si
ran t
Ġbo si
na viy
l yapti
Ġxay riya
c i
st lik
Ġ6 5
ki m
Pa xta
Ġfi nal
Ġolma y
ĠI b
Ġyet ti
Ġke ta
na qa
Ġega llab
su ng
I I
Ġnafar dan
Ġvaqtin chalik
Ġasos langan
Ġyut uq
Ġkuch ga
Ġg lobal
Ġport lash
Ġkomp leks
ĠVa shington
ksi on
Ġidora lar
Ġsanksiya lar
Ġx ur
ek tori
Ġkompaniya sining
Ġxavfsiz ligini
Ġmo jaro
t uri
Ġtakli fi
Q ashqadaryo
Ġmuko fo
Ġxo tin
2 9
ĠN yu
Ġmutaxassis lari
X X
p oli
Ġva rian
Ġmi ni
Ġtaqdi mo
h rat
Ġinfratu zilma
Ġqi rg
Ġsta vka
h u
M o
Ġstandar t
Ġi shini
Ġja dal
Ġaloqa dor
A A
ĠTa dbir
e ng
Ġtayyor langan
Ġjoy lashtirish
Ġba liq
uv ga
Ġyetka zilgan
Ġshuncha ki
Ta sh
A merika
Ġshaxs larning
Ġmarosi mi
Ġfarzan di
Ġinson lar
Ġboshchiligi dagi
Ġmiq yo
erg ey
rin ga
Ġtomon dan
Ġhokimi ning
Ġin ti
ĠChempi onlar
ĠA pple
Ġrahbari ning
Ġeksperti za
Ġqo lgani
Ġislohot lar
ĠYa qin
Ġinsho ot
Ġimzo ladi
Ġxodim larining
Ġtopshi rish
Ġush lab
Ġp ensiya
Ġtalab lariga
vi ya
Ġstati stika
Ġbutun lay
y et
Ġni yati
ra tini
Ġqurol li
l ning
Ġbemor lar
Ġprofes sional
sh r
Ġn ut
ra ng
Ġte ri
Ġsh unga
Ġme tal
Ġa shyo
Ġegal lagan
ti shini
Ġ5 5
lash uvi
Ġmaktab gacha
y un
ro y
Ġyur t
nalishi da
Ġeksp ert
Ġa pre
Ġeti shicha
san d
Ġbi rik
g en
Ġyo q
fi katsiya
ĠAng liya
lma gani
Ġke ladigan
Ġshi mo
ver pul
Ġkon sul
Ġru h
sh unos
ĠMa mlakat
chi ni
el en
Ġba tafsil
ĠS er
lik larni
Ġyoz moqda
Ġayti lishicha
Ġmalaka li
Ġsin f
Ġahvo li
R ek
Ġqi diruv
Ġtik lash
Ġqa s
ĠL ondon
Ġaholi ni
Sh i
e i
Ġtashabbu si
Ġyur timiz
Ġyo zib
Ġyaqi nida
Ġo t
sp on
m ul
Ġintervyu sida
y ul
Ġor tidan
Ġnavbat da
te z
Ġdunyo ga
r tinchi
di a
Ġxabar dor
mi la
Ġyo p
Ġqan chalik
ĠSu per
Ġxizmati ning
Ġulu shi
X B
Ġbara va
qar li
ĠAbdu ra
Ġmut la
Ġpay tida
Ġara fa
Ġtarqa lishi
Ġs p
Ġro l
f an
Ġs aro
Ġjoy lashtirilgan
sh ahar
shi dagi
aro q
Bu gungi
Ġn uf
Ġvazifa si
r landiya
Ġpoytax ti
Ġkadr lar
q ot
ĠK XDR
h um
Ġstrate gik
sus ki
Ġbi riga
Ġkuza tilgan
Ġqilini b
Ġsa kki
Rek lama
ĠR onal
Ġhuquq ni
Ġuchrashuv da
Ġmarkaz lari
Ġk al
ĠO l
Ġimkoni yatini
h ol
Ġnaq d
G ol
Ġidora lari
ĠEr do
Ġfoizi ni
Ġkompaniya lar
nalish lari
Ġtaklif lar
. âĢĵ
Ġqilin gani
H ar
ĠD av
ĠIn stagram
Ġqili ng
Ġkasal liklar
om e
I M
ti bo
ĠM er
b ur
ri pov
es siya
Ġeti lmoqda
la ng
Ġo ro
Ġi si
ĠN ATO
mati v
Ġmu qa
ksi mal
Ġmakta bi
andi s
ĠAleksan dr
Ġtarki b
x e
Ġbo sib
Qora qalpog
R B
rini shda
Ġs tadi
do va
Ġsifa tini
Ġja d
Ġyak shanba
Bi rinchi
Ġan ti
Ġuyi da
D H
lumo tiga
Ġse ktor
g ent
lari cha
ĠBu gungi
Ġmaqsa di
Ġmusul mon
Ġayb dor
s da
Ġnorozi lik
uq uq
Ġte ra
so v
ĠSh er
Ġta om
Ġtartibi ni
Ġhol larda
Ġta t
uv lar
ĠS ergey
Ġso lig
Ġharo rati
Ġpo zitsiya
Ġfoyda lanib
Ġmurab bi
Ġmaj li
u p
Sh avkat
Ġdaraja sini
Ġ5 7
Ġmusi qa
sh il
par var
Ġimzo langan
Da st
Ġmamlakat ga
Ġtar qat
T H
t gani
gi st
uk us
Ġqayta rib
Ġavlo d
ma zon
Ġta f
Ġqilish di
Ġa dolat
Ġtat biq
ĠS in
Ġholat ga
Ġpro gno
Ġshakl lan
Ġhisob langan
so zlik
se p
Li verpul
Ġso ch
Ġ4 8
Ġetish ni
Ġsharoi tida
rsa tdi
ĠR i
Ġjan gari
Ġqizi qish
t sa
par at
r uvchi
Ġoldin dan
Ġtasdiq landi
ti lib
Ġsh anba
Bi roq
Ġby udj
Ġdeputat lari
Ġo tasi
Ġre stora
ĠJ u
tex nika
kom munikatsiya
r moqda
ĠQar shi
Ġmurabbi yi
bo sh
Ġta niqli
Ġb lok
Ġprezidenti ning
Ġbino an
Ġtab rik
Ġoshi radi
Ġqiy mat
Ġgi yohvan
Ġme ning
Ġqiyin chilik
to m
Ġbor ligini
I kkinchi
s ev
Ġsoha da
ma to
ma da
Ġp uli
Ġmuassasa larida
chi ga
Ġtu b
Ġarafa sida
Ġmashina si
Ġkur si
be kov
tka zadi
Ġb yuro
Y ork
at siyasi
âĢĿ )
diy ev
ĠU ch
rilishi ni
ĠSa m
Ġraqa mi
Ġhududi dan
chi rish
sa d
Ġham ka
ĠO r
Ġsertifi kat
Ġtu z
b aho
kt ura
Ġbor di
Ġsud ga
Ġi qti
qi zlar
Ġcho rak
o bod
lubi yat
ma la
daqiqa da
mani tar
T osh
ya m
ĠT witter
Ġkamay tirish
Ġh arorat
ĠG u
Ġkiri tildi
yo v
Ġyo qil
Ġboshqa lar
yxa ti
Ġqarin dosh
Ġtak ror
ĠM in
I jtimoiy
lash da
Ġeti lgani
Ġfi rib
Ġahamiyat ga
Ġqa dr
ti lmagan
iston da
yap man
Ġbara var
Ġor zu
Ġshah riga
Ġnarsa ni
D o
Ġbozo rida
ne ft
Ġsayo hat
Ġva tan
Ġkuza tib
Ġbi lish
Ġmoni tori
Ġra fi
âĢĿ :
Ġra z
Sh undan
e lekt
Ġshifoxona ga
Ġi q
Ġviloyati dagi
Ġsaq lanib
Ġkenga sh
Ġvo yaga
der ni
Ġdire ktor
ĠXitoy ning
sh an
Ġtizimi ga
lu ta
Ġshunda ki
no q
re s
Ġhokimi yati
ĠG ul
S ud
ĠH i
Ġk la
Ġyak ka
Ġmaydo nida
Ġoy da
sh aro
ydi r
ĠM usta
Ġel chisi
Ġqam rab
ishi y
Ġxur sand
Ġto v
ĠYa na
Ġrivojlantirish ga
Ġmahsu lo
Y uv
Ġas lida
demi k
ĠA xborot
kid landi
elen skiy
X ususan
Ġdara xt
og le
Ġj oni
Ġhavo la
Ġmunosabat lari
201 6
ati lib
Paxta kor
uli yat
Ġqila man
ĠPo kiston
Ġ4 4
Ġal la
Ġajra tish
yi li
el si
u ga
ĠX a
langani dan
ch mas
Ġ3 9
Ġtor tib
Ġar xi
Ġolim lar
ldi rish
Ġyil dagi
Ġq ud
f il
Ġtash xi
ĠU zbekistan
Ġ7 7
bo s
so tsi
Ġama lda
Ġmamlakat dagi
x sh
Ġyoqil g
ma ga
bo gi
Ġqar at
lgan da
Ġusti ga
yo g
Mar kaziy
nalish da
ĠTramp ning
Ġoshi rilmoqda
spon dent
Ġxat ti
qa chon
Ġoshi rgan
Ġoli mpi
ĠI ShID
ur nal
tga ch
ĠRespublika sida
E ndi
Ġshu ning
Ġ6 4
Ġtash lab
m un
Ġyuri tish
Ġil g
uter s
Ġqo bili
Ġde yish
q ol
Ġb loger
qi tish
Ġis bot
st o
r uq
ch o
ent us
QS H
li nadi
vi s
ra gi
Ġayb lov
Ġloyiha lari
Ġ201 3
Ġkorxona lari
Ġaerop or
Ġviloyat lar
Ġx oli
u ro
Ġmavsum da
k sa
ĠRonal du
ĠQ a
la man
Ġpla stik
Ġnafa qa
ene ral
Ġyashi rin
Ġega lari
ma shyo
lanish ga
Ġdo za
quvchi lar
Ġerta lab
Ġyotqi zilgan
ĠM otor
nay ted
v ur
Ġyaku niy
Ġg ul
Ġtariqa sida
Ġek st
Ġy uv
dro met
ĠSe nat
et ti
er tlar
ana viy
Ġho v
Ġsifa ti
ino ti
U nga
Ġay lanib
kon struksiya
Ġi ttifoq
Ġtan ta
h unar
Ġ liga
ra si
lik larning
be l
Ġ4 7
Ġe tayotgan
ey s
va li
Ġsar moya
Ġak tiv
Ġvo si
larimiz ning
ĠAbdul la
ra von
Ġdavr da
ĠSi ti
en ta
rsat ma
tkazil moqda
Ġjavobgar likka
Ġhuquqi ni
Ġti lida
Ġo yoq
Ġmahsulot larni
Ġek ran
k l
Ġvosi tasi
Ġfun ksiya
bo don
Ġ4 3
Ġix tiyo
X o
Ġinf eksiyasi
Ġjan jal
Ġtopshi rildi
Ġmexani zm
gi r
Yuv entus
Ġalla qachon
Ġma osh
ĠMa na
va tsiya
Ġtur ni
Ġqay tib
Ġoy na
ka li
bo b
F i
Ġming lab
Ġqili nayotgan
A mmo
Ġbosh lanishi
Ġjoy larga
Ġkilo gram
ĠYun uso
Ġju ma
u ch
lo niya
A S
Ġishtirok chilari
lli on
s un
yin lari
Ġsamarador ligini
Ġin te
Ġfutbol chilar
zi yat
lik larini
Ġu zat
h ttps
to mobil
ĠU y
du za
Ġtop ildi
en s
Ġinvestitsiya lar
Ġyu rish
Ġuyi ga
ĠY H
enti na
ti gi
ĠI kki
Ġoila si
Ġsa nitariya
Ġdav la
Ġochi sh
A b
Ġno miga
bo g
Ġdar yo
Ġqonun ga
ĠBu ni
Ġnafa s
qi ma
oq ea
Ġo lmas
Ġyo shida
Ġmo derni
tkazi ladigan
ud lik
vo kat
ĠI roq
Ġavva lo
ori j
Ġvosita larini
Ġsov rin
Ch elsi
Ġuchrashuv i
Ġfuqaro larga
Ġnom zo
muro dov
x an
ĠA mir
mu man
Ġtri llion
si shi
ro g
ru ziya
Ġjazo si
Ġo kt
il y
Ġet uvchi
Ġas ar
ri gi
Ġerish gan
chi larni
Ġsavo lga
bi lar
ĠUkraina ga
cha lar
i la
ta j
Ġ8 5
Ġmil lat
Ġz ahar
r da
Ġmunosabat lar
Ġfili ali
Ġbosqich da
Ġboshla ng
shi shi
Ġnatija lariga
lashtirish ga
Ġreji ss
ĠT ay
Ġbiti m
ot e
Ġba ri
Y e
arb dan
Ġbay ra
Ġo z
Ġavto transport
Ġb en
ta ni
bat lantirish
Ġ6 00
Ġhuquq larini
Ġvazifa lar
Ġhisob da
Ġtari f
mi yati
ĠM is
ĠMirziyoyev ning
al liy
Ġqisqar tirish
O liy
lan ganini
Ġhaydov chisi
Ġmijo z
Ġf evra
xo b
ĠO TM
Ġxo los
Ġmuh andis
Ġraz ved
F arg
Ġmaj lis
et er
ĠNa zar
I sh
Ġbildi rib
Ġush langan
ĠH ay
Z a
ĠA zi
Ġpa sport
Ġt ort
ĠĠĠĠĠĠĠĠ ĠĠĠĠĠĠĠĠ
ng ra
Ġtadqiqot lar
Ġde gani
Ġe kin
ona lar
Ġo vo
Ġiqtisodi yo
ĠO y
Ġsam mi
ĠM DH
Ġish lashi
Ġegal ladi
Ġchaqi rdi
Ġjang ovar
avf sizlik
Ġista lgan
Ġsoni ni
Ġtarkibi ga
to q
zavo t
Ġf esti
Ġqoida larini
e ral
ĠT an
Ġhafta da
Ġyechi m
J ahon
? âĢĶ
ki ni
Ġso xta
Ġsuv i
n ar
ĠAl batta
or da
ilishi da
Ġsafi da
Y u
U Z
lo lat
Ġbo rilayotgan
Ġp ora
Ġk va
Va zir
ts es
Ġu larda
Ġbiz ni
ti on
Ġre konstruksiya
Ġhi ko
Ġqilinadi gan
ĠAv straliya
Ġdiplo matik
ma ng
Ġber gani
vet siya
ona si
Ġsharoit lar
B C
Ġk ay
m b
Ġtasdiq lash
Ġ19 6
Ġkuzat uv
ri ning
Ġu zi
do shi
mu hi
Ġqoida lariga
Ġmada ni
Ġziyo rat
Ġsi zga
kur or
Ġovqat lanish
ĠS p
cha ga
Ġprofes sor
tki r
Ġorgani zm
S ay
Ġcheklov lar
Ġd viga
Ġsay ti
larimiz ga
Ġa q
ĠToshkent dagi
Ġkelishuv ga
Ġsakki z
A t
Ġchora larini
chi n
Ġbelgi lash
Ġni ko
Ġ7 8
Ġeva ku
Ġzim masiga
ydi gan
ĠK atta
Ġoxi rigacha
Ġmoderni zatsiya
ĠZ elenskiy
ĠKa nada
Ġtoza lash
ĠFa qat
Ġharbiy lar
ĠBo la
j um
ĠAf rika
Ġmodda lar
Ġhududi dagi
Ġyetish tirish
Ġs ekun
Ġmahalla sida
Ġjihoz langan
tkazi shga
P S
Ġsiyosa ti
Ġyal pi
Ġosh kor
iz mat
si mlik
Ġa tigi
ba g
Ġme ros
shimcha lar
Ġqayta rish
Ġqay tar
lik larga
aro von
sav vur
m gacha
Ġixtisos lashtirilgan
ĠJamo at
Ġchi pta
D unyo
Ġv ir
uri zm
Ġemas ligi
Ġva luta
Ġmaslahat chisi
J o
Ġa p
Ġqara shli
no vi
Ġkishi ning
S ha
Ġo layotgan
yo ki
ĠM essi
c o
ka st
Ġp si
Ġtush u
rto q
a tiga
Ġbu zish
Ġu su
ran s
Ġrivo ji
Ġfar mon
ilon zor
ĠPol sha
Ġda lolat
rt ta
Ġuyush masi
Ġjarayo nini
l qin
z av
ĠMa da
Ġkel tirgan
uz li
p en
Q irg
Ġuy lar
Ġkolle j
N i
Ġ5 8
Ġqu yosh
Ġjurnalist lar
k un
Ġkishi da
roja at
Ġyo zilgan
Ġsho xob
ni ning
Ġtomon lar
ĠCh en
ĠAl loh
3 9
i ri
Ma mlakat
Bu yuk
Ġo f
ud ud
Ġdelegatsiya si
e ktor
ĠYu nayted
Ġ6 6
Ġtadbir da
Ġsekun diga
xta tib
Ġz udlik
Ġdu shanba
Ġhara ka
lam li
Ġsoha si
Ġbiri ning
Ġsu per
Ġodam larni
Ġchempi oni
ĠY TH
Ġyosh da
xi a
F o
l uvchi
Ġma ishiy
Ġeti ladigan
Ġprezident lik
Ġil m
mak lashish
Ġp ara
Ġka nal
Ġil timo
Ġe tamiz
ĠQo dirov
SS T
g ro
Ġyo nida
T B
ĠMir zo
Ġf ir
O N
stan bul
p on
ĠLo yiha
zga rishi
Ġqi yo
Ġolma di
Ġtur lari
tex nik
Lo yiha
xti yor
m s
t ning
Ġehtimo li
ti bot
ri lmagan
Ġproku rori
la mi
ĠK iyev
Ġtu zish
Ġ5 4
iz il
Ġqis miga
Ġkay fi
zgar tirib
an s
Ġdast lab
Ġni ho
K on
Ġket gani
Ġtasdiq ladi
qituvchi lar
ĠJ am
Ġti ng
ĠG ro
A h
Ġguvoh noma
d rat
nat or
i dagi
Ġha kam
Ġosti ga
ĠB r
Ġijara ga
q ligini
Ġqara masdan
ki liy
Ġsi nga
Ġya sa
Ġoldi ngi
Ġaksiya dorlik
Ġu rinish
Ġeko logik
Ġsi l
Ġodam larning
ĠLiga si
en sa
il l
Ġoshi rildi
Ġnarx lari
Ġvazirligi ga
Ġimkoniyat lar
e d
Ġoshi shi
Ġqilish gan
fo f
Ġyosh ga
Ġshi kast
da y
l lanma
Ġhisob lash
c k
Ġmuho jir
Ġavtomo bili
qtiso di
Ġb unda
ĠG ar
Ġ6 7
ĠNi ko
Ġbino si
Va zirlar
ta li
Ġbosqich ma
Ġarmi ya
qar uv
Ġt r
Ġn on
ĠYH XB
ti nga
Ġbu g
Ġdav riga
Ġtomosha bin
O goh
it se
Ġtexno logik
ĠAr maniston
Ġaksari yati
Ġqi di
Ġqo ch
la x
Ġma zm
Ġkam roq
Ġevaku atsiya
Ġju ft
Ġo bodon
Ġasos chisi
Ġoch ilgan
Ġta lon
bay ev
Ġf arovon
Ġelchi xona
Ġsh tat
Ġ5 6
lish di
ĠSh ay
Ġxo mashyo
ĠMe duza
Ġtushun tirish
Ġbildi rish
Ġqildi k
mir lash
Ġtub dan
Ġqarz dor
Ġqizi qarli
Ġpun k
Xalq aro
sh gan
Ġyaku nida
Ġs tar
Ġtez roq
Ġmajmua si
Ġor tda
Ġchiqi shga
Ġbal l
bi riga
ĠS t
Ġjoy ga
Ġasos lanib
sharo it
Ġka fe
Ġyon dash
Ġso niya
ĠRa jab
Ġas sotsi
3 8
lash a
Ġma ksimal
ĠBosh qa
ĠD on
Ġemas ligini
ĠY usu
Ġkon ferensiya
Ġminnat dor
Ġjavob an
O l
Ġeti layotgan
Ġg oli
Ġreyti ngi
Ġchiq il
Ġreyti ng
P X
ĠB raziliya
rinbo sar
Ġta d
miz dan
Ġuchi b
Ġaka demiyasi
Ġalo mat
Ġyoz di
Ġso hi
e m
Ġmux oli
Ġkva drat
Yevro pa
neft gaz
M illiy
Ġol uvchi
Ġaksari yat
Ġmajli sida
Ġanjumani da
uri b
RB K
Ġem lash
Ġpan demiyasi
Ġ â
ro li
to ni
U N
Ġka s
ĠXitoy da
Ġno davlat
Ġolgan da
Ġlavozimi dan
Ġqil magan
ari j
Ġmillion dan
man da
Ġre al
pay tirish
Ġda f
usu siy
Ġ( Â«
demi ologik
Ġbuz gan
ĠS ud
Ġoyi ning
Ġnuf uzli
Ġ201 2
ĠX i
Ġkompaniya ning
bo p
Ġmu lo
Ġrahbar lik
ti ya
ĠAv valroq
Ġkengashi ning
Ġet tirish
Ġtizim li
Ġijo diy
Ġish bilar
G ermaniya
le s
Ġmualli fi
F ar
Ġqur uq
Ġsinga ri
i ya
qtisodi yot
ĠU z
ĠT osh
Ġoshi rib
ek si
Ġochi b
âĢ ĭ
Ġhudud lar
Ġchiqi ladi
Ġoyi dan
ru za
cha da
Ġo p
chi rib
Ġtop i
Ġsent yabr
Ġmutla qo
Na mangan
Ġrejalash tirmoqda
F utbol
at to
ĠBu gun
ul ton
Ġmaydon da
âĢĿ ),
ĠRe uters
z ara
Ġyosh dan
Ġham on
n ta
Ġyuqori dagi
Ġ8 00
Ġta yan
Ġso dda
ay yan
lin ch
j e
Ġqayer da
Ġtash vi
Ġbelgi lanadi
Ġmuassasa si
Ġkelajak da
F C
Ġsamol yoti
qu lov
l n
201 5
oli tsiya
tra kt
lashi shi
Ġinqi roz
ka l
Ġxodim lariga
ĠF avqulodda
xta tish
Ġzi d
ĠK ri
ydi n
Ġpro kuror
Ġquv ur
Ġaloqa larni
boy jon
Ġquyidagi cha
Ġkons ert
Ġu rgan
Ġ8 6
ma li
Ġke sib
ĠAn d
Ġqili shini
Ġman zi
Ġsho shi
Ġpi choq
3 1
ĠB en
Ġzavo d
ka lar
Ġdaraja ga
Ġbuyur gan
Ġqo chib
qo tish
marqan dda
Ġkishi lar
rgan ch
Ġhujum chisi
roy li
Ġqimmat baho
ĠN ar
Kor re
AQSh ning
er lar
g ratsiya
Ġmu sh
Ġzavo di
m dagi
Ġk var
la siz
Ġmuvofiq lashtirish
Ġbuzi lishi
Ġ4 2
ng ir
mu nal
ene su
lumot ga
Ġfax riy
Ġholat ni
ĠAh mad
Ġokt yabr
sh ilgan
lashti radi
lash tirgan
Ġissiq lik
ĠU lardan
lmaydi gan
Ġkasalxona ga
Ġdar hol
Ġkim ga
Ogoh lantirish
ra s
na lishini
so siy
Ġs on
Ġ4 9
Ġkerak ligi
Ġqo til
Ġsa zo
Ġ1 20
Ġtarqa ldi
Ġquyidagi lar
3 3
ĠN ukus
Ġtadbir lari
mino ti
Ġ201 1
Ġyo shi
Ġta ga
ĠG e
di n
Ġtushi rilgan
Ġhiko ya
di na
Ġjoiz ki
Ġavto mat
Av val
s mir
Ġkir di
ĠKon stitutsiya
v iz
Ġyor qin
Ġv itse
Ġyasha gan
di ri
Ġde vor
Ġke ksa
V e
Ġeti lib
Ġyuv ish
ĠBar cha
o ch
Ġma gist
Ġde mokratik
ĠP or
ko ri
Ġshaf fof
Ġshax san
hi m
ji a
lan sa
e tasi
Ġpo st
Ġkoronavirus dan
pa k
Ġekst re
ĠV al
19 9
aho ngir
roh lik
do y
ĠP i
Ġ7 6
y n
Ġhisob la
Ġvaziyat da
Ġtez ligi
ĠC ha
ĠĠ Ġ
l lagan
Ġoldi ga
ĠYunuso bod
d dam
z bon
Ġnafar ni
Ġtush uni
Ġijro si
ĠB AA
Ġuch uvchi
Ġtash kiliy
ish lab
Ġtur k
Ġsazo vor
fo da
ĠIn ve
g og
Ġ2 000
niy e
Ġyuk sak
Ġqahra mon
Ġuy ga
d li
Ġishtiroki dagi
ka da
lo si
Ġ6 8
xona da
ĠSher zod
Ġish laydigan
Ġqilin magan
Ġyubor di
Ġmi s
Ġgaz etasi
Ġtrans fer
l l
Y ig
ĠA QSH
Ġ7 4
Ġpe nal
e pi
rini shi
Ġyaqin da
tar tibot
ub ay
Ġ7 1
Ġhaj mini
Ġnarx lar
xona lar
Ġbesh ta
Ġqanda ydir
enesu ela
ho m
Ġ25 0
Ġaf zal
z larining
Ġsah na
Ġuyu shma
Ġsinov dan
ĠV o
eter burg
Ġterror chilik
Ġosti dagi
lax y
Ġtop ib
ra man
Ġket ma
. ,
Ġniko h
Ġmarkazi ning
Korre spondent
Ġbi tiruvchi
ĠTim es
Ġrafi qasi
ĠNe xia
Ba variya
Ġbo riladi
in ch
Ġve b
ka la
ra yev
ul layev
rsat moqda
Ġtera kt
Ġoshirish da
; -
Ġnamo yon
Ġo so
ri p
Ġbo sim
ston a
Ġke lingan
Ġse shanba
Ġchor va
Ġruxsat noma
lav ha
Ġniyati da
par k
Ġkapi tal
J umladan
Ġsavdo si
Ġqatnash gan
r nida
Ġagent lik
Ġ čĊ
Ġbiz da
mi dan
ĠP er
Ġqa dri
Ġki to
mas likka
Ġelchi xonasi
ga l
Ġshart nomasi
Ġ5 9
im li
Ġmanfaat larini
7 0
Ġchiqar gan
yo z
Ġsot uvga
Ġbayono tida
su rat
Ġtahri ri
sin f
Ġbah ra
Ġkerak ki
ĠM il
Ġimzo landi
ĠGo ogle
Ġbajar uvchi
na m
Ġi foda
ka mma
ir chiq
el l
Ya na
Ġora lig
Ġay lanadi
Ġtah sil
tosh qin
ĠShu hrat
Ġtor tish
Ġhuquqi ga
Ġtah li
Ġnor mativ
Ġde ngi
dor lari
li t
Ġvoqea lar
Ġoldi dan
Ġmar hum
Ġ zil
Ġtaf si
dri d
Ġke laja
aro y
tel lekt
ĠF uqaro
Ġdaraja sida
Ġtushi rish
Ġloyiha larini
qu lay
yo ra
ĠY oshlar
Ġdi sp
Ġd on
Ġkuza tish
Ġmanfaat dor
Ġish lariga
ch ar
Ġ7 00
Ġharakat lanish
Ġkuza tildi
ni ki
Ġho mila
Ġyash ab
Ġayti lmoqda
toshqin daryo
Ġmuo mala
Ġke chik
Ġqi zil
gani ga
ĠQ ay
Ġmaqsad ga
ta dqiqot
ah or
Ġaka demiya
Ġpoyez d
n lab
Ġe fir
Ġdaro madi
zbek neftgaz
ide o
so at
Ġqaror ni
ho d
Ġorgan larining
ka ni
he m
ja m
Ġkelgu sida
e j
Ġaka demik
la ziz
Ġbola larni
Ġkons er
Ġkiri shi
3 2
Ġb unyod
ĠR u
B unday
lishi ngiz
kamma l
Ġetish da
Ġbora dagi
I S
K ning
C o
u al
Ġyo d
Ġidora si
Ġqil sa
Qar or
Ġrivoj lanishi
Ġimtiyo zli
z lab
Ġ7 2
Ġviloyat da
Ġyuq umli
Ġpul larni
Ġchor shanba
sa di
Ġmarkazi ga
Ġtash lash
ensa tsiya
5 5
Ġega lik
ey n
lo om
Ġbergan di
Ġp ol
no mani
smi k
ĠSam sung
z er
qa loq
Ġf ut
Ġshaxs ga
Ġjoyi dan
Ġrasmiy lashtirish
V iloyat
Ġyo nib
Ġmazm un
Ġau ksion
Ġkut ub
Ġmasala sini
l sin
Me h
Ġtar ji
Ġhokim lik
Ġfoiz gacha
Ġinsp eksiyasi
Ġfarzand lari
loom berg
Ġyer dan
ov ning
Ġkam bag
ĠM av
Ġolini shi
Ġno qulay
lim lar
may miz
ĠGro up
ra f
Ġay ta
Ġba x
ran d
Ġyuk la
Ġaytgan di
uli ston
Ġerish di
ĠShar qiy
chi nchi
Ġtovar lar
Ġuchra gan
Ġg var
Ġke chki
Ġas kar
I B
rini b
Ġqoida buzar
Ġtizim lari
yxa tiga
Ġtr ln
Ġtop il
Ya poniya
Ġta savvur
qa y
Ġuchrashuv lar
Ġrejalashti rilmoqda
Ġke tib
l la
H i
s mon
za k
shin lari
Ġfuqaro larni
Ġkelgu si
ĠCh ilonzor
ĠNe ws
t ara
lam ent
yu y
ĠJamoat chilik
ĠSh unga
Ġqarshi lik
h an
Ġnomi dan
Ġoyi ga
lim ga
iro f
P ro
Ġbu yuk
Ġcha ng
Ġvi ta
mi ning
bay jon
Ġvakolat li
moqchi man
Ġchi royli
x tab
kash enko
Ġrazved ka
ri shini
Ġp og
ĠG ol
Ġxizmati ga
Ġinvest or
k siz
Ġis lom
A N
Ġtu zilma
Ġka mpaniya
Ġmasa lan
ch li
Ġkom munal
yi shiga
Ġmonitori ng
Ġo ydin
Ġoy dan
Ġau di
ngiz da
do ni
Ġra dio
mla gan
Ġa yo
in stagram
iston ning
Ġtopshi rilgan
Ġiqtisodi yoti
Ġham ja
Ġqu ti
Ġovoz li
Ġyopi q
Ġbir orta
Ġehti mol
Ġloyiha ni
gi ga
Ġbu zib
Ġberi shini
ĠA na
P o
Ġish lovchi
Ġyosh gacha
oro j
ino t
Ġatrofi dagi
Ġmalaka sini
Ġqut qa
Ġtani shish
Ġmu ayyan
Ġxizmat larini
Ġvazifa larni
on at
q os
Ġo rol
al lu
in laydi
Kor onavirus
Ġmiqdor dagi
Ġp at
lam chi
ga pur
Ġtaq sim
Ġzil zila
h or
Ġlib os
ĠA ziz
Ġ6 3
Ġaf g
ĠD mit
zil di
ide rlandiya
s lar
Ġti r
Ġquri b
Ġaytgan da
ĠHu kumat
Ġrestora n
Ġbu yu
Ġreja si
shi nchi
Ġtan lash
Ġsud ya
F uqaro
Ġada biyot
ĠOlimpi ada
Ġb rifi
na tsiya
: âĢľ
Ġsh un
Ġchiq aradi
Ko mpaniya
mita sining
x ud
va ning
st riya
r ar
Ġmiqdori dagi
qo rat
do q
Ġchiqarish ga
qima chilik
so y
Ġ6 9
Ġmini mal
Ġinsp ektori
cha siga
Ġfili al
uga liya
ĠD ev
Ġtafsi lot
Ġor tib
Ġpro tses
Ġin so
ra dan
yati ga
Ġmaqsad li
Ġu x
ĠN av
N or
k r
ni s
Ġo pa
S iz
Ġdasturi ni
Ġsano ati
Ġi di
Ġtu shish
Ġerish ilgan
unyod kor
Y uqori
Ġtu tadi
Ġra m
Ġkor po
Ġtopshi rgan
Ġyetarli cha
Ġtele fo
Ġtarqa tish
a ni
Ġoxi riga
Ġjabr lanuvchi
Ġkishi dan
Ġmehmon lar
ĠAbdul layev
Ġang la
Ogohlantirish lar
Ġda la
Ġmash q
Ġra di
Ġmi ya
Ġaniq lanib
Ġqu yi
Ġmu kammal
Ġmuassasa lariga
ĠB ol
Ġajra tib
Ġno yob
ĠU chrashuv
Ġo tish
S i
s l
Ġj anu
ĠYo ng
Ġ8 4
pin cha
j ahon
min ar
Ġeshi k
tishi ga
Ġshak lda
ta rilgan
ĠD u
Ġrai sining
Ġara lash
S og
Ġse kin
Ġa xbor
Ġkar to
Ġbahra mand
Ġ4 1
Ġvazifa lari
u to
Ġ201 0
Ġha lokat
v ud
Ġti lini
fo ga
Ġkon stitutsiya
Ġkuti lmagan
Ġaxbor o
Ġmuz ey
Ġixtisos lashgan
Ġ1 000
S an
ĠJ or
Ġhudud lari
i f
vi t
rol li
nal tirilgan
K om
y la
Ġchiqa riladi
fa ks
Ġmasala sida
Ġfoydalanuvchi lar
ĠD ar
T ra
yil ga
Ġsoha larda
ĠQ ishloq
qnash uv
Ġe rishi
zi t
Ġjamoa lari
Ġum r
k tiv
Ġiq lim
ĠG ruziya
ĠAy nan
ĠB al
ĠI stanbul
Ġdavlat larda
ĠToshkent ga
Ġa pp
Ġvakil larining
ro m
ĠHozir gi
Ġsu i
ĠY PX
Ġsherik lik
Ġbosqichi da
Ġqil maydi
Ġban di
Ġtabi at
K A
ĠGa laxy
Ġsalohi yatini
H am
Ġmamlakatimiz da
san t
Ġmunosabat da
Ġ larda
Ġpay shanba
dor lar
Ġmas kan
Ġendi likda
Ġi yu
ki b
) ;
lsa ngiz
Ġilo ji
Ġchempiona ti
Ġobodon lashtirish
Ġu r
qa ldi
Ġasos siz
qibat da
ĠMa ktab
Ġar ti
Ġvaziyat ga
ko logiya
Ġberi ladigan
Ġhola tini
Ġhodisa si
y layman
erge li
N av
Ġfoydalanish ni
mat sev
ĠF ran
Ġinsp ektor
Ġto m
Ġnatija si
ĠQur bon
Ġsh ov
ĠA d
ĠP arij
Ġquv vati
ko mo
Ġolini b
ĠG re
Ġarmi yasi
mi miy
Ġp rin
Ġt ra
Ġyo ni
Ġqoldi rgan
A kt
B el
ĠG i
Ġbosh lash
ĠSh vey
Ġpo chta
Ġja m
Na shr
Ġhujjat larini
Ġolin gani
ĠO ba
F ransiya
sha yotgan
Ġad vokat
ĠR as
Ġmuqa ddam
Ġe dim
de l
Ġmunosabat larni
Ġso ti
Ġchiq ara
Ġdavlat ga
Ġseri al
Ġshoshi linch
z ayev
Ġmay da
Ġprezident ning
ĠRus tam
lashti riladi
. -
Ġkech gan
Ġtaqiq langan
At le
Ġs el
ĠTe mur
3 6
Ġhayo tini
Q onun
Ġrespublika ning
ĠKom ilov
Ġyuqori da
Ġdastur lari
vide niye
m uriyati
qin lik
Ġka da
Ġeksp ertlar
bi iy
Ġyakun lari
Ġdoira sidagi
z gu
Ġijro sini
Ġmasala larni
Ġha qorat
Ġhimoya chisi
Ġochi lishi
Ġuru g
Rossiya ning
Ġyetkaz gan
ĠA sh
Ġtop di
Ġmurojaat lar
ĠO dam
Ġahvo lda
oniston da
ĠSuper liga
ĠAbdu laziz
qi ni
ri nadi
li p
Ġbe ma
Ġli tr
Ġmuo laja
Ġsavol larga
so b
ĠU ndan
ĠKeyin chalik
Ġben zin
Gol lar
ĠMu ro
chilik ka
E l
qi da
Ġqat nov
mati ka
Hozir gi
dagi lar
ĠL G
Ġme zbon
Ġ7 9
z lashtirish
ĠJ y
Ġnazo ra
Ġumum ta
Af g
u si
ĠP ort
ĠV e
k redi
Ġkimyo viy
Ġ Ċ
Ġkun gacha
kov nik
rafi k
Ġme da
Ġma x
ĠX on
ĠX avfsizlik
lma yapti
mis siya
Ġter rori
ĠDmit riy
Ġyo xud
rsatki chi
Ġho miy
ay di
Ġfi na
Ġagentligi ning
A s
p orta
ub er
sp i
Tu be
Ġimkoniyati ga
ĠJ ahongir
E ron
U lar
Ġay lanishi
Ġsavol lar
Inter faks
Ġuru shi
Ġtasvir langan
ĠMusta qil
ta ga
Ġpro vin
u Tube
Ġli niya
j ar
Ġ5 2
Ġmamlakat larda
lar siz
la stin
Ġshak ar
b ert
ul la
Ġchalingan lar
Ġkorrupsiya ga
Ġkvar tira
Ġva y
rin lari
Ġmasji d
or e
ara k
ĠSh vetsiya
Ġdavlat ning
es la
Ġch oy
Ġqoida lari
Ġfi nali
P eterburg
Ġpo d
Ġkomp ensatsiya
Ġyaxshi roq
Ġver tol
Ġturi stik
3 4
rafi ya
g ol
sh at
Ġtalab lari
Ġus lubi
Ġj in
Ġmavjud ligi
r lik
Ġg eneral
Ġmamlakat ni
J anubiy
Ġmi sol
) _
Ġqara sh
rsat uvchi
x en
Ġbuyur di
Ġyashay di
T an
Ġ6 2
ĠAQSh ga
qaldi roq
Ġso tilgan
zi ngiz
ĠB aho
Ġfede ral
komo tiv
Ġqiy na
ĠUs mon
U nda
ĠU m
Ġ8 8
ve radi
Ġpul ni
Ġtele viz
ĠQ ayd
ĠN iz
Ġrivoj langan
yish ta
zgar tish
g er
Ġmu qo
ĠTer miz
Ġs en
Ġsana ladi
Ġom bor
sh oq
Ġbi lib
Ġyuq tirib
Ġxarajat lar
Ġik kala
Ġx itoy
I kki
Ġro lini
el li
Ġf ran
Ġboshqa cha
s er
B or
Ġmar ka
ĠLu kashenko
Â Ń
Ġshta ti
Ġqil dim
Ġfoto surat
Ġte pa
qi z
Ġavto matik
ma qaldiroq
Ġsa fa
ut nik
ĠB ah
ĠSa marqandda
se nal
s qinlik
Ġkiri tib
Ġno mini
Ġviloyati ga
r q
bo ra
Ġbayra mi
ldi rilgan
se na
Ġsar at
k sp
Ġtu rishi
Ġtizimi dagi
x ay
Sh o
lu ksiz
Ġsa mimiy
ĠF an
Ġmukofo ti
Ġxarajat lari
ma sini
ĠQu rolli
ĠS avdo
Ġqi rol
ji ni
Ġoda t
Ġdu sh
Ġbari bir
Ġapp ara
Ġnom langan
y ar
Ġope ra
Ġqilish dan
ĠQo laversa
Ġyetish mov
muro d
Sh ar
m n
kt e
ar ru
yin lar
Ġchaqi rgan
Ġklini ka
mi dagi
ĠP an
Ġus lub
xta lib
Ġshakli da
no ra
erg o
Ġyadro viy
Ġogoh lantirish
Ġishbilar mon
ul lanuvchi
quvchi lari
yekt lari
la tish
Ġhisob laydi
M oskva
ĠH atto
ĠCh irchiq
tu al
Ġye tadi
Ġpar va
Ġdalil lar
Ġish lashga
Ġg ram
Ġyer dagi
Ġmetal l
ĠRossiya dan
Ġqa no
ar ri
Ġsh tam
s ub
ĠV iloyat
lim da
Ġtexnologiya larni
sh ev
rsatkich lari
a niy
qi shi
Ġoshi rdi
j iz
Ġas bob
Ġetadi gan
Ġmehnat ga
s en
lash dan
lumot ni
ĠPe kin
Ġyan va
losi pe
m lari
lgani dan
Ġlavozimi ni
Ġshahri dan
Ġaholi sining
Ġista gan
Ġashyo viy
X R
ĠR av
tosh ka
ĠS k
un gacha
mon don
Ġodam larga
Ġku ngi
ĠT oy
ĠOzar boyjon
Ġber maydi
Ġyo toq
p ora
lumot lari
Ġqator da
lo va
Ġfirib garlik
Ġo bla
Ġma kt
lash tir
Ġber magan
ĠS al
Ġyangilik lardan
Ġsabab lari
qar shi
ĠM on
Ġcha qaloq
z aviy
Te le
Ġtergov ga
Ġdol larini
Ġseri ya
Ġa dliya
Ġholat larda
ĠIb ro
Ġrub l
op oliya
Ġkon t
Ġkun ning
Ġa variya
in langan
bo rak
voz ab
Ġtanta nali
ĠB ek
Ġyara tib
Ġde klar
ĠF V
Ġob ro
Fa cebook
bo la
don e
Ġamali yo
x u
Ġa yi
Ġqis man
Ġsalomat ligi
ti ko
Ġfa kul
Ġtas arru
Ġqadri yat
Ġdaraja siga
Ġhamka sb
ĠQ on
Ġa x
Ġtur mu
ka lav
Ġchiqar di
da si
Ġ9 5
Ġosh xona
Ġ c
Ar senal
Ġ6 1
di iy
Ġmo maqaldiroq
ma ning
ng ga
Ġqo zo
for mat
Ġqaror ga
ĠFede ratsiyasi
Ġqay tgan
Ġboshqaruvi dagi
Ġkucha yti
Ġuzun ligi
Ġruh iy
ĠJ oriy
lov larni
gi rd
vo ldi
ĠS il
ĠAy niqsa
w ay
ta rildi
Ġa tadi
Ġma mn
Ġkuni da
Ġqara ma
Ġuz luksiz
Ġver siya
G a
bo yeva
Bo la
ti lishini
Ġu rdi
Ġra q
Ġdeputa tlar
Ġqaro rini
Ġayol ning
Ġchiqa rilishi
M ir
lar dim
chilik ni
Ġhay rat
ĠMi ro
ĠU rganch
Ġbi rini
Ġbola ning
Di qqat
M A
Ġetgan di
Ġvaqt ning
7 1
ĠB loomberg
rov noma
Ġqoldi rdi
B unyodkor
Ġda mda
Ġish layotgan
Ġman sub
Ġhisob ni
Ġyuri tuvchi
Ġser vis
ĠAs lida
K ar
zi miz
Ġxodim larini
tkazi shni
Ġin tellekt
ĠShar q
P L
ar der
Ġkeyin roq
Ġtarixi da
Ġku b
Ġkasal ligi
Ġt un
ĠIs mo
Ġoshi rishi
Ġp or
Ġtarmoq lar
Ke yin
Ġorgan lariga
ĠA t
done ziya
ĠA sa
ul lanish
Ġ9 9
Ġuz r
ru x
Ġdara x
Ġurin gan
p reziden
Ġiz chil
7 5
mi k
eksi ka
ra d
i si
qo tgan
Ġolish da
ro t
ĠJ SST
Ġalmash tirish
Ġo mad
Ġfaoliyati da
ĠMotor s
lari ngiz
Ġkenga y
Ġyaqin dan
Ġmarosi mida
ĠQ atar
Ġish oni
for d
I N
Ġgvar diya
yxa tini
am moni
Ġtala bi
it ti
Ġochi lish
y uq
Ġs uri
Ġtomon ga
Ġiltimo s
ay gan
ĠNe ga
Ġi f
Ġmahalla si
ĠBu tun
Ġcha lini
sena riy
Ġtu ngi
Ġtalab lar
Na voiy
matsev tika
vi li
Ġhujjat lariga
Ġsayyoh lar
Ġ200 8
Ġmasa lani
Ġimzo lagan
en si
Ġtarixi dagi
lik lini
modda siga
no va
b ahor
c t
vo q
Ġkoronavirus ning
s aroy
ng ress
as ur
Ġtele videniye
Uchrashuv da
Ġuchrash di
H indiston
Ġti rik
ĠJ e
Ġtuza tish
a lar
Ġsi m
Ġzar arli
ĠQ i
Ġbildi rilgan
ĠMis r
ki y
ĠJ an
Ġde yilgan
Ġ5 1
Ġfut bo
Ġbo sti
Ġbola larning
Ġvo diy
ĠSin gapur
Ġbi ladi
Ġmaj lisi
ĠShah ri
Ġpeda gog
Ġharbiy lari
Ġbo shiga
Te legram
ur t
pi k
ĠMa sk
Ġo shadi
Ġyaqi nidagi
Ġichi dagi
os elekt
P ar
t witter
yxa tidan
Ġgapi rib
so ri
Ġyosh larni
Ġbank lari
âĢĺ -
Ġba zaviy
Ho lat
rin li
Q a
Ġok ru
Ġxorij da
p langan
no da
ona da
Ġqilish lari
tkazi layotgan
ti m
t oroj
Ġoldi nga
Ġmaktab lar
Ġyil ligi
Ġpsi xo
Ġf osh
Ġimkoniyat lari
zgartirish lar
Ġbo m
rik dan
Ġbayon noma
oniston dagi
K O
Ġtuman larida
Fo to
sa f
al l
lum ki
ulot lar
Ġsa ri
F or
lash gani
ldi k
ĠUs monov
Ġqo chi
Ġbudje ti
mu miy
ss en
Ġket moqda
Ġqay tish
gun cha
qi shni
ĠT urizm
Ġoshirish ni
Ġistiqbol li
Ġma z
bo shi
Bar cha
Ġkla ster
Ġqo dir
ĠTo ki
Ġeti lmagan
Ġme ga
Ġtan lab
Ġbaza sini
da ra
Ġn ur
ĠNazar boyev
eri na
k el
Ġo mon
vo ni
Ġhaqi qa
parvar lik
Ġgu manitar
o lo
Ġba diiy
Ġmaktab da
Ġfuqaro ning
na si
Ġhaqi ning
Ġqatna shish
gent lik
Ġbuy rug
Ġun ut
Ġpolitsiya si
ĠMada niyat
Ġs essiya
x um
Ġkucha y
Ġinfratu zil
Ġtizimi ning
A ng
Ġ7 3
lmas ligini
l langan
it y
Ġdavlat larning
Ġbozor da
zgi dromet
ĠY uqori
yi lishi
Ġish siz
ĠSh oh
sha k
da t
Ġra ngli
T V
Ġbu t
xi ya
Ġtanish di
Ġamali yoti
Ġol d
ĠIn son
Ġqurilma lar
Ġre y
Ġkel tirish
4 4
âĢ ¦
Ġ5 3
Tosh qin
Ġsharoi tda
ĠTur sun
qqi z
Ġsiyosa tini
Ġtamo mlagan
Ġoso yishta
ĠS S
su z
Ġtransp orti
zaro v
ĠKu bogi
u di
x l
Ġdu rang
Ġsay yora
Ġturni r
ot ten
Ġne gi
Atle tiko
ligi cha
Ġqay t
ĠS ergeli
Ġzarur ligini
o pe
Ġbera yotgan
Ġkuni dan
Ġmaterial lari
va s
Ġuniversite tining
Ġprogno z
Ġe sla
Ġhamkorlik ning
Lo komotiv
S p
Ġshaxs ning
Ya qin
Ġmiqdo rini
Ġdast uriy
ĠZ e
rg entina
Ġdavo lanish
Ġhay da
Ġmuxlis lar
or tini
Ġtop a
q ur
Ġoshi ri
Ho disa
il la
sion er
Ġalma shish
Ġmu diri
zbekiston dan
Ġqilish ning
si v
Ġma o
Ġyara tadi
Ġmavsu mida
? âĢĿ
si diya
Ġfaoliyati ning
Ġkir uvchi
Ġsuhbat da
Ġcha p
Ġtamo yil
la shini
Ġto mor
ĠTe le
ĠYe I
E D
o zi
preziden ti
ĠK an
st ri
Ġkel tiradi
Ġjoy larida
Ġnatija da
n ev
Ġshta bi
Ġgapir di
Ġfoyda siga
Ġshaxs larni
Ġajra lib
Ġtemir yo
ti g
Ġetish di
Ġmaktab ga
ĠNi ma
Ġve losipe
rish ti
Ġbuy ruq
To jikiston
Ġyar mida
Ġangla tadi
Ġkel tirmoqda
Ġkamchilik lar
itti fo
U y
Ġsh tab
ĠSh unda
ja liklari
Ġshartnoma lar
Ġtopshiriq lar
Ġra qi
Ġtez da
ĠBan k
Ġquv on
ĠK am
Ġkim dir
Ġboshqa rib
Ġ8 3
Ġporta li
ĠI qtisodiy
Ġeki pa
âĢĻ âĢĿ
Ġish langan
lgani da
Ġqilish adi
Ġmashina lar
ĠMaj lisi
Ġbema lol
Ġshah zoda
Ġ #
Ġim muni
Ġnatija larini
ĠOzar bayjon
ĠA kt
ĠA leks
Ġajra tiladi
Ġmuloqot da
? âĢĵ
li mida
q or
Ġay lanma
ĠI T
Ġh unar
Ġpa sp
Ġisti sno
Ġqamoq qa
Ġp lan
rat sion
Ġno ta
Hu kumat
Ġarxi te
ti rilmoqda
ay ra
Ġo fat
ĠHu jjat
Ġmuxoli fat
Ġdi a
Ġs ti
ĠV enesuela
Ġbora yotgani
go hi
lin e
ĠAy rim
j an
a tida
ul yat
Ġrejalash tirgan
Ġprin si
Ġaso rat
sh od
ĠK ur
Ġtekshi r
Ġpo liklini
B unda
Ġte atr
Ġshahar da
Ġ200 9
Ġsalohi yati
Ġmuassasa larining
Ġchek lash
Ġ8 9
Ġnor ma
Ġassotsi atsiyasi
l d
Ġpul lar
sti q
Ġ8 7
Ġpeda go
ĠTurkiya ning
mo k
Ġhayot dan
Ġsinov lari
P e
ĠU larga
Ġqil moqchi
i bot
ri o
Ġmaro sim
Ġk at
otten hem
S ev
ud rat
ldosh ev
Ġvosita lar
Ġmanfaat li
Ġyod gor
Ġo lo
Ġma st
Ġde kab
Ch e
Ġimkoniyat larini
Ġmax fiy
Ġsho gird
et e
a ma
za li
Ġhimoya chi
Ġtomor qa
ĠJa lo
Ġisi tish
E lekt
ĠSar dor
sh lar
ba ss
Ġolinadi gan
Ġmadani yati
Ġ9 7
Ġjinoyat ni
ĠU larni
Ġti lga
Ġba kalav
l ka
li vud
xona ga
ĠKoreya ning
Ġshahar larida
lana yotgani
mov ning
Ġmasala lariga
Ġvosita larining
E r
Ġ19 5
aniy ev
PS J
Ġtasdiq lovchi
ĠYo uTube
Ġedi k
ĠRa mazon
Ġeko logiya
ĠSh ahar
lov ni
Ġshta tida
Ġniho yat
g le
ĠA bu
Ġmuho kamasi
Ġmu ammoni
Ġqulay lik
rishti anu
Ġg ran
Ġto bora
Ġvaqt larda
siz mi
lov i
lay ziya
Ġsay t
Ġyashay digan
Ġk vo
ĠYevropa da
li ddin
Ġqilini shini
Ġt he
Ġqara tish
Ġuza tish
M K
yi ga
Ġso tuvchi
Ġka ssa
Ġis mi
Ġiqtiso d
Ġoydin lik
Ġkolle ji
tgan di
Ġishla tish
Ġbarobar ga
lash tirdi
ĠU muman
ĠF in
Ġmaterial lar
ta lar
Ġxoh la
T S
as su
Ġuskuna lar
t may
Ġdoi mo
ĠVa zir
Ġyo qi
yi nida
Ġs senariy
ĠSan kt
ma g
ff us
* *
Ġkasal langan
J izzax
Ġye ngi
Ġyuz lab
SS R
Ġjarohat lari
Ġku y
xta tilgan
yish ga
zi y
Ġqoldi rilgan
Ġrespublika da
ir lab
Ġtash langan
Ġoda tda
Ġyangi liklar
aba bi
Ġkilogram m
C hi
ra qa
Ġchiqa rishi
kil ot
Ġinti zo
lim ni
Ġstadi oni
lashti rilishi
Ġar ab
er s
ĠK os
Ġbelgi si
ldi ng
Ġoila lar
ĠSe nati
yish ni
uli yati
T ottenhem
ĠBaho dir
Ġta allu
lin ma
Ġsoha sini
ĠMeh nat
Ġi b
Ġni yat
dda s
Ġorgan lar
Ġkiri tiladi
Ġoch ildi
Ġobla sti
o log
Ġin dek
stan siya
ĠInve stitsiya
ĠN iderlandiya
Ġsiz ning
y ek
si s
ta loniya
Ġzarur ligi
lumot noma
pa yib
Ġtayyor ligini
Ġza if
Ġ tish
z mi
Ġtaallu qli
Ġsmart fo
Ġsara lash
Ġsh e
Ġku l
Ġme mo
Ġteleka nal
Ġ 00
la gi
ro vi
ĠS port
Ġvide oselekt
sin cha
A Z
ta tlar
Ġpoy ga
Ġtashkilo tining
ov ich
Ġ8 1
Ġyakun landi
for niya
Ġfo jia
Ġne mis
Ġak sincha
ĠMar tin
Ġsudi ning
Ġnizo m
G o
zim ni
Ġkar toshka
Ġnazorat ga
Ġkaran tinga
Ġqa ma
Ġchiqi shni
Ġfar qli
Av to
S am
rsat malar
Ġberi lmagan
u za
Ġerkak lar
Ġxalqi miz
ĠB oy
ba ki
Ġom bo
ve giya
Ġparlam enti
Ġhaqiqa tan
Ġmu ze
Ġtash uvchi
rsa tishi
Ġsoha ga
Ġfor um
Ġbe shinchi
ha za
Ġyor ug
Ġmaqsa dda
Ġnashri ning
Ġfutbol chisi
Ġmuammo si
Ġsport chi
Ġmasofa dan
nalish lar
Le kin
Ġkomissiya sining
z ni
Ġu dda
Ġ8 2
ĠBritaniya ning
T E
ĠH ech
lin malari
q qol
is moniy
qituvchi si
ng ilo
Ġpo sti
ddi nov
Tadbir da
ĠBiz ning
Ġtashxi si
Ġyetishmov chiligi
Ġyut qa
a tini
Ġyo qa
Ġa ziyat
Xabar da
ldi m
ĠDe mak
ĠPutin ning
ta rilib
Ġayti ladi
Ġvazirligi da
Ġqaror lar
Ġhayot ga
ĠOlma zor
z bo
eri al
Ġxona do
Ġyara tiladi
Ġyubo radi
ĠKu ch
ĠGa p
rov ning
ngilo char
Ġtopshi rig
Ġe slatib
ĠSh HT
Na tijada
Ġjanu bi
ĠI qtisodiyot
Ġtajriba si
Ġvertol yot
Ġeti lishini
Ġope rator
Ġye tishi
Ġ Ð
ĠBir lashgan
Ġjamoa lar
lan maydi
Ġbola larga
ran da
Ġfoyda lanishi
Ġsayyoh lik
Ġsay langan
Ġsh ara
Ġme ro
Ġme dal
Ġfan lari
Ġxo hi
stit sion
Ġgiyohvan d
Ġsaylov lar
ĠShi fo
te ti
Ġjinoyat lar
Ġa tom
7 7
Ġta ksi
Ġja ngi
Ġb ron
ta rib
dagi na
Ġxay r
ch og
ĠBo bo
Ġbosti rib
ĠV ol
Ġresurs lari
no b
Ġme zon
Ġkiri t
rsat uv
Ġyuri b
Ġvosita sini
Ġbren di
sh u
zi yev
Ġya qqol
ĠYa kka
ĠS SSR
ĠPreziden timiz
ta rilishi
Ġxizmat chi
lat siya
Ġjarayon lari
Ol tin
li pp
oy tax
Ġmumkin ki
Ġkuza tilmoqda
Ġsub sidiya
ĠAbdura h
ĠUkraina dagi
B an
t dan
Ġola miz
Al batta
Ġklini k
M S
c ro
Ġshahar ning
us siya
ĠD ubay
ĠRossiya dagi
Ġbildi radi
xon to
Ġay lantirish
gi stika
Ġrah ba
Y il
Ġdiplo mat
Ġhov li
ki s
so z
ĠT esla
Ġro li
ĠShar qdan
Ġkutub xona
I FA
Ġsoha dagi
Ġyasha yotgan
Ġme ssen
Ġyuri tayotgan
Ġkuza ti
p ni
Ġqil ganini
lovchi larning
ĠBMT ning
ri d
Ġbaza si
Ġho jat
Ġpu lini
ov uz
Ġdekabr da
g us
Ġqi roli
mov chilik
Ù İ
Ġjamoa sining
Ġpi c
ul lo
in lashga
ito b
Ġberish di
Ġa lda
Ġx ush
Ġmaydo niga
ur giya
Ġbosh liq
oy ev
Ġxo tir
Ġsurat lar
Ġde mak
Ġkiri tadi
Ġuy ning
ĠHa bi
Ġbyuro si
6 5
Ġmig ratsiya
ul lanadi
Ġhukumati ning
Ġprovin siya
masi dan
Ġqat lam
Ġguruh lar
k en
Ġmu taxassi
Y osh
ya d
Ġloyiha sida
ĠKeyin roq
Ġdeputa ti
ĠA rab
mer sant
Ġyorda mi
J inoyat
Ġbosqich ga
ĠRah mon
Ġmen ej
Ġaha miyati
Ġfon d
ĠUni versi
Ġse minar
Ġolish di
Ġchora si
uv chan
ĠAh oli
Ġporta lida
Ġepi demiya
Ġqatori da
ĠA yol
Ġsoha siga
Ġyoz ma
Ġ16 8
Sh unday
mas likni
Ġfede ratsiyasi
Ġbelgi lari
Ġmasala larini
ĠNi g
se psiya
Ġka sa
ei ng
li na
Ġmilli arder
Ġjar rohlik
ĠQ rim
Ġyuri tgan
Ġfoydalanuvchi lari
Ġuzi lish
mul k
Ġnatija lar
ĠKor onavirus
4 8
ĠMar k
Ġkal tak
Ġterrori zm
Ġu ya
Ġtadbir larni
Ġyara tishga
Ġg uber
Ġdeklar atsiya
ĠS oliq
K i
no vatsion
Ġfo nida
Ma salan
Ġay tadi
ska ya
Ġrahbar larining
Ġinno vatsiya
qi r
Ġbyudj yet
Ġyondash uv
Ġish ona
ĠU FC
ĠBa xtiyor
xonto hur
T i
la ning
I taliya
es s
Ġuy qu
Ġimtiyo z
Ġsh ay
b ud
ĠAf suski
Ġalma shin
L a
vo gar
Ġsu ya
rif iy
Ġchempion at
Shi moliy
at ri
fi ni
Ġxodim larning
Ġulu g
Ġavtomo bi
Ġob ra
Q ishloq
ĠPrezident ning
Ġplatfor ma
Ġdaraja gacha
Ġchiqar uvchilar
Ġkel tirdi
Ġqud uq
: Â«
ĠS ababi
ĠToy yib
lagan di
Ġinte gratsiya
na lar
Ġyum sha
lo voldi
Ġkarto chka
Ġnegi zida
mok rat
M anba
Ġman zara
sekund gacha
Dast labki
lu s
Ġyosh larning
lim ning
Ġmudda tidan
harakat lari
Ġga v
ĠAh medov
Ah oli
N N
Ġbu zilgan
Ġrasmiy lari
Y oshlar
ma ganini
Ġbosh dan
Ġijod kor
y um
a w
Ġso atiga
Ġham shi
ĠQo lgan
Ġnaza ridan
ri ddin
Ġanju man
ka na
Ġsev imli
y maslik
ĠDa ily
Ġminnat dorlik
k siyasi
Ġav j
f era
Ġki rishga
ĠMa s
Ġma to
Ġbank lar
Ġha qli
B MT
sk ar
Kom mersant
ĠQ urilish
siz lar
Ġhujum chi
Ġnuqta i
? !
k rak
ga ningiz
Ġapre lda
ĠSh an
ĠBo bur
U z
ĠS ulton
Ġba xt
Ġkuch lar
ĠKe yingi
Ġsho u
nim cha
r magan
Ġyordam ga
Ġpenal ti
Ð °
ĠF il
B en
Ġo xir
osh enko
Ġyoz uv
Ġbildi ri
Ġkom bi
on da
Ġke lmaydi
Ġkompaniya siga
ĠInter net
ri lik
ra lgan
su lot
O q
x izmat
rib on
Ġchi n
Ġbiz ne
ĠU mid
le ment
Ġxorij ga
Ġbuyum lar
T er
e o
Ġkiri tilishi
Ġtik lanish
li cha
Ġtuman da
Ġbe kat
Ġtayyor ladi
lat lar
Ġtasvir ga
Ġmudda tini
Ġinve stitsion
Ġkommunikatsiya lar
ta yotgani
Ġe zgu
I l
dro id
Ġbosh langanidan
pi ya
bi z
fo ya
bal t
Ġjad va
Ġso lingan
Ġmasala ga
Ġse nator
Ġvaqt gacha
va qti
Ġmah kum
ĠBo zor
ĠUkraina ning
Ġrejiss or
ta rish
tiro f
Ġhatto ki
ĠOta bek
Tra mp
Ġinqi ro
. )
yin dan
lov lari
Ġkurash da
Ġa bon
Ġko s
st lari
Ġun u
no bod
ligi dagi
Ġki foya
Ġgiyohvan dlik
Ġqiyo fa
Ġjoy lar
Ġsoha larida
Ġhamkor ligida
Ġoldi dagi
I spaniya
i kki
Ġda xl
Ġbera miz
Ġjoylashti rildi
ĠAv tomobil
Ġqas ddan
ĠT ar
Ġre fer
et s
vide o
Ġnoyabr da
Ġmashina lari
mi stik
Ġshart lari
ĠAn qara
Ġxa sta
Ġelektro mobil
Ġhudud dagi
sam b
ngil li
Ġkredi tlar
Ġbo shi
T he
Ġsa f
Ġchiqi lishi
Ġetgan lar
Ma ktab
end um
Ġo smon
aw ei
S ar
an tin
ĠJ asur
ali tsiya
Ġqop lash
V t
Ġtar zi
Ġyakun lariga
Ġxa la
4 2
ro ni
qi t
Ġlo yiq
Ġeshi t
Ġjon li
Ġfi zi
O S
ra ma
Respublika ning
ĠTe x
Ġkuti layotgan
Ġkelish gan
Ġkuzat uvchi
v ara
ĠMa drid
v en
Ġchora larni
way s
Ġchi roq
oro d
uri lma
Ġeti shini
ĠS uv
Ġtarkibi dagi
ĠFar hod
Ġolimpi ya
Ġkayfi yat
Ġu rilgan
ab o
Ġyaqin lari
Ġmanba lari
Ġif los
ĠU ma
Ġba lan
t y
ĠFede ratsiya
Ġolimpi ada
4 9
Ġshi rin
Ġmuammo lari
ĠK rishtianu
Ġnogiron ligi
na vi
ro va
ĠKo bul
Ġsalohi yat
Ġoch il
ra yotgani
Ġteleviz or
Ġtaq qos
Ġkelish ilgan
te y
Ġmul ki
llani lgan
l yut
Ġ gar
Ġqo ni
lashti rildi
Ġd yuy
l loh
Ġimtiyo zlar
Ġaviakompaniya si
P u
Ġm oy
Ġchiq moqda
Ġmi so
val niy
ban d
Ġshimo li
Ġro st
Ġor tida
Ġhudud ga
Ġpasa yishi
Ġqara tildi
c etti
Ġdush man
Ġ9 8
Ġharakat larini
si a
Ġavi atsiya
Ġiqti dor
Ġparva rish
ra ha
Ġau dio
V al
ki rov
Ġko smik
ĠA sosiy
4 1
Ġaloqa si
Ġfar matsevtika
Ġtana ffus
B ritaniya
l larini
ĠBel giya
Ġmasala da
p lagan
Ġor tga
lin masi
h ar
a d
Ġtur uvchi
ma ktab
Ġag ro
Ġuniversite tida
ri s
Ġfa kt
Ġbino lar
Ġmutaxassi si
lov ga
ĠYevro ittifo
sab zavot
Ġbahs lari
Ġyoni lg
ir ligi
Ġbar ham
Ġyash il
Ġo lam
Ġhomila dor
Ġshar ti
ravon lik
Ġqi zlar
ab et
Ġnima lar
M at
do d
Ġse z
Ġnash riga
so q
siz ligi
Ġhuj umi
ĠMu taxassis
Ġyanvar dan
ngi ota
ĠX ol
Ġv ra
Ġjarima ga
ĠEndi likda
7 6
p ka
lay eva
Ġharakat lanib
Ġxorij lik
Ġberi lgani
tka za
Ġ9 00
Ġjazo ni
Ġpayt gacha
Ġdviga te
Ġbozo riga
Ġsuhbat lashdi
Ġdepartam ent
Ġrais ligida
bu k
Ġsiz ni
ĠT ransport
Ġyurt dosh
Ġa sa
Ġ200 6
Ġtartibi da
ĠAv val
ĠMir zayev
Ġoldin roq
Ch L
Ġkunda lik
Ġmamlakat dan
D av
yin ga
mol yot
Ġtrans format
en der
Ġqonun ni
Ġta dan
Ġke masi
ĠG b
Ġshahar lar
Ġtoifa sida
> >
Ġkasal langanlar
Ġson li
Ġet tiradi
Ġmuqo bil
Ġva ta
ĠO rol
ĠQ QS
ĠT V
ĠV oqea
ti na
ma h
ĠMir za
). _
ĠMat buot
A M
Ġagent ligiga
ĠKa sal
la g
tsa riya
gi ye
Ġto lib
Ġkasallik dan
Mi lan
ri at
orij iy
Ġmessen j
ĠD unyo
Ġda h
Ġdol lariga
Ġobekt lari
Ġjabr langan
Ġ /
Ma j
Ġnomzod lar
Ġbren d
su al
Ġsu h
Ġd ron
Ġok rug
Ġsp ir
shi dov
ri na
Ġhuj ja
Ġtush um
ush an
B ay
Ġhisob lab
yil lar
rini shida
Toshkent da
Ġchempiona tida
Ġqi r
Ġjahon ning
Ġmanba si
U ni
ba li
mi sha
Ġz al
Ġchiqqa ni
Ġhaydov chilar
Ġminnatdor chilik
ĠNe w
Ġdollarga cha
ĠHam ma
Ġlits ey
Ġrivojlantirish ning
Ġtalab larini
Ġmuhi mi
Ġkelaja gi
Ġp nev
Ġberish da
ama liy
Ġfun t
ĠX ay
Ġfik rini
K u
Ġberi lishini
Ġolish lari
M B
Ġoqi mi
Ġshifoxona da
lanuvchi lar
ĠJon son
Ġistiqbol lari
Ġtashkilot larning
Ġqozon gan
Ġbo lani
ay eva
Ġdastur lar
Ġvatan dosh
Ġu gle
ĠO qibatda
Ġoldi k
di miy
Ġtu tilmoqda
Ġdar vozab
Ġora sidan
p si
ng ni
ĠC ho
Ġnut q
Ġtu proq
ĠKa li
Ġpayt larda
Ġdavla timiz
si mov
Ġi mom
Ġtumani ning
Ġharakat larni
Ġyetak chilik
b ara
j xona
Ġmahsulo ti
Ġnomzo di
r lar
sa riya
qo lgan
rini shga
Ġishla moqda
Ġq ah
ĠM un
Ġbar re
Ġolgan di
Qu yidagi
ĠSa id
Ġpiyoda lar
Ġtu tish
Ġuchi sh
Ġkesi mida
m ud
atr ul
Ġqal baki
Ġchalini sh
Ġt vit
ĠG on
Ġqonun chiligi
ki mov
ĠS eriya
Ġoshi riladigan
ĠAv striya
Ġalomat lari
Ġabon ent
mo vich
Ġqo shidagi
Ġqa dimiy
4 6
ni mat
Bu ning
Ġyordam chisi
Ġyaku ni
ĠOlimpi ya
l lan
V oqea
Q izil
ya ni
uru h
Ġvideoselekt or
tir gani
ĠMoskva da
ĠAmerika ning
Ġtu tgan
tkazi lib
Sh ah
Ġsu yuq
l or
Ġter mi
Ġmusulmon lari
ĠFan lar
ĠA xir
Ġmeh na
Ġmuammo larga
Ġnarxi ni
Ġdasturi da
Ġbuyur t
Ġsahifa siga
Ġkuchi ga
x alq
y g
ti rilib
mo niya
Ġhujjat larida
Ġja sadi
ĠOr tiq
ĠR ay
demi ologiya
Ġbaja rilishi
Ġada bi
muhi tni
mini st
ĠBo eing
Ġfan lar
Ġke tilgan
Ġvarian t
st ov
ĠF utbol
Ġbemor larning
Ġku mush
Ġyil lardan
ĠOsiyo da
Ġqut qar
Ġreja sini
Ġsaylov larda
ta s
ĠMa shina
Ġdengi zi
H ay
Ġdav lati
yin ni
ĠTu man
Mah alla
Ġna m
Ġkuza tiladi
Ġ200 7
ri mi
ha tidan
k to
ĠA ripov
ngi na
Ġoshi q
Ġmillion lab
Ġsafar bar
Ġomil lar
Ġmagist ratura
dar mon
Ġsabab dan
Ġtaqdimo ti
rinbosar lari
Ġbaj ara
Ġinvest orlar
ĠJam shid
Bor ussiya
Ġyo zish
Ġtu t
ĠO dil
Ma sh
ĠTurkiya da
I chki
Ġyara tildi
Ġdasturi ga
ĠToki o
Ġor tig
Ġmasala siga
Ġmasofa si
Ġtanqi diy
Ġko alitsiya
Ġ11 0
Ġbrifi ngda
ĠP ress
Ġichi m
M ay
Ġberi ng
Ġamal dor
Ġchor raha
Ġta ma
ĠA K
19 8
ĠShay xontohur
Ġsti pen
Ġtekshir uvi
de sh
ĠM eksika
Ġtu tuvchi
Ġxizmat larni
Ġor t
Ġfikr lar
ĠF lo
Ġtayyor lab
lish gan
Ġgaz ni
Ġaeropor tida
Ġko ope
Ġmin eral
yna gan
ĠE rga
Ġtaklifi ni
ĠV er
ĠU il
ddi yat
q urilish
shi miz
ĠXitoy ga
Ġyubo riladi
Ġlavozim ga
ĠB re
Ġboshqar gan
quvchi si
Ġok ea
âĢĺ .
Ġke lishini
u lov
Ġ( +
Ġtalab larga
ter ror
Ġpi shi
K atta
lim lari
Ġmode li
Ġixtiyo riy
x ususiy
Ġhuj ayra
Ġxusu sida
T I
ka y
ĠI m
kid langan
Ġ200 5
ĠRo bert
Ġiqti bos
Ġto mir
eta ll
urnali st
Ġboshqarma sining
Ġre g
ce des
Ġku tish
Ġmunosabat larini
Ġqatnash di
Ġimmuni tet
Ġchek ka
Ġislohot larni
mla katimiz
ey ms
sh di
Ġis m
Ġkasal likka
Na saf
ti fikatsiya
sa nov
Ġchi zi
es kov
Ġtuman dagi
ĠAv va
ĠPor oshenko
Ġu rg
qa s
Is lom
Ġaerop orti
i j
Ġqaror lari
k ek
sh er
enta gon
ulyat or
Ġ www
ĠK rem
Ġbahs da
s gan
Ġa m
Ġta assu
ma yotgan
ha medov
Ġqon di
bili tatsiya
4 7
ma tida
nati onal
sh ab
Ġas l
Ġeksp orti
4 3
i land
Ġbank ning
ĠMi sol
! âĢĿ
Ġstan siyasi
Su hbat
ĠAnd rey
ĠB or
Ġme to
Ġvaqt dan
Ġasos da
Ġdip lom
Ġokru gi
tadbir larni
Ġreji mi
ĠSe na
Ġjoni ga
K im
shi g
ĠL it
Ġqu ro
evro let
ng e
Sh ahar
Ġboy ligi
l larni
mi liya
do ba
gi n
Ġtavsiya lar
Ġishtirok chilar
sharoit lar
ĠC a
Bosh qa
Ġkada str
bo v
Ġmahsulot larining
od ri
ĠAir ways
Ġbildiri shicha
Ġb lo
Ġ9 6
Ġfikr lari
Ġoqibat larini
la ss
Ġfran suz
Ī Ĵ
rif at
xa il
Ġqaro rida
Ġhayo tiga
E R
h ron
kin chisi
Ġolim lari
eng riya
b uriy
Ġnarsa lar
Ġyetak chilari
ĠLa cetti
Ġvir tual
ladi m
Ġtash landi
Ġboshqar uvchi
Ġtu xum
Ġbe za
Ġnomi natsiya
p ara
Ġel lik
c s
fi ya
masi n
Ġhamkor ligi
kim yo
ĠOba ma
9 5
Ġrah mat
Ġabituriyent lar
lo qa
Ġte ja
Ġjamoa siga
Ġ200 1
Ġmavzu sida
Ġtadbirkor larga
ĠM us
Ġyer ni
Ġhukumat ning
sab z
ĠEr kin
E L
Ġbi n
Ġholat larining
Ġmuvo za
Ġjarayo niga
Ġo lishini
Ġa lay
Ġvaqt ga
l en
ĠD XX
Ġyuldu z
Ġhuquqbuzar lik
ĠIl hom
Ġbo bo
Ġkon sepsiya
atar eya
ĠMa layziya
qon li
Ġyoz uvchi
H uquq
le ksi
Ġv ara
Ġtur da
Ġsay lovoldi
Biz ning
Ġhuzuri da
Ġhukm ron
yab rida
A niq
ĠIn doneziya
Ġvay ron
ushan be
h il
Ġs to
la tib
oli bi
ilo f
ĠF ay
Ġtumani ga
Ġso lib
Ġfuqaro ga
Ġ13 0
Ġqas d
Ġbir lamchi
Ġqu loq
Ġreja lari
ĠBritaniya da
r bosh
Ġfoiz lik
ĠUkraina da
Ġyanvar da
Ġke tishga
Ġmi ssiya
Ġfoydalani lgan
Ġjamoa ga
Ġmasji di
Ġmiqyo sida
Ġmuhandis lik
li f
Ġdav ra
Ġdavlat larga
Ġdaraja li
ki r
Ġku tmoqda
Ġyosh larga
Ġijro chi
Ġinf lyatsiya
P ort
Ġqayta dan
u rat
Ġ w
ri lish
Ġo tib
Ġjoy lari
timiz da
Be larus
gi rma
Ġha misha
ĠB og
Ġora sidagi
Ġsamarador ligi
rta larida
ĠLi on
Ġsu ratini
Ġxavfsiz likni
7 8
Ġolish gan
Ġrozi lik
Ġpre parat
Ġqi layotgani
Ġvaq tini
ech eni
Ġhaydov chilik
ĠAn droid
Ġyordam chi
Ġbozor ga
Ġqay g
qo va
Ġmarkazi dagi
Ġtaqiq lanadi
ĠPo st
Ġin di
Ġt re
Ġayti ldi
Ġarxite ktura
di g
Ġtort di
? Â»
Ġxizmati ni
mos fera
yo ri
lash tiruvchi
Ġre ye
dim u
hi d
Ġpro to
Ġbaho langan
Ġmanfaat lari
Ġap parat
ĠD ey
echeni ston
ĠR am
Ġbemor ning
Ġishlash ni
S urxondaryo
rishi ga
sul ton
Me ning
Ġrefer endum
Ġqat novi
Ġkasallik lari
ba tini
ĠMa q
Ġkar ra
Ġmashina ni
Ġinternet da
k ot
Ġmuallif lik
q ilo
no logiya
ĠSo diq
Ġora dan
Ġinstitut lari
Ġmarta lik
lubiyat ga
ĠT og
Ġyarat gan
Ġyo qib
pi ska
R i
Ġtalaba lari
ul lar
ĠDast labki
Ġkas biy
Ġrivoj lan
Ġkelish uvi
Ġharaka tini
Ø §
ĠNa valniy
Ġbino sida
Sa udiya
Ġerish ildi
Ġayi rbosh
la qonli
Ġjamiyat da
Ġyoz gi
Ġstrategiya si
Ġdarax tlar
Ġavgust da
Ġmodda si
Ġqozon di
Ġyurtimiz da
a pre
Ġaniq ladi
bo ni
Ġmah bus
rov ga
Ġqurbon lari
Ġshun chalik
ĠSh aro
rin diq
Ġfik riga
Ġusu li
Y er
Ġji hati
Ġ14 0
Ġi p
ĠY an
ĠN ey
ĠDil shod
ĠAQSh dagi
ĠG az
Ġqu yish
f iz
Ġo yog
ka un
Ġbil gan
Ġmo lik
Ġpar vo
Ġvaksina si
ĠA tam
In stagram
Ġerta ga
Ġsum ma
Ġ20 23
kil gan
ĠP olitsiya
Ġa st
Ġv u
Ġqarindosh lari
nalish dagi
Ġtexnologiya larini
6 6
o qibat
ma sh
ki sh
Ġp ress
ĠO lim
ĠP ay
gi m
be s
ul langan
Ġqaysi dir
ĠZa ngiota
Ġun chalik
uldu z
p chiligi
lan gach
ĠB ori
Ġmah o
mon aviy
Ġak kaun
y lik
ĠA rgentina
ĠR IA
Ġkamay gan
Ab du
Ġhamshi ra
rna tiladi
uri yat
ĠYa IM
ĠMay kl
so ft
Ġsuv ga
lgan ligi
Ġkanali da
ri z
Ġsi novi
ĠYa xshi
Ġtaj ovuz
Ġdastur larini
i mov
Ġj anubiy
ev ara
ĠHo disa
ch es
Ġi t
min langan
Ġmetr gacha
Ġpe shqa
Ġuch radi
Ġqut u
Ġchempiona tining
r dik
riq lash
Ġtaraf dori
ko ng
Ġfi do
Ġaxboro tida
Ġki ra
Ġaj rat
Ġfikr larini
ĠKali forniya
Ġ &
bar dosh
Ġsud langan
ĠLu ka
ra li
Ġish chilar
Ġundi rish
ĠM ey
Ġinsp eksiya
ĠP F
ish kek
Ġhuk mi
Ġmakt ub
Ġxo tini
Ġxoli s
ĠBiz da
X onanda
Ġnarxi ning
dor od
Ġush landi
Ġdaf n
ĠAleks ey
ĠV an
Ġsabab chi
Ġzi ddiyat
Ġraqa miga
ti jorat
Ġi r
V ideo
Ġha v
mar ket
Ġvakolat xona
Ġgi dro
Ġsi nab
Ġo bek
Ġsoat dan
sh nobod
Ġbosh pa
Ġmahsulot ni
ĠN uri
Ġhokim liklari
nik ma
Ġehtiyoj lari
Ġtarji ma
Ġqilishi ngiz
in e
Ġyosh dagi
Ġsiyosat chi
Ġa zo
ĠMah alliy
Ġdviga tel
la magan
Ġin kor
Ġdah shat
A yol
sh ti
ĠKoreya da
Ġj umla
Ġrahbar lar
ĠAbdu ha
Ġtasdiq lagan
Ġbe ton
ĠT s
Ġan d
Ġrea bilitatsiya
Ġsabab larga
rand um
Ġnusxa si
Ġtarqat gan
Ġtani shib
Ġnomzo dini
zav to
f eksiya
Ġo lmoqda
Ġ3 50
Ġhisobla gich
d ni
ra j
qi zil
Ġme dia
ĠBan dlik
Ġtasarru fi
Ġmi sh
chi r
Ġqil maslik
ĠP Q
Ġfoyda lanadi
Ġyevro ga
Ġuy dan
Ġgram m
Ġstar t
rsa tayotgan
Ġz an
lya ndi
Ġqo lmaydi
Ġavtomat lashtirilgan
lga cha
Ġtele kommunikatsiya
rsatish ga
zbo shimcha
ra za
ldi rib
Ġjinoyat larga
Ġxorij dan
Ġoshi shiga
Ġkito bi
ĠK UN
Ġmiqdori ning
ĠNiz om
E n
mo yish
Ġfoyda lana
Ġjamoa ning
Ġyetish masligi
cro soft
ĠB ur
Ġtakli figa
Ġxarajat larni
ĠFi lipp
A pple
Ġmillion ga
Ġbo yi
no za
qat nov
Ġraqa mlar
Ġxarajat larini
ĠX ar
Ġsana sida
Ġtushu nib
Ġchiqil moqda
o f
gi ka
Ġha ddan
Ġqi za
lishi dan
Ġqar zi
Prezident ning
Ġtaqdi ri
cha sidagi
oda tiy
lash moqda
Ġtu tash
Te z
Ġerkin ligi
z langan
ĠHar biy
Tu man
Ġvita min
qur un
ilo va
lar oq
Ġha lol
Ġak kum
Ġmavsu mi
Ġe lement
ĠSh tat
Ġyakun langan
Ġkadr larni
Ġnuqta yi
Ġqoch qin
Xitoy ning
ĠEl dor
Ġshubha siz
Ġbanki ning
Ġinfeksiya siga
Ġga l
quvvat lashga
Ġfil mida
a si
arg oh
ĠMin sk
g ori
Ġy aroq
Ġka sh
Ġten der
y gani
ab bat
Ġbor mi
Ġnatija larga
ĠRa shidov
Ġishon chi
Ġxususiya t
ĠS ta
ab ri
Ġqay tdi
Ġji hatidan
ð Ł
so di
ĠO radan
Ġviloyat ning
Ġerish a
on ning
Ġish larga
Ġmutaxassis larni
tibo ri
Ġidi sh
ĠPort ugaliya
Ġna sib
lma ganini
to va
Ġtizim ni
Mu taxassis
Ġyar mar
Ġbarava ri
Â» )
ter ling
Ġintellekt ual
t uv
lo mat
ĠE m
lsa m
ĠSho murodov
Ġata gan
Nav bahor
ĠK ey
Ġb atareya
Ġpul larini
Ġyo v
yil gani
Ġtexnologiya si
i dov
la mini
Ġoda tiy
ĠBer dimu
ra ni
Ġamaliyot ga
Ġbo rishga
ĠP av
Ġnatija siga
ĠMi xail
H udud
Ġyotoq xona
Ġavtomobil ni
Ġtartibi ga
ona lari
ĠHozir cha
Ġbir gina
Ġtaraf dorlari
zo rat
Ġberi lmoqda
eri ni
siyo siy
uri n
Ġkodek sning
yur t
Ġu kraina
le ya
Ġtopshi rdi
ote ka
ĠM es
Ġpalata sining
Ġqi t
Ġf ron
ĠP eskov
Ġxulosa ga
Mah alliy
Ġdo ktori
Ġbel lashuv
Ġloyiha ning
Ġtez lik
yxat da
Ġqiymati ni
ĠO ila
yab zal
a kash
yi ng
il li
Ġhamka s
U K
in ter
Ġquv uri
Ġso f
Ġpoytax tda
Ġadolat li
lgan larning
Ġya x
Ġehtimo liy
na tori
ĠI jtimoiy
Ġtarki biy
Ġtayan ch
ĠFV V
oro logiya
L AR
a tildi
Ġdo g
Ġsa figa
ĠC ity
Ġfesti val
ĠF e
Ġfor umi
Ġtushun cha
ĠIbro him
Ġmaktab lari
Ġepi demiologik
Ġvu jud
en ni
Ġ18 0
xo vat
Ġtor tilgan
zbekiston liklar
Ġav gus
L u
Ġtartib dagi
Ġx iyo
Ġxari tasi
ĠSuriya dagi
ĠBal ki
O KA
i ste
Ġbar moq
Ġtartib siz
Ġbal li
Ġyo tgan
ĠD aniya
lov ning
da tda
ki ch
lum biya
Ġyubo rildi
ĠMah alla
Ġbor tida
Ġmanba lariga
Ġmaho rat
a k
Ġkon trakt
Ġmintaqa da
Ġmusta sno
Ġinson ning
201 4
Ġtosh qin
Ġqah va
Ġki ber
Ġcha lin
zA uto
Ġmustahkam lashga
ĠKari mova
Ġes da
Ġqaytar di
epi demiologik
Ġboshqar malari
ĠE lekt
Ġsab zavot
Ġre ali
te sta
Ġetilgan di
ler eya
Ġap el
porta j
Ġkun lar
Ġlo gistika
Ġmuh arri
Ġm otor
ĠY osh
ĠY ork
Ġras so
j ara
Ġb riga
nalish larda
mla nadi
Ġshahar lari
Ġtashkilot larga
ĠG uliston
Ġaylan masi
t noma
s di
cha larida
av to
tkazi shi
Ġkuch larining
ĠAv to
) .âĢľ
I Z
mi niy
Ġdi n
Ġbirlash masi
ĠII O
gu manitar
Ġrivoj lanishiga
Ġbax tli
ĠSh tatlar
Ġdavlat lardan
zgar tirilgan
Ġqahra moni
ro da
Ġmuammo larini
tira miz
Ġaksiya lari
" .
Ġtashqa rida
Ġavtomobil lari
Ġmaktab larda
ĠIIB ga
lyandi ya
Ġraqobat bardosh
nalishi dagi
Vazir lik
Ġ200 4
Ġqilishi miz
Ja mo
Ġde zin
Ġnar ko
A B
Ġhudud larni
Ġmos lama
Ġekstre mistik
Ġda rak
ĠMak ron
in lar
ĠE slatib
Ġtoifa dagi
pol kovnik
Ġbur chak
Ġefir ga
ĠNav ro
Ġpoliklini ka
ĠMustaqil lik
1 00
J u
Ġtaklif larni
Ġyar mi
Ro ma
ĠQ izil
Ġgap lar
Ġmaq bul
Ġkorpo ratsiyasi
R as
s lo
la d
Ġet magan
ek shi
ĠRossiya ni
S uriya
qi gan
Ġlozim ligi
Ġyigi rma
O ta
Ġi chka
Ġra un
ĠGre tsiya
Ġi shiga
ĠA ka
us kuna
yna ydi
lash ning
Ġquri ladi
qituvchi lari
Ġsud da
Ġvakil lariga
rg ut
Ġvujud ga
ch er
ĠL at
Ġviloyat dagi
Ang liya
lan ki
Ġk ans
Ġfuqaro lariga
Ġquri layotgan
Ġqism lari
ĠAk mal
ti z
Ġguru hida
ĠW i
L G
ul las
Ġshi moliy
ĠDa mas
on ga
lish lari
yul tirilgan
Ġtushuni sh
ti lishiga
vo b
Ġor de
Ġhamda rd
Ġqobili yati
Ġappara ti
k ning
s dagi
Ġa do
ĠL in
Ġavto tur
Ġsay r
Ġkon sep
Ġiyul da
sh uv
Ġzar urat
Ġnazo ratini
Ġjarayon da
Ġem langan
Ġpara metr
ĠYevropa ning
Ġmijo zlar
h ir
lan tiruvchi
rna tildi
Is roil
I C
lovchi larga
Q ay
ĠTe z
ĠTurkiya ga
ĠMuro d
U ch
g ov
ĠQora bog
Ġboshpa na
ro f
al t
Ġqabul xona
Ġoch di
Ġishtiroki ni
Ġqiz ning
Ġe p
ab ari
Ġra ngi
ri lganini
ĠO xirgi
Ġkel uvchi
Ġfil mlar
ĠJor j
a u
si ri
Ġbiri dir
Ġsal kam
Ġqurbon lar
Ġk v
uv on
Ġna f
Ġat mosfera
Ġyaroq siz
ĠK el
ĠMa x
Ġpar randa
Ġuchrashuv ida
Ġsov et
ĠUch tepa
Ġcha kana
Ġodam ning
A K
qa yev
Ġxalqi ga
Ġb ritaniya
Ġtuman lari
Ġyori tish
Ġbom ba
Ġs av
Ġkun larida
Ġkitob lar
Ġaktiv larini
P olitsiya
Ġ0 9
rsatkich lar
p lar
Ġyuri tadi
chi lardan
ĠA ES
Ġish lay
Ġtu tib
Ġyopi sh
ys un
Ġtop adi
t aroq
ĠM IB
ĠI mom
ov id
Ġxari ta
c on
Ġi ch
Ġpunkt lari
Ġtarqalishi ning
Ġta nga
Ġke lganini
kon trakt
Ġtayin lash
Ġqa naqa
ĠTurizm ni
Ġo lganini
Ġy uvi
Ġx ilof
ĠGermaniya ning
q ora
Ġo qil
ldi n
Ġnatija ga
Ġayol larning
joy lar
ĠMer kel
di ra
zo lariga
ĠX abar
Ġni mani
Ð ¸
Ġsuv er
ĠQu yida
Ġbyudj ye
g rafiya
Ġbosh lashi
ĠX ur
Ġpa ket
ĠChe xiya
s ni
Ġvazir lari
Ġpro piska
ĠMar kaz
zoq ov
ĠYa man
Ġtor tgan
Ġb urg
mar kaz
Ġqur gan
Ġmutasaddi lari
s uv
ch enko
en tining
Ġe gi
ĠH arakat
Ġkim ning
Ġbron za
p pe
Ġmu so
sat dan
Ġxitoy lik
zboshimcha lik
O L
at kor
Ġaloqa larini
Ġtanqi s
Ġbaja rilgan
Ġuyush tirilgan
Ġmag ni
Ġturmu shga
Ġdizay n
Ġop ti
8 8
q lli
Ġva fo
lim ent
O lma
Ġk iy
mi di
Ġ200 3
Ġxavfi ni
5 7
yo tib
no vich
ko bod
mas di
Ġboshqar masiga
Ġmuz lat
q t
Ġmuxlis lari
h li
ma dim
Ġtur larini
Ġchiqi shini
se kin
ĠAn var
Ġpnev moniya
Ġd ub
shiq chi
lov chisi
llani ladi
V o
Ġse ment
U muman
ka nali
Ġdi na
Ġope ratsion
5 2
Ġmush uk
Ġstipen diya
i lib
Ġvazir ning
Ġchora gida
Ġekipa j
Sam sung
A k
Ġyi lida
Ġyopi b
po q
Ġkenga yti
B er
Ġchiqa rildi
Ġreji mida
Ġmanzi li
lish adi
ĠC NN
ĠTe hron
Ġvaziyat dan
Ġvra ch
AS A
ĠInvestitsiya lar
man n
larimiz da
ĠPa xta
ĠNur sulton
Ġiy unda
Ġ199 0
ĠAbdurah monov
: -
X orazm
a yib
Ġva gon
Ġyili dan
Ġso z
Ġro bot
Ġge o
Ġbozori dagi
le g
ĠF IFA
Ġdegan di
Ġehtiyo ji
Ġin qilo
ol chilar
Ma na
Ġtashkilot ning
Ġ16 0
Ġmate matika
ĠInter national
Ġfuqaro larining
Ġqab ri
Ġtarmoq li
Ġkvo ta
Ù Ħ
zo lyut
ĠShu ni
Ġshar h
ĠMer cedes
Ġbaho si
Ġtajriba li
v el
Ġha yi
ĠHa san
Ġvide oni
ĠY i
Ġkomp leksi
Ġola man
Ġyop ilgan
ome dov
Ġpat ent
Ġur f
ĠK en
le ri
Ġtan lagan
Ġguruh lari
Ġboks chi
di t
ka ut
yil gacha
mil liy
N yu
mi ya
ĠM ol
Pu tin
Ġhav za
mi li
Ġfaol lari
ber diyev
l ladi
ĠS park
Ġqimmat li
ĠJo ze
Ġdaf tar
Ġfuqaro larini
Ġpunk ti
N T
ri t
ĠToshkent ning
Ġsho ir
ĠOlma ota
pora tiv
erina riya
Ġiqtidor li
Ġspir tli
ĠNey mar
ke ting
Ġhayvon ot
ĠA PL
âĢĻ ,
ru sh
Ġlozim ligini
ya shil
Ġsuv ni
ib biyot
Ġsana b
Ġqo lamiz
Ġre ktori
ko ra
ĠJ Ch
Ġquv va
Ġsafa ri
Ġoshi r
Ġkama yib
Ġinfratuzilma sini
mart fon
ĠNor vegiya
ĠShvey tsariya
Ġtovar larni
ĠMamlakat da
ĠBo tir
ĠLion el
ek to
qo lib
Ġaniq langani
Ġshaxs ni
Ġmuqa ddas
Ġfevra lda
Ġmasofa ni
Ġtanlov i
ĠCh or
ĠAn toni
Ġshogird lari
b li
chi rilgan
Ġvazir liklar
Ġissiq xona
Ġjurnalist larga
ĠC on
ĠDast ur
Ġosoyishta lik
l larda
Ġmuhi t
Ġfaoliyat ni
Ġkech qurun
ĠRav shan
Ġbe da
Ġfoyda lan
Ġqay tishi
Ġla v
Ġqoldi rish
Ġturadi gan
Ġhukumat ga
ja ligini
kid laydi
Ġkommunikatsiya larini
ta na
ud u
Ġfirib gar
Ġfir ma
ĠYevroittifo q
larimiz dan
k da
dagi dek
ĠT om
ut ur
Ġfili a
ĠKenga sh
Ġmetro poli
Ġoqil ona
ladi mi
Ġxizmat chilar
Ġmav q
ar lar
Ġ199 2
ĠFede ral
w a
ldi rgan
ĠCh evrolet
O R
t aro
Ġqon unda
Ġtani shi
Ġso hil
Ġ20 30
ĠCo balt
Ġsu rati
Ġbozo rini
0 5
Ġva n
Ġchar cha
q na
la sa
nat orlar
Ġimkoni ga
lmas dan
Ġhayot da
Ġsharoi ti
Ġsay yor
Ġayol larga
Ġibo dat
Ġzaxira lari
Ġseri ali
Ġtransp or
qi qat
Ġuy ni
Ġayb ladi
Ġdu o
ro sa
vo d
ĠB ey
Ġgol li
ĠS ov
lga ri
Ġp en
Ġshax mat
U chinchi
S uv
Ġkasallik ning
ĠFa lastin
Ġketishi ga
ĠIsmo ilov
M as
si k
Ġmamlakat larida
Ġsurat larni
Ġqolish ga
Ġha zil
bi rini
et erinariya
Ġkon struksiya
Ġjazo siga
hi moya
ĠMa ri
Mu rojaat
Ġobekt larini
H D
Ġke lmagan
Ġoy ga
Ġmanba lar
x ush
qi lib
Ġhokim lari
Ġreyti ngida
ĠYusu pov
ma gida
rta ga
Ġmeh r
Ġal yan
ĠMiro bod
Ġhunar mand
sh et
un kali
Ġru hi
ĠDa ni
Ġqatori ga
ĠShahri sabz
Ġp os
Ġshifo kori
Ġotish ma
ĠV ir
Ġolin magan
ĠGermaniya da
Ġk ros
ĠV aho
Ġhudud larga
Ġbir on
Ġyu g
Ġmodda lari
Ġqayer ga
t rans
di ning
Ġta kro
Ġboshqa larga
ĠV engriya
ĠLiga sining
ĠY il
Ġvo k
Ġdi sk
Ġchegara si
6 9
T ar
Ġba kt
Ġbemor larni
Ġmaqo mini
Ġsohi bi
Ġqara ta
Ġtas lim
Ġpar cha
Ġraqi bi
Ġso tishga
Ġmo hi
Ġberish dan
om et
dosh lari
ĠXi va
Ġa lif
Ġko mil
Ġfutbolchi ning
sim liklar
Ġsaro yi
i rini
ri dagi
rgan gan
Ġinso niyat
zu qa
Ġyaxshi lashga
Ġchizi g
ĠS un
lovchi larni
ĠD ushanbe
rsa tiladi
Ġkamchilik larni
Ġoila larga
ĠSu lay
Ġguruhi ning
Ġobekt lar
ĠT or
Ġdavlat da
Ġxizmat chilari
Ġ199 4
urmat li
Bel gi
ĠOdam lar
f aviy
Ġqonun ning
ĠKo dek
Ġtadbirkorlik ni
Shi fo
Ġmamn un
ĠA lma
Ġay tmoqda
Ġeti lmaydi
Ġoi lani
Ġuchra shish
Ġtashxi s
si o
il ya
Ġde raza
ĠP rem
Ġyangi langan
Ġji gar
val lu
Ġzi yon
Ġbori cha
Ġchiqi lib
Ġjarohat langan
Ġfina lda
lin ton
Ġolgan lar
ĠYa gona
ĠYa shnobod
Ġenergiya sini
Ġtarbiya lanuvchi
Ġjoni vor
dromet e
mag omedov
Ġqi lar
Ġde mokrat
Ġiqtisodiyot ni
Ġto von
ĠMahkama siga
lo ni
Ġloyiha sining
ĠShan xay
il lari
Ġxabar larni
a omi
Ġto la
Ġbu larning
Ġkodek si
Ġix tiro
daqiqa sida
Ġboshchiligi da
6 8
da niga
miz dagi
Ġinstitu tining
f fi
Ġta sodi
Ġdyuy mli
Ġichim liklar
Ġqa lin
quvchi larning
Ġbuyum lari
? âĢĿ,
mat li
Ġshart nomani
Ġoila ning
Ġnarsa larni
Ġoliy goh
Ġnamoyish lar
% )
Ġhola tida
yxa tida
Ġiqtisodiyot ning
Ni ma
O dam
Ġber madi
shim ni
Akt risa
Ġayirbosh lash
Ð ¾
Ġyu tib
in ni
Ġmamlakat larning
Ġnarsa ga
Ġbayonot da
I L
ĠJ ar
Ġmas sa
Ġxara kt
ĠS te
ĠI gor
ĠTa biiy
kon lar
Ġsamol yo
Ġa sta
Ġmu sht
Ġke sish
Ġxodim larga
Ch et
rak tiv
Ġloyiha siga
Ġbudjet dan
y nash
Ġ [
Ġj urnal
Ġqo v
Ġsar lavha
Ġprofilaktika si
T ergov
h ay
ĠBu lar
ĠMa il
Ġtekshi rib
Ġya pon
Ġchiqa rilayotgan
Ġsoni ning
Ġochi ladi
Ġqarat di
chi ligini
ko logik
mon doni
Ġkasal likni
Ġten den
Ġqi zg
ĠKa rim
mino t
ĠG ur
iziston da
Ġo lmasligi
ra ydi
ĠJamo a
Ġhuquqbuzar liklar
Ġish ora
Ġda y
Ġtashkilot ga
ĠKatta qo
h ra
ĠXitoy dan
Ġfede ratsiya
nal tiriladi
ĠXu do
ĠHabi b
S irdaryo
i ra
ki ga
vo l
os e
ĠAb ra
Ġmig ran
ĠK al
Ġatrof licha
giye na
Ġqilish moqda
Ġjo zi
Yo ng
qo tib
lagan da
Ġband lik
0 1
Ġyangi cha
Ġbarcha sini
Ġuy lari
Ġme ri
lashti rilib
tishi miz
ĠSS V
ĠS on
Ġku z
8 5
Ġviloyati dan
Ġshi sha
Ġayol ni
Ġfoydalani ladi
ĠDon bass
Ġxala qit
n el
Ġsu yultirilgan
Ġusta si
Ġke lsa
Ġqurilma lari
Ġfermer lar
ĠSa f
ĠQo sim
Ġasosiy si
Ġmux bir
za ki
ĠK er
Ġtashkilo tiga
Ġvako la
Ġfax r
r dim
ma nov
Ġterror chi
Ġpeshqa dam
ĠBerdimu hamedov
var d
Ġmig rant
at or
xo tin
Ġinvestitsiya larni
navi yat
sh oh
Ġtur tki
Ġ200 2
tibor ga
rupsiya ga
ĠS tiv
lma sin
ĠS oli
ĠKoreya ga
ĠHu awei
Ġsh oh
rgaz masi
O ila
Ġta vallu
Ġreja lar
Ġvazifa larini
Ġtad biri
Ġrahba riga
Ġtayyor gar
Ġnor mal
en ergo
Ġbe far
Ġtashqa riga
Ġkel tir
Ġat testa
ov er
rsa ta
Ġbor uvchi
Ġshart li
Ke cha
Ġqotil lik
Ke yingi
x un
Ġjoy lardagi
vi zi
Ġchiqa digan
zim ga
Inter net
Ġbi laman
yo ta
aro g
Ġvazir lar
Ġmuhi tini
ĠYo ki
Ġjavobgar likni
6 4
Ġs xe
ĠG M
ĠP S
Ġsoha lardagi
ĠD iy
Ġmanfaat lariga
Ġaf sus
ĠYusu f
ĠHo lat
Ġkuchi ni
Ġha n
ro hat
Ġchiqi shda
Ġariza si
Ġjihoz lash
E ksp
ma yotgani
Ġo cha
Ġs m
du al
Ġmaqo mi
ĠNamangan da
h ti
Ġyash ar
ildi rak
Ġki sl
ĠQ izi
Av tomobil
ĠB ra
Ġno odatiy
Ġyuq tirgan
Ġhamja miyat
O bod
d yus
ĠM or
Ġiz hor
ĠNur magomedov
Ġyax lit
Ġo lishiga
Ġber sa
M W
Ġchi ziq
ĠSa akash
lashi ga
Ġkechi sh
Ġbera man
Ġayo lga
Ġvelosipe d
Ġi mo
vo y
Ġinstitu tini
T ah
Ġo ling
ladi k
Ġg rant
yo s
ĠM al
Ġolish adi
pi ni
Ġsaylov lari
ĠB ishkek
Ġshahar dagi
ras miy
Ġpedago gika
Ġalay hi
Ġtushi rildi
rganish lar
z larni
Ġha vas
Ġku bo
Ġxo m
Ġshahar larda
ĠZ idan
Ġtizim da
Ġyukla tilgan
Ġdekab rida
M oliya
Ġu rish
Ġfa ni
vi dual
ĠKa mo
ĠSe ul
ĠRus lan
Ġkonsul lik
ĠL av
Ġtasdiq lanadi
Sp utnik
v kasi
Ġo lsa
cha m
Ġyara sha
Ġp ech
et sk
Ġqoldi q
Ġqoldi rib
Ġusul da
Ġsui iste
Ġguber natori
ut u
Ġpu xta
xta tishga
Ġaytish di
Ġulgur gan
Ġqu lab
9 7
na tish
Ġyuri tib
V i
Ġre t
Ġmaydon lari
l mish
Ġpo yabzal
6 7
ĠQ iz
o rish
zi nchi
st ligi
ĠH y
ĠX or
te st
lashti rishi
Ġrasmiy lashtirib
Ġquyidagi larni
Ġhamdard lik
v ensiya
Ġke la
Ġtele gram
Ta dqiqot
Ġjahon da
ĠW e
Ġarti sti
k ni
Ġa liment
Ġ( @
ĠD oni
hi dov
Ġbah or
Ġmuroja ati
Tash qi
Ġf ur
Ġra v
Ġtuman lar
ĠUma rov
ri pp
radi o
ve to
Ġoch gan
Ġsurat lari
ĠPrem yer
on e
Ġjuft lik
Ġche girma
ĠMah mud
Ġsarf langan
Ġtushi rib
i ladi
ĠMa riya
Ġrasmiy lashtirilgan
Ġoqi b
Ġalmash ildi
z gacha
Ġtran zit
Ġhali gacha
ĠRespublika siga
ĠIn novatsion
Ġtizim larini
U zbekistan
ko l
ĠF MB
qo ti
Ġbaja rishga
Ġchar ter
Ġso diq
ĠVi ktor
modda sida
Ġmuh r
Ġalif bo
Ġyo zda
Ġmamla kati
Ġchiqa yotgan
Ġet tirilmoqda
Ġboradi gan
Ġofi s
smir lar
Ġhalokat ga
Ġpasa y
Ġdalolat noma
Ġsi rt
Ġaniq lab
Ġchiqi shiga
pa ce
ĠCh er
Ġavia qatnov
u ka
ĠU S
Ġchiqa ri
Ġfuqaro lardan
Ġhamja miyati
O xirgi
Ġp udrat
Ġhamkas bi
ĠYaponiya ning
f evra
ĠOy bek
Ġtop ishi
Ġsoha ni
Ġqam rov
ĠP entagon
Ġxalq ning
Ġodam ni
Ġvakolat xonasi
bil e
Ġtashvi sh
Ġnavbat dan
oniston ning
Ġmao shi
Ġmahalla da
P an
ver sal
Ġhozir gacha
Ġyuk sal
jaligi da
Ġkech di
Ġayt gani
Ġbosi mi
ĠV ar
Ġuni tar
Ġishla tib
ĠĠĠĠĠĠ Ġ
Ġtexnika si
Ġbildirgan di
Ġband ligini
Ġbirik tirilgan
T as
Ġso tgan
ru h
Ġmuvoza nat
al likni
Ġchaqi riq
Endi likda
ma na
Ġdavlat dan
Ġosh qo
Ġmuze yi
Ġmux tor
Ġkomp lek
Ġqulay liklar
on ni
Ġxabar lari
Ġegal laydi
opoliya ga
Ġmasofa da
g unga
vi a
Ġsport chilar
Ġsig nal
Tele fon
A gro
da rov
Ġqo lganini
Ġmamla ka
Ġhal qa
qnash uvlar
ti shicha
qi s
ĠE x
lay lik
ĠEr matov
ray miz
Ġke lasi
Ġega lariga
Ġklub lari
Ġreali zatsiya
h uquq
Ġo zuqa
zo larining
ko vich
in d
Ġqa noat
Ġxoh lagan
Ġusta v
Ġbarava rigacha
n ey
yo m
ĠE kologiya
Ġxodim larni
Ġhududi ni
Ġsu diga
Ġmintaqa dagi
Ġtelekanali ga
Ġofi si
Ġketa yotgani
Ġnota rial
Ġchet da
ĠBer lin
y en
ti p
vo yi
ut qaruv
chki na
ng lar
Ġp ush
qo q
Ġtashkilot larining
Ġstandar tlar
Ġuskuna lari
Ġtani lgan
yev ning
Ġyubo rishi
Ġmajburiyat larini
Ġuzay tirish
lar dir
Ġs ektori
Ġprofilak tik
ari q
tkaz moqda
ĠMe d
xsh aydi
Qaror ga
f eri
Ê »
Ġovo zi
lloh u
dromete orologiya
p an
to y
zbekiston ni
Ġmat n
tar biya
Ġmaqola da
Ġatrof dagi
Ġdi abet
Ġavtomobil larni
Ġnarx larda
Ġchet la
Ġbaland ligi
ĠSil va
Ġbeda rak
Ġha sha
Ġko loniya
Ġka maydi
Ġpasa ytirish
Ġtopish ga
Ġuchastka lari
Ġdezin feksiya
5 6
Ġs tat
Ġso linadi
Ġar zi
Ġahvo l
Ġo jiz
Ġj ome
o ldi
Ġuz um
Ġvakili ning
Ġdaromad lari
Ġfarmoni ga
de v
Tur kmaniston
Ġkiriti lmagan
Ġdizay ner
lari mni
Ġmashina sini
zolyut siya
Ġdavo lanayotgan
Ġturizm ni
Ġopti mal
5 9
R O
q mi
Ġ199 9
Ġo tr
min lashga
ĠMoskva ga
Ġqo lsa
Ġay bla
Ġoyi dagi
Ġyarat di
g re
u a
ĠX uddi
Ġolmay miz
ji k
tar di
Ġnazorat ni
ĠSa nitariya
Ġbay rog
Ġzarar ni
Ġbaza sida
Ġsa riq
ĠMa dina
ĠEron ning
ĠBola lar
Ġax loq
ĠJ i
rsatish ni
ĠBuxoro da
Ġolishi ngiz
ĠNor boyeva
Ġno soz
ĠDav ron
x gal
st ar
Ġqili na
ldi r
ka ri
ĠKa taloniya
Ġishi da
Ġdiplo mati
ĠErga shev
la tov
Ġu lanish
ĠT il
ĠP xen
Ġqonun lar
quvvat laydi
turi dan
zavto sanoat
Y an
ng res
Ġyo zida
do m
ĠA m
Ġho si
yu z
Ġqa d
ĠG lobal
ĠMa du
Ġtur gani
yu ta
Ġbuy uri
qi diruv
bo z
Ġista gi
Ġbaravar ga
ĠI z
Ġaholi siga
br or
turi da
Ġinte raktiv
anda y
Ġkoronavirus ni
zi k
dov chi
Avval gi
Ġbefar q
Ġhi n
Ġsaylov i
ĠBa ng
zi v
rilishi ga
Ġuchra shib
g ra
Ġqilin sa
Ġmuassasa lar
Ġ ning
cha t
Ġpay qa
qi shini
Ġsh osh
rin larni
ĠY ig
min laydi
Ġdiz el
Ġ199 6
ĠJ Kning
i roz
mo mali
yin larida
xon ov
pay di
ra ga
Sh unga
Ġqili shiga
ĠF ur
Ġmetr ni
moqchi miz
Ġliga si
Ġlav ha
Ġmo to
Ġshaxs lardan
Ġtarmoq larini
u rov
Ġqa doq
zil gani
el s
Ġust oz
ĠMil latlar
Q i
ĠV ideo
ru p
Ġemas mi
Ġshaxs lari
Ġchiqarish da
Ġmuvaffaqiyat siz
Ġmulo haza
Ġtahli li
Ġshu naqa
Ġalmashin uvi
Ġmamlakat larga
an d
Ġhudud ni
ĠTa dqiqot
Ġshta tidagi
ĠSuriya da
choq lar
Ġnut qida
ĠBori s
ĠK linton
Ġtajriba ga
Ġkafe dra
Ġjinoyat larni
ĠSan jar
kte mir
Ġq ul
ĠMu rojaat
Ġsta ji
Ġoqibat lari
Ġno tijorat
Ġne y
Ġajra tilishi
Ġtayan gan
Ġno kaut
la timiz
Ġshu lar
iziston ning
Ġeshi tish
Ġeki sh
Ġmuso dara
l y
C O
Q ur
Ġhudud lardagi
Ġodam ga
Ġklub lar
Ġsaro yida
ĠLit va
sh shoq
ĠR F
Ġshi r
Ġmajmua sida
Ġsmartfon lar
ĠEn ergetika
Ġsui qas
Ġsur unkali
Ġkasa ba
S oliq
Ġt unda
Ġbe gona
Ġmah ora
Ġizo lyatsiya
pro m
Ġtomoshabin lar
5 8
ĠMa sh
Ġoldi m
ĠZ iyo
ĠMu sa
rtoq lik
B ut
Ġf al
Ġxizmati dan
Ġjangari lar
Ġtaqsim lash
A gentlik
Ġku tilgan
Ġsa do
ĠHa li
Ġtolib lar
P ol
Ġ199 8
Ġhan uz
Ġshaf qat
lan tiradi
Ġish larida
Ġik kinchisi
Ġorgan larida
Ġvakil laridan
Ġamaliyo tini
ri si
Ġaf suski
Ġdisp ley
A L
Ġde r
roq chi
ĠSa loh
pay gan
Ġhissa si
ar es
Ġyo tib
Ġmemo randum
ribon lik
Ġrivoj lanayotgan
Ġinstitu tida
Ġmig ratsiyasi
cha ning
ĠQ ahra
Ġtomoni ga
Ġsabab lar
Ġtarmoq lardagi
Ġsammi ti
k lub
Ġjamoa sini
Ġkelgan da
Ġapel lyatsiya
Ġjamoa da
Ġqilini shiga
Ġyoz uvi
Ġbaho lanmoqda
Ġmarkaz larida
Ġogohlan tirgan
mp eo
Ġni sh
Ġshakli dagi
Ġkelin moqda
ĠSena tining
C ha
Ġmustaqil lik
Ġgumon lanuvchi
Ġyasa lgan
Ġkorpo ratsiya
ĠSar doba
Ġmavq e
p lami
u niga
Ġqo laversa
Ġsud lanuvchi
Ġhisobo tida
I ShID
li ta
ĠA liyev
ha mat
Ġtar zida
Ġmat ni
Ġhay ron
Ġtarqa lishiga
kredi t
H uquqiy
p us
ka nal
Ġgo lga
da lar
Ġf rak
diy ona
: âĢ¢
Ġish larning
araf shon
Ġtuga tish
Ġsum masi
ĠA niq
ĠH e
Ġqoldi r
ĠAndijon da
yin larda
Ġjamoa ni
Ġreja lashtirish
Ġinson larning
Ġmurabbiy lar
Ġavtotur argoh
Ġchaqi rish
Ġeshi tib
Ġboshqaruv ni
Ġrivoji ga
sa ti
Ġqo plab
ĠYo z
Ġxa los
Ġqarz dorlik
Amerika lik
s li
Ġxo nim
ĠC ovid
Ġgapir gan
ĠDast lab
Ġuy larning
Ġmuammo ga
Ġjarayon larini
veto for
7 9
j esti
Ġtu h
ĠU larda
qo la
Ġaxborot ni
5 4
Ġrivoj lanib
U S
ta dan
te k
Ġ4 50
Ġhafta lik
ĠU rgut
ko gol
Ġti m
xta tdi
ĠTa q
Ġtasdiq laydi
Ġnarx da
Ġqurilma si
Ġstar ta
ta riladi
Ġqonun buzar
Ġochi shni
Ġkuza tilishi
Ġavva liga
ĠTursun ov
0 6
Ġpro dyus
Ġmeh nati
ĠZ ero
Ġxorij dagi
Ġinvestitsiya viy
Ġmaso faviy
Ġyon da
Ġsalomat ligini
Ġopera tori
lga riya
lin di
Ġkor porativ
Ġtumani dan
Ġche ga
rga tish
Ġjiho zlar
ir lik
ĠNa shr
Ġisti rohat
Ġpasa yib
ĠShvey sariya
Ġuya li
K am
In son
ĠKom il
tey ner
Ġmarkazi ni
Ġholat larni
Ġnamoyish lari
Ġaka si
E F
ma gi
ĠU mumiy
ĠSa ida
Ġiz lanish
j ye
er ga
Ġtash lagan
Ġaj ab
Ġkim ni
p lam
u na
Ġu langan
Ġ199 7
Ġbe ka
Ġber ar
Ġbarava ridan
Ġol moqchi
Ġjihat lari
Ġta l
lma yotgan
ibor ga
Ġhamma sini
A xborot
unda i
ĠRa su
Ġraqam lari
Ġyuldu zi
Ġva hi
ĠS tar
nalish larini
ĠA OKA
Ġkiri tishga
ĠTa iland
Ġinspektor lari
Ġish lov
Ġtashkil lashtirish
te atr
ĠMu x
Ġday jesti
Ġo lsak
Ġkon stru
Ġhis si
7 2
R os
Ġyangi dan
Ġberi layotgan
Ġkanali zatsiya
alaba ga
Ġadabi yoti
ĠP re
Ġak siyasi
ĠBi no
shunos lik
ki no
Ġor bi
alaba ni
AQSh da
ĠTash kent
Ġborish ni
Ġyechi mini
udu diy
ĠXo tin
zi ng
Ġso luvchi
ĠS en
Ġya ng
log lar
Ġtvit ter
Ġchega rasida
âĢĺ '
Ġho lga
Ġbor gani
ks elli
re a
ish on
Ġiyul dan
Ġindi vidual
ĠA mazon
met rida
ĠZe landiya
ĠLat viya
Ġjoy dan
Ġrozi ligi
Ġqi ruvchi
Ġhimoya ga
oytax t
da li
Ġta lqin
Ġberish laricha
Ġresurs lar
yo riy
Ġin ten
zgar di
ĠLi viya
partam ent
ĠMay k
uro niy
mi nov
Ġmahsulot larning
Ġ199 1
Ġsahifa si
ĠRah mat
ĠXu doy
ni tar
Ġista y
Ġ199 5
Ġekspert lari
4 00
Ġs at
Ġtuman ning
Ġbola lari
sla v
alli f
yor lar
Ġshax si
ĠBah rom
Ġqirol lik
Ġsab r
Ġpul lari
ĠLiga sida
Ġreys lar
K MK
Ġo ktab
Ġaniq lanadi
Ġun dagi
H M
Ġbosh langani
oni da
Ġbildi rildi
ĠBe mor
Ġstansiya lari
x il
Ġhayoti y
sto niya
chi laridan
Ġuch rab
ba ppe
Ġqil yapti
Ġharakat lanayotgan
Ġhujjat da
ĠAzi zbek
ĠDev id
M in
Ġki slo
ĠP en
ĠQ ud
in lanadi
Ġolmay man
R ey
shi ladi
nal tirish
Ġsana si
ĠYaponiya da
Ġ12 8
Ġkelish movchilik
ĠMi crosoft
re t
Ġguruhi ga
yekt larining
ĠYangi yo
Ġmexanizm larini
Ġf ay
Ġish da
Ġoila siga
Ġqoida lar
Ġrea nimat
Ġmero si
ĠB arak
Ġet sa
Ġistiq bo
But un
H urmatli
Ġge ologiya
Ġjarayon ni
Ġbosqichi ga
Ġuzilish lar
no m
ĠBr yus
R u
ĠMa xsus
Ġxizmat ga
Ġmav ze
Ġtopshi riladi
chi larining
Ġna bi
Ġtajriba sini
Ġhayo tida
ng o
rish da
Ġte g
Ġtizim ga
Na poli
ki ng
ksi m
ĠS to
ĠC or
Ġulu shini
Ġes lat
Ġha di
Ġso ladi
ek sp
Ġberi lishicha
sin ess
Ġtekshiruv dan
Ġvita mini
Ġpasp orti
Ġkisl orod
b ra
Ġviloyat larda
Ġsanksiya larni
Ġver siyasi
Ġib n
ekshi ruv
Ġke linadi
mu ra
ati on
Ġboshla gani
Ġsentyabr da
Ġno bud
eri ng
Ġjinoyat chilik
Ġsan ti
Ġkodek siga
yanvar dan
Ġtabrik ladi
z ning
ĠX XR
kra in
Ġvideo lavha
ĠK itob
Ġav ton
Ġqozo ni
Ġyo dga
Ġas samb
Ġchaqi rib
harakat lar
gi shli
Ġdavo lanmoqda
Ġfuqaro ligi
Ġdegan da
Ġqiziq tirgan
Ġreytingi ni
T inch
Ġs entab
ĠF ir
Ġsoliq lar
Ġsamolyot lari
Ġbosh qara
Ġbildi rilmoqda
Ġjarohat lar
Ġprotses sual
5 3
ĠR iz
Ġber uvchilar
Ġun umli
Ġyechi b
ĠKengashi ning
lashi miz
Ġyuk lab
Ġaq lli
A dliya
ĠT A
Ġista gini
Ġsafar da
ĠNor ma
Ġuyushma lari
Yuqori dagi
a f
fo to
Ġavto sa
Ġaholi sini
Ġope ratsiyasi
Man zil
Tash rif
Ġyanva rida
D P
ĠG er
Ġdol larning
Ġomma bop
Ġolti ta
Ġbos qin
pik eri
0 4
Ġk lip
Ġsi ngli
Ġtuman lararo
Ġmaqola lar
oda t
Ġavtomobi lini
O r
ĠJ ye
Ġtaq si
Ġchiqindi larni
ĠM ish
Ġber ganini
am xo
Ġaloqa da
Mu zokara
Ġmaslahat lashuv
Ġtushadi gan
ĠD in
Ġmar keting
iston ga
Ġaq l
ĠYevropa dagi
Ġayb lanuvchi
chi lariga
Ġqa va
ĠE ksp
Ġvazir liklari
it ta
Ġbino ning
us e
mon taj
ĠCh u
Ġsot uv
ĠTay van
cha ni
Ġtuman larda
chin arli
6 3
Ġbi o
cha sidan
so ci
Ġtomoni da
Ġbah si
Ġnamo yishi
wa gen
T T
t lik
Ġchaqi r
q um
la ganini
Ġuch dan
Ġno rasmiy
Ġqarshi sida
Ġdaqiqa da
ti rilgani
xona sida
Ġdavo miy
Ġbritaniya lik
e st
yi shini
Ġmu borak
Ġfar qi
Ġoltin chi
s ko
Ġ0 8
ulot lari
Ġtenden siya
li ch
lumot larini
Ġtonna dan
Ġpartiya lar
Ġqatna shadi
ĠUsmon ova
Ġakkum ulyator
Ġattesta tsiya
bo zlik
Ġja sad
Ġraketa lar
Ġyangi lash
Ġhavo da
ĠOrtiq xo
Ġbosh lanib
tkazi lishini
Ġla qa
oniston ga
zgarish larni
ĠSharo f
Ġx ati
Ġsaq lanayotgan
Ġtalaba si
yil dagi
Ġsud ning
ĠFo to
Ġsanti metr
C H
M usta
y nadi
Ġidora lararo
Ġhajmi ning
Av va
Ġsaylov larida
us ni
Ġhafta dan
Rossiya da
Ġkengay tirilgan
d hi
y arog
la moqchi
ro b
ĠI kro
um u
gar on
ĠZ ar
Ġla h
limi ni
No vosti
yob ga
ĠSp utnik
Ban k
B unga
Ġkamay tiradi
h ara
mi ra
Ġdavlat larida
hi mov
Ġ9 3
Ġza min
ĠZ u
rov ka
Ġfarzan dini
ul lanib
Ġmetr ga
Ġyakun ladi
lyu ziv
lashish ga
Ġolish ning
Ġtele radio
Ġxa yo
Ġstrategiya sini
N ur
Ġqish ki
alaba dan
Ġtaqdir lash
9 1
X a
e line
chi shi
Ġtu yg
ona ga
ji ss
Ġyaxshi lab
Meh nat
ya siga
mo li
ĠM aro
Ġsta vkasi
s son
Ġbi ologik
ĠA rt
Ġfutbol chilari
Ġ0 1
E T
ĠK ol
ko va
Ġharakat lanishi
Ġxona li
Ġoperatsiya lar
Ġf ol
Ġgi per
Ab dul
cha larda
Ġso tsi
Ġhozir ga
Ġhimoya si
Ġhakam lar
Ġmas ka
Ġtov uq
ti lganini
ĠQ urilma
lin es
Ġhujjat ni
Ġmetr dan
Ġvaksina tsiya
ĠFer nan
Ġolmas ligini
Ġraq s
Ġqa shshoq
te riya
Ġsu dida
ĠRo ber
G ul
Ġbo rildi
Ġu kasi
Ġz ah
Ġkelayotgan di
Ch or
ĠEron ga
Ġqal bi
M is
Ġsi mp
Ġtush gani
Ġtaklif lari
Ġayb langan
ĠBe h
ĠDe hqon
R us
Ġhuquqi dan
Ġor tishi
Ġgi lam
Ġxususiy lashtirish
Ġtarbiya lash
Ġsum ka
Ġfarmon ni
epi demiologiya
h t
ĠO bi
Ġjoy ladi
Ġvakolat lari
ĠFor bes
Ġmazmun dagi
ĠFin lyandiya
B raziliya
Ġ Â·
ĠNo bel
Ġtaqdir landi
D il
Ġsabab larini
Ġinten siv
na ga
fes sional
Ġqutqa rib
Ġbakalav riat
Ġshi dda
K S
lovchi lari
Ġnazar dan
Ġbarqaror lik
zin pin
Ġaudi toriya
ĠBu x
Ġport lovchi
i mi
Ġche gir
tori y
ĠOsiyo dagi
Ġjad val
R ah
sh ildi
Ġso ya
yin ning
Ġsaylov da
ĠOl tin
Ġstadi on
p rezident
Ġsay tiga
Ġqur uvchi
Ġkutilmagan da
p ti
lo y
Ġsaylov chilar
Ġeshi tgan
Ġfor mat
Ġkama yishi
Ġay bi
ĠBu larning
ĠE le
Ġbemor larga
Ġchet ga
ĠChempi ona
Ġfik rim
Ġmustah ka
Ġjamiyat ning
Co la
O skar
p gina
Ġuchra ydi
D A
sa lar
lu a
Ġxaridor lar
Ġchiqara digan
Ġkoope ratsiya
Ġxizmat ni
Ġqis mlar
ĠYevropa ga
Ġtexnika lar
Ġmanzil li
a niq
Ġtar moqda
Ġkam si
me dia
ji d
xa nov
eni t
Ġprinsi p
n ya
Ġmuhi tni
Ġmuomala ga
Ġshi ori
kar ta
ĠYakka saroy
p ra
ĠG T
Ġet ganini
Ġ9 4
ĠHindiston da
Ġtermi nal
Av straliya
Ġhukumati ga
Ġmon taj
ci al
p arov
lan arli
Ġyil larga
ĠH ol
Ġkor pu
Ġhisob vara
Ya gona
ĠYaqin da
Yaqin da
Ġh ttps
Ġtadbir larini
Ġchegara sini
ĠPo mpeo
Ġmusobaqa da
ĠIb ragi
Ġs vetofor
Ġp utur
Ġkuni ni
ĠCh echeniston
Ġvako lati
Ġxotir jam
j om
r qi
u niyat
Ġpe sh
Ġmasofa ga
Ġahamiyat li
Ġmajburi yatini
Ġshara figa
Ġne f
Ġvaksina ning
Ġtaqiq lash
Ġsarat on
Ġyengi b
Ġdahshat li
Ġil di
Ġinson parvarlik
Ġqop lama
d ona
Ġqilin ganini
diy eva
Ġeka niga
s man
Ġoldin da
ĠBe kobod
ĠNo dir
Ġsamolyot lar
Ġrea ksiya
Ġbi lishi
Ġx iy
ĠJ ismoniy
ĠG or
ĠKi chik
s che
la maydi
yi shadi
Ġre zolyutsiya
in lari
Ġqilin ganidan
ĠTa x
Ġzarar langan
Ġmusobaqa si
Ġxabar ni
xta tildi
Ġyuq tirish
Ġ9 1
Ġyara tilishi
Ġku bogi
mal dagi
Ġqayer dan
Ġxususiya tlari
Ġhayda b
ro p
Ġke tishini
ba ng
Ġega siga
Ġuzoq likda
Ġsentabr da
Ġyechi mi
ĠLu is
Ġas rab
Ġhokimligi ning
Ġguvoh nomasi
ĠKrem l
ĠA ssa
Ġka ta
Ġsur gan
F il
ga lereya
ĠD UK
Ġno sozlik
ne ws
Ġulgur ji
U larning
Keyin roq
) :
6 1
M I
Ġhu sh
ĠMar g
Ġbino lari
ĠTi k
z mini
Ġtil la
Mar kaz
Ġayta man
q ilgan
qi m
ĠA sad
Ġtu sha
ĠX e
Ġqilin maydi
ksi n
Ġmaydo nini
Ġst ress
5 1
Ġfa lokat
Ġfil mda
mokra tiya
Ġkonsep siyasi
omet rik
A lisher
S in
l tan
ks wagen
ĠMChJ ga
rish tiruv
dar t
Ġtas vi
ari x
Ġbaho ladi
Ġtim so
ch qor
Ġaloqa lari
Ġshakl langan
vo si
Ġkon dit
Ġoqi m
Ġtonna ga
Ġyutqa z
0 7
Ġqoldi m
Elekt ron
Ġde vo
Ġnamuna viy
Ġchi dam
Ġbarcha ga
ĠFransiya ning
Ġasr ning
Q B
Ġi pak
Ġzar garlik
Ġuchrashuv lari
Ġkecha di
Ġsev gi
Ġsoti x
Ġjamo aviy
Ġkon teyner
mita siga
Ġtelekanali ning
Ġfesti vali
ĠB un
ston liq
ĠU chinchi
siq lar
Dast ur
Quyidagi lar
Ġso ati
Ġmurojaat lari
Ġk rip
gu rish
ĠVa tan
Ġiqtisodiyo tiga
Ġtelefo ni
na tilgan
re na
ĠT inch
zo ni
ul mon
kredi tatsiya
stiq lol
Ġko ngress
gu ni
Ġshar qiy
ĠAir lines
Ġtartibsiz liklar
Ġk las
Ġtadbirkor larning
Ġyetka zadi
Ð µ
Ġsoha lar
Ġdori xona
Ġavtobus lar
ĠSt re
Ġtushi rdi
Ġmuhojir lar
Ġbi la
bi dagi
Ġbir daniga
Ġqaror gohi
Ġket ganini
minist ratsiyasi
Ras miy
q aradi
ĠT ah
yna b
Ġhafta siga
ĠSu rat
Ġzona si
Ġista gida
Ġugle vo
Ġe lda
chi ligiga
ĠI lon
Ġta olo
z laridan
Ġchi ndan
Ġmavjud ligini
Ġturli cha
Ġbino siga
yoz uv
han garon
qa cha
ĠA stra
20 23
Ġrespublika si
oya lar
ĠTash kilo
Ġkampaniya si
Ġo bod
Ġimkoniyat ni
Ġten nis
p h
ma sida
Ġbi lamiz
Ġche ka
Ġqismi dan
ylayman ki
ĠOAV da
a lati
Ġke lini
ĠR im
Ġyu ragi
Ġti liga
ĠX X
ĠG ey
Ġmajburiyat lari
Ġmutla q
Ġsav iya
s si
Ġzar uriy
Ġtuga gan
Ġkonstitutsiya viy
Ġkos me
Ġetgan ligi
lmagan da
Ġinf latsiya
Ġdasturi ning
Ġxulosa siga
Ġkapi ta
J an
ĠM bappe
Ġvaqt ni
Ġmoy il
Ġso lgan
qqi yot
Ġqidi rish
Ġbut kul
Ġukraina lik
Ġq um
or ld
Ġyum shoq
Ħ ĸ
Ġbu lar
Ġkelishuv lar
Ġoshirilishi ni
ĠOlma liq
Ġmega pi
Ġbakt eriya
Ġke layotgani
Ġyo niga
Ġham roh
sp an
Ġbuy rak
ĠKo lumbiya
ĠK lo
Te x
Ġtahri r
Ġhujja ti
Ġqilish laricha
Ġtarmoq larida
Ġshax sini
Ġt ren
le riya
sta v
ye ra
Ġavtomashina si
Ġtuzi ladi
Ġnihoyat da
Ġp ley
Ġg er
var dio
Ġxalq qa
Ġmu shak
ĠH udud
Ġga dj
Ġbola kay
Ġichi dan
Ġtik lanishi
Ġaprel dan
Ġogohlan tirdi
lan ta
rin larini
Ġmuassasa larini
Ġsharoit larni
zal lik
7 4
r quv
Ġhukumat lararo
Ġhodisa lar
ĠAbdu sa
rsa tadigan
Ġkun larning
lumot da
Ġfi t
Ġbozor larida
Ġvaksina lar
Ġusul lari
A C
o ff
os us
Ġfuqaro ni
ĠQo simov
Shu ni
Nashr ning
8 6
qi dagi
Ġrahbari yat
Ġ17 0
Ġmaqsad lar
do b
Ġcha lg
Ġlavozim da
N iz
ĠB BC
ĠMu h
oniston dan
qnash uvi
Ġmamlakatimiz ning
Ġyal lig
iston lik
Ġulu sh
Ne ft
i ng
Ġqi layotganini
ĠO zod
ram vay
Ġla yo
Ġqaro v
Ġoktyabr da
Ġintizo miy
e sh
y lagan
ru z
mart dan
Ġqonunchilik da
Ġrejiss yor
Ġoq sho
ĠRas miy
S T
k lari
Ġbo rsa
Ġqon uni
Ġmahsulot ning
Ġdarvoza siga
7 3
Z o
ĠB on
Ġolma yapti
Ġpast ga
Ġustun lik
un o
Ġavtomobil larga
Ġmuhokama siga
Ġxalqi ning
ĠQashqadaryo da
ĠAng ren
Ġtaqdimo t
Ġsuper market
k ut
Ġ lay
Ġhaqi ni
yekt lariga
Ġkengaytirish ga
Ġsaba bini
Ġplan shet
Ġbal lon
Ġishla shini
ĠGi drometeorologiya
Ġballi stik
x el
er son
Ġmunosa batini
erma tov
U mumiy
a qlli
p al
Ġvakil larini
Ġbloger lar
e no
so tdi
yin chi
Ġkiritish ni
y lak
Ġqo lmadi
Ġti z
Ġ10 5
Ġvideo ga
Ġhaj mdagi
Ġsutka da
orda niya
Ġchorva chilik
Ġshov qin
o zlar
yi ladigan
ĠP at
Ġbuy urib
Ġbank no
ja ssa
ĠK as
Ġche ki
rgani shga
tira yotgan
mato logiya
ĠP ara
Ġse natorlar
Ġmart dan
ĠChi roqchi
Ġtama ki
Ġtaassu rot
p lash
ĠToshkent dan
Ġtushi rilishi
ĠMoskva dagi
H arbiy
en bekov
Ġoshi ruvchi
ĠQo di
Ġimkoniyat larni
Ġ199 3
Ġtopi lib
y liq
ĠS at
Ġoila da
Ġuyi dan
fiz er
q utqaruv
ara qqiyot
Ġza lida
Ġtekshiruv lar
Ikkinchi dan
Ġnish oni
Ġmu jassa
Ġda ha
Ġ( -
Ġbora yotganini
Ġuyush tirgan
Ġbur cha
Ġplatfor masi
Ġaeropor tiga
Ġso vi
kat ta
Ġvideo da
Ġara va
Ġjad vali
Ġtafsilot lari
D ina
ĠD S
Ta q
Ġbuzi lishiga
Ġhomiy lik
Ġfina lga
Ġorde ni
J on
Ġre ziden
lanish ni
Ġqismi dagi
ene va
iyul dan
Ġmutasaddi lar
Ġchempion lik
Ġyashirin gan
Ġp aro
Ġtu zib
zim ning
Ġtalaba larga
Ġqonunchilik ka
soci at
mp ton
Ġgap lash
Ġmadani yatini
st ro
ĠU mar
Ġkelishuv ni
Ġhissa siga
Ġmarhum ning
Ġdayjesti da
ko s
ĠY ulduz
um da
Ġret sep
Ġbo ji
Ġshahar ga
Ġal kogol
Ġhisobi dagi
ĠTash kilot
Ġmaz muni
Ġde tal
ĠK ara
Ġchiqa riladigan
Ġas rash
rna tilishi
Ġkechi shi
til leriya
Ġhayvon lar
Ġesda lik
Ġhavo ga
Ġge og
Ġgapi rish
Ġehtiyoj mand
al le
kam era
Ġhafta ning
ĠChi m
ĠTan zila
ĠYHXB B
i jtimoiy
Ġbu xgal
timiz ning
Ġjarayon lar
Ġsavol lariga
Ġmijoz larga
c tion
Ġs pikeri
ĠMe ning
Ġ %
Ġtu p
Ġichi sh
Hozir cha
Ġhaqiqat ga
Ġchorak da
Far mon
Ġtransformat or
Ġlah za
t ran
Ġish lat
ĠY on
Ġjazo sini
Ġoila ga
Ġqamrov li
Ġqu roli
Kor eya
ĠPa st
Ġtala biga
Ġso tiladi
Ġish lama
ud uq
Ġxabar larga
ĠL yu
xta sh
limi dan
Ġbozor dagi
oliq ov
6 2
ĠT ech
Ġ10 4
ĠMaj buriy
Ġvakolat larini
y lar
ko mat
ĠH uquq
Ġno xush
ĠTo yota
Ġbiznes ni
Ġqamoq xona
Ġkiriti shicha
Ġsmartfo ni
ĠDoni yor
Ġg ene
rsa tilayotgan
or lik
Ġtu yu
ĠSh uncha
Ġvosita larida
kon lari
Ġpolitsiya chilar
Ġsolish ga
Ġtuzil di
tibori ngizga
Ġke lishiga
ĠQ or
dor ligini
lay siz
shim ga
kilo metrida
e go
Ġqo shida
Ġvaqt lar
Ġmuammo sini
Ġang lab
ĠO na
Ġhaq dagi
Ġshubha li
Ġtasarrufi dagi
ĠHarakat lar
Ġoshqo zon
ya na
an t
Ġbelgi ladi
rab anda
Ġhukumat ni
Ġqurol langan
Ġmanzil ga
Ġniho yasiga
ya lar
Ġta sida
qa di
yil maydi
Ġxulosa si
Ġmujassa m
si dir
Ġyil larida
Ġhar f
Ġtanish lari
Ġram ziy
ĠA u
Ġqa riya
Ġsuv dan
Ġstandar tlari
Ġv eterinariya
Ġmumkin mi
mu dov
moq li
Ġkishi lik
Ġ9 2
Ġki chkina
ĠSa molyot
Ġuy larni
Ġkundu zgi
Mu h
k ey
zi na
es siyasi
Ġavi atsiyasi
ĠSu ares
Ġkapi tali
Amerika ning
Mamlakat da
As lida
P reziden
Ġfinali da
ĠSal mon
ĠKos on
ĠMol dova
sa ka
Ġsheri gi
Ġser vi
z lagan
Ġch er
Ġetish dan
xta tgan
nalish larida
Ġimzo lash
ĠSay lov
ibo rini
terror chilik
ĠB MW
Ġun von
ĠUil yam
Ġhin d
Ġm m
Ma da
mol chilar
Ġyara langan
Ġqolgan di
201 3
Ġmehmonxona lar
vati ya
Ġbudje tidan
j oriy
li tsiya
Ġholat larga
Ġkechi rish
Ġbuzi lish
Ġassotsi atsiya
gi t
Ġish sizlik
ss ar
ĠJu da
ĠE d
Ġbil maydi
Ġjamoa sida
Ġkorxona larga
9 8
ja ligiga
ĠF re
uy da
Ġtahriri yat
Ġbunyod korlik
0 3
uri dik
Ġpay tga
ĠBe ktemir
Ġpasa yti
Ġparvoz lar
Ġtarqat di
Ġhamkasb lari
Ġish lan
ĠI van
quvvat lagan
Ġhamkor lar
Ġqochi sh
Ġchidam li
Ġto k
Ġno tari
ĠE k
ĠE du
ĠSa idov
Ġyer ning
Ġak kreditatsiya
liga tsiya
Ġmuxbiri ning
X HT
g ul
ĠL os
Ġaniq lagan
pa yishi
Ġmaktab larida
Ġqut qaruv
Ð ½
Ġkelish di
Ġstati stik
5 00
ab ul
Ġqu lagan
era li
Ġtuzil malari
Ġavva lida
Ġdina mi
Ġmodda larni
I m
ĠMu hamma
Ġosh kora
Ġz avq
ĠBen ze
Ġkat taroq
ĠPxen yan
bi na
vo hi
ĠK ra
ona li
Ma mlakatimiz
Ka mo
ĠRas ul
O siyo
Ġma lika
rib garlik
rin larda
Ġkor pus
Ġis yon
Shu hrat
Ġvaziyat larda
Ġnamoyish chilar
ĠMo del
in ga
Ġfoydalanish da
ke chak
gich lar
Ġchegir malar
ya ngi
Ġemas di
ĠMu hi
Ġmustaqil ligi
Ġxalqi mizning
ir langan
Ġhudud laridan
To monlar
Ġtalaba larning
Ġtashabbus kor
Ġi den
rat li
Ġtarqa tib
Ġyov voyi
0 8
Ġkor eya
Ġtez korlik
Ġtan langan
Ġsavo d
Ġtor tildi
zavo tlar
gi dan
Ġbosh larida
ĠG en
Ġjoy ni
ker lar
ra lar
Ġqo la
ĠAsa ka
u ti
la shicha
ĠS MS
Ġish g
Ġqu rishga
pi tal
Ġbola ga
ĠKarimov ning
Ġjozi ba
at ch
sta l
Ġemas man
Ġmashina sida
Ġlavozim larida
Ġimkon siz
Ġsalomat lik
A sosiy
er e
Ġholat larini
Ġarti st
Ġishoni b
Ġloyiha ga
k ri
Ġmu rosa
ene ca
ĠAtam boyev
li zav
Ġeti lishiga
Ġeksp lua
alaba si
Ġyoqi mli
Ġde po
ĠU zAuto
kin s
Ġtayyor lanadi
Ġjavo bi
Ġar xe
Ġbildir moqda
Ġoktabr da
Ġtala bini
ĠMaktab gacha
Ga p
umu miy
Dina mo
Ġo lov
ĠK ush
Ġyu zi
Ġpan el
Ġklubi ga
Ġbarqaror likni
Ġfido yi
hti mol
L at
er ning
Ġhujjat larga
ĠSha x
Ġtarkib da
Ġha qqi
ro qda
ĠO li
ĠI rlandiya
Ġlo tin
Ġdizay ni
Ġfilmi dagi
ĠVaho lanki
sociat ed
ĠMa g
rna tgan
Ġxarid lari
: âĢĵ
ti tsiya
Ġqo lmagan
Ġberish gan
uz at
Ġbay roq
ĠHi sob
Ġqo layotgan
ov ul
Tan lov
ngiz dan
ĠCh ar
xsh ab
Ġjin siy
ĠVazir lik
Z eneca
ĠK lub
Ġoshi rmoqda
Ġtalab gor
Ġvosita laridan
Ġyetkaz di
ka zo
Ġzar ura
Ġtrans feri
ibo ri
ro dar
Ġim mun
Shu ning
ĠJo urnal
rilgani dan
Ġvi j
Ġmuallif lari
Ġqir rali
a tining
Ġmarta bali
Ġyetkazi ladi
Ġkucha yadi
voh ir
Ġlib eral
Say t
sari yat
Ġshartnoma lari
Ġmeda li
O II
lim etr
Ġmuroja atida
zat siyasi
Ġprofes sori
ĠRa mos
Ben z
âĢĺ ,
rilgan da
Ġme bel
Ġye lka
sion ar
Ġtarqa tilgan
Ġbiznes men
Ġkitob xon
Ġxotira siga
Ġm ete
Ġtu shayotgan
yot r
Ġet tirmoqda
Ġuchrash gan
Jo urnal
Ġmis siyasi
Ġma zali
mp ir
Ġkelgan di
Ġvaksina ni
N ar
l s
li an
pi ng
Ġrahbar lariga
Ġombo ri
Ġqil mi
Ġk ara
ĠX V
lim dan
qo ida
bang uli
Ġh or
sti an
ĠBa g
Ġtahriri yati
J am
li lar
Ġqil yapmiz
Ġpa ke
ĠMi ng
Ġka li
ĠHa yot
ĠKu ba
ĠPS J
lo qda
Ġso tishni
Ġno yabrida
Ġyuri tdi
Ġmaqsad larda
Ġamerika liklar
tkazi shda
Ġas f
Ġosh gani
m ey
t fil
ĠMa dri
xi o
Ġun cha
Ġvideo mu
Ġso tilishi
Ġmuammo li
Ġtayin langani
Ġfoto galereya
ĠĠĠĠĠĠĠĠĠĠĠĠĠĠĠĠ ĠĠĠĠĠĠĠĠĠĠĠĠĠĠĠĠ
p ligi
lo gi
ĠS ot
ĠA gentlik
ĠO n
ĠMu borak
Ġhokim ligiga
Ġyur ti
Ġuchast kasi
Ġmiqyo sda
rishi miz
Ġkorxona larning
ĠHa j
Ġayb lanib
Ġara lashuvi
ĠAJ ning
Ġterror chilar
Ġarxi v
si mon
Ġa chinarli
Ġtadbir larda
Ġmakta bida
Sev ilya
Ġso tildi
ĠB ill
av i
ĠE rta
Ġvide oro
Ġa sab
na d
Ġavtomobil ning
Ġmexani zmi
Ġmamn uniyat
x ara
yi m
rak li
Ġsud lar
Ġmonitori ngi
lizav eta
ĠS pace
Ġyaqin lariga
dov ski
Ġqurol lar
ĠMen ga
et t
ina n
Ġar tilleriya
Ġqurilma larni
Ġneft ni
Ġvirus ning
Ġdia gno
ro sti
ĠG vardio
Ġavton om
ara z
Ġet tirishga
ĠW a
Ġreji mini
re am
Ġpoy de
Ġasorat lari
s ert
dir gan
Ġqa sam
Ġyakun lanishi
llani lishi
Ġjang da
Gaz prom
Af suski
A na
ti s
yu do
Ġnima ga
Ġishla tilgan
p lanib
ĠU zoq
Ġfa zo
Ġberish adi
Ġchiqish di
Ġxiy onat
Ġk ab
ĠE rik
Ġholat larning
Ġmahsulot lariga
Ġeta yotgani
Ġzahar lanish
t ganini
Ġxodim laridan
Ġvazifa ni
Ġqiz ni
Ġbajar gan
Ġbayono tiga
Ġyuksal tirish
Ġah li
Ġreyti ngda
ĠHy undai
Ġto ngda
Ġqu lashi
Ġdi ni
ĠTo mas
van dovski
Ġimp orti
ĠFlo rida
Ġo lis
ĠU Z
Ġfar mo
Ġmetr lik
Ġahvo lga
umi niya
Ġ15 00
Ġvosita sida
Ġjadal lashtirish
Ġlitr li
ĠSh ermatov
rna tdi
Ġuyush tirish
Ġjiho zlari
Ġinfratuzil masi
i jo
j iza
Ġho kazo
ot ensi
shi lishi
Ġshartnoma sini
yun xen
Ġqiza loq
ĠFur qat
ĠEle ct
Ġ2 10
Ġchaqi ruv
mas ligiga
Ġmil limetr
Ġ7 50
ho zir
Ġguru ch
Ġchiqqa ndi
Ġg en
Ġaniq lanmagan
Ġajra tildi
Ġishbilarmon lik
ĠAbduha kimov
Ġkans leri
ltan la
Ġa ziz
Ġdo v
lmas lik
ĠRah im
Ġuchastka larini
Ġmavsu miy
Nor mativ
Ġsat hi
r un
y ga
â ĪĴ
Ġte j
Ġsab oq
0 2
ay t
ĠA lib
ot landiya
qot ar
il u
ab rika
ĠMa ma
ib ray
Ġinshoot lar
Ġazo b
Ġx abari
eri k
Ġmunosabat larning
Ġtav si
rtoq lashdi
Ġsaq langan
iston dagi
Ġbos ma
lova kiya
N ukus
S avdo
ay ri
ĠX AB
lom lashtirish
Ġsessiya sida
Ġreye st
l larida
u ning
Ġde sak
Ġqil madi
Ġkompaniya ga
Ġxavotir da
D on
Ġtan nar
Ġchegara da
ĠFransiya da
ch uk
ĠMa tiz
ish t
Ġbaja rib
Ġqop langan
Ġsiyosa tining
Ġzarba si
Ġimtihon lari
Birinchi dan
Ġpul ga
Ġkar tina
Ġfevra lida
Ġsammi tida
J SST
x ar
di yasi
lgani ga
Ġinternet ga
Ġchiqindi lar
Aniq lanishicha
LAR I
w er
x ov
Ġno mida
Ġshart lar
qituvchi larning
Ġxonadon lar
Ġzarba lar
ĠAkt risa
Ġmuharri ri
ĠMadu ro
Ġishtirok chisi
Ġvoqea ni
Ġzarar lanish
Ġxodimi ning
Ġtuzi lishi
Ġtash ladi
Ġno ut
Ġjoyi ni
Ġket yapti
Ġshimo lidagi
tibo rini
Ġtov ush
Ġtar zini
gu niga
Ġrahbar ligida
0 9
Ġyu an
Ġfoyda si
Ġdirektori ning
ĠZa far
men tal
Ġapre lida
Q urilish
p or
Ġta dqiq
Ġmamlakat lardan
Ġquri lishini
Ġar g
Ġayol larni
Ġmuhim ligi
Qar shi
ĠGul nora
Ġsodda lashtirish
zi mizning
Ġha zm
Ġja nob
Ġsi ng
ĠN ASA
Ġmaktabi ning
la mo
ri l
Ġbo rilishi
yo d
ĠN ote
Ġyer lar
Ġmen dan
Ġvirus ga
Ġjamiyati ning
Ġgoli ni
Ġbuyu rish
F er
sti kasi
Ġsaqlash ga
Ġpolitsiya chi
Ġbuyu radi
ĠTramp ga
zgartirish ga
Ġâ Ħĸ
- ,
I H
t mi
il gani
de mokratik
so g
Ġoshi rayotgan
ĠYe ChL
Ġg ripp
Ġni m
Ġbah ona
Ġr ul
Ġhaj m
Ġbitta dan
Ġqora mol
si shiga
Ġx uru
ĠT Journal
Ġhuquq shunos
az ab
Ġyarim himoya
Ġkamay tirishga
Ġaytilgan di
ĠQurbon ov
lo hida
ĠI sa
rini shidagi
Ġkatta lar
Ġtarqa lib
Ġkirish di
l qo
Ġko man
Ġmashina da
Ġxonadon da
H ech
J ismoniy
la yapti
ti riladigan
ur e
Ġay lanish
ĠP fizer
ĠG ES
Ġis bo
sb urg
Ġbiti mlar
O zar
lan madi
Ġxabar ga
Ġyubo rib
ĠOl ti
Ġtahli liy
ĠLav rov
A ta
or tiga
ĠA x
Ġtu s
lak lari
Ġsarf lagan
Ġpasa yish
Ġyigi tlar
ĠTadbir da
Ġsarat oni
na u
Ġyosh lari
Ġtanlov da
ker berg
un d
Ġolish dan
Ġbil mayman
Ġbizne si
cha sining
lo yiha
ĠO stona
ji hat
Ġ10 2
Ġse xi
rilishi cha
ĠII I
Ġhokim lar
az na
ĠAgar da
ĠPo p
des liga
ĠM yan
ĠE stoniya
Ġmaterial larni
Akt yor
Ġmiso lida
Ġmetropoli te
c al
Ġko tib
at lar
yi nini
Ġxa fa
Ġaktyor lar
ĠXAB AR
U m
na zarov
Ġbe qaror
Ġsi ndi
lam jonov
rol lik
ĠBiz ga
Ġqiyinchilik lar
ĠJe enbekov
ĠAvva liga
tir moqchi
Ġiy undan
Ġkredi tlari
Ġqiyo s
Ġsoniya da
Ġindek si
Ġfizi ka
J i
Ġosh pa
me dova
Ġsurat larini
shin yan
Ġdeyish di
ĠSp ot
Ġgav jum
Ġdo ktor
G u
Ġaniq lashga
Ġqoida larga
Ġtakomillashtirish ga
ĠGur banguli
8 1
si rini
Ġma kro
Ġtash lanadi
ĠU l
Ġasar lari
X i
Ġu krain
Ġj osus
Ġke lsak
lumo ti
Ġlo go
lashi shiga
uliyat li
Ġqobili yatini
Ġmajlis da
Ġmagist ral
Ġqano t
ma v
Ġham yon
Ġno zik
Ġetish ning
ve st
Ġqo lishini
vat t
Ġtas dig
Ġkon ver
quvvat ladi
um ta
Ġqay tadi
Ġnarx larni
Ġtara fi
Ġulgur di
Ġpsixo logik
or on
ĠBu siness
Ġsavdo lari
Ġhujum lar
Ġfikr da
ĠOsiyo ning
Ġjoylashti riladi
qay ta
Ġqo lingan
iy unda
Ġsam mit
ĠStre et
Ġf b
Ġhi d
Ġinf or
HD Yo
cha dan
Ġmaydon ni
zgarish siz
Ġjon lantirish
Ġokea ni
I R
Ġte kin
Ġshu ki
ĠAQSh dan
Ġguruh ga
Ġerkin lik
sentabr da
ĠBozor ov
Ġu lash
Ġtayyor lagan
ra h
Ġqo zog
Ġbiz dan
Ġmegapi kselli
r fa
mo t
Ġf lag
Ġp atrul
Ġtaklif ni
Ġdastur larni
Ġtushun tirib
ĠEr kak
Ġmuxlis lariga
ĠKodek sining
Ġbir dam
Ġmi ting
Ġfa zi
Ġil hom
Ġinson larga
Ġshifoxona siga
Ġbaj aradi
Ne ga
o ti
in dan
ĠXitoy dagi
ĠAbdu g
Ġbirik tirib
tak ror
Ġimzo lanishi
ĠFar mon
Ġoqibat da
: âĢĶ
Ġis lo
Ġchegara dosh
Ġofi ts
Ġi roda
de ngiz
ĠR os
Ġba davlat
Ġxizmat laridan
Ġharakat ni
Ġ16 9
Ġsuh bati
P O
tib biy
Ġag rar
Ġislohot larning
Ġeksplua tatsiya
ĠB ungacha
ĠY oq
Ġnatija ni
Ġbaja ri
go hida
Ġavgus tida
Ġetish lari
rim da
riq noma
Ġbarqaror ligini
Ġkrip to
a no
ti li
bi ridan
Ġhuj u
Ġban komat
Ġza li
Ġsal qin
Ġzaxira si
8 9
Ġs terling
ĠP ul
Ġbelgi laydi
ĠKo ngress
ĠXi aomi
Ġmustahka mla
Ġs ekto
ĠZ ari
E K
T ransport
ha lokat
ĠN ura
Ġkiri tishi
po st
Ġboshqaruv ida
Ġfilmi ning
ĠFor d
ma xsus
ĠU xan
Ġro bo
qul ladi
Ġtuz gan
ti rsa
shi k
ĠI r
Ġ20 25
ku bo
Ġbil magan
ĠSo biq
Ġdori lar
ĠChi na
Ġtra ssa
Ġqa la
ĠZ ul
Ġmaktab ning
Ġnima dir
Ġmanba i
Ġmusul monlar
ĠSulton ov
limi ning
he mpton
Ġolishi miz
Ġkonser va
ij d
Ġkros so
t magan
Ġqil may
Ġnamuna lari
Ġu zib
Sh ay
Ġyetka zildi
Ġmon opoliya
Ġt ramvay
Ġa yiq
ĠP lus
Ġdaraja sidagi
201 2
Ġhaj mda
Ġfutbolchi ni
Ġnuq son
Ġtili dagi
ri lar
Ġma sha
mi yatini
Ya rim
pu tat
Ġmanba siga
Ay rim
Ġmaslahat chi
! Â»
Ġsharoit lari
Ġusta ma
Ġki yib
may ev
Ġsarf lanadi
Ter miz
Ġast ron
I IV
dor ligi
Ġberi lib
oro ng
Ġmuloqot ni
Ġuchuvchi siz
Ġhor diq
P ay
t se
Ġhisob lamoqda
Ġmuvaffaqiyat ga
Hujjat da
Ġakademiya sining
Ġqarov siz
Ġsa k
rin dan
Ġrekor dini
Ġqarat gan
Ġuzat ma
Maj lis
zi lari
mi ng
oktabr da
ĠCo mp
j ro
ni shi
il d
Ġko e
lma yotgani
ĠP yotr
Ġix cham
Niz om
Ġbor ki
xta tiladi
ĠDe nov
erge tik
stra da
Ġnizo mga
Ġoqibat larga
Ġboshliq lari
Ñ Ģ
ve dev
Ġfikr ni
Ġora liq
Ġvirus ni
ĠButun jahon
Ġip oteka
g raf
iy undan
Ġdavlat larining
ku ratura
Ġtaq chil
Ġkuch siz
Ġoxi ri
fe sti
Ġparvoz larni
ĠR usta
Ġye rosti
ĠTa laba
ĠBo lgariya
Ġyubo rishga
ĠLe vandovski
Ġkirish da
Ġkama yadi
ĠBayden ning
A ya
E FA
Ġo mili
Ġg or
Ġyu ra
sti l
Ġgaz dan
ib biy
ĠRah imov
Ġmusi qiy
say n
Ġnuf u
ĠNATO ga
Ġolam dan
Musta qil
be y
bo zor
; âĢ¢
c ation
zi lib
Ġbe jiz
te mir
Ġga rov
Ġloyiha da
Ġtez likni
zan d
Ġayb lanmoqda
lanma gani
Ġolmaydi gan
ĠTadbir kor
Ġyodgor lik
ri yat
Ġp otensi
Ġja sa
Ġshu kr
Ġquri lishiga
Ta x
langani dek
Ka sal
Ġstandart larga
Ġpol kovnik
G i
Ġb ungacha
son aviy
Ġharakat langan
Ġpul lik
Ġajra tiladigan
Ġfaol lik
Ġjabr langanlar
Ġnarko tik
ĠAstra Zeneca
M iro
k z
ar masiga
Ġe lga
Ġyil ni
po va
Ġuniversite tini
Ġmuh abbat
Ġkeldi k
Ġtamo m
la ck
Ġolma gani
Ġoq sil
mish lar
Ġumr bod
E N
Ñ Ĥ
Ġsavo liga
Ġfarzand larini
Ġdiqqat ga
Ġjumla sidan
Ġrespublika dagi
ĠLo la
Ġekstre miz
ĠShoh rux
na vo
ĠA ks
Ġmi litsiya
Ġxabar noma
Ġkun dagi
rta n
Ġetish gan
Ġhamkorlik ka
201 1
Ġayrim lari
mondon ligi
ch chiq
Ġse x
Ho ki
Ġyar midan
Tadbir kor
Ġstadioni da
Pan demiya
Ġk Vt
Ġmeva lar
rip al
L ondon
Ġyil ligiga
Ġbino da
Ġhissa sini
Ġshtam mi
Ġdarvozab on
F ran
Ġ Ø
zo yna
ĠY ev
Ġkoe ffi
a zo
h r
Ġtaqdim noma
Ġkechi rgan
Ġtanish gan
ibo ran
O limlar
zi ngizni
ĠM ur
aro qli
Ġyasha shi
Ġxonadon ga
avto bus
ĠAssa mb
Ġbe zo
Ġtartib sizlik
Ġkeyingi na
Ġsinov lar
Ġmustaqil ligini
Ġes lab
Ġad vo
ĠM os
ko missiya
am chiq
Ġqatnash chilari
l lashga
ul loh
Ġrafi qa
l bola
mi dor
fa qat
Ġ11 5
Ġmaqsad lari
Ġsal moqli
Ġpoytaxt dagi
b rid
Ġta qish
at lari
ĠH D
kompaniya si
A dolat
at korlar
Ġke tadigan
Ġbir lashtirish
Ġmar tda
Ġkundu z
Ġsarf lab
Ġsot uvi
muhi t
Ġtanqis ligi
G B
Ġt ro
ta man
Ġte atri
ĠRe d
Ġavgust dan
Ġlayo qat
u el
rat orlar
ĠY ar
Ġtalab ni
Ġtashkilot lariga
Ġkorxona ning
Ġhokimiyat ni
Ġqondi rish
Ġstat sionar
a x
de al
ĠO datda
Ġti nim
Ġno aniq
Ġtopshi rilishi
Ġkirish gan
Ġsharoit larini
Ġhamkor ligini
vay t
Dast lab
u lom
ver ton
Ġdaromad lar
Ġzi ch
Ġkont ent
e w
z siz
zo larini
Ġavval dan
Ġmanba larga
Ġpan jara
ldi rildi
Ġfa miliya
Ġtayyor lanmoqda
lak lar
Y un
k lass
ra yotganini
ĠK O
Ġmasala larga
Ġmul kini
q uduq
Ġde sa
Ġega sining
Ġharakat ga
mma viy
ĠShifo korlar
ĠVol kswagen
ĠTA SS
t siy
Ġman tiq
Qo ida
Ġsp ek
ĠFran k
Ġnazora tida
ĠBenze ma
ĠM uz
Ġye gu
Ġxavfsiz ligiga
timiz ni
Ġqurilma ni
Ġzavo dida
Ġqatna shib
zov ta
ĠShay x
Ġqanoat lan
9 3
S er
na p
ĠI D
Ġuy lariga
Ġnashri yot
Hu jum
Ġmavzu si
= "
shi r
ro d
Ġte kis
Ġsa yin
ev in
tu man
Ġpartiya sidan
ijd uvon
l ch
chi m
ĠS ul
eri ga
Ġharakat lanuvchi
Ġvideo si
Ġs ey
Ġpay tlar
Ġtushi rgan
xo dim
Ġkeldi m
Ġcheklov larni
Ġraqobat ni
Ġshara fini
ĠXay r
B og
li nayotgan
ldi rilishi
Ġtaq vi
Ġsuver eni
utu be
O AV
Ġy ir
ĠR ish
Ġhisob layman
ĠBa x
Ġob yek
Ġsuhbat lash
Ġola siz
Ġte jam
ĠHa sanov
Ġchiqish lari
Ġbaja rishi
ĠYe lizaveta
Ġtahri rda
Ġnut qi
ĠTex as
Ġta qo
ĠO hangaron
Ġ12 5
Ġota sining
Ġresurs larini
a lari
ul lanadigan
Ġ20 24
Ġuy larda
Ġdekabr dagi
ĠHam masi
York da
Ġtushu na
chi g
Ġay on
ĠZ ay
Ġmudda tlari
Ġmashhur likka
Ġjangari lari
O lib
Ġbo t
Ġbe kati
val yuta
Ġdi ler
Ġmaq bara
Ġtaklif larini
Ġhokim liklar
Ġiz lab
Ġxodi miga
ardi an
ĠBux oriy
K el
a yotgan
Ġdeb yut
Ġhisob lanib
Ġchiq magan
Ġmutaxassis larning
Ġtarkibi ni
kitob larga
I stiqlol
u da
Ġmu tatsiya
ay rat
Ġkiyi mlar
Ġpre m
eys buk
Ġyumsha tish
Ġvata nga
Ġrasso m
ĠBryus sel
. âĢĿ
mo liya
ĠO limlar
Ġqilin uvchi
tir maydi
Ġuyi ni
Ġsuhbat lashgan
Ġyangilik lari
f shon
ma sining
tdi k
Ġmuzokara larda
! âĢĿ,
Ġjan ub
Ka nada
ĠFar moni
Ġbuyurtma chi
ĠFuqaro lik
Tas vir
Ġtu rini
son ning
Ma xsus
ĠCh an
Ġvosita lariga
Ġob ligatsiya
Biz da
Xitoy da
Ġ198 0
Ġ lik
Ġha lo
lov larini
Ġetgan likda
ĠDe mokratik
Ġmode llar
Ġoperatsiya lari
Ġjamoatchilik ka
Ġoro li
ĠPan demiya
Ġkul gi
Ġtavallu d
Ġp alla
Ġ2 20
Ġxona si
Ġkirish ni
iyul da
ĠSurxondaryo da
ĠHam ro
gent likning
si st
Ġpolitsiya ga
Ġtaraqqi yo
Ġmoto tsi
Z ar
ĠA TB
Ġqa dim
qo niy
ĠAl lamjonov
ĠFa x
Ġklubi da
Ġstavka lari
Ġuglevo dorod
Ġa xir
ĠQ ibray
ĠTur k
Ġguruh da
Ġkelin di
Ġkurs lari
8 7
et cher
Ġtadqiqot lari
ĠTojikiston da
Ġkelgani da
cho rak
Aya ks
? Â·
Ġo tam
harakat larini
Ġkamera lar
ĠFilipp in
Ġ zir
Ġish larining
Ġku tayotgan
ĠP ensiya
bar di
Ġmen da
m enti
re ga
bo niga
ĠAb d
Ġsamara siz
ĠRa shid
Ġtadbirkor ga
ĠW all
Ġmuzokara larni
Ġbori shini
R I
ni n
va kka
ka s
lo riya
rsa tildi
Ġkor eys
Ġaniq lanmoqda
Ġru hida
Ġpasa ygan
Ġfesti va
ĠS ino
Ġbe zovta
Ġte p
Ġhujjat larning
Ġar bob
tar gan
Ġkondit sioner
8 2
ĠM ora
Ġno mu
Ġjoy lariga
Ġishon chiga
Ġomma ga
ĠKu per
ĠAlma zbek
8 4
Ġs tol
Ġtu rishga
Ġdeb yu
timiz ga
Ġtadbirkor ning
Ġkino teatr
Ġmukofo tini
Ġiden tifikatsiya
ra siz
Ġol qish
Ġmaqo m
ĠPa shinyan
Ġyuldu zlar
S ov
Ġs me
ĠP oli
mati ni
Ġekan ligiga
Ġmuassasa sida
ĠJa miyat
Ġfaol lashtirish
Mu sobaqa
Ġgav da
o b
la desh
Ġketgan di
Ġtik lashga
Ġhamma ga
ĠUniversi tet
N K
ta y
ĠV et
Ġsay landi
Ġtalab ga
Ġvazifa sida
ĠHindiston ning
ĠPav el
S ulton
ĠA zar
re al
ĠO g
lon lar
Ġxodim ning
Biz nes
Ġsifat siz
Ġchar m
ĠSer xio
Ġqobili yat
Ġh ur
Ġqara tiladi
shish ga
Ġprezident likka
Ġnamo z
Ġishon chini
ĠItaliya da
at ni
ĠA va
Ġfakul te
ĠAkt yor
Ġda fta
en ce
ku zat
Ġchet dan
ĠPu tinga
Ġusul larini
Ġaytish gan
ĠQar or
ĠAsh raf
ĠRe y
xi t
Ġbola si
Ġkasalxona da
ĠJam g
ĠKonstitutsiya viy
Ġasf alt
L ey
x ot
ĠJ ey
Ġtalab larni
Ġtizimi dan
Ġegal lash
n ud
o yasi
Ġux lab
f ku
ab t
Ġham jihat
Â» :
uz or
Ġkel tiri
rna k
Ġ24 0
Rossiya lik
Ġpoyez di
ĠSer biya
Uni versi
Ġsaq lanadi
lana yotganini
avf siz
tas vir
p il
rsa tilishi
Ġayb lagan
avgust dan
b di
l end
Ġy aroqli
chi pta
Ġyo nidan
ha d
Ġmode llari
Ġshoxob chalari
dagi dan
en dan
bo bi
hi ni
Ġyetkazi shi
Ġmul tfil
kidla moqda
Ġnishon lash
Ġmanzi liga
Ġsuiqas d
Ġb un
ha da
Ġtez likka
lovchi ning
zgar gan
ĠBiz nes
Ġaf s
ĠPar lament
Qu yida
ĠMFY da
Ġram zi
Ġkoeffi tsiy
ya sh
larga cha
tan ya
Ġhamkorlik dagi
Ġeski rgan
lasiz mi
Ġteja sh
ĠGey ts
Q on
ey t
tkaz malari
To k
Li on
Le ster
D onald
K XDR
Ġyet uk
Ġlozim ki
Ġgi giyena
qul landi
psi g
Ġma kon
Ġbi ometrik
Ġmashina ning
Ġ13 5
Ġxat ar
Ġhujum ga
esti val
ĠIsh lab
Ġxiyo bon
uskuna lar
Ġmagni tu
M er
Ġde l
Ġprezident ga
Ġqurish ni
Ġtoifa si
iyo sov
ĠJalo liddin
ĠSaakash vili
Ġtush kun
Ġkorxona larni
Ġdaqiqa dan
sentabr dan
Ġopera tiv
chqor ov
; âĢĶ
si ngil
Ġde dim
Ġyil lardagi
rin gan
Ġsi zlar
ĠE sh
Ġsu st
kli f
Ġvaziyat ning
Ġmarta dan
Ġxona lari
ĠGu ardian
ĠInve st
3 00
ta om
Ġde mokratiya
Ġbor dik
Ġkolle ksiya
Ġtaom lar
Ġti lda
riga tsiya
Ġhukumati ni
Ġjurnali sti
Ġfoydalani ladigan
ĠAs sociated
Ġeti shiga
Ġyaqin lashib
Ġkorxona da
Ġgu vohi
ĠSk y
ĠEm man
Ġs ul
zi mizni
oy ez
Ġmar tida
Ġsavdo siga
Ġst udiya
Ġyetish tirilgan
Ġshifokor ga
Ġoz gina
T ay
d us
ĠA be
Ġqilingan da
rgani ldi
Ġasos li
201 0
Ġmarkaz lar
Va tan
Ġvarian ti
ĠKel gu
Ġuch rat
Ġmo da
Ġtani shing
ĠMed vedev
B A
J urnalist
Ġbu naqa
Ġkon vensiya
Ġkel yapti
ĠRo j
Ġmulk ni
ra ri
ĠX ali
Ġbarcha ni
Ġat le
Ġaksiya lar
ĠMartin es
ka sini
el la
ho niy
Ġaj rash
Ġtushi riladi
zbek energo
Ġfoizi ga
Ġaprel dagi
Ġmavzu sidagi
ya k
Ġu rishi
Ġte at
Ġsa nitar
ĠY or
Ġsavdo lar
Ġidora lariga
Ġishlash da
ĠSuriya ning
ĠAng ela
; âĢľ
B ol
p ri
Ġb on
ay r
pi b
Ġnatija larni
Ġsud yasi
Ġpoyez dlar
Ne ws
ĠIkkinchi dan
Rey ting
nad zor
Z R
Ġqildi lar
Ġpay ti
Ġolin sa
Ġrasmiy lashtir
Ġsuv da
ide oda
ĠHo ng
Ġmashina ga
Ġxonado nida
Ġnotari us
i lash
Ġb uvi
Ġs k
ĠM it
ĠK ir
Ġri ngga
ĠMu xt
Te mir
Ġmusobaqa larda
tor lik
Ġnaza riy
Ġkayfi yati
Ġu zil
ĠSh od
Ġqar ay
Ġun um
Ġyak unda
zbek kino
ĠMe nimcha
Ġkarantin da
yur ar
Ġmasha qqat
cha sini
Ġxiz matida
Ġet tirgan
Ġenergiya sidan
Ġ21 1
Ġkechi rdi
Ġyubor gani
Ġkomissiya siga
qul langan
ĠJon s
ĠCo ca
Ġnazora tiga
Go ogle
y da
Ġe g
Ġjurnali stika
Ġtuza lib
ĠAli mov
Ġsingli si
8 3
M on
m be
ri layotgani
roq qa
EL TS
ĠGvardio la
ĠI ordaniya
ĠTur kiston
Ġpoytaxt ning
ĠGol livud
p pa
uq o
ba si
apre lda
bu loq
Ya shil
ĠLi van
ĠBirinchi dan
Ġdirektor lar
Ġdunyo qara
Ġkasallik larga
Ġobyekt lari
ĠA ma
ĠU n
fa ti
rin lar
Ġturib miz
tiradi gan
Ġtaqdir langan
Ġrav na
e na
mp ort
su zu
Ġmuno zara
Ġbirga likdagi
Ġosti dan
ju da
harakat larni
l qini
s essiya
ĠS ev
ĠU st
Ġqil masdan
lov dan
Ġsoat lik
Mi sol
udj et
kitob lariga
ĠR odri
Ġak siz
ĠHo ki
Ġbank ka
Ġasos lari
ĠJa parov
Ġband lari
Yuqori da
Ġbriga da
Ġko inot
Ġqo niq
no z
ĠA q
ul lari
ĠX ususiy
Ġtayyor lashga
Ġ10 1
Ġbuyum larni
Ġdavri dagi
Ġalda b
si g
ildi rilishicha
quvchi larga
Se nat
Ġtanta na
Ata lanta
mi na
ĠT ibbiyot
ba diy
Ġrivojlantirish ni
ĠAb bos
Ġvaki liga
Ġtalaba larni
Ġobekt larni
ĠSk ripal
M Yu
Ġo s
ha qiqat
Ġdavlat lariga
Ġqu sh
tqi ch
Ġishtirokchi larining
Ġo bida
Ġ6 50
Ġmaydon chasi
Ġamal dorlar
Ġ26 6
Ġayt dim
Ġtala fot
M etall
ĠB itta
Ġ16 7
quvvat lab
Ġ198 9
Ġtun nel
Ġinfratuzil mani
t re
lan ga
ĠA g
Ġqay n
tan siya
zu k
Ġqur boni
Ġxat boshi
Ġariza lar
I F
t larni
Ġta z
Ġchet lab
stan dart
Ġmavsum ni
Ġfilial lari
ĠUchrashuv da
ldin roq
Ġa ku
Ġti joriy
Ġsoat ga
ĠTur li
; âĢĵ
A d
Y i
t d
le na
ĠY uriy
Ġayb lab
Ġtili dan
aprel dan
Ġshimo lida
Hi so
Ġshafqat siz
Ġnatija sini
Ġyordam ni
Ġhudud lariga
Ġpo midor
Ġkasallik larni
Ġmuddat larda
200 1
An je
ĠHay darov
Ġu rinib
ji da
Ġfaoliyati dagi
Ġsavdo ga
Ġbemor ga
ke an
Ġozod likka
Ġkotibi ning
Ġumum milliy
Ġstandart lariga
qi shda
Ġmu qar
Ġda li
es su
Ġshahar sozlik
Ġbil may
Ġmarkazi dan
Ġbaho lanadi
Ġnavbat chilik
Ġdepartam entining
k g
chi sh
Ġf lo
Ġbu zil
Ġjoy lashtirgan
Ġuni versal
quvchi larni
Ġtayyorlash da
Ġmahsulo tini
tara m
Ġ lin
Ġf abrika
Â» .Â«
ol tin
ĠC ent
Ġmuassasa siga
olib lari
Ġata lgan
ĠSay f
ĠWa shington
Ġz ara
Ġishla tiladigan
Ġrang dagi
Ġmakt u
: _
m uncha
t qa
ir lar
Ġpi ro
Ġyaratish da
Ġishtirokchi lariga
S iyo
p r
ĠR od
mu lo
Ġbelgi lanmoqda
Ġuy dagi
Ġekan miz
Ġsho x
ĠBe zo
Ġmustaqil ligining
Ġyopi lishi
Ġjadva lida
Ġegi zak
Ġhasha matli
A pp
X u
p la
Ġbir dek
Ġbelgi lar
Ġas li
Ġprezident ligiga
ĠHo shi
Ġtarqa lishini
Ġturi stlar
Ġsharoit larda
Ġyevro ni
l z
zo va
ĠG riz
Ġ10 3
Ġas lo
Ġmaktab ni
Ġtayin lanadi
Ġchuqur lashtirish
ĠPa k
Ġkarta lari
Ġekspertiza si
Ġkel tirishi
ĠMu za
ĠRo man
zgarish larga
Ġbut lovchi
ra v
ĠG uter
Ġkelishuv larga
Ġmajburi yati
âĢĿ âĢľ
ĠI lgari
Ġodam larda
Ġbozor larda
ĠFer uz
Ve st
Ġmarka zda
O Q
Ġyo nidagi
ĠB ot
Ġtashkilot larida
Ġjinoyat chi
Toshkent dagi
Ġz abt
Ġkucha yib
Ġbaja rilishini
Ġbildirish di
Pol sha
Ġmuqar rar
V ol
Ġtu tiladi
fa k
ora siga
Ġan jom
Ġkur d
Ġqutqa rish
Ġpod polkovnik
Ġxayr li
Ġbaxt siz
Ġmigran tlar
ngres si
? -
Ġmo dul
Ġshar q
Ġista magan
Ġinson ga
Ġsar son
Ġhokimligi da
ĠSi yo
Ġfun ksiyasi
raqa m
S P
t ri
Ġd rama
Ġayb lovlar
Ġtelefon lar
Ġjari malar
Ġsin dro
Ġguvohnoma sini
Ġatle tika
Ġko or
yin chisi
Ġhujjat li
Ġreji m
Ġvazirlik ning
jiss or
Ġa b
ki da
Ġj ah
Ġke tishni
yil moqda
Ġgap lashib
me tov
Ġklubi ning
Ġtre ning
Ġadvo kati
Â °
ga rak
di lar
Ġish tiyo
ĠX ush
yor dan
Ġyubo rilishi
Ġprinsi pi
Ġ ,
Ġto jik
ĠS nap
ay mon
to mir
ra qo
ĠA T
liy eva
yap siz
Su per
Ġqabri ston
sh ka
ma il
Ġqil ganidan
ĠX an
Ġkar dio
Ġbino ni
me h
Ġpasa yadi
Ġyozi lishicha
ĠJizzax da
Ġkuchaytirish ga
Ġpedago gik
mi ri
Ġx u
ĠB aba
ĠF HDYo
Ġqat lami
Ġolin ganini
Ġaj rim
Ġse g
ĠKor rupsiyaga
ĠW orld
ĠSan ches
ĠQu va
pro g
Ġgran ti
Ġ Ù
ta saddi
Ġe ron
lan tirgan
Ġprezident lari
Ġvoqea larni
Ġtarkibi dan
ĠTojikiston ga
Ġcheklov lari
A P
qa dar
Ġso tilmoqda
sti ya
Ġyet tinchi
Ġkuza tilayotgan
Ġyashi rish
p yu
Ġa ya
Ġe fi
ĠO L
lib u
Ġtan k
Ġoshirish ning
Ġxavotir ga
Ġsuri lgan
K ri
ĠI ndi
Ġqilgan lar
Ġyuri shi
Ġzarar siz
AR S
ĠKar antin
Ġtinim siz
Q ud
x iy
Ġu mi
Ġbosh lashdi
Ġkerak mi
Ġsoliq qa
shin larini
Ġdars lar
Ġkelgani dan
Ġiqtisodiyo tining
Ġmessenj er
Ġkoreya lik
ĠS ab
Ġre ktor
Ġhay kal
shni chilik
Ġketish di
b y
ch ma
ĠB HM
en di
Ġavto bu
Ġmuhim ligini
Ġxalqi mizga
ĠBeh zod
Ġtannar xi
9 4
f tiy
Ġva j
Ġda t
Ġtadbirkor larni
Ġtovar lari
... +
Ġvaz ni
Ġqarin doshi
ĠSenat ning
Ġyarmar ka
m siz
on ent
Ġay lana
Ma shina
Ġchiq uvchi
Ġajra tadi
ĠMo de
Ġfor u
b bi
u e
Ġqi lardi
Ġoila sida
ĠYe OII
ĠXABAR LARI
S urxon
S KO
rsa tiladigan
Ġman ti
Ġet maydi
Ġun voni
mpi ch
ĠKo missiya
Ġli mon
Ġoro mg
Ġsirt qi
Ġfal sa
yo ni
Ġj ab
Ġv ul
siga cha
Ġkiri tilmoqda
may da
ve stitsiya
ĠBo jxona
Ġsal on
Ġkesi shma
Tosh shahar
Ġmush kul
Ġvay r
Mat buot
E ski
Ġp av
Ġbe g
Ġaso sidagi
Ġgap larni
Ġhisobi ni
Ġtayinlangan di
E verton
I P
Ġma fku
ĠN uro
Ġbah ori
Mu loqot
Ġust ozi
Ġhaydovchi ning
Ġmexanizm lari
Si ti
Ġi dda
Ġish lanma
rsa ti
Ġyangi lanish
Ġolingan di
Ġraqa mini
Ġmahalla larda
ĠChe gara
ĠFer uza
Po kiston
ĠMon opoliyaga
U mid
ch ora
ka mol
Ġfa lastin
Ġak sil
Ġeksp ortini
tex nologiya
Ġinti lish
ĠRi o
Ġinnovatsiya lar
Miro bod
Ġko d
ĠM anba
le yasi
rsa tilmagan
Ġhay ka
Ġmuhim dir
Ġyaqi ni
ĠFar rux
ĠAzi mov
Ġsil ji
Ġqutqar uvchilar
ĠJ eyms
Ġyuri tmoqda
Ġpast ki
Ġagar da
Ġtuzil masi
Agro bank
L an
X Sh
Ñ ģ
Ġso lin
Ġmux biriga
Ġchegara larini
Ġizoh ladi
ĠFaqat gina
biz nes
ksin cha
T ech
X orijiy
s ud
ki dan
rin e
biy ev
ho disa
ter eya
mato va
Ġtuh mat
Ġzarura ti
I X
t rak
Ġ l
za ga
Ġyosh ni
min lanadi
lmas di
Ġolma sa
Ġishona man
Ġreanimat siya
b ayd
ya tov
chi ch
ĠO pe
ĠO ne
yil magan
ĠIn stitut
Ġguruh ning
Ġhaydov chilari
Ġshifoxona si
Ġtir band
Ġkada stri
B O
tish da
le tov
Ġkor rup
lumot larning
lgani dek
ĠZ arafshon
Ġvakil lar
lari ngizni
Ġsi na
Ġ3 60
ĠX orij
ĠF oyda
Ġnarx larining
Ġnamu nali
Ġb raziliya
ĠN ishon
Ġ3 000
ĠF inan
ĠBa tafsil
Ġdastur ni
limpi ya
Ġlib o
Ġbitiruvchi lari
Ġhujumi dan
di nov
ĠSiz ning
Ġyanva ridan
Bola lar
l do
ĠF u
Tur k
Ġmavzu lar
ĠNar gi
lch ov
fi ribgarlik
Ġmah kama
ĠKor xona
Ġnima da
ĠRa fa
Ġvideo kon
pchilik ni
Ġbayono ti
Ġzan jir
er bayev
Ġra tifikatsiya
Ġqa bi
Ġsay lovchilarning
Ġrivojlantirish da
ĠQu yosh
guni cha
Kamo lot
G M
p kins
en tiga
av vo
Ġkechi rim
uliyat ni
Ġnon ush
Ġtra ktor
r y
Ġo qova
ldi ngi
ĠR ich
lsa da
Ġavtomobil larning
Ġnarx larini
Tash kilot
mulo haza
ĠR uminiya
Ġtur ganini
Ġreja larini
Ġfoizi dan
Ġuniversite tiga
sga z
O y
yin dagi
Ġye tim
Ġtarmoq qa
Ġbozori ning
Su rat
D u
la masi
ta h
Ġa riq
Ġa sir
Ġorqa ga
Ġqayta rilgan
Ġmusobaqa sida
Ġhisobo ti
ĠDon etsk
qna shib
ĠTabiiy ki
Ġlaqa bli
/ ?
O chiq
U lug
Ġber dim
Ġpar he
Ġhay kali
II I
Ġesla tishicha
ĠQ an
Ġmeh moni
Ġun vo
Ġal yu
Ġbozor lar
Ġeksport ga
Ġiqtisodiyot ga
Ġiqtisodiyo tini
2 000
ov ga
ĠVa ziyat
Ġbaho lagan
Ġinfeksiya sini
za si
Ġ5 000
rgan di
Ġjino yati
ĠIttifoqi ning
Ġmezbon lar
I b
so ni
Ġqil masligi
Ġshah rini
Ġuyush tirdi
Ġnogiron lar
I ste
O qibatda
gi on
Ġta qib
Ġku tgan
zga radi
ĠHa yi
ĠAl ba
Ġtik langan
rgazma sida
Ġbyudjye ti
ltanla mas
t sion
ki a
Ġqi shda
ĠKu bo
hi sha
Ġholat dan
Ġet tiriladi
xa tibi
Ġdunyo ni
Ġtizim ning
Ġq orong
ka ga
za mat
Ġqay tishga
Ġjamiyat ga
lcha sh
** *
Ġe strada
Ġtu ra
Ġbe xabar
Ġro lni
rini shiga
rgani lmoqda
Ġdarvoza sini
lya j
Far hod
ĠFay z
alle l
f far
ya l
Ġbi rodar
ha q
in ning
tiro k
Ġsaylov ida
Ġyopi ladi
Ġusu lida
Ġiyu lida
9 2
ng dan
mi ro
lgan man
ĠM A
ah a
om zod
ĠTo monlar
Ġxona da
Ġdu gona
Ġata ladi
Ġimo rat
I T
r qib
z ona
ngiz ning
is san
Ġqan dli
Ġboy lik
Xabar ga
yul ler
aygan lar
O na
ĠB os
ladi lar
ĠN as
ĠD is
Ġlo tereya
Ġ23 0
Ġarg entina
l lanishi
z yan
sha m
siy lik
Ġhudud ning
Ġas sist
Ġmutaxassis ligi
Ġshartnoma ga
Ġekspertiza dan
Ġprovinsiya sida
c ard
r us
da k
Ġq alb
na lishiga
Ġket sa
Ġfotogalereya lari
vakka l
O radan
y ni
Ġqo lishiga
mp a
ĠC ar
Ġtor tiladi
mita ning
Ġklub ning
Ġfilm larda
Keyin chalik
Jamo at
z ur
Ġke linayotgan
Ġtayyor miz
Ġjavo bini
Ġmas kani
Ġchek siz
Ġsar dori
Ġtamo yili
Ġgar chi
shi lish
ta yev
Ġsh araf
bat lan
Ġmetr li
Ġpoli g
Qo laversa
kka la
Ġnaza riya
Kar antin
Ġmaz mu
Ġhayi ti
e di
Ġidora larga
Ġfutbolchi ga
Ġang lash
ray man
ĠShah zoda
Universi tet
ĠS ara
Ġqil uv
ĠP ri
Ta biiy
tkazil gani
Ġfutbo li
Ġidda o
E X
va ni
ta yotganini
ul lanishi
Ġak sini
Ġuchra shi
Ġochiq lik
Ġrestoran lar
ĠYakka bog
trans xizmat
Ġdiplomati ya
Ġsavod xon
z lash
qa va
ĠF on
Ġtur di
ĠYa ng
Ġinf ra
Ġchegara ni
Ġgi ga
Ġavvalgi dek
Ġittifoqi ning
Ġxohi sh
ĠKlo pp
da rilib
gan lar
do mo
yin larini
lumot li
Ġqaror da
Ġmudda o
Ġyuk larni
Ġnarx larning
Ġpoytax tida
Ġmaqo miga
Ġrossiya liklar
Ġudda sidan
Ġke malari
et ri
Ġjoy larni
Ġbelgi lanmagan
Ġberish ning
ĠLe on
Ġxususiya tiga
Ġfakul tet
Ġsado qat
Ġa min
Ġqo zoq
to liy
Ġmumkin ligidan
Ġyet gani
Ġmahalliy lashtirish
P er
Q iz
ra bot
ĠL ya
Ġsoha lari
Ġtarix da
ĠLondon da
ĠFil m
K itob
ĠRespublika sini
Ġsab zavotlar
layotgani ga
Ġjarayon larni
Ġreji mda
Ġsiyosat chilar
Ġnashr lar
r yo
va qt
Ġi taliya
Ġavto halokat
Ġmay dan
rik eng
Ġtuga tgan
ĠHu jum
Ġquro lini
Muzokara lar
de ssa
Ġja so
sha ripov
ĠJa stin
Ġkuchli roq
Ġmexani zmini
Ġpozitsiya sini
d ya
ro siyo
Ġaholi dan
ĠUkraina ni
nalish ga
Ġvoqea dan
Ġamaliyot da
qot di
Ġsim siz
Ġtranspor tida
A Y
Ġqonun chiligiga
Ġjinoyat chilikka
ĠSo at
Ġsiyosa tiga
Ġketish gan
Ġxotira si
Ġi deal
no ld
ydi k
Ġras m
Ġhimoya chilari
Ġaha miyatini
Ġbaza siga
Ġul tra
cha larga
yi g
Ġtarqa lgandi
Ġqur boniga
ĠOta bekov
Ġmukofo tiga
nau gu
Ġqo rin
ĠO leg
ĠP ZR
Ġxizmat larning
Ġsoni ga
19 12
Ġtarmoq lariga
Ġjahon dagi
Ġkons ent
Ġpunkt larida
omi k
Ġfakul teti
rosiyo b
o zitsiya
Ġa chchiq
en ergetika
ĠM S
Ġkuch larini
ĠIn ning
Ġdaryo si
Ġmulo qoti
Ġchalin gani
kuzat uv
Ġk re
Ġdo kto
ol chi
Ġholat lariga
kid langanidek
ĠJa vohir
Ġishla tiladi
Ġjurnali da
C ho
si nov
ĠX izmat
Ġbor yapti
Ġoy lari
Ġkel tirildi
Ġinson larni
ĠSu dan
Ġush langani
Ġaks essu
Toshshahar transxizmat
e ti
Ġta qin
mo y
ĠP it
may dan
ĠNa zarov
Ġavtomobil larini
Ġle y
Ġmode lini
Ġvodiy si
Ġka loriya
man ning
Ġbarcha miz
Ġtas ni
lama di
ban diga
Ġfarzand li
cha larini
lo qiy
Ġbosh chilik
Ġchi na
Ġka p
ĠG eneral
Ġshahar ni
Ġtashkilot chilari
Ġhimoya langan
ulo va
ĠAbdu va
Ġavgust dagi
Da ily
G re
Ġde yishadi
tti z
Ġresurs laridan
dra sa
Ġdaraxt larni
Ġhayrat ga
ĠKuch lar
T urizm
e li
ĠS av
Ġqil o
uvchi lik
ran du
Ġreji miga
ĠMan sur
arma sining
Hujjat ga
ilu far
ĠEmman uel
vo j
Ġmi nora
ĠL ay
te le
Ġjoy lashuvi
sal ting
ĠYa k
Ġsifa tidagi
ĠAmerika da
ĠShi rin
Ġtarix ga
Ġdavolash da
Ġhaqiqat da
tran sgaz
H ududiy
y noq
Ġku pyu
Ġtor tilishi
rinish dagi
I roq
o yat
za gro
bu zi
ku rash
onav ir
Ġlaboratoriya si
Ġhaqiqat dan
Ġbirja si
Ġyutuq lari
Ġham kori
ĠJ abr
Ġmo di
rini shini
Ġgol lari
say t
Ġbos gan
X uddi
Y uk
na v
ĠK ro
Ġyakun lash
Ġvaksina sini
shiq lar
taro sh
ĠStiv en
Ġi zlari
lini b
Ġyuk lama
ĠMirziyo yeva
Ġmuhokama larga
Ġlavozim larda
A ziz
o ktab
Ġoy ning
Ġqayta rishga
Ġmuammo lardan
quvvat lashi
Ġyasha shga
Ġquti si
Metall urg
ar do
Ġberi shiga
Ġshart larini
Ġsoat da
ĠItaliya ning
ĠGar chi
P od
Ġqara mog
Ġtajriba ni
Ġvara qa
Ġham rohlik
Ġnafar gacha
Ġkompaniya larning
Ġishonch ni
ĠBar selona
ĠSar var
ĠJu ma
ĠAK T
t moqchi
no sib
ĠP og
dek s
ĠL as
Ġoila larning
ĠMi lan
ban di
Ġang lat
Ġbon us
G ruziya
I qtisodiy
Ġja zi
Ġsi ra
Ġmintaqa sida
Ġmexa nik
Ġsara lashi
Ġrey si
Ġs urib
Ġyor liq
Ġmul ti
Ġehtiyot korlik
York dagi
vizi on
Ġqo lar
ĠJ ek
Ġno jo
Ġdi versi
Ġyer to
Ġrux sati
ge niy
Ġilova si
Ġyetti ta
ĠRay hon
_ _
Ġko ni
Ġmoliya lashti
Ġ0 6
Ġ0 7
Ġjarayoni ning
Ġkamera lari
Ġxoli slar
ĠFV B
Ġn evara
Ġqu yida
ĠBo ku
rsatkich larini
Te st
Ġancha dan
Ġkonstru ktiv
ĠI pak
Ġoqi mini
ĠYevro siyo
Ġkechi b
Ke rakli
Ġbaro bari
Ar maniston
Ġyum gan
Ġfarovon ligini
Ġmashq lar
Ġdepartament ning
da st
Ġbi rov
Ġqi dir
Ġedi lar
Ġchiq dik
Ġkenga shiga
Toshkent ning
ĠKompaniya ning
Ġyetmagan lar
Ġâ ĪĴ
Ġshtam m
ĠQon uni
Ġoxir larida
9 6
vo ri
Ġchegara sidagi
Ġmajmua lari
Ġtopi ladi
Ġtom chi
Ġjanubi dagi
p el
an ning
Ġtash lashga
Sh er
ĠF ren
Ġji m
Ġrahbariyati ga
Ġtuzil malar
hu diy
Ġir rigatsiya
ĠXor vatiya
Y or
m etall
p rigi
Ġi mpich
aro va
Ġqat orasiga
Ġ27 0
Ne SKO
Qizil qum
Ġprodyus er
cha larni
Ġye ng
Ġsoha sining
ĠĠĠĠ Ġ
Ġbino sini
Ġosh magan
Ġ0 4
Ġkvartira li
Ġa badiy
Ġke lgach
ev ich
Ġikki lamchi
Ġ19 0
iziston ga
Ġona m
Ham ma
ĠMutaxassis lar
Ġshir kat
ĠKush erbayev
Ġvij don
ji ga
Ġharakat lariga
Ġyur tlari
ĠDe partament
Ġyevro dan
Ġoro lida
Ġhissi yot
f li
at e
Ġor tadi
ĠG in
ĠE ga
Ġsoha laridagi
ĠBosh qar
Ġfaol ligi
ĠSuriya ga
Za monaviy
L iga
Ð »
gani m
ĠI ste
Ġg ender
Ġin stansiya
Ġekan liklarini
Ġetdi lar
Ġchaqi rilgan
Ġfazi lat
A ero
Ġs essiyasi
Sh vey
ĠSu hbat
Ġkilometr ga
Ġfevral dagi
Ġyop ildi
Ġbuzgan lik
ĠAnd re
Ġstarta p
Ġdafta ri
z en
Ù Ĳ
Ġti g
Ġsoha ning
Ġgap ni
Ġyakun lagan
ĠBer uniy
qos lash
Ġyug urib
Ġsentab rida
ĠMuxt or
j iyev
Ġqil ma
Ġno o
ĠV en
ĠTash rif
ĠMat e
ĠSpace X
si shini
vo t
ĠM Vt
Ġba s
Ġtur kiya
Ġkabi lar
van d
Ġkilometr dan
Ġfir masi
ĠSt rate
Ġu rishga
Ġtu riga
Ġsa xovat
Ġmay dagi
min larga
Ġsov rini
So biq
Ġuyush gan
Ġraqam lashtirish
Ġpotensi al
O lim
X orij
ĠK in
Sh vetsiya
Ġga zidan
Ġbelgi lanishi
yish di
ĠTe ng
rgani lgan
Ġkanali ga
pp on
ĠFo x
Ġklas sik
S ta
V ladi
c ell
at gan
Ġber moqchi
Ġyu ziga
Ġn uri
yin lariga
rna tib
Ġvafo ti
bardi mon
Ġo dob
Ġbank rot
Ġshifoxona sida
Ġsertifi ka
Chet latish
ĠQ anday
ort mun
nan t
Ġuchra ydigan
Ġboshladi m
e lo
z transgaz
Ġu lamo
mi rov
Ġg ra
Ġeti lganini
Ġchiqi shida
Ġhudud dan
Ġochi shga
Ġtadqiqot chilar
ĠRah monov
llani ladigan
Ro stov
Ġsarlavha li
no ni
Ġmuhokama ga
Ġkelishuv larni
Ġpush aymon
Ġhanuz gacha
Ġhisobvara q
T O
ya jon
Ġkim lar
Ġzona sida
ĠMish el
ĠShod monov
r qin
t mish
Ġf unda
ĠB ri
Ġbosh lashga
ĠTramp ni
Ġiyul dagi
Ġmusobaqa lar
Ġorol lari
Ġdavomiy ligi
ĠI ELTS
bu ki
yin choq
Ġxizmat larining
Ġsoliq larni
Ġjang lar
Ġavia chipta
yanvar da
Ġmuddat dan
Val ensiya
ĠU bayd
el d
Ġrivo yat
Ġar bobi
Ġsho ko
Ġozod likni
lmay man
Ġgazeta siga
ĠDav id
usni ddin
d d
Ġish qi
Ġber may
Ġqara tilmoqda
Ġoy larda
Ġaloqa ga
Ġmarkaz lashgan
ĠArabistoni ning
Ġbuyum larini
Uchrashuv ning
Ġbarre l
ĠDiy ego
Ġso tilayotgan
gani mda
qo tadi
el ya
Ġkel tiriladi
Ġbino ga
Ġista ydi
ĠLo p
Ġanju manda
ĠMan chester
Ġruh da
jini ring
Ġqochi shga
d lib
ar siz
Ġsi vili
kor ona
in da
hat s
Ġla ger
Ġuchra tish
filak tika
Ġdarvoza si
Ġpsi xot
Ġfarovon lik
Ġqoidabuzar lik
Ġradi kal
Tasvir chi
A QSH
fi na
Ġyuk langan
inlash da
Ġsano atini
ĠRam zan
A yti
B r
Ġq uvi
ilo l
Ġfa s
Ġjavob lar
Ġvideo lar
Ġhodisa lari
ĠSha rif
Ġunut maslik
enni fer
U rganch
yat siya
Ġhudud lardan
ĠSha ripov
Ġkino festi
Ġkafolat langan
ĠAir bus
Ġbaliq chilik
Ġtaz yiq
l yoz
ĠBe sh
Ġakt yori
Ġtrans lyatsiya
i miy
Ġha z
to la
bar cha
Ġmat bu
yna y
Tadbir korlik
qor g
odri ch
I shon
Q izi
ĠA gro
Ġtez lashtirish
Ġ12 00
Ġhukumat lari
Ġshakl dagi
Ġvirus dan
Ġsherik lari
Say lov
G e
x lar
zar ba
Ġega larining
Ġshakllan tiriladi
hats App
ni sa
Ġi OS
Ġberdi k
Ġinson ni
Ġmintaqa si
Ġmaslahat lar
Ġyutuq lar
ĠNiko las
Ġo ngi
Ġber ki
dor chilik
rgan adi
jo u
yekt lar
til yapti
Ġehtiyoj larini
ĠEn toni
Ġovo zini
G ar
Ġso tayotgan
vo garlik
lish uv
ĠG om
mu z
Ġxulosa lar
olib lar
Ġbaro ba
Ġnamuna dagi
Ġbuxgal teriya
ma yor
il zila
Ġi span
do g
fi s
tu g
I pak
Ġa sari
Ġtil larida
Ġobyekt lar
rig es
ĠNiko l
Ġreg lament
S en
shi rish
Ġta shi
chi da
ĠB at
ĠS P
ĠVa tani
Ġtin tuv
rine ws
a ga
x oni
yo mg
Ġra sta
Ġguruhi ni
Ġdvigate li
Ġparvo zi
Ġtaqo zo
di rish
zi ngizga
sa nitariya
no g
Ġna s
Ġg on
Ġasr da
Ġkonsul xona
U R
Ġi star
ĠT araqqiyot
Ġre zer
ĠX ullas
Ġtayyor landi
Ġhimoya chilar
Ġchek kan
Ġport lashi
Ġqadr siz
Ġiyu nida
j en
o siyo
la ga
Ġbe ro
Ġbosh langanini
zo t
ĠX ose
Ġba dan
Ġyer larni
Ġet tirishi
ĠYe XHT
ĠPar k
Ġpunk tida
lan yapti
ĠT urin
Ġsa kra
Ġor tgan
ĠL am
Ġrasmiy lar
ĠMah sulot
ĠBe eline
Ġjarayon larida
Ġpor tal
Tah lil
Ġs uriya
qa vat
ĠS martfon
rgani lib
Ġmashina siga
Ġjarohat landi
Ġendi gina
Ġqoch gan
Ġo kean
ĠS im
Ġna sos
Ġqilgan miz
Ġavtomobil da
rna tishga
Ġagent liklari
ĠNe tanya
avgust da
ĠShifo kor
Ġhojat xona
Lat sio
l lo
n or
an y
Ġchi z
Ġnafa riga
Ġjinoyat chilar
Ġturi st
qal poq
Hi moya
Ġket ganidan
Ġaf sonaviy
Ġqoni qarli
B AA
ri gan
Ġa yan
ja mo
ona m
ol s
Ġkor onavir
Elekt r
Ġelektromobil lar
Ġkash f
Ġkelish adi
Ġidora larning
Ġaf v
vet lana
Ġlitsenziya lash
Ġi naugu
Ġte sti
Ġdavlat laridan
Ġme di
Ġshar manda
ĠMu ammo
Da vo
Ġmetall urgiya
Ġsuyuq lik
Ġya hudiy
ĠMa kka
Ġayti shim
Ġfutbolchi larni
ĠEron da
Ġmuvozanat ni
Ġmakro iqtisodiy
z larga
ĠA ksincha
Ġjoy lashadi
Ġqat l
Ġmart dagi
Ġpe titsiya
Ġqisqa cha
Ġaktiv lari
xu ana
Ġjangi ni
la maslik
on ov
Ġke ragi
ol g
Ġzar ra
Ġetilgan lar
Ġtushun arli
Mu hammad
sho rat
Ġyotqi zildi
ĠYer ga
T IV
ĠE K
Ġbora miz
Ġkuza tilmagan
ĠAy tish
Ġshakl lanishi
Ġkredi ti
Ġaero dro
ĠSov et
Ley psig
ni t
Ġa mir
Ġsi ga
ĠQora ko
Ġinstitu tiga
ĠYe kat
otor e
domo sti
y maydi
ĠO ddiy
Ġin k
ĠD ol
Ġye b
Ġga rovga
Ġmamlakat lariga
ĠSo bi
Ġmarkaz lariga
Ġtabiiy ki
Ġinstitut lar
Ġurin moqda
vali fikatsiya
Shar qiy
Ġkiri shini
Ġan samb
uli yatini
ĠSi ro
Ġqilamiz ki
ĠSiz ga
Ġiq ror
Ġmeto di
Ġbo sish
ĠM yuller
ĠO ston
Ġki yish
Ġber masligi
Ġ10 6
Tur on
Ġlibos lar
ĠShuncha ki
Ġfalsa fa
R T
b lar
Ġt aro
ĠL or
og on
Ġsifa tiga
Ġal ler
Ġchegara dagi
Ġkomissiya lari
hu jum
Ġtarzi dagi
di radi
st eri
Ġrivoj lanishini
Ġrahbar ligidagi
Ġfoydalanuvchi larning
Ġhaq qoniy
ĠAbra mov
Ġbraziliya lik
b ab
ar kan
Ġis mini
quvvat lashini
Ġsiz larga
Ġoperatsiya larni
ĠHam da
Ġbur un
Dunyo ning
b da
ti pi
Ġf ransiya
Ġmasala larda
rsatkich ga
Ġnor malar
Ġsin te
f in
la lar
at ga
do l
lu biy
lishi ning
Ġ10 8
Ġusti dagi
Ġmaqsad larga
An ju
Ġtafsilot larini
Shar q
Ġekipa ji
Ġkorpu si
% ),
ma larni
shi lib
qi yotgan
ĠX orijiy
Ġberi lmaydi
Ġuchrashuv dan
ĠAn na
Ġqop lanadi
Ġaviakompaniya sining
ĠZo kirov
Ġpalata siga
Ġrais lari
Ġrais lik
Ġboshlanishi dan
Ġsuya k
ĠS y
Ġish chilari
ĠG al
Ġba qi
Ġ5 50
ĠL ut
Ġ10 7
Ġqaror ning
Ġyaratish ni
pchilik ning
Ġavtomashina ni
Ġinfeksiya sining
De mak
ĠXu an
ĠAOKA da
B S
V er
Ġa tab
Ġso tiladigan
Ġqo laman
ĠA so
Ġesa yotgan
sal lam
ban dlik
Ġbaland likda
Ġfarovon ligi
Ġseriya li
Yil ning
Ġep iz
Ġtakro ran
d ze
Ġaso si
ĠV il
Ġmuassasa sining
noyabr da
Ġnishon ga
Ġbudje tiga
Ġshakllan tirilgan
rigi dan
Ġbrifi ng
Ġyotib di
P oytaxt
Ġe kilgan
Ġqab u
ĠDe nis
ok er
ĠXur shid
lqo p
Ġi g
Ġke lmadi
ĠJ oli
Ġqilgan man
ĠMah mudov
Ġchegara lari
Ġteng e
iro t
Ġdiversi fikatsiya
c y
Ġmuammo larning
pre ss
Ġbaho landi
Ġuzoq roq
Ġfor mati
ĠHam do
Ġpayt dagi
Is siq
Ġturkiya lik
S t
ĠT rans
Ġyu gurish
Ġre portaj
ĠL td
Ġqara ng
rsatish da
urnali stlar
Ġdars liklar
Ġpozitsiya si
Ġqochqin lar
Ġzah arli
ĠBun desliga
nan des
Ġqoldi rildi
Ġyanvar dagi
Ġijo di
Ġavia tash
Ġpartiya ning
Fuqaro lar
E k
z z
Ġka mar
Ġqish loqda
Ġnom lari
Ġli ft
Ġkomissiya ning
Ġqatori dan
Ġxohla sa
m us
Ġta vakkal
ĠT as
lish dan
Ġsi zib
Ġqa fa
Ġkompaniya larga
rishi ngiz
rgazma da
Ġinshoot lari
Ġqiyinchilik larga
Ġqarzdor ligi
mondon lik
voq e
Ġzan ji
k tam
p atrul
Ġqa moqda
ku rov
Ġfo hisha
Ġtopshi rib
ĠDo ston
Ġkamera si
Ġrazved kasi
mah sulot
Ġtavsi f
mo hi
Ġqi zini
Ġtu tilmagan
ĠG uruh
Ġhududi ning
Ġmanfa ati
ĠW atch
Ġhaydovchi ga
Be mor
Ġbiti mni
Ġsodda lashtirilgan
Ġmemo randu
Ġdemak dir
ĠQodi riy
Ġta qa
ĠA sia
Ġil lat
ĠVa dim
Ġtasdiq lanishi
ste ro
xo bod
Ġsamara sini
Sa molyot
Fa qat
Ġovo ra
Ġocha di
Ġm er
chi rishga
Ġuch ar
Ġtez ligini
ĠMar ko
Ġtil lar
Ġ198 7
Ġkeksa lar
ĠMav zuga
Ġtakro riy
Ġfrak siya
Ġoktab rida
Ġi mi
Ġqo lishni
Ġbu rilish
Ġg rafi
Ġhujjat ga
Ġkam dan
ĠTur di
Ġtik lanuvchi
Ġmavsum dagi
Ġavtomashina sini
ĠPar kent
Ġpalata sida
Ġyum di
ĠFor um
Ġaskar lar
Belgi lanishicha
gan sk
Ġjoy lashtirdi
Ġkorxona sining
Ġshifokor lari
Ġsamolyot da
ĠNavoiy da
ĠKim dir
Ġyurtdosh larimiz
Ġquvi b
N iderlandiya
yi dan
rish gan
fa miliya
ĠG ran
ĠE s
Ġhudud laridagi
Ġkon salting
Ġreja siga
me d
Ġuru shga
Ġtahlil lar
Ġhayo tining
Ġnamuna si
kitob lar
Ġqolgani da
Ġqilina yotgani
e tov
Ġra dar
ĠP et
ĠG B
Ġkiri shiga
ĠAzi zov
Ġva sallam
Ġi chak
Ġyi qilib
lini shi
Ġvideo larni
ĠXo dim
200 8
Ġarmiya sining
Ġishbilar monlar
ĠJy eyms
ĠNura fshon
a sh
s m
um umta
mar kazi
Ġmaydon dagi
Ġjazo ga
Ġtaqiq landi
Ġnoyabr dagi
200 9
Ġmoliyalashtirish ga
kanali da
at riya
Ġdavo mi
Ġsaq lanishi
ĠCh je
Ġek sk
Ġhujjat larda
ĠIn de
ĠHo ji
Ġbuyur uvchi
Ġalmash tirib
Ġyashi rib
Ġharo ra
Ġdoza si
l lanadi
ĠM eri
ĠT oni
ĠK av
ĠP la
Ġtomoni ning
Ġvosita larni
Ġkelish ga
ĠHo pkins
Ġbit tasi
Ġkama yishiga
Ġprotses sori
Ġhunarmand chilik
Odam lar
A ksiya
F oyda
or ol
un oh
Ġyu radi
ho kama
Ġdi am
Ġxona sida
ĠSamarqand ga
qiqa tan
Ġmetal lar
rqin chli
P i
ar e
ĠF al
Ġyi roq
Ġtush lik
ĠArabistoni da
Ġsherik likni
ĠTadbir korlik
Ġharaka tiga
tkaza yotgan
N ATO
yi lib
Ġku yov
Ġdavo lanishga
Ġbuyur uvchilar
Ġtanish tirgan
Ġ198 5
da ni
ng le
Ġs te
Ġbi tir
Ġavtomobil sozlik
Ġfik rga
Ġmaktab larga
Ġchaqi radi
Ġauksion ga
ĠTik Tok
b ri
r nat
Ġta sini
ĠT el
Ġti kilgan
Ġetish laricha
uru g
Ġavtomobil ga
Ġsov u
Ġjurnalist larning
ĠRober to
Ġayan chli
mi siz
qi ch
Ġqi zga
ĠMa sharipov
Ġjoy larini
lama chilik
Ġpartiya sining
Ġfon diga
Ġimtiyo zlari
ĠGriz mann
g el
m na
s ent
ri xuana
li lik
Ġha shar
Ġbosh qaradi
Ġbarcha siga
ĠMar s
Ġtayin ladi
ĠZa monaviy
Ġsertifi kati
ngilli lar
S ot
ch or
ar dim
Ġmu ftiy
ĠX onanda
Ġqar dosh
ĠE htimol
yev ich
ĠNa tija
Ġkorxona siga
ĠIs kan
Ġyakun lanadi
Mu x
Ġayblov larni
Ġinso niy
mura tov
f oyda
Ġqil sak
Ġyu zini
Ġdol laridan
Ġasos larini
riq li
Ġegal lashi
Ġjamiyat lari
ĠDi as
Ġqism larini
Ġbos uvchi
ĠUm ra
S par
magan man
ĠKo mp
rna tilgani
Ġmaydon larini
der s
Ġiyun dagi
Ġdelegatsiya sining
Ġporta liga
Ġtad qi
M E
M aro
ĠK ay
ĠG et
Ġkar yera
ĠSo bir
Ġtarif lar
ĠHay dovchi
ĠNiko lay
Ġerishi b
Ġdiagno stika
Yun uso
ĠRich ard
, _
z sanoat
Ġtu tishi
Â» âĢĭ
Ġkuch lanish
Ġjuda yam
Ġkeng roq
kov ning
Ġsinov larini
Ġrejalash tir
Ġliniya si
Ġquvon ch
Ġma gi
ĠI ES
ĠL ey
Ġchiq sa
Ġman faa
Ġ10 9
Ġmay mun
Ġhudud larning
Ġkel tirilishi
ĠBa shar
kov ni
Da mas
Ġgektar dan
Ġtaraf dor
Ġmol lari
Ġvatan parvarlik
ĠPer es
Ġassamb leya
Ġnout buk
Ġma drasa
ĠA uto
Ġbor dim
dar monlar
Ġat trak
Ġavi ar
qay moq
Ġbom bardimon
au ksion
sh ning
Ġu zilgan
Ġber yapti
Ġqur g
Ġhamma miz
Ġiz lash
Ġjihat lar
Ġumum xalq
Ġviza siz
ĠAk bar
Ġbyuro kra
Ġmahsulo tining
Ġkonsepsiya sini
ĠRish ton
Ġkompaniya larining
xta tilishi
Ġkon fer
Ġhimoya lash
Ġtopshi radi
Ġkorxona larining
Ġtax miniy
Ġunda y
Ġoli nayotgan
Ġkom endan
Pa d
shan dan
ĠBang ladesh
Ġargentina lik
Ġbaroba rida
j riba
Ġoshi rilib
ĠVa ta
Ġimkoniyat laridan
Ġmuzokara lari
Ġ198 6
uso logiya
elekt r
Ġterrorizm ga
Ġs ka
gani mizda
in landi
Ġtur ardi
ĠVa kil
Ġeshi gi
ana ga
V enesuela
qa ddas
Ġtaraqqi yoti
ĠQahra mon
T rans
b arov
Ġf erma
bi yasi
Ġna qadar
ĠK eyn
ĠE ngi
Ġpreziden tiga
Ġqonun buzi
Ġerkak ning
Che mpi
ĠPog ba
metall urgiya
y niga
li ah
ĠSh oy
Ġga zi
Ġchiqarish ning
Ġchiqar moqda
Ġfaol lar
Ġqurol ni
Ġband ligi
ress or
Ġmahora ti
X izmat
mon xona
Ġqa lam
Ġfuqaro ligini
Ya xshi
mada liyev
abri el
ĠElekt r
Ġpsixot rop
a yol
k es
ĠA G
Ġde sam
ĠT at
Ġmuhokama lar
Ġbildi raman
Ġkas bi
Ġhamyon bop
lu e
Ġba ta
ĠMa mlakatimiz
Ġtax mini
Ġmavsum ning
ĠQu yi
998 71
Ġchipta lar
pti va
ri luvchi
ur uq
zbe kte
mat erial
ĠX at
Ġoson lik
Ġtak tik
Ø§ ÙĦ
Ġso ldi
ha yot
vi val
Ma qola
Ġtalab ning
Ġtashkilot larda
Ġtarmoq dagi
Ġerish il
Ġehtimo lini
Ġkuchay tirilgan
l dagi
na mo
qi yos
ĠN et
Ġme ta
ĠE ski
tin ch
Ġyer larda
Ġloyiha larning
Ġuy lardan
magan di
Ġtah r
Ġmaydon larida
ĠMe ni
Ġqurilishi da
yab ridan
I K
ĠA udi
Ġte ska
Â» ),
ĠSh otlandiya
Ġkishi larning
mak lashadi
Ġmusobaqa ning
Ġtoifa siga
ĠIspaniya da
Ġsohi b
Ġkont rabanda
Ġra ngda
ĠG R
Ġmav zuga
ĠTo p
Ġjarayon ga
Ġariza siga
Ġ198 8
Ġk rem
mi ssar
Ġet tirilgan
it ssa
Ġvaqt dagi
me diya
tkaz gich
Ġochko larini
roni cs
Vladi mir
l bar
y moqda
st ok
Ġqil mish
Ġtur ku
Ġjoy lab
ĠV ey
Ġkompaniya sini
Ġtuga tilgan
Ġmajburiyat larni
Majlis da
Ġbir lashgan
ĠD TM
ol chilarga
Ġtan li
ĠTo lib
Ġnash rida
Ġkirish adi
dra gon
Ve domosti
Ġtejam kor
Ġfransiya lik
p ir
Ġtu tun
ĠMa ksimal
Ġal bo
Ġfutbolchi larning
Ġboshqaruvi ni
Ġhisobo tda
ĠAt lan
Ġiqtisod chi
ri lmaydi
Ġo ha
ar bidagi
en zi
ĠI suzu
bat dagi
Ġfoiz li
Ġhimoya lanish
quvvat lovchi
ĠSamarqand dagi
ĠGermaniya ga
Ġyigit ning
Ġnusxa sini
Ġqasam yod
Ġbo ring
na ya
en siyasi
ĠM odrich
Ġtush moqda
siq larni
Ġona sining
Ġpiyo z
Ġbirlash malari
ĠLondon dagi
Sha x
Ġnoqulay liklar
qiz larning
ar t
mo ddiy
Ġp l
ĠA bror
ĠM ara
ĠTo hir
Ġmunosabat larda
Ġsurat larda
Ġomma lashtirish
Ġmuhofaza si
Ġtushu nadi
ĠPF L
Ġqo layotgani
qar siz
Ġoqi bati
Ġorgan larga
lis lar
Ġvideo kuzatuv
ĠYu NeSKO
Ġtuza lgan
ĠYev geniy
lov ini
Ġjoy lash
Ġ11 2
Ġvideo tasvir
Ġtayyorlash ni
Ġp al
Ġqo lmasligi
zo qda
Ġqilish larini
Ġuchi rilgan
Ġtajriba siga
ĠAh ror
zin ka
Ġmutasaddi larga
Ġyarat uvchi
Ish lab
otore portaj
N eksiya
a ktiv
ma larini
ka lam
lo mov
Ġya poniya
ĠK evin
Ġoshi rilgani
Ġharakat lanadi
om boy
qish loq
Ġtonna ni
Ġmulk dor
ĠYu N
Ġelektro texnika
Ġkengash lari
ĠMuro dov
F avqulodda
q lar
Ġbi rin
Ġfuqaro larimiz
redi t
ĠBar no
Ġkafo lati
Ù Ĩ
Ġfilm lari
ĠOL ED
F K
ch el
Ġqo zona
Â» _
iston dan
is qa
Ġnarsa dan
shin larining
Ġmaterial larini
Ġmarosi mda
dekabr da
Ġxususiya ti
Ġko st
ĠB il
ot ki
Ġshu lardan
Ġshi f
Ġ11 7
ĠKa sp
Ġfarzan dim
Ġsamolyot ni
Ġancha gina
ĠTojikiston ning
Ba tafsil
Ġqatna shishi
Ġomon at
C A
M uz
ti vatsiya
ka lik
gani dek
ul lanayotgan
Ġama ki
xta gan
Ġ11 1
Ġ16 5
Ġxona lar
Ġtil lari
Ġsmartfon lari
Ġinqiro zi
ĠNuri ddin
S ab
Ġqo choq
le kom
Ġkun ni
Ġmahsulot larga
Ġkorxona larda
zbek lar
Ġtik landi
Ġqimmat ga
Ġvir usi
Ġsil ki
Ġdat chik
M enga
X ulosa
Ġtez yurar
Ġqolgan da
Ġqizi qti
Ġbozor ni
Ġahvo lini
Ġkilometr lik
Ġistiqbol larini
Ġhaqiqat ni
ĠKiyev ga
Ġtasodi fan
I qtisodiyot
ĠS pi
in lab
Ġxizmat lariga
Ġ11 6
Ġtani shishi
Ġelektro nika
ham medov
Ayti lishicha
ri x
ri lsa
Ġto ngida
no sida
Ġdo vo
ĠI dlib
Ġba dal
Ġqilin gach
sta na
Ġchiqi layotgan
rsat uvi
Ġag rega
lana man
Ġtashrifi ni
Ġshakli ni
Ġbuz gani
ĠChempiona ti
uzat uv
ĠRod riges
s dan
Ġo layotgani
ra tiv
ĠS evara
Ġmar kali
ek sport
Ġsavdo ni
Ġqiluvchi lar
Ġtuga shi
ĠHu sayn
Ġen do
ĠNig eriya
Hudud gaz
Ġzir hli
si mda
Ġm A
Ġso lla
an na
Ġvosita sining
ĠHa mi
Ġfoizi da
ĠMi ra
Ġfaol ligini
Ġtushun arsiz
Ġchiqqa nini
Ġtera piya
Ġuzat malar
Ve ga
Ġyoqi msiz
D I
ĠI jro
ĠX ari
tax minan
kiya j
nalish lariga
Ġovoz dan
Ġ28 0
dul layev
Ġseri a
Ġgazeta sining
mato grafiya
Ġtelefo nini
chir uvchilar
Ġkiy gan
ĠMari u
Ġkoor dina
lik lardan
Ġg unoh
Ġjoy langan
Ġikki si
Ġkuch lariga
tirgan da
Ġpoli gon
Ġboshladi k
ygan di
em be
Ġkab el
Ġmafku ra
ma j
zi mizga
ĠQ ara
ĠMa ksim
is m
Ġgol ni
Ġgul lar
zo ri
Ġka na
Ġhudud larini
rinbo sa
Ġtarmoq larga
Ġyubo rishni
Ġtajriba lar
ibor li
rug vay
ĠRajab ov
Ġtopil gani
Ġqozo nish
ĠXar kov
A vi
B oy
i qo
ti ch
rish kor
ĠS lovakiya
ĠY ur
ĠJ urnalist
Ġdavlat lardagi
hi b
zu ra
Ġijro chisi
ke tasi
Ġfoydalanuvchi larga
Ġfevral dan
zgartish lar
qiz larni
Ġxonado niga
ĠDehqon obod
Ġjasa dini
Ġva liah
ul lan
Ġor tilgan
Ġurush ning
ĠAmir liklari
sharoit larni
qotish lar
a loqa
Ġqo ri
Ġbe qiyos
ĠK at
ĠMa libu
Ġeksp eri
Ġhujum ni
Ġsarf lanishi
Ġhayvon larni
Ġmiqyo sidagi
rigi nal
Ġkito biga
ugaliya lik
Ġjam lanma
Ġpasp ortini
ĠTashkilo ti
taom il
Ġha f
Ġyo dda
bi rinchi
do niya
no qqa
ona lik
ĠSh ri
ĠQo zon
Ġvoqea ga
Ġdastur ga
ban dida
Ġsarf lash
Ġboshqarma sida
Ġeta man
Ġtuzatish lar
Er kak
Ġoqsho mida
ti lsa
Ġha yajon
ĠB lin
ĠO b
ldi riladi
ĠR ub
oktabr dan
Ġchiqaruvchi lari
yla shimcha
Ġvok zal
ti layotgani
Ġqo ladigan
Ġz aho
Ġjar roh
Ġprokuratura siga
Ġtuzi lib
lasha yotgan
Ġyuvi b
ĠGuter rish
ĠSnap dragon
v ent
sa ng
zo ir
Ġchiqa miz
Ġoi lam
kva dor
Ġge no
Bo zor
Ġyechi sh
ĠKar los
Ġzona lari
xu a
Ġrahba rini
ĠHoshi mov
Ġo si
ka ning
Ġsi y
Ġmamlakat larimiz
Ġqoldi k
ĠYevro komissiya
Ġtaqiq lovchi
yekt larini
Ġorgani z
Ġrejalashti rilayotgan
Ġhush yor
O n
or d
Ġchi p
Ġnima dan
Ġgi mna
Ġyevro pa
ĠBelarus da
Ġser ver
Ġrub lga
Ġxursand man
Ġixtiyo rida
Ġsen sor
Ġalyu miniy
Ġfunda mental
z lashtirgan
Ġma ra
er lari
ĠT al
Ġmi na
ĠP al
ĠV irus
ĠE pi
ĠSa noat
Ġyaxshi gina
Ġyuqori roq
ĠHa mid
Mir ziyo
Ġsolla llohu
o tik
kor d
Ġmuhi ti
Ġhokim ning
oh n
Ġyar mini
fevra lda
Ġtahrir dagi
ayri qonuniy
Ġgiga bay
K ari
xta ldi
Ġmaj mu
Ġmaydon chasiga
Ġfikr larni
Ġuchra shadi
Ġshifokor larning
Ġnomzod larni
Mar t
Ġaktyor ning
ĠHindiston ga
Ġijara da
Ġhayoti dagi
Ġshay x
Ġasa lari
ma shi
ĠB in
âĢĿ âĢĶ
ĠK ab
ĠD en
ĠJ av
in do
Ġtahdi dlar
Ġqilaman ki
Tez kor
Ġkafedra si
e b
e til
ut qar
ru k
Ġmasala ning
kon sert
Ġ11 8
Ġkim sa
Ġmanfaat lar
Ġyozdi rib
Ġparametr lari
zsanoat qurilish
U M
Ã Ĺ
rish adi
ĠE momali
Ġloyiha lashtirish
Ġyaxshi lik
Ġishla may
ĠDe ni
Ġdekabr dan
Ġpasa ydi
Ġkombi nati
gori ya
a la
ona ni
Ġqa yiq
Ġviloyat ga
lam bor
Ġtomon da
Ġfil mni
Ġtuga ydi
ĠNur mat
Ġepi demiyasi
Ġtir bandlik
ĠTech no
Ġbezo rilik
ĠMuza ffar
Ġjazi rama
Ġta g
Ġku zida
es us
Ġprezident ligi
Ġtartibi dagi
Ay nan
sno dar
Ġby ul
Ġsovrin dori
Ġuzi lib
ĠAbd uqo
n ning
ch yov
ta rin
Ġqa da
Ġquri lmoqda
yan va
Ġkorxona larida
Ġmehmon xonasi
Ġbirja sida
Ġolmas dan
Ġa tal
un t
ĠO KMK
tish di
ona ning
Ġg um
ĠMu sobaqa
am bari
proq ni
Ġtosh lar
Ġsano atida
Ġpora xo
nikma larini
z yudo
Ġbo qish
Ġemas miz
zga ning
Ġqurilma ning
Ġkaran tini
Ġen ergo
Ġyuldu zli
jaro hat
Ġsp orti
ĠAvva lo
Ġbi ladigan
ĠS vetlana
Ġshahar chasi
Ġfaoliyati dan
Ta laba
Ġmutaxassis lik
uni or
Ġmamlakatimiz ga
Ġolini shini
Ġishoni sh
a gi
f fe
ĠB ahra
Ġ7 37
Ġrasmiy lashtirilib
Ġyara sh
rgani shni
riq lar
Ġvalyuta larning
Ġtelekanali da
Ġqaytar gan
Ġmazmun li
ĠFin landiya
Ġistiqbo lda
Ġ lar
ro ss
Ġim mi
Ġsahifa lariga
Ġklub ga
Ġkilometr ni
ĠBr yuy
Ġtanaffus dan
Ġpudrat chi
ng er
lan tatsiya
en ning
Ġbosh lanish
Ġdaraja dan
Ġyaxshi laydi
ĠTe gishli
ĠKe lajak
Ġoperatsiya ni
qnash gan
Ġrahbariyati ning
ĠNATO ning
Ġquvur lari
E rta
la tilgan
ona siga
mu daryo
Ġmo tam
ĠHo lding
me to
Ġtoifa ga
Ġmijo zlari
Ġqidi rib
ĠJor ji
Ġtamoyil lari
I stanbul
Ġu ran
te nant
ĠTe st
Ġ0 5
kro m
Ġsharoi tini
Ġbuzi lib
Ja miyat
Ġxonanda ning
Ġyurtimiz ga
Ġvatandosh lar
Mada niyat
Ġbosh li
Ġsi ri
Ġxalq lar
Ġharakat lana
Ġavia zarba
Ġ197 0
Ġorganizm da
lomat lik
ĠTeng rinews
Ġeksk lyuziv
B ildirilishicha
Ġo lar
ĠS mit
lumo tida
ĠRespublika sidagi
it lar
Ġtonna si
ĠTan lov
ĠGe or
ĠMyan ma
ĠRafa el
Ġbyul let
ĠBryuy ne
M illi
O zod
Ġu zoqda
bo dda
fi tsi
rsa tilmoqda
ĠRe ja
ĠIs siq
Ġtuzi shga
Ġefi rida
ĠAbduva liyev
i miz
x avfsizlik
en n
lishi miz
Ġshifokor larga
ĠZo ir
ĠGar siya
Ġqoidabuzar liklar
Yaponiya ning
ĠAntoni o
Ġmohi yati
kalam zor
? Â»,
o hi
Ġke lmasligi
Ġra ketasi
Ġyu rishga
ho yat
Ġqabul xonasi
Ġpro mo
pe da
Ġhokimi ga
ĠHo land
Ġmukofot lari
Ġbajarish da
sav do
f uqaro
Ġ3 20
Ġberish lari
Ġsaq lanmoqda
Ġerish adi
Ġpen sioner
K al
ĠM MA
Ġish ning
Ġti lak
Ġuchrashuv ni
ĠKu vayt
ĠMoskva ning
Ġmuzlat kich
u lar
si t
Ġke malar
qda ryo
mati lla
Ġpro te
Ġbirinchi si
zgar tir
Ġqisqa rishi
Ġboshlagan di
eys mo
Ġdaxl siz
Spar tak
w ard
Ê ¼
mo ti
ĠU ol
Ġti ladi
Ġdavlat ni
ey ra
ksi onal
Ġtushun movchilik
Ġtanish tirish
Ġpast ligi
Ġbosqichi ni
Ġola mi
Ġbajar magan
Ġbakalav r
Ġ lug
li d
si ma
Ġ1 19
Ġmar ra
Ġrasmiy lashti
ĠTurkiya dagi
ĠIsh chi
Ġixtiyo riga
Ġnazora tidan
ĠBek zod
Ġsolinadi gan
Ġitaliya lik
x or
qi qiy
st ota
Ġto ki
ldi rishga
ĠU N
hi sob
Ġba shorat
Bu ni
ĠTur g
Ġxona doni
ne si
Ġshakl lari
Ġkurashish ga
ĠArabistoni ga
Ġunu tib
ĠQud dus
vosi bir
Ġjab ha
zbekte lekom
A ka
Ġa ut
Ġberi lsa
uz Reklama
ver de
rinbosari ning
ke doniya
Ġsuhbat lar
ĠKoronavirus ga
Ġdemokrat lar
O datda
lan masligi
ĠA I
ĠT ush
Ġte rim
Ġhimoya sini
Ġtartib ni
Ġtayin lanishi
Re uters
Ġkurashish da
Ġparlament ga
Ġuzun likdagi
Ġchina kam
e p
si us
Ġbi ologiya
cha tka
Ġvoq e
In vestitsiya
Ġdavlatlar aro
Ha fta
arak chi
ĠXudoy berdiyev
S M
T R
Ķ Ģ
sh ov
ga y
ĠM yunxen
ĠP etro
Ġ13 1
Ġmon o
Ġtepa siga
ĠGom es
K os
ĠCh et
Ġpar allel
Ġtopshi rishi
Ġtartib li
Ġyetkazi lishi
Ġnor malari
pro tses
Ġqud ratli
Ġyukla tildi
Ġshun doq
Ġkislo ta
ki to
ĠT ekshiruv
Ġsu zish
Ġxizmat chisi
Ġdar d
ĠTi xanov
IS EF
Internet da
p lo
Ġb ri
Ġma dhi
Ġto mi
ĠA ero
ĠE y
Ġvo dorod
Ġbola larda
Ġasos lar
Ġbaho lab
Ġuru shda
Ġenergetika si
ĠPi ter
Ġkomendan tlik
O g
P ul
h arbiy
on chi
Ġta lay
chi gi
Ġbi limi
oli ni
Ġn uroniy
as s
Ġcha q
lovchi ga
Ġeh tiro
od li
ngil siz
Ġqurol lari
Ġuyi ning
Ġtest lar
ĠMin taqa
ily ar
Ġasar lar
Ġinqilo bi
Ġoptimal lashtirish
Ġkorrup sion
ma salan
ĠSh in
Ġhisob lanmaydi
Ġjazo lanadi
Ġkasallik larning
ĠW hatsApp
Ġada sh
K uch
h udud
la ha
ti xon
yi layotgan
ĠâĢ ĭ
ir lagan
ĠD arg
Ġkasal ligiga
Ġqayta rildi
Ġqiroli cha
A rgentina
B ino
T ibbiyot
Ġqizi qishi
Ġimkoniyat lardan
Ġyanvar ga
Ġad ministratsiyasi
ĠTay son
Ġbeza tilgan
ĠBHM ning
vosibir sk
ĠI shon
Ġquri ldi
ĠNa moyish
Ġxodim ga
Ġvazifa sidan
ĠMe dia
Ġbozor lari
Ġkurash ga
Ġaks ar
Ġalmash tirildi
ĠMChJ ning
Ġfotosurat lar
Ġobek ti
Ġgadj et
ĠElect ronics
Kel gu
Ġattrak sion
o ning
Ġqo yil
ĠK et
ent e
rin dig
Ġol uvchilar
Ġeshi klar
Ġdaromad li
stitut siyasi
G uruh
M eksika
d no
f san
l lardan
gi dek
ro viga
ĠK ogon
Ġyuri tiladi
ĠMirziyoyev ga
ktor lar
Ġtik uv
Ġmanba ga
Ġfarzand lariga
Ġon kologiya
Ġtaf ov
Ġtuz um
Nor ma
c an
c ker
hi ra
Ġba sk
Ġdaraja sining
Ġloyiha larga
Ġuchrashuv ga
Ġqismi ning
Ġata ylab
Ġada biy
ĠIsroil ning
Ġinqiro zga
Ġvakola tiga
E y
Ġma yida
Ġya y
Ġber mayapti
Ġoy gacha
Ġse ni
Ġhaydovchi larga
O loy
ĠT r
Ġdar kor
shni lar
Ġishi ning
Ġsurat ni
ini sius
Ġtaqdi rini
Ġchiqqa nidan
Ġmuhandis lari
Ġk V
ĠA zamat
Ġochi lib
Ġvakil lik
Ġmahalla sidagi
Ġtuga di
Ġkelajak dagi
Ġdarvozab oni
ĠS E
Ġtu ro
Ġka mo
Ġdav rasida
yin chilar
ku sh
chilik da
Ġbelgi lagan
Ġtelefon lari
Ġnoyabr dan
Ġen ergetik
Ġarzon roq
Ġaloqador ligi
Ġop tik
Ġbuyurt masi
ĠMes sining
ĠChu st
D arakchi
ya digan
ĠB ro
ĠI va
radi m
Ġek s
Ġqoldi radi
ss er
Ġagentligi da
Ġyakun lab
ĠSi d
Ġzarba lari
Ġekin lari
Ġmaskan lari
Uchinchi dan
tah lil
Ġ $
ti ho
st vo
Ġte ga
ĠV in
ĠSa mara
Ġtush magan
Ġmurojaat da
Ġinfeksiya sidan
Ġyuldu zlari
ĠAk sariyat
Ġusu lini
A saka
X ususiy
j in
ma yotganini
ro vich
ĠP lay
bor g
Ġtor tishi
Tur li
Bir lashgan
. ***
ra g
Ġe chki
na zorat
Ġyo stiq
ĠT su
ko vi
mu h
lumo tini
Ġsuv ning
lovchi lardan
Ġdeputat lik
200 6
Ġundi rib
lcha mi
simlik larni
Ġmezbon lik
ĠRav on
Ġimpich ment
T TB
Ù Ĭ
li yo
mi b
Ġx ul
Sh an
lov e
Ġsoha larini
Ġnima larga
dr li
Ġkomp onent
Ġmehmon larni
Va ziyat
ĠXorazm da
ĠMan e
Turkiya ning
Ġkonferensiya da
gre gor
Ġoshi ra
Ma k
Ġche tida
Ġkiyi nish
Ġrekor dlar
Ġtosh qini
Ġtaraf dan
Ġefir da
Ġjanu bida
Ġtransformat siya
ĠMus ulmon
tek shirish
i re
Ġbi tirgan
Ġku yish
lu ng
bu ran
Ġxizmat dan
rsatkich dan
ĠAbdu x
qituvchi larni
Ġbera yotgani
ĠNazar bekov
ĠUm mon
Par lament
indo ws
A via
b en
Ġa di
dir uvchi
mu la
Ġtadbir larga
Ġla zer
Ġkorxona sida
Ġtomon larning
Ġmusobaqa lari
Ġshta tining
stru ktura
Ġkiradi gan
tiri shini
ĠFer rari
Ġportlash lar
Ġayo li
Ġhayrat da
ĠFederatsiya sining
l larning
v uz
Ù Ĵ
si rida
sta t
Ġbola jon
ye z
Ġyuz dan
Ġdastur xon
Ġdars lari
Ġbori layotgani
Ġyori tib
soq ov
Ġqutqar uvchi
hara kati
R iyo
t ganidan
Ġva tani
ona don
rib una
te li
Ġkorxona larini
ĠKoreya dagi
Ho kim
ĠEr nandes
Ġqam rovi
xalq aro
ĠTah lil
B al
ch tasi
Ġye yish
say tida
Ġnusxa da
Ġklinika sida
ĠIsmo il
Ġblo ki
Ġkash fi
O ldinroq
n s
Ġha dya
lo f
Ġki ne
Ġqil mas
Ġeti lsa
Ġuy larini
ĠKa p
Ġizoh lar
Ġkom muni
Ġsanksiya lari
Ġmis li
aniyev ich
Ġshosh il
ĠGin nes
V AZ
x ori
no vo
za yotgan
ĠN ov
alq on
Ġsu zib
pa yadi
Ġpul li
Ġdaqiqa larda
ĠIl miy
Ġaeroport da
Ġnafaqa lar
Ġharaka tining
ĠPor sche
Co V
Ġkos mo
ine din
Ġvahi ma
Ġhuju miga
k toriya
q qiy
to s
Ġte rini
Ġmah kamasi
Ġ11 3
zgar tirishi
Ġtor ti
alaba sini
Ġketa yotib
Ġunut mang
AM AS
Ġmodi fikatsiya
h iy
Ù ħ
Ġi ngi
ka lari
sa yti
ĠTe mir
Ġxil ma
Ġxalqi ni
ulot larda
Ġtaqqos laganda
>> >
ĠAtam bayev
si shni
Ġdav riy
ĠJ ST
Ġaj dod
Ġgo spi
Ġ26 0
ĠYaponiya ga
ten berg
Ġuniversitet da
kun du
Ġsentyabr dan
Ġpenal tidan
Ġdisp etcher
Ġmehna tiga
Ġmuzlat gich
A bu
on tepa
mo shdi
ĠU rush
ĠI V
Ġti layman
su da
Ġolin moqda
Ġqiladi lar
ĠRa yan
Ġsalomat ligiga
ĠPay g
Yunuso bod
B B
J abr
or tining
Ġay bini
gu li
Ġd ra
Ġshart lariga
ĠIn ha
ĠQa chon
Ġsakkiz ta
ĠIbro himov
ĠOzod bek
shi ngiz
zi mizda
de ziya
ona j
Ġbor magan
Ġek vival
Ġoila sining
pp os
tibor li
Ġkafolat lari
Ki chik
o dam
da d
Ġs tik
en tida
to p
Ġre spi
ĠJ ab
ku ni
tiro z
ĠAr tel
boyev ning
Ġsara lab
ĠTim ur
Ġtashvi shga
Ġhomila dorlik
ĠOrol bo
of urov
Ġtal qi
li lov
Ġma koni
to transport
ona sining
Ġtomon lari
Biz ga
Ġpasa yishiga
rilgani da
ĠLu gansk
Ġchar choq
Ġquvur lar
Maktab gacha
Ġmanti qiy
ĠLop es
ri yev
mi kan
Ġp illa
ngiz dagi
Ġmaj buran
sari q
ye rasi
anu bi
Ġkur sini
ĠShar tnoma
Ġmualli figa
ĠKar mana
Ġduch or
ti shim
Ġta gacha
Ġqi zlari
bi ddin
zo laridan
Al loh
Ġaktrisa ning
Ġaxboro tiga
ĠAssamb leya
y el
si ng
at sion
qi ydi
tir may
yor lari
Ġhisob lanishi
Ġreja ga
ĠMar hamat
Ġajra tgan
Ġfil tr
Ġishla tilishi
Ġmos lashtirish
masligi miz
Ġpast lab
Ġavlo di
Ġtuz di
Ġquvva tiga
Ġnonush ta
U L
x in
x ol
Ġs enga
ki chik
Ġke lmaydigan
Ġboshqa larni
Ġbirinchi lardan
Ġodam lardan
Ġqaror gohida
Ġ14 4
Ġqoida larni
rsatkich ni
Ġtarix dagi
Ġsuver en
I lgari
h er
Ġbir muncha
ĠF ermer
Ya kun
ĠBi o
Ġoch lik
Ġayb li
Ġbit ko
shin lar
Ġ198 4
tirilishi ni
p ga
mo z
Ġqo lmay
Ġkompaniya sida
Ġishon gan
Ġorgani ga
Ha yot
Ġ197 9
tol tenberg
Ġyutuq larga
Ġtahriri yatiga
Ġuslubi da
Ġfron t
Tinch lik
etil en
e za
li mov
ĠB us
ĠS terling
Ġin du
yin larni
te yn
ĠJa mi
Ġtushun tirdi
ĠSha m
ĠLi g
rsatdi ki
Ġsovrin dor
ĠKos ta
xara jat
S martfon
U zoq
Ġbo shini
Ġin sul
Ġmashina larni
Ġmavsu miga
jayev ning
ĠMada niy
ĠAlloh ning
Ġnoqulay lik
Ġadabiyot lar
ĠJalo lov
Ġyug ur
CH J
U ndan
bo shqa
ĠI S
ĠAQSh ni
ĠTur kiy
ibor ni
Bar sa
Ġsarf laydi
Ġshiko yati
ĠKuch lari
ĠK la
erg yus
Ġmurojaat larni
Ġmurojaat larini
Ġxona ga
Ġkilo vatt
Ġklubi ni
Ġjihoz lanadi
Ġtvitter da
Ġbe takror
Ġtek stil
Ġbemor ni
Ġpoli z
Ġkomis sari
Ġkechi shga
ĠMen di
Ġehtiyo jini
Ġshakli ga
Ġbudjet ga
ĠYuqori da
ĠEngi ne
lariga cha
ĠSa dir
Ġuy larga
xo lding
Ġmaydon chasida
In doneziya
Ġge ologik
Ġzavo dda
Ġqidiruv da
Ġtarji mon
Mutaxassis lar
Ġnokaut ga
mbe le
Ġkonfer ensiyasi
? _
T og
di al
Ġa to
Ġu loq
chi dan
in lanishi
Ġyuri t
kon ga
Ġvideo sini
Ġket dim
ĠBir gina
ĠKon or
Ġtak tika
Ġurin di
Ġgazeta sida
T ekshiruv
a ng
m uriyat
ta gan
ĠO IV
ĠK aro
Ġqilin madi
Ġmamlakat lardagi
Ġqiy noq
Ġmuloqot ga
Eksp ert
l lashni
y eri
la may
ĠM CHJ
Ġay tadigan
landi k
zor lar
Ġhisobo tini
inter nat
Mis r
S essiya
ra moqda
Ġish ladi
rab biy
ĠSho kir
Ġxaridor larga
j ayeva
q ulova
qa mli
ĠB lack
be ton
Ġfuqaro likni
Ġ0 3
Mu dofaa
Ġzim ma
Ġalmashin uv
ĠTs zinpin
A J
A zi
I z
X ullas
b rey
z ladi
Ġ ÂŃ
Ġa stero
ĠM c
Sa marqandda
Ġyangilik larni
ĠBer nar
Ġsakki zinchi
zgarishi ga
Ġqariya lar
e rin
Ù Ī
ki ra
en es
Ġqay tara
Ġqar zini
rgan moqda
Ġsud lov
ĠHo kim
ĠKa pur
Ġsub yektlari
Bo jxona
Ġmajmua sini
Ġusul lar
Ġotr yad
z Li
ta lab
ki na
ĠS mart
Ġtu ya
Ġxo lding
su la
Ġjinoyat ga
Ġ12 2
Ġqizi qib
Ġmaydoni dan
Ġtashabbu sini
A prel
yo zov
Ġke lardi
so ur
ĠR oy
Ġber maydigan
ĠG abriel
Ġyuqori ligi
Ġmashina sozlik
Ġsamara dorlik
Ġter masi
tibo ran
fil d
ĠRu honiy
Ġyutqa zib
Ġbizne sini
Ġasa biy
ĠBre xit
Ġfilia liga
gra ph
Ù ı
zi ladi
lan may
rish ta
Ġbu k
lat or
le v
jon ova
Sa xovat
Ġprokuratura ga
Ġmarkaz larini
Ġhib s
Ġfarzandi ning
Ġoso ngina
porta tsiya
ĠComp any
Z iyo
et bol
ĠU EFA
ĠQ amchiq
Ġme nimcha
Ġqilgan da
Ġmeh ribonlik
Ġbosqich li
rgaz malar
Ġkiriti layotgan
Ġnashr lari
udi yasi
Ġforu mida
o piya
ja ti
ko taj
Ġti lab
ĠX oli
Ġmil la
Ġmamlakat larining
Ġro man
Ġkatta si
noma lar
Ġsoni dan
rgan a
ĠTurkiya dan
Ġata sh
Ġfun ksional
ĠDil murod
Ġ86 00
ĠQay si
Ġinvestor larni
ĠBey l
Ġavtosa lon
; Â·
A riza
ma dik
ng ning
Ġmu rda
qtiso d
Ġharbiy larning
Ġkelgan lar
Ġkorxona lariga
Ġkomp ressor
Ġyechi mlar
Ġochko lari
Ġchiqara yotgan
Ġomad li
Ġkombi natsiya
rindiq lar
S al
ti stika
ra ngli
Ġtar biyasi
Ġor tdi
Ġ4 000
ĠE IZ
Ġfoyda laning
Ġ18 3
Ġ22 8
Ġqurilma larini
ĠLo tin
200 5
ldosh eva
Ġsaro y
Ġmuolaja larga
Ġsubsidiya lar
ĠMusa yev
Ġavtobu si
ta sida
ĠN ah
ĠJ AR
Ġetish adi
ĠKe cha
Ġtizim dagi
Ġhafta ga
Ġishla tgan
Ġsamolyot ning
Ġtara qqiy
Ġmikro avtobus
drid liklar
For um
ĠAntoni u
ĠObi d
sa lish
lgan dan
ona ko
ĠQ um
Ġyordam chilari
Ġkam ligi
Ġsaylov larga
dr yu
Ġxarajat larining
sho ot
Ġtili ning
Ġzaxira larini
Ġnizo mni
ĠFor s
ĠHatto ki
Ġbellashuv lari
zLi De
Ġg ek
Ġbelgi larini
Ġshar bat
Ġmas si
Ġtasdiq lanmagan
Ġqolish di
Ġhisobo tiga
ĠDav letov
kini shi
ĠFlo y
Ġflag man
H K
S on
m ut
Ġa no
ston lik
ĠH usniddin
Ġxalq ni
Ġkorxona ga
ĠIn tel
Ġbino sining
oq chilik
Ġgol lar
Ġaksiya larini
ĠHu mo
Ġchuqur likda
fevral dan
Ġjanjal lashib
ĠKasal lik
v es
Ġo dil
ĠX erson
sha tilgan
ĠL ev
Ġsu vosti
ngiz mi
Ġdi qqa
Ġqilingan dan
Ġsalo nida
Ġmuloqot lar
Ġerkin ligini
Ha vo
rgazma li
Germaniya ning
Yan deks
b ilov
i yan
q bul
ĠA i
ĠU r
Ġtashkil lashtirilgan
radi tsiya
Ġfo ji
Ġosh masligi
Ġvoqea larga
Ġchegara dan
Ġona lar
Ġyozi shma
Ġtanlov ida
Ġoperatsiya larini
Ġ198 1
Ġanti tana
ĠJy eneva
Ġjin si
Ġtaassu ro
ambari miz
i lishini
ã ģ
ta ha
ka ssa
ĠA dam
so niy
Ġba da
Ġnafa rini
Ġqizi g
Ġora siga
Ġklub da
Ġxato lar
Agar da
Ġhokimiyat ga
Ġolmas lik
Ġishlashi ga
Ġsafarbar lik
Ġmusht lashuv
B ah
Ġqay na
Ġtush umi
ĠBa liq
Ġmahalla lar
Ġkelishi sh
Ġavi aba
Ġnuq tasi
Ġ198 3
Ġyoqa di
ĠBobo jonov
edi tsiya
Ġtafov ut
B aho
u sini
x al
lin malar
Ġim tiho
qo m
Ġaniq lanishicha
pa xta
Ġshar qidagi
Ġtopshi r
der son
Ġuz viy
Ġkura shayotgan
Ġdaromad larni
So ch
Kor xona
Ġfilm ning
AR K
Ġuskuna larni
Ġmeva li
xti sos
Ġtir noq
Ġombor xona
Ġbajara yotgan
F in
Q atar
Ġm et
Ġp ror
yat li
ul lanmoqda
ko mp
ĠI ttifoq
ĠSh un
siz likka
Ġsoat gacha
Ġmaydon chalari
Ġhaj mli
ĠSho diyeva
Ġyetka zil
Ġsot moqchi
ĠMak gregor
Ġrol larni
Ġmaqsadi miz
Ġprovin siyasi
ĠGaz eta
Ġyaponiya lik
ĠS zinpin
ĠT arix
miz dek
ĠQ ish
tir masdan
Ġtan lashda
Ta niqli
xon ova
Ġtizim lar
tika l
mak lash
Ġzarba sini
Ġniqob lar
Ġnabi ra
Ġrespi rator
p oteka
Ġa langa
mi um
at larda
Ġqil maydigan
Ġsaq lagan
ĠLiga da
Ġuniversitet ning
Ġuniversitet lari
Ġser jan
Ġqonunchilik ni
Ġmedal ni
Ġadabi yo
A maldagi
C OVID
t ro
va da
Ġbo sa
Ġtu zal
Ġchi da
ona sini
Ġtadbir larida
Ġqonun larga
Ġyuk lash
Ġtani b
Ġmuh andi
Ġtexnika lari
Ġtekshiruv lari
Ġmehmonxona sida
Ġqadam lar
muhi tga
urin yo
Ġaviar eys
ĠB lue
ot ter
gu ero
Ġet madi
Ġmuvofiq lashtiruvchi
Ġ0 2
Ġel dan
ĠNo kia
Ġqiymati ning
Ġbilim larini
ĠVe st
Ġqoldiq lari
Ġlay ner
C E
y uri
sa ba
at ov
ĠS tan
ĠM B
Ġhisob lan
Ġyara landi
Ġmaktab larni
ĠHo use
Ġgi gan
qqi zinchi
Ġhayot ning
tur dan
Ġbahs li
Ġhuk miga
Ġijod korlar
Ġkal siy
ĠHi so
ĠAd ham
Ġpod shoh
Ġrey d
bud sman
ĠYoz uvchilar
T il
Ġ limi
ta g
ĠA riza
Ġin jiniring
Ġmuammo ning
Ġvaksina sining
Ġsta kan
Va q
Ġterakt lar
ĠParij da
Ġko ino
Ġchi rog
Ġzar yad
Ġqaror lariga
nalish larni
qil di
ĠBritaniya ga
ĠKur di
Ayol lar
Ġqov un
Ġinfra struktura
A sh
y qa
av er
Ġku lib
Ġet tirib
Ġse zil
ddi nova
ero bod
Ġseri yasi
Ġyurib di
ĠAvval gi
A PL
i ti
ng u
Ġf avvo
ĠS H
Ġbir dan
ko fot
Ġhisob lagan
Ġgaz ning
Ġbino larni
Ġmutaxassis larining
Ġsamara si
xat ar
Ġeksp onat
che gara
Ġdaromad larini
Ġyoq qan
Ġsertifikat lashtirish
ĠCher no
ul t
ĠF it
Ġjoy lashish
zgar tirgan
tkazish di
ĠIs ro
tkaz gani
ke sil
Ġkuzat uvchilar
Ġkelgu sidagi
Ġqor ovul
Ġoperator lari
Ġxohi shiga
ĠAbdurah mon
Ġvata niga
Ġmessenj eri
ĠLuka s
Ġaviaqatnov lar
Neft chi
P or
Ġg rafik
Ġ11 4
ksiya lar
Ġrespublika ga
yna shi
Ġaeroport ga
Ġtad bi
Ġqoni qarsiz
Ġproto ko
a j
ja vob
Ġg ilo
ĠH em
ĠE li
Ġtashkilot lardan
lashi ngiz
Ġuru shni
Ġxodi mini
tilgani dan
dara ja
Ġguber nator
ĠXush nud
bab ve
Ġmagi str
A mir
L as
sh om
chi larini
Ġka lit
ĠJ omboy
Ġshi nam
Ġmaktab larning
Ġtah qir
rsatish ning
Sa noat
Ġmanba larini
Ġsahifa larida
Ġpast roq
ĠZo min
Ġshidda tli
Ġteska ri
M al
Ġa sal
zi dagi
er da
Ġyo t
Ġkenga yib
ĠVa ksina
tal ya
ĠBritaniya dagi
Ġkamchilik larga
Ġyashirin cha
Ġsudya lar
Tramp ning
abo b
Ġotr yadi
Ġvaliah d
k mat
yo ridan
ba a
Ġqiy nab
pu tatlar
lg unga
Ġhodisa ga
Ġzo min
ĠAbdul loh
Bel giya
Mamlakatimiz da
u lu
lan tirilgan
Ġx am
yo qda
no l
Ġhisob laymiz
Ġkishi larga
Ġkompaniya lariga
Ġkon ting
Ġmul kka
Ġimtihon lar
Ġshahzoda si
Ġvakola tini
Avva lo
Fil m
Ġishqi bo
protses sual
Ġyil likda
ĠI so
Ġin fo
ĠH an
in lovchi
sha sh
ĠL ab
Ġvazirligi dan
Ġbiri dan
Ġar z
Ġvazifa siga
Ch echeniston
Ġmilliard lab
ĠYo utube
Ġishla maydi
jaligi ning
Ġtaqiq lanmagan
Ġshifoxona larda
Va shington
Ġerkin liklarini
Ġimkoniyati dan
Be sh
Koronavirus ga
Mir zo
Z enit
i nida
ch jou
Ġso q
ĠT O
Ġber sangiz
Ġdavo midagi
Ġtur g
Ġah moq
Ġshahar lariga
Ġqara tib
Ġtashqa risida
ĠUkraina dan
Ġsiyosat ni
De putat
Ġerishish ga
Ġfinali ga
Ġmarka zga
Ġraqi bini
Ġinqilo b
Ġya xta
zo ra
Ġqil sin
Ġti yin
ĠD er
Ġsoha larga
Ġtib bi
nov ning
Ġz enit
Ġhodisa ni
Ġara lashish
Ġum urt
Ġdaqiqa lik
Ġavlod ni
Shah ri
Ġvideomu rojaat
Ġo riginal
Ġqo lindi
ĠA zim
Ġ1 21
re spublika
kat sion
fo ni
Ġfoyda lanmoqda
ĠIn si
Ġnom dagi
yna shni
ĠHar ri
Ġoda mi
ĠFuqaro lar
Ġdon or
ĠMask ning
Ġxususiyat larini
Shifo kor
Ġeron lik
T arix
V ul
Ġ lat
di rib
Ġ12 3
Ġhuquq lar
Ay tish
mita sida
ĠVi ta
Qur bon
Ġpoyde vor
Ġdali liy
Ġmumkin ligiga
Ġye m
Ġdi sser
Ġvosita lardan
Ġijro iya
ĠKu chli
Ġsayyoh larni
vay der
ĠGar ri
Ġsuhbatlash dik
q lim
Ġa tir
Ġf ilo
ĠM AN
Ġbosh lovchi
ĠF ergyus
Ġla g
Ġ16 4
ĠRah i
Ġetilgani dan
Ġinvestor larga
Ġboshqaruvchi si
ĠFinan cial
c es
y laymiz
na tgan
Ġholat ning
Ġdi ldan
Ġberish larini
rim ni
yish gan
Ġ15 5
Ġgi brid
Ish chi
llanma sini
Ġfrak siyasi
Ġsimp tom
ĠEk sport
tili zatsiya
aha lokat
love niya
Ġqi zim
ldi radi
Ya k
ĠIn no
ĠIs landiya
Ġxari di
Na zorat
shar qiy
Ġmuxoli f
ĠViloyat da
Ġposti da
ĠRahmat ullayev
ĠIbragi mov
ĠRodri go
Ġsuriya lik
n u
sa tda
Ġf otoreportaj
to z
ĠD an
Ch ilonzor
Bo bur
ĠEK IH
de y
lu lloh
ĠG am
Ġboshqa lardan
Ġye ri
noma sida
Ġtexnologiya sini
Ġkurash ni
ĠLi be
ĠKon t
Ġsur di
Dav latimiz
ĠSulay moniy
Ġjosus lik
Ġqala mpir
M ol
ĵ ī
ch ev
ot el
ĠN ilufar
ĠD ori
dir ki
ov iy
ori ladigan
Ġquri lib
xta tilib
Ġ12 7
nalish laridan
Ġsurat da
Ġpoli etilen
Ġresurs larni
ĠVal eri
Hi sob
Ġfur sat
Ġspek tak
Ġy ona
ta ylik
Ġtash ak
Sh oh
sha f
Ġajra lmas
Ġidora viy
Ġlavozim ni
ĠOta jonov
Ġyop il
Ġanjuman lar
Ġbask etbol
ka zda
Ġso lmoqda
so la
Ġkompaniya ni
yotgani ga
im babve
Ch unki
Ġerkin liklari
mada niy
Ġekst raditsiya
olog lar
ĠEngine ering
Ġmassi vi
g ey
cha dagi
Ġyo moni
Ġyo shini
ĠO qdaryo
et ch
sp eksiya
ĠRe yti
Ġman fiy
Ġqara shda
Ġyara tishi
Ġyuz ma
Ġsuhbat doshi
ĠW indows
Ġtil larni
Ġstansiya sini
Ġorzu si
Ġshikast langan
Ġsak rash
e h
f el
Ġs pi
Ġta fak
ĠM el
ĠM AK
ĠK ino
Ġ20 5
Ma il
Ġqilingan ligi
Ġmahsulot lardan
Ġkelish ni
sul lik
zida yoq
langani ga
Ġdasturi dan
Ġsavol ni
Ġum ri
Ġsel fi
llan malar
ĠOlti ariq
ĠNargi za
y su
Ġo tax
bi ologiya
uv vat
fa s
ku mati
Ġyet maydi
gu za
Ġchora gi
Ġtomon larni
pre ssiya
Ġer ga
Ġvideo yozuv
Ġmehmon larga
Ġrus um
Hu awei
uddi n
Ġdelegatsiya lari
Ġqisqar tirishga
Ġkirit magan
Ġmetropolite ni
li al
Ġi cha
Ġham mu
rin dagi
Ġbar bod
Ġet moqchi
Ġmaktab dan
Ġqiy nayotgan
xsha gan
Ġhurmat li
Ġnaf rat
Ġrasmiylashtir uvi
hodisa lar
ĠAtlan tika
Q urilma
k la
ti zo
ĠA mudaryo
ĠO ziq
Ġbir ligi
ĠG rin
Ġoshi radigan
Ġle gal
ok sidan
Ġxoh laydi
Ġ ðŁ
Ġta baqa
ur ur
ĠO v
ona dan
Ġtayyor ligi
Ġbola sini
Ġ12 9
Ġbildi ramiz
Ġmuvaffaqi yati
ket s
Ġola mida
oz ara
ĠPi ke
zLiDe P
Ġqonun larni
ĠMu zokara
Ġas nosida
ĠKe nge
Ġtexnologiya li
Ġshartnoma larni
Ġnafari ning
Ġara lashuv
dekabr dan
tiri shicha
rant ura
ĠHabi bul
K UN
na k
Ġxo ni
ĠV illa
ĠShu kurov
Ġyuqori ga
Ġqaro ridan
Re jissor
Ġmanba lardan
tur ar
Ġmehmonxona da
Ġshakllantirish ga
poli s
Ġteri si
Ġkoman diri
XSh T
Ġqonunbuzi lish
f et
ti onal
Ġi lin
Ġbor t
Ġyaxshi si
Ġqayta rilishi
Ġoladi mi
ĠFa bi
Ġerta ngi
lek tiv
ĠIspaniya ning
Ġtajovuz kor
ĠChar lz
G uliston
Ġb lan
na ning
Ġber maslik
Ġfoyda lanadigan
sion erlar
Ġmunosabat larga
ĠKa ze
Ġbiti mi
200 7
Ġpre fe
Mi kro
Ġdron lar
ĠDiy or
ĠArt ur
Ġmagnitu dali
A X
ĠB oli
ĠI momali
Ġchiq dim
Ġyoz gandi
ib er
Ġport ugaliyalik
Ġturibdi ki
Ġquvvat lash
Ġkanal lar
ĠAvto bus
ĠRiz ayeva
Ġinfor mat
z lashtirib
Ġ lon
Ġk ri
ra ladi
Ġki moshdi
Ġoldi lar
Ġsay lovchi
san j
Ġrahbar larini
Ġmutaxassis larga
Ġtik ladi
Ġimkoniyat larga
Ġhayot ni
ningiz da
bosh lovchi
fil m
ĠLuka ku
ĠBezo s
T ON
Ġs nar
ta kt
ent ra
Ġmeh ribon
ish ga
Ġguruh larga
Ġhafta ligi
Ġpoli texnika
Ġshartnoma da
Ġjamiyat dagi
Ġmajmua sining
Ġuniversitet lar
Ġmexani zatsiya
mul kini
ĠHong kong
A gentlikning
Ġko t
us ti
ĠP ana
Ġba ss
Ġjavob siz
Ġsuv lari
ĠHa z
Ġmaqsad lariga
Ġolma yotgan
Ġerkak ni
Ġhamkor lari
Ġyon dosh
ĠVashington da
âĢĿ) ;
ĠAsa dov
kda un
C D
ka sl
Ġmu tola
rish di
ĠJ ohn
kur s
Ġtadbir ga
Ġmashina dan
lmas ligiga
Ġishi dan
Ġnomi nal
Ġle gion
Ġbaja rildi
Ġyetakchi sining
tellekt ual
Nav ro
minist ratsiya
Ġalyan s
Ġbo riladigan
un u
rin di
kid lanadi
shli g
se lo
Ġnarx ni
Ġaylan tirdi
Ġboyi tish
ĠSul sher
Ġska ner
ĠAbdux oliqov
1 50
li o
ti rilayotgan
yo hat
Ġho li
ot t
Ġyu ki
Ġberi lganini
yan ning
Ġz ero
Ko missiya
ster dam
Ġshta tlar
Ġkasb ga
Ġberishi miz
ĠDi ana
Ġsotish dan
Ġaktrisa si
tari ston
ĠUz un
ĠDev is
Ġterrori stik
a sta
ni tsi
lan sin
Ġyo llanma
Ġtu tilishi
Ġuch gan
xta tadi
Ġidora larining
Ġtovar larning
joy ga
Ġkiyi mi
Ġnamuna larini
ĠTi zim
ĠNiz omi
Ġversiya sini
rovnoma da
ĠMutaxassis larning
ĠSaf arov
ri a
ĠA le
ĠP ra
Ġre spondent
ji ddin
Ġqaror larni
Ġortiq roq
Ġista k
Ġxa tida
Ġmiqdor lari
Ġerta si
Ġavtobus da
Ġdoira lari
Ġfarq ni
ĠQodirov ning
Ġichka riga
Ġparranda chilik
kovni gi
k var
w o
la ta
et siya
tir dik
Ġxizmat chilarning
Ġtumani ni
Ġyuri tishi
Ġfoydalanish lari
Ġchegara lar
Ġislohot larga
noyabr dan
Ġshikoyat lar
Ġkurs larini
Ġmamlaka tida
ĠTixanov skaya
Q anday
Ġ diy
Ġto jikiston
Ġp as
Ġtash lanishi
Ġho lidan
ba d
Ġet nik
qon lik
Ġ14 5
ĠAn ton
Ġust o
Ġon kologik
Ġtamo yi
Ġxato ga
Ġnamuna lar
tor e
Ġafzal liklari
Ġaudi t
K ra
z lashti
Ġj ilov
ĠM anu
ĠN issan
ku nan
Ġkar tasi
lmay miz
Ġkubo metr
Ġqul f
Ġvul qon
H ON
d um
lar dik
mi ziy
Ġp ishloq
te ch
Ġega ligi
qo g
Ġquri ladigan
ey ev
Ġpar do
Ġariza ni
ĠKi ng
Ġkollej lari
Ġkimga dir
Bay den
Ġsotsi al
rqi tib
ĠVet nam
Ġde portatsiya
ĠT ri
Ġra n
Ġka liy
fa ol
ĠL yuk
Ġolingan lar
Ġeshi gini
Ġpe di
xt yor
ulot larni
Ġnogiron lik
Vazir ning
raqa mli
Ġlon don
U zAuto
Y TH
n gan
ĠT ey
fi opiya
Ġuchrashuv larda
Ġketa yotganini
Dunyo dagi
Ġuslub da
Ġcher kov
A ma
T om
qi ydigan
ĠQ aro
Ġno haq
ĠG ra
vi d
Ġqaror larini
Ġtushi rishga
Ġqizi ning
Ġtexnologiya lardan
Ġviza si
ĠTele fon
Ġxuru ji
ĠVakil lar
Ġdisser tatsiya
k key
z standart
ti ring
de m
ĠS ARS
ba ni
Ġsi zda
sha tish
ĠSa rio
rsatkich larga
Ġmamlakatimiz dagi
Ġnega dir
ĠKamo liddin
Ġisbo ti
K ali
t masdan
Ġk ort
Ġa kam
lan tirib
Ġji yani
Ġqara tadi
ĠYa rim
Ġqiz larning
Ġsentabr dan
Ġbarqaror lashtirish
Ġjamoatchilik ning
Ġraketa larni
ĠSirdaryo da
Shah zoda
ĠOlim jon
ĠEdu cation
K uni
ni r
gi langan
ĠB ren
ĠM um
Ġquri shi
Ġqarori ning
ĠQa mashi
Ang ren
ĠBoy sun
Ġxala l
llan masi
Ġbriga dasi
ĠIkro mov
ĠSario siyo
la f
vo s
Ġtar ziga
Ġqilin yapti
ĠMa lik
Ġboshqa riladigan
Ġmamlakat laridan
rta da
Ġ12 6
par vo
Ġyubo rilgani
quvchi ning
Ġmiqyo sdagi
Ġrivoji ni
Ġâ ĵī
ĠAsh xobod
Ġhosi li
Ġmuhandi si
P arij
g orod
ya riq
Ġto ng
no s
man dlar
rov lar
Ġilova lar
Ġxomashyo si
Yan var
Ġtaqin choq
n li
Ġbarcha sida
ilgan lik
Ġmashina sining
tal yan
ĠTer eza
Ġfondi ning
Ġraq sga
NT ech
Ġinaugu ratsiya
Ġsinte tik
! !
A u
D ori
y lash
sh e
ya ma
ta sham
Ġa nimat
Ġma kiyaj
Ġbosh lanishiga
el sin
oh ir
Ġ17 5
oniston ni
In novatsion
Ġfarzand lar
Ġtil ni
Ġver tikal
Ja ng
Ġklini kasi
Ġsir li
Mash hur
ilyar real
F L
I mom
z uvchi
do vich
Ġqayta yotgan
Ġket moqchi
Ġuru shida
Ġtaqiq lab
Ġboshlangan di
Ġaeropor tidan
Ġoyoq qa
Ġting landi
Ġauksion da
ĠBol tiq
yek ti
Ġumurt qa
i rida
w n
Ġin stagram
ĠJ anubi
qo tishi
Ġfuqaro dan
Ġaniq laydi
Ġjinoyat lari
Ġchegara sidan
Ġenergiya ni
Ġtanish tirdi
Ġdars lik
Ġaylan tirib
Ġshoxob cha
Ġekstremiz m
erin burg
Ġo yat
Ġo lgach
Ġi rq
Ġx un
Ġku zov
Ġg ermaniya
Ġdav ridan
ĠF at
ĠF QB
Ġtayyor laydi
Ġet maslik
Ġdar goh
Ġmunosabat larining
Ġyash ov
Ġob razi
Ġmaslahat chilari
Ġtab let
ĠAngliya da
ĠElekt ron
ĠNashr ning
ĠEksp ert
ĠTurdi mov
Ġkost yum
si rga
Ġk li
ra z
ub xona
Ġchiqa rilmoqda
Ġ19 60
Ġpar da
Ġichi b
Ġtarmoq ning
Ġr usu
Ġishla yapti
Ġmehmon lari
Ġtanish tirib
tu a
Ġbois dan
kirov ka
Port u
Ð¾ Ð
ĠBahra yn
f sha
j et
vo fiq
ĠS toltenberg
so liq
ĠD NK
Ġnima larni
Ġishla gani
ĠMaj mua
Ġfunksiya lari
Ġorganizm ga
Ġdepo zit
ĠKelgu sida
Ġtadbi rida
b lok
ĠâĢ Ŀ
Ġte bra
ĠHa kimov
Ġal lo
Ġnarxi ga
Ġbozor larga
shadi gan
Ġqan dolat
Ġmuvaffaqiyat lar
ĠAJ ga
pchilik ka
Ġyakka kurash
Ġoktyabr dan
Ġistay man
ĠShoy gu
? Â«
F estival
S el
Ġmu s
Ġyo rib
Ġsh ka
ĠQ R
Ġqa zish
Ġoshi rgani
gar lar
Ġtop o
Ġchiqa rilishini
Ġchiqi lishini
Ġoy ligi
Ġqayta riladi
kon da
Ġkuza tiladigan
Ġes laydi
Ġsara lari
Ġodat dagi
Ġyarmar kasi
Ġzara ri
ĠMode rna
U rush
ĠT ru
fi ka
Ġmar hamat
Ġfi to
nalish ni
Ġxona siga
ĠNo vosibirsk
Ġnomzod larning
ĠBer diyev
Ġasr lar
Che gara
Ġmero sini
ĠGon sa
Ġgeog rafik
li qda
ra tiga
gi ston
ona larning
ĠU in
Ġdav rga
Ġqa zilma
sha rifi
ĠMa kedoniya
Ġet yapti
Ġtarqa tildi
Ġuchrashuv ini
oya sini
Ġmustahkam lab
Ġiz dan
Ġixti lof
Ġtinchlik parvar
Ġaylangan di
Ġsil kinishi
Ġmulo qo
Ġtransfer lar
Preziden timiz
Ġhaz rat
ĠNetanya xu
ĠKaze miro
Y ur
d s
s lon
u shni
Ġke tildi
Ġbe z
bo bo
Ġja ngida
Ġaso sini
Ġqu y
Ġreja ni
Ġz erik
ĠRa isi
Ġmanba laridan
Ġyangilik larning
Ġfarzand larining
ĠEn dryu
vogar lar
En ergetika
ĠShtat lari
F P
k ti
Ġx ud
ĠA sal
ĠO ldi
ĠT ibbiy
hi ng
Ġet tirdi
Ġbank dan
Ġturi shini
Ġtax allu
Ġhaydovchi larning
ĠFar zand
Ġstati stikasi
Ġekran ga
ĠVal verde
Ġi shim
do lu
Ġbe zak
ĠI no
Ġba lo
ora z
zgar tirdi
Ġkur ort
Ġqiyna lib
Ġqadriyat lar
Ġmenej ment
Ġsalohiyat li
D S
k lama
si shga
Ġu rildi
Ġta bo
Ġro lik
am eri
tkaz uvchi
Ġeta yotganini
Ġfarmoni da
Ġtabiat ni
Ġingi chka
d y
n y
Ġu rinishda
ka go
st rum
moqda miz
ĠP in
ĠRespublika ning
Ġxalq lari
ĠJa mol
Ġmarkaz ning
ĠMo urinyo
Kor rupsiyaga
Ba g
ĠSin d
Ġsahna ga
Ġqutu lish
l qi
t ral
at da
âĢĿ ).
ĠD ay
ut m
Ġyangi ladi
mar tda
Ġular dagi
tibi otik
Ġ18 5
Ġkech ga
Ġ198 2
Ġmuomala da
Ġkonver tatsiya
Yakun lanib
K ur
K ino
ĠU mur
oli yati
Ġqu yo
Ġ8 50
Ġ19 4
Ġdastur da
ssa lom
ilov chi
Ġundi rilgan
Ġtabrik lab
Ġgvar diyasi
Ġxohi shi
ĠGon kong
Ġkiber hujum
Ġgeo deziya
Ġshoko lad
Ġharora tining
Ġdiam etri
p ment
Ġu tilizatsiya
or lari
so vo
ul l
ek s
Ma lika
adi iy
quvchi sini
Ġuz gan
Ġket maydi
Ġkura shi
Ġzo t
Ġobekt lariga
200 4
Ġjoylashti rilishi
ĠCa ptiva
sa ki
ur dona
ĠS ci
diq ov
Ġpo k
me ni
Ġochiq chasiga
ĠMo bile
ĠIsh tixon
Ġborishi ga
Ġsoch lar
Ġshoxob chasi
ĠKri stian
ĠSharq dagi
Ġhovli sida
Ġizlanish lar
Ġoromg oh
ĠKro os
D ev
E M
O mmaviy
f re
i kkinchi
lari ng
Ġf er
ĠS el
ut h
Ġmo tivatsiya
Ġxizmat lardan
Ġet tira
am bar
Ġxavfsiz likka
Ġvalyuta ni
lyat sion
ĠKi lian
Ġtashabbus ni
Ġteri ning
rtinchi dan
Ġbilish adi
O M
li on
Ġi zi
Ġu ri
us n
ko k
ĠE kvador
ĠC om
Ġang lashuv
Ġoson roq
lubiyat dan
Ġurinish lar
Fuqaro larning
Ġtamoyil lariga
Ġgene tik
ya yotgan
shi ch
ka siga
kur siya
shish ni
Av gust
Ġtarqa lish
ĠSo b
Ġibo ra
Ġxat lovdan
Ġishonch sizlik
Ġbuyurt malar
ĠTaq qoslash
oyez d
chi rilishi
Ġtu zu
ĠJ unior
sha tib
Ġqu yon
kov skiy
qituvchi larga
Ġtil larini
ĠQonun ning
Ġundi riladi
ĠIl k
Ġobyekt larini
Ġmojaro lar
Ġhov uz
ĠBr ent
Ġbuyuri shi
tarin ki
Ġatal uvchi
Ġ *
ma rta
ĠA ta
Ġku zda
ko smik
yil larga
ĠV u
ĠV yet
Ġche tidagi
Ġoyi gacha
Dar vozab
Ġdastur ning
Ġmintaqa ning
Ġsuhbat lashib
ĠĠĠĠĠĠĠĠ Ġ
Ġolini shiga
Ġqozo nib
Ġfilia lida
Ozar boyjon
ĠDis ney
ĠBlin ken
F IFA
Q ish
Ġbosh lanishini
tish gan
Ġmo hir
Ġharakat larga
ĠCh on
ĠQo dir
Ġhujjat ning
ĠZ i
nov skiy
Ġdedi lar
ĠGermaniya dagi
Ġve lo
Ġchiqqa ch
Sha xtyor
ĠGol d
zoyna k
N ig
N uroniy
ya miz
or ga
Ġde ngizga
ldi ki
Ġjoy lashdi
vi ni
Ġuy larida
Ġar man
im lar
Ġdar rov
Ġshak lga
Ġkir gani
Ġpandemiya ga
Ġkarto grafiya
Ð° Ð
ĠMurod jon
Ġtvitter dagi
Ġtasvi ri
A bror
va ch
qi di
so va
Ġra tsion
tish dan
ĠI kkala
ngi dan
ĠV inisius
ji s
ver hempton
Ġyaqin roq
Ġoila sini
Ġsar guza
Ġhujum kor
tari lish
elekt ron
ĠDev elo
Ġney ro
U FC
f ede
z el
Ġi spaniya
Ġtur lariga
Ġchiqish dan
Ġnamo zi
Ġora dagi
Ġxarid lar
Ġbaland likka
Hindiston ning
ĠTor res
Ġkrosso vka
Ġbahori da
ĠTsu kerberg
6 00
v u
Ġko lon
Ġmu dhi
ĠO ch
ĠO dessa
ĠJ im
ĠMa c
Ġoila larni
par lament
Ġqiy noqqa
Ġmaqsad larida
Ġmos lashuv
Ġhaydovchi siz
Ġ197 6
Ġtoshqin lari
Ġmuxbir lari
Ġhamroh ligida
Ġhur mati
K iyev
Ġag enti
Ġajra tilishini
ĠNo sir
Ġtonna gacha
Ġolim larning
Ġnizo lar
kidlagan di
Ġekin lar
ĠJy ek
Er kin
Ġpos yol
Ġbosqin chilik
Ġliberal lashtirish
Nizom ga
Ġbadan ga
ĠGeor gi
Ġmudhi sh
Ġx aro
Ġp lyaj
ĠBu lung
Ġshi na
Ġdar cha
Ġnavbat lar
Ġnavbat chi
alla orol
Fa ol
Ġkal en
Ġixtiyo ri
ĠShahri xon
ĠMirza obod
Port ugaliya
Ġyuqtirgan lar
Ġsaviya da
Ġarbob lari
Ġzaho ti
f uza
r ut
ĠA via
oli s
ĠP ir
Ġdavla tida
Pro fessional
rav da
o tadi
p po
Ġma dridliklar
tgan dan
ydi m
ĠH illari
Ġjoy ning
Ġaniq lashdi
Ġcha stota
Ġhay fsan
che hra
ĠBMT dagi
ulot larini
ĠHam korlik
ĠAs sanj
ĠPe sh
say der
ĠKXDR ga
Ġvafo tidan
Ġhadi s
ĠGT L
Ġislo ho
Ġmototsi kl
ĠTat yana
sour ce
Ġha sharo
qi ron
ĠM p
so tiq
oy ga
Ġg raf
lumot lardan
ĠNa tional
Ġprezidenti miz
shiq chining
Ġjoylashti rib
Af rosiyob
Ġsev ib
lcha mli
ibo riga
ĠAmir lik
lqin li
ruza lar
ĠNig ora
Ġtermi nali
J ar
ĠO tam
ul layeva
ĠJ in
dir di
liq lik
Ġdavo lanishi
ĠL an
Ġhisob lanuvchi
lashti rilmoqda
xta tishni
ĠTur mush
ĠXo lma
Ġsolish tirganda
Ġsano qli
ĠAd ministratsiyasi
Ġpsixo log
ĠChim kent
) ;_
M DH
N G
Q abul
Y uldu
ya ning
Ġe ni
Ġke n
Ġke layotganini
Ġyo shiga
ko d
ĠF lor
Ma x
Ġhavo ni
Ġ13 6
Ġbozor ning
ĠDa mash
Ġqatnash moqda
Ġmakta biga
Ġqiyofa sini
Ġorbi taga
Ġistay miz
Ġnabi rasi
Ġfit na
ta rishga
Ġf eysbuk
ji noyat
Ġharbiy larni
Ġkam tar
Ġqolgan lar
Ġ17 7
Ġbemor larda
ĠJa zoir
Ġtik lanadi
Ġport lab
Ay n
Hu mo
Ġtoifa li
Ġsheri klar
Ġstandar ti
P lus
p lay
Ù ĩ
Ġo madi
er lik
Ġyo qish
ĠA meri
fi zi
sha klar
dor ov
Ġtan ladi
ĠBi roz
Ġbank larining
Ġol mos
Ġeksp editsiya
Ġshartnoma larini
Ġaniqlangan di
ĠHu kumati
Ġdisp ans
ĠKur tua
Ġavtomobi lida
Ġtej ovchi
A D
K an
t m
Ġsa marqand
Ġvazi riga
Ġeti lmadi
ĠG ay
Ġmillion ta
Ġmuassasa larda
Ġzarar kunan
Te mur
Ġiqtisodiyot da
Ġdarvoza ga
Ġsig nali
Ġsmartfo nini
d unyo
Ġso nida
Ġp ir
Ġda dam
ja mlik
ĠP oytaxt
Ġno v
Ġza far
Ġyara tilayotgan
ĠMar t
Ġal gori
Ġ27 7
Ġinternet dan
Ġtarixi ni
Ġkiriti lib
qis mida
Ġattestatsiya dan
. >>>
T esla
q un
r gim
la masdan
ma mlakat
Ġbe parvo
so qol
Ġg r
Ġ20 2
ĠL and
Ġvo lon
Ġvazifa laridan
Ġjarayon lariga
Ġsinov larida
ĠYangi qo
Ġsey smik
rangli lar
ĠIsro ilov
Ġtashak kur
Ġo stona
ĠS ent
to k
Ġqil sangiz
uri no
liq ligini
Ġmun dial
Ġkon den
rov da
Ġtushun chalar
urg en
Ġziyorat chilar
Ġkonser ni
Jam g
ĠUl tra
R onal
a gar
ma loq
Ġi la
chi xona
Ġuch uvchilar
ĠJ er
Ġetilgan ligi
ĠMu qi
tkazish dan
ĠLe o
Ġona siga
Ġfutbolchi larga
Ġjang chisi
Ġdekabr ga
Ġnoma qbul
Ġmukofot ni
Ġaloqador likda
ĠTele graph
J eno
S I
ti zim
Ġu ra
yotgani dan
Ġtopshi rishga
Ġ13 8
Ġqishloq larda
Ġona xon
Ġyorda mini
Ġmarosi miga
Ġayt sam
ĠSaakash vi
Ġassamb leyasi
ĠAlib aba
borg hini
h aviy
shi p
Ġqo l
Ġsi lin
Ġba xshi
Ġquri tilgan
Ġmasala larida
Ġtele vizion
zbek cha
Ġmoliya lashtiriladi
ks el
Ġal dov
Ġqolish gan
Ġuskuna larini
ĠIShID ga
ser va
Ġfol lov
Ġravna qi
Ġtasni f
Jeno a
Ġbo l
or si
Ġqo lip
no y
lam da
qon un
Ġyetkazi shga
Ġ18 9
ĠMi rishkor
Ġqan d
Ġsanoat ni
ĠYu liya
Mo bil
tibo riga
ĠEga m
b l
Ġs kan
Ġf e
Ġqa mog
Ġd zyudo
Ġpay vand
zgar madi
ĠAv gust
Ġrub ldan
ĠVashington dagi
ĠGu voh
Ġbildirish gan
Mutaxassis larning
ĠKoson soy
B loomberg
b s
u st
aro hat
fa cebook
ĠY uz
radi k
Ġkabi net
Ġgap lari
Ġuchrat di
Ġos moni
on s
chi rildi
ĠO ripov
ot di
Ġga raj
To ki
Ġbaja rilmagan
Va ksina
Ġmusobaqa sining
Tur kiston
Ġtarixi ga
ĠGa ga
Ġuchastka sida
Ġuza tilgan
Ġkupyu ra
sh ara
Ġa mni
Ġta bass
Ġx al
Ġyo shim
ay digan
Ġyil ligini
ilgan da
Ġaxborot lar
Ġtushun tirgan
Ġraqobat chi
Ġprokurori ning
Ġkans ler
Ġshidda t
ĠZul fiya
Ġgermaniya lik
V ilyarreal
Ġke tar
bi dan
to log
Ġor ke
Ġdavlat larni
ĠX am
Ġyi qi
Ġqilgan ligi
Ġdunyo si
Ġ25 6
Ġket masligi
Ġpiyoda ni
Ġprotses sor
Ġmezon lari
p ladi
z ay
zi o
Ġx ir
to niya
ĠU rugvay
Ġ3 30
Ġmahsulot ga
Ġsavdo larida
Ġqila siz
Ġbara ka
Ġgapi ra
prik lar
Ġanti oksidan
Ġerishi ladi
Ġfutbo lga
Avva liga
Abdul la
R av
p oroj
Ø ±
ĠA guero
Ġish larda
Ġor tishiga
Ġaniq lansa
Ġorqa sidan
Ġpro fil
Ġekan man
Ġbemor da
Ġtergov chi
Ġxa ker
qituvchi ning
Ġkodek s
Ġyengil lik
Ġrea ktiv
ĠKri s
ĠMav lu
Ġqatlam lari
run ov
ĠHamda mov
M il
g uruh
Ġke ling
Ġsa lom
ĠBu sh
rgani lganda
Ġuchrashuv ning
Ġ13 3
ĠDe mbele
Mu allif
oya ga
Ġxulosa lari
Ġkitob larni
Ġkamera ga
Ġnikoh dan
ĠAka demiya
Ġmaslahatlashuv lar
Ġmemorandu mi
B re
I TS
or g
Ġp li
Ġqo shiq
Ġre stav
Ġno mlanadi
Ġdavo lashga
tir magan
Ġtop gani
zgar tirilishi
dr lar
Ġsho iri
ĠDa vo
In stitut
Ġtuga l
Ġerta labki
Ġzona lar
Ġfoydalangan lik
Ġqiymat da
Ġakkaun t
Ġdisk valifikatsiya
Ġyir tqich
Ġjamlanma sini
z larida
gi giyena
yo tir
st re
ĠA c
bo tda
Ġka fil
ĠSh erali
Ġqa ri
Ġsabab laridan
Ġqis mga
lashtirish ni
Ġodam lari
Ġjavob ni
se m
Ġ13 2
Ġqurol dan
ĠNi k
Ġtanlov lar
Ġzaxira ga
Ġurush dan
ĠMajlis ga
Ye ngil
Ġkuchayti radi
Ġaybla moqda
Ġqadim gi
Ġbun chalik
meto dik
Ġyo shidagi
ja mi
Ġyil lari
in laydigan
Ġche kish
Ġchiqish gan
Ġimkoniyat dan
Ġraqam lariga
Ġmasji dlar
ubha siz
Ġpre ferensiya
Ġnishon lanadi
Ġkiyim larni
lcha mdagi
Ġtashish ga
ote x
Ġnosoz liklar
ĠMaro kash
Ġsira siga
Ġgon or
ĠSobi rov
P oytax
Ġbe larus
iz ual
bo li
Ġqil masa
ot re
tir dim
Ġyosh larimiz
Ġshahar chasida
Ġush lanib
ĠKon te
Ġqiymat ga
ĠAfrika da
ĠPrezidentimiz ning
Ġvakolatxona lari
ĠMariu pol
lan masdan
bo qar
lov ich
Ġme tan
pa yishiga
it s
ĠMar at
Ġ12 4
Ġajra tishga
ft lik
Ġxarajat larning
ĠQu yidagi
ĠShah noza
Ġrub lni
Ġetilgani dek
Ġmeda llar
Ġmanzara li
Shifo korlar
Ġtabass um
E pi
I yul
q ov
Ġko ri
ona larga
Ġqil magani
Ġv ino
ĠG un
Ġbar vaqt
eri ning
ey k
Ġmuammo siga
Ya kka
zbek konsert
tkaz dik
oniston lik
Ġtuga ganidan
Ġustuvor ligi
Ġuzay tirildi
ĠIroq dagi
ĠErkin jon
shuv li
Ġkros sov
Mustaqil lik
ar bida
ra un
Ġta xta
Ġta yoq
de kab
en tal
20 25
rini shni
uvi ga
Ġborish adi
monov ich
Ġchempiona tiga
Ġjavobgarlik dan
Ġtransp lantatsiya
Ġrang lar
Ġseminar lar
Ġkulgi li
ma x
ch en
Ġi Pad
Ġyo qti
zo lik
ĠU cell
ĠI jo
Ġyu mush
ĠRespublika sidan
Ġikki tasi
Ġdunyo dan
Ġfikr lash
Ġtik uvchilik
ino iy
Ġolgani dan
hunar ga
Nyu kasl
Lan ka
Sher zod
Ġsilki nish
Ġseria lida
G lobal
Ġb uncha
Ġqo choqlar
Ġham mani
ligi miz
Ġqu log
Ġyer lari
Ġqonun lari
Ġtashkilot larini
Ġsport ni
Ġ13 9
Ġ24 4
ĠRonaldu ning
Ġtir kama
ĠIstanbul da
of ur
Ġvok za
ĠValeri y
V irus
Ġb anda
lo sa
Ġish taha
be t
Ġsi nash
Ġno turar
Ġdavo langan
Ġbemor dan
Ġxa kerlar
Ġmodda sini
Ġfarzand ning
Ġparvoz ni
Ġgran tlar
Ġyoqa sida
Ġparhe z
zora sp
X avfsiz
a ning
h na
k kinchisi
ĠS ur
Ġham dir
oy l
Ġdo mla
um lar
ĠD ortmun
Ġtayyor lanadigan
riq xona
Ġuz ra
Ġqurol larni
ljal lanmoqda
ĠNo dira
Ġuyush tirildi
Ġberuvchi ning
Ġtoifa sidagi
Ġdehqon chilik
Ġmaydoni dagi
iroq lar
yur tma
Ġishtirokchi larini
Ukraina ning
Ġhisobot larni
Ġreys larni
ĠUz Daily
Ġsuya gi
Ġsamolyo tini
Ġtiz za
ĠKasp iy
D iy
ya nga
Ġta nov
de stvo
vo k
ĠM etro
Ġviloyat laridan
Ġfar moyish
Ġar bit
Ġoladi lar
ĠDa da
Ġsavol larni
Ġbuzi shga
Ġsiyosat ga
ĠKar l
Ġshakllantirish da
Ġakademiya sida
ĠNega ki
Ġservi si
Ġaviatash uvchi
la ganidan
da str
ch kov
ĠA ward
Ġham yurt
Ġre zina
dir lar
Ġboshqa larning
Ġxorij liklar
Ġmunosabat lariga
Ġtarqa lmoqda
oya larini
Ġtuga b
ĠPo wer
Ġucha yotgan
Ġkecha yotgan
Ġbosi mni
Ġben zini
Pro kuratura
rikeng lik
F ermer
V ideoda
l kasi
ma dan
mi ddin
Ġqo linadi
ĠI B
Ġtur kiy
Ġbil mas
Ġchora sini
jo yib
Ġguvoh lar
Ġittifoqi ga
Ġqahra monlar
Ġfarmo yishi
Mirziyo yev
O pe
Ñ ĥ
Ġbo rilib
Ġx ira
st ron
ut dinov
sha rif
Ġrah namo
Ġshaxs lariga
Ġnisba ti
Ġajra tishni
ke ti
Ġtaqiq ladi
Ġqimmat roq
Ġzaxira sini
ulot larga
Ġvalyuta da
shiq lari
ĠGe brey
Ġqahramon lari
ĠSaf oyev
A ID
i qtisodiyot
y moqchi
ch gan
tir chi
Ġkompaniya da
Ġyaxshi langan
Ġhujjat larining
Ġfoydalanish ning
ĠBiz ni
Ġbozor lariga
ush o
Ġtushun chasi
Ġqiz cha
ĠPa yariq
Ġavtomo totransport
Ġ197 4
Ġturni rda
Ġaskar lari
rinbosa riga
a go
Ġqil mayapti
Ġhi ndi
Ġhaqi ga
Ġqab r
Ġtayyor lov
ĠQo ida
Ġse miz
ĠVa si
Ġnarxi da
Ġboy kot
Ġtadbirkorlik ka
Ġoq shom
arb da
Ġmajburiyat lar
San kt
Tele kanal
Ġquvva tini
Ġtaqchil ligi
Ġnufu zini
Himoya chilar
Ġispaniya lik
e kt
va nda
ul lanishga
ĠR ol
ĠSh erobod
ub li
Ġavto ulov
tkazi lishiga
Ġaloqa ni
Ġyetkazi shni
Ġoch ar
Ġolma dik
Ġuchra moqda
Ġdaqiqa ga
Ġochko ga
ĠNur man
Ġomil larni
Ye FA
Ġshaffof lik
Ġzal lari
Sin gapur
p pi
gi si
Ġso ladigan
ĠO mon
ĠO lot
Ġqil yapman
Ġ20 9
Ġtadbir larning
Ġtuman ga
Ġmuroja atiga
Ġ14 1
Ġyoz uvlar
Ġyarim or
ĠChi noz
ĠEl yor
Ġuzay tirilgan
Ġyoq lab
Ġtov lamachilik
ĠTosh po
Ġeshik lari
ĠKey t
Ġyov uz
Ġsm eta
N A
l larga
p dir
lar kan
ldi rdi
Ġtash laydi
Ġmah kam
Ch irchiq
ĠIs lo
ĠAbdu vo
Ġjabr landi
Ġsmartfon ni
ĠDav latimiz
Ġliga sida
mb ud
Er do
Ġteleradio kompaniyasi
ĠA M
Ġg rad
ĠG il
ĠMa sa
Ġetdi k
Ġyuk landi
Ġchiqish lar
tkazil magan
Ġtelefon da
Ġalmash uv
Ġkiritgan di
mul ki
ĠKri sto
Ġsalohiyat ga
ĠYaIM ning
ĠJoze f
Tah ri
Ġchetla tilgan
zsanoatqurilish bank
i rov
Ġmu nitsi
ĠT en
Ġsa lat
Ġmar kasi
Ġega sini
ĠMe gan
laka y
Ġmuz qaymoq
Ġforum da
Ġtalay gina
oraz miy
T im
f te
Ġa zal
Ġu rilib
ĠM J
ir chan
ĠI rina
Ġeti layotgani
ĠJ oy
Ġbor ligiga
Ġye tadigan
ji b
Ġshi ft
Ġbah sida
xa tib
Ġoxi ridan
Ġ197 8
Ġpunkt larini
Ġnota nish
ĠSulay mon
Ġaybla nayotgan
ĠYar atgan
Ġtanishishi ngiz
y laydi
sa no
Ġsh il
ĠA pp
ĠA maldagi
ĠT B
ĠT ab
Ġtar vuz
Ġqar al
Ġkerak siz
Ġtashkilot chisi
erti za
Ġmuta nosib
Ġuniversitet ga
Ġkiyim lari
Ġ197 5
Ġqobili yatiga
moqchiman ki
Ġopa si
K lub
r lash
r ganini
di ng
Ġj il
Ġp lita
ĠO chiq
Ġna mlik
kat siyasi
tan t
Ġbirinchi dan
yish da
Ġmuhim lari
Ġbelgilangan di
Ġuzoq qa
qul lagan
Ġqisqar gan
Ġboshla ganini
Ġqiyinchilik larni
Ah mad
ĠBraziliya da
Ġraun dda
ĠUS B
Ġlayoqat li
V V
Ġva g
Ġish laridan
Ġku pe
zo siga
Ġyu qishi
Ġsay yo
Ġreja li
von do
Ġmuva qqat
buzar liklar
Ġqora ko
Ġbilim larni
Ġelektro kar
pro filaktika
Ġekspert larning
Ġanti qa
ĠQi rol
For bes
ĠKen ne
ĠIkro m
ĠLeon ardo
A ston
F R
gi dro
ĠA S
ĠO ra
Ġki chigi
Ġin strum
dar g
Ġtayyor man
Ġkuch larni
Ġan or
Av striya
Ġjamoat chiligi
Ġteng lik
ĠSi nov
ĠVo hidov
Kompaniya ning
ĠShHT ga
Ġmahbus lar
ĠQizi g
ĠFernan desh
Xi aomi
o markaz
Ġb ro
ar malari
Ġmu di
Ġbu ta
ĠU ayt
Ġba nan
Ġboshqa rishga
gu a
Ġqara m
Ġsavdo lariga
ĠKe ling
Ġimzo si
ĠJo au
ĠHu san
ĠLa da
Ġbiror tasi
Ġmodel ning
Ġmajlis lar
Ġkassa tsiya
Ġfur satda
Shan xay
Ġvolon t
p at
sh ford
en tini
ir dan
Ġsa udiya
Ġsi gir
ĠN oy
Ġtalab noma
Ġkon takt
Ġyuri tadigan
Ġhavo ning
Ġdar g
yilgan di
Qo lgan
Ġsamolyot ga
Ġtara ng
Ġqiziq di
Ġkla steri
Sar dor
Ġmetropoli ten
Shay x
! )
I yun
Ġyo zil
dagi larning
Ġtu rida
yil sa
Ġrivoj lanmoqda
Ġjamoa dan
Ġ14 8
Ġmaydon dan
ĠSha ms
Ġqulay ligi
com m
Ġaniqlash da
200 3
Ġerishi shi
Ġliniya lari
Ġmashaqqat li
Ġkashfi yot
gi tal
Ġmu assi
ko p
Ġdavo lanib
Ġchiqa rilgani
og rafiya
Ġtayyor lanib
Ġar qon
Ġhuquq larining
Ġyasha shni
Ġnomzod ning
ĠOq ilov
Ġoyna si
ĠFuqaro larning
utqar uvchilar
d kor
la j
sh teyn
er ni
Ġke tgach
lani shadi
Ġega larini
tkazilgan da
Ġjihat larini
Ġyetka za
Ġchiqaruvchi larning
ĠZo hidov
ĠIShID ning
Xo dim
ĠLoyiha ning
ĠBol livud
Ġmaska nida
meh nat
ta kte
Ġp ers
Ġda bda
ĠU ber
Ġ20 7
tan lov
Ġholat dagi
ĠTo ji
xo z
ĠSo oron
Ġmahalla dagi
Ġkotibi yati
Ġjavobgar ligini
Ġjamiyati ga
rsatadi ki
Ġpalata lari
Ġadvokat lar
Ġder bi
K ol
ĠO FK
ja obod
ud da
ĠSh e
sti ni
ĠD am
ĠV as
rash di
vat or
Ġishtirok chilarning
Ġrasmiy si
Ġse me
Ġbal ldan
Ġyuk ni
Ġ14 7
Ġvoqea lardan
Ġturi zmi
Ġsiz dan
Ġush lash
Ġtana si
Ġaytish moqda
shr ut
Ġdiplomat lar
Ġijodkor lari
Ġreg lam
Ġsindro mi
Ġgimna stika
Vul verhempton
b le
e rator
ĠR ab
ĠR adi
le ste
Ġno chor
Ġba sta
yor lariga
ĠSa na
Ġkim dan
Ġmuvofiq ligi
Ġpi chog
ĠRo stov
Ġmavzu da
Ġfoydalani lishi
rni dan
Ġdavla tiga
Vo di
ĠRasu lov
Ġakkreditatsiya dan
Ġaksessu ar
ĠKav kaz
Ġp ri
Ġtu rishni
al comm
mu x
Ġmashina larini
par voz
jo b
Ġketgan da
ene j
Ġmuzokara larga
Ġbaj ardi
ĠKon stan
yanvar ga
Ha kam
Ġkiriti lishini
Ġelektro mo
An jye
ĠAhmad jonov
Ġturk man
bara ng
D U
Ġ Ø§ÙĦ
sh k
re ra
Ġyu radigan
ĠD XR
Ma q
Ġis rof
Ġqonun chiligini
Ġtasdiq lab
Ġmahalla ga
ĠNo rin
tibor ni
ĠAbdul layeva
Ġraqam larni
ĠOq qo
Ġapre lga
ĠChor toq
Ġmuborak bod
Ġmonitoringi ni
kalamzor lashtirish
Ġastero id
h rob
Ġma rixuana
Ġyu tug
ĠD ream
xona larda
fo sini
may siz
ĠTo day
ĠMar selo
Ġchek lanadi
Ġgap lashish
Ġjarayoni dan
Ġinshoot larni
ĠLukashenko ning
Ġkayfiyat da
Gu voh
Ġaller giya
k enta
or gani
Ġka lib
liq ligi
Ġvazifa lardan
Ġsar tarosh
Ġkanali ning
Mu hokama
ĠXo tira
ĠOAV ga
Ġbahs larida
llani ldi
Ġqilgani da
Ġziyorat goh
ĠYuqori dagi
Maj buriy
ĠNavalniy ning
Ġqutu lib
Ġafsus da
Ġsekto rida
Ġmatbu oti
ĠVata nga
Ġbyullet en
F on
Ġo sib
vo katsiya
Ġka taloniya
Ġkishi larni
Ġpar ki
Ġsport ga
pe diya
Ġmurojaat larning
ĠHa kam
timiz dagi
Ġ17 6
Ġquyidagi lardan
ĠJa vob
Ġtor tadi
Ġli zing
minlash da
Ġorgani ning
ig h
Ġhis sini
Ġmaqola sida
jalik lariga
Ġkiriti lgani
Ġkonsul xonasi
ĠVo lo
Ġamaliyo tiga
Ġqabri stoni
Ozar bayjon
Ġistar dim
i mport
k rim
ja nob
ĠK lar
Ġjoy lashgani
ĠMir ja
Ġmaktab larining
ĠKa pi
Ġ14 3
Ġ25 00
Ko mp
Ġtushun gan
Ġyetish tiruvchi
Ġdori vor
Ġkamay tirib
Ġkitob ni
Ġparlament lararo
Ġusta lari
Ġtuzi shda
Ġqidiruv ga
Ġtarkib ga
Ġpunk tiga
ĠVar an
Min taqa
ĠTalaba lar
Ġdiler lik
M us
r kam
ra mida
chi ruvchi
re z
Ġor der
ĠP h
ĠF XX
Ġoldi mizga
Ġholat lardan
mol chi
Ġkabi ne
ĠBo z
Re port
Ġkarantin dan
Ġorgani k
Ġavtomashina lar
Ġtopshiriq lari
uy lar
ĠAzi za
Ġkechik tirib
Ġmohi yatini
ĠAniq lanishicha
ti zm
Ġbe baho
Ġkuni dagi
ey ro
rini shidan
Ġse hr
Ġmuh ab
Ġbosqich larida
Ġjurnalist ning
Ġtoza lab
Ġxos ligi
Ġustuvor ligini
Ġqism larida
Ġfaxriy lari
Ġpol kovnigi
Meh r
Ġradi atsiya
ĠDu rov
Ġtayyorgar ligi
Ġkosme tika
Ġbakteriya lar
i x
ra bek
Ġf ara
ĠA da
kat lar
Ġchiqa rilib
Ġkompaniya sidan
lmagan ligi
ĠZ inedin
ayon ot
Ġziyo fat
Ay niqsa
mita lari
Ġuyushma sining
Ġtafsilot lar
8 00
Ġa za
Ġbi lasiz
yo ng
Ġyo za
ir li
Ġkuni yoq
Ġoy lar
ĠMu rabbiy
ĠMir z
Ġkar bon
ĠBo isi
ĠMi gratsiya
tor ov
Ġoro lidagi
Ġpenal tini
D aniya
Ġso chi
be sh
tish lari
siz lantirish
Ġoshi shini
Ġkar ti
Ġoila lari
Ġeksp ress
quvchi larining
ziya llohu
Ġyevro lik
Ġuchastka sini
Ġtashabbus lari
ĠIb n
Dunyo da
ĠKri sti
ĠXon obod
mokrat lar
Ġsvetofor ning
temir yo
a ka
ka ch
ĠA rena
Ġbe zga
so biq
Ġdo sh
ĠY uk
yil larning
Ġloyiha lash
Ġshi m
Ġtexnologiya laridan
Ġdire ksiyasi
Ġtik lab
Ġsalo ni
Ġreji s
ĠMo urino
Ġmavzu siga
Ġfon dini
Ġundi rilishi
sev ar
Ġhalokat li
CO M
pra vka
Ġrusum dagi
ĠSind zo
A leksan
ni nchi
ch qa
do za
ĠM TT
al lik
Ġfa nidan
te ri
uru sh
Ġhuquq lariga
Ġsov ut
ĠSo fiya
Ġnorozi ligiga
Ġsayyoh larga
Ġquruq likdagi
Ġtelefo niga
Anje les
Vodi teli
Ġde mar
ĠU oker
Ġmi no
Ġbel g
pa lak
Ġbah orda
Ġsar fi
Ġtekshi rilmoqda
Ġochiq ligi
Ke lajak
200 2
Ġalomat lar
Ġruxsatnoma lar
ĠMav lon
Ġayi rma
ĠQon unga
Ġsim yog
Ġfakt lar
Ġgrad us
O limpi
ti no
ay rio
Ġ2 21
Ġtu tdi
ĠK ech
ĠI N
Ġber masa
Ġqay tishni
ku yov
Ġdaraja ni
tka sh
Ġshi mol
ish laydi
Ġjamoa miz
Ġmas siv
ĠYevro osiyo
ĠDavlat lar
Ġrespublika chilar
Ġjurnalist lari
ĠKon stitutsiyasi
Me ni
Ġxato si
Ġuchastka larida
chan lik
ĠAvstraliya da
Ġshaffof ligini
ĠUm r
Ġhayrat lanarli
Che xiya
Ġtasarrufi da
ĠSto un
r chi
di dan
Ġtu rilgan
ĠJ uli
ĠX alqi
ji dov
pa ti
Ġtarmoq larni
Ġvazifa miz
Ġtug ma
ĠLe oni
Ġem lanish
Ġmingta ga
ĠVi ktoriya
Turkiya da
Fuqaro lik
ĠIstanbul dagi
mulk ni
ĠSoli h
ĠStrate gik
ĠKap rio
ayrio ddiy
ona sidan
oli fat
Ġyu zga
ĠMa gu
ĠRe g
Ġviloyat laridagi
Ġyara tilgani
Ġla z
Ġagent likning
Ġbank larning
Ġol g
iziston lik
ino tini
lanma sa
Ġlavozim dan
pur ar
ĠMamlakat ning
Peterburg da
biz nesi
Hujum chilar
Ġeksperi ment
y ganini
Ġuch u
ĠO ks
Ġdo ts
ek vondo
Ġza kot
Ġgap lasha
Ġidora sining
Ġvoqea lari
Ġyakun langach
Ġiyul ga
Ġbirlash ma
shar qidagi
ĠMeh riddin
Ġqadr li
Ġdub l
Ġney tral
Ġsindi rib
ĠKubo gida
Ġmulti media
ĠBus kets
Ġ .
to vich
yin larining
tdi nov
far m
Ġtadbir ni
ĠKa ma
tkazish ning
Ġyur gani
Ġfil mini
Ġziyo li
Ġjis m
... Â»
ĠKi pr
ĠOq oltin
ĠBur hon
hozir gi
Super liga
embe d
Ġmus bat
N omzod
U P
r yapmiz
ti c
yi lishicha
Ġho ji
Ġho liga
Ġyangi lab
Ġxizmat larga
Ġkiri shish
Ġsoha lariga
Ġetgan larning
Ġcha n
Ġtuman laridagi
ĠTa na
Ġtegi b
ĠKo ngressi
Ġz umda
ĠMoskva dan
Ġkomissiya lar
Ġilo j
Ġpayt dan
pro du
Ġsoniya siga
Ġmiso llar
Farmon ga
A li
i sta
la sin
li miz
iy u
Ġolish madi
Ġkompaniya lardan
Ġmaqsa dini
Ġ15 9
Ġsud lari
Ġtalaba ning
rsatkich larni
Ġ27 6
Ġklub ni
ĠPutin ni
Ġbug unga
Ġobek tiv
Ġaviaqatnov larni
ĠDS Q
Ġkuchlanish li
Ġkalen dar
o chiq
ga be
ta siz
Ġqi mor
Ġso lishi
su rishtiruv
Ġberi lishiga
Ġro sa
Ġak si
Ġvaqt larida
Ġpi ka
Ġbaza ni
Ġbahs lar
Ġqatna shayotgan
met ri
Ġamaliyot ni
Ġistiqbol dagi
Ġbur chini
Ġyurtimiz dagi
Ġtasarru figa
Ġtelevideniye si
Olma zor
Olim larning
ĠYekat erinburg
K rem
di sp
Ġa noma
zi lishi
Ġorgan larning
Ġhavo dan
Ġmutaxassis larini
ĠKe ng
Ġmodda larning
Ġdori larni
Ġzaxira dan
Me nimcha
Ġmurabbiy lik
Ġplan tatsiya
Ġimmunitet ni
Ġgor mon
ĠVita liy
Ġinformat sion
. âĢĭ
S park
Ġe sta
ligi m
Ġbosh lashgan
sti m
sti ga
Ġor den
ĠYa ku
rgani ladi
ĠXitoy ni
Ġr ent
tur da
Ġvirus li
ĠRah matov
Ġchiqaruvchi si
Ġqiziq qan
ĠZelenskiy ning
Ġvelosipe dda
Ġajrat di
ĠSto k
ĠTax minlarga
O KMK
p lanishi
q bol
Ġe sga
Ġko mediya
ĠM ul
ĠN NT
Ġno tinch
ĠE uro
Ġsab zi
Ġnatija laridan
Ġza mi
ish ni
Ġ15 6
Ġvazifa larga
zgar uvchan
Ġz ul
Ġavi ahalokat
Ġishonch noma
Ġtadqiqot larni
ilish lar
Ġmuxlis larga
Ġisi tma
sep tik
ravon likka
Ġdaromadi ni
Ġolo mon
Ġobra z
ĠFutbol chi
Ġgonor ar
A ir
va niya
Ġi talyan
ba xsh
Ġtur sa
Ġlo kdaun
Ġberi lmadi
yap sizmi
Ġpar k
sin da
Ġqoida larining
Ġ22 5
Ġborish di
ĠOAV lari
ĠDi re
ĠBay ram
mish larga
ĠFo ti
Ġ197 1
Ġinqiroz ni
Ġdengi zida
Ġhisoblagich lar
ĠOltin ko
Ġprinsip lari
Ġjumlasidan dir
ĠFax riddin
Ġtanov ul
Z arafshon
o mon
Ã ©
Ġ2 19
Ġqil gach
Ġti yi
Ġsha rif
ĠMa lika
ek sa
Ġsay tda
Ġil on
ĠCh ek
Ġrasmiy lashtiriladi
ĠTa tariston
Ġsoat lar
Ġ14 2
Ġpo p
Ġibo da
Ġhujum da
Ġsin fi
Qar orda
ĠUchrashuv ning
ĠQi rollik
Ju ma
Ġqadoq lash
Ġtimso h
ĠXX I
Ġnim chorak
D ubay
p lamini
ni shni
lgan ligini
ĠI g
ĠP rim
Ġdi k
min landi
Ġ13 7
Ġtuga gach
yna shga
tibor siz
Ġfoydalanuvchi si
Ġmavzu larda
Ġlits enzi
let chatka
ug las
mun ozara
Ġtashvi qot
ĠErga sh
ĠAq to
Kali forniya
Ġken ja
A q
O K
Y uz
z eksp
la gich
ch ek
Ġk an
Ġbi rovning
Ġte rish
oy dil
sha yotgani
Ġdaraja sidan
Ġchiq maydi
Ġmuassasa da
Ġ13 4
ĠTash kenta
Ġbiznes ga
Ġtelefon ni
tu yg
stra ta
Ġmasji dga
ĠIttifoqi ga
Ġkompleks lari
Ġkal ta
tkazadi gan
ĠHay dov
Ġiltimos noma
ĠNazarboyev ning
Ġkat e
ĠDunyo ning
Olma liq
Ġbelg ilovchi
r maydi
Ġq alqon
na zar
Ġf in
ĠK ud
Ġqil masligini
ha ng
le sh
ĠI roqda
Ġre p
Ġkenga yishi
ĠJa ng
Yo uTube
Ġparlament ning
Ġavtomashina sida
Ġtashabbus lar
Ġaviakompaniya lar
ĠTadbir korlar
Ġkasallangan larning
Ġqiyofa si
Ġishlan malar
Ġfilo logiya
Ġda dil
be h
ona dagi
ku bogi
Ġmo du
Ġaniq lashicha
san mi
Ġyaxshi lanishi
Ġqayta rishni
Ġkur sining
quvvatlash ni
Ġfor ma
mosha bin
Ġbirlash masiga
lashuvi ga
Bay ram
Ju da
ĠBra un
ĠPre mer
Ġink lyuziv
3 20
sh liq
Ġo laylik
ka larni
ro nika
Ġikki ga
Ġpro vayder
ida l
Ġtashkilot larni
kon larda
Ġkuti lma
log y
quvchi lariga
Ġkichik roq
ĠQu alcomm
tari zatsiya
Se minar
Ġomad siz
Ġmuxolifat chi
ĠDey k
Ġaviaba za
jis moniy
mbud sman
l kash
m eya
p ura
ka o
en er
Ġqili shim
ul g
ĠD V
Ġsabab siz
Ġak va
ĠMu nisa
rsat malari
Ġar te
lanuvchi ning
Ġxato lik
Ġogohlan tirilgan
Ġittifoq dosh
ĠYi gi
Ġsimp to
i lan
ra yeva
va ffa
bi b
ĠB udjet
ab bus
en ch
ĠU or
ĠP otter
ĠQ abul
ĠC N
Ġyaqin lashgan
Ġbola larini
Ġan tibiotik
Ġprezident ni
ĠHa fta
ulo mov
Ġariza sini
ĠZa x
Ġhuquqbuzar liklarning
Ġaeroport lar
Ġmoni tor
Ġkelaja gini
Ġort tirish
B ray
L I
Ġyo l
Ġqo voq
Ġte rib
Ġ3 40
ol chilarning
Ġshahar dan
mol chilarga
Ġkon tra
oro va
Ġchaqi ramiz
Sa ut
Ġyengil lashtirish
AT E
dori lar
ĠZo kir
Ġtekin ga
Ġyegu lik
ĠKelajak da
Ġeks kursiya
Ġadi b
) Â«
ch qon
Ġha ka
ĠA ksiya
Ġdi vi
Ġdi vizi
Ġbola li
Ġyara tilmoqda
Ġbora man
Ġkuti layotgani
yxat ning
tira man
Ġustun likka
Ġanti re
res siv
Ġzahar langan
Ġorganizm ning
ĠNav bahor
Ġishona di
Ġstaji ga
Ġqola veradi
v aro
x us
va nga
ab lag
Ġna viga
le m
Ġv enti
ĠE shon
Ġhozir dan
yapti mi
Ġbal lni
Ġrahbar larning
ĠAy b
Ġbozor dan
pay gani
Ġkadr larga
ĠBirinchi si
Ġyotqi zish
Ġhib sda
Ġquvvat larini
Ġquvvat lantirish
hu da
Ġekran da
Ġxarakt erga
Ġorbi ta
ya gona
va si
zi shga
sa si
Ġqo cha
Ġish layotgani
Ġbir ma
yot ganingiz
Ġkiri tgani
Ġsaq lanadigan
ĠMu si
Ġmuassasa laridan
Ġsaylov larni
Ġona sini
Ġmuzokara lardan
Ġsana lgan
Ġrestora ni
ĠPer u
Ġkechik tirish
IS TON
ĠAt rof
ĠKer ri
Ġmustahkamla ydi
Ġkrosso ver
klass niki
ĠLibe ral
Ġxo kkey
Ġre per
ĠG av
Ġfoyda landi
ĠShu lardan
lashti radigan
Ġloyiha larining
Ġan hu
ĠIn c
Ġ16 6
ĠKa sh
Ġyur tiga
Ġfan larni
An d
Ġrang ga
Ġeshik ni
Ġumi dda
ĠMS K
P entagon
ni shga
Ġbe taraf
Ġbu zadi
Ġ4 20
Ġoldi rish
ĠShu kr
shni si
Ġkuza tilgani
Ġtajriba sidan
Ġkechi rilganda
Ġizoh lagan
aprel dagi
Ġsafi dagi
Ġstavka sini
Ġkonsul tatsiya
ĠOTM ga
Ġqarzdor likni
Ġkutub xonasi
pora tion
Pe K
Ġqatnovi ni
Ġboshqara yotgan
Ġpake ti
Ġastron av
ĠLam borghini
B ek
O ddiy
la stik
ĠT uni
Ġra strata
ĠMa qola
tir ganini
Ġmurojaat ni
Ġsaylov ga
[...]
