#version: 0.2 - Trained by `huggingface/tokenizers`
l a
â Ģ
s h
a n
i n
âĢ ĺ
d a
l i
Ġ b
la r
a r
c h
Ġ k
Ġ t
d i
a t
g a
g an
Ġ o
Ġ q
Ġ m
i r
o n
i l
s i
i sh
o r
Ġ y
in g
Ġ v
Ġ h
u n
Ġ s
a m
i y
Ġb o
a y
Ġv a
o t
e r
la n
d an
g i
Ġ e
n i
Ġ u
i da
a l
a s
u r
a v
in i
ch i
t i
lar i
a b
li k
âĢ Ļ
a k
d e
i s
n ing
i z
Ġ âĢ
o m
u m
Ġt a
o y
a si
sh i
o q
o l
Ġ x
ch a
Ġk o
âĢ Ŀ
t a
Ġ n
o v
i m
Ġ f
Ġ p
i b
e k
r a
Ġm a
si y
Ġ j
Ġ sh
e n
il gan
Ġy o
Ġb i
Ġk e
a q
la sh
u s
Ġbi lan
o s
la di
ĠâĢ ľ
k a
i li
a di
Ġq o
Ġu ch
t ir
Ġ da
u l
k i
Ġh am
Ġ r
ot o
Ġ 1
u v
Ġs o
in ing
Ġ d
Ġb ir
Ġb er
Ġ A
Ġt o
at i
i q
e t
ish i
is t
Ġ 2
i t
S h
m a
a h
F oto
u z
Ġuch un
da gi
Ġ M
l gan
Ġ de
o b
Ġ ish
Ġbo sh
la b
Ġ i
z i
Ġq il
a f
siy a
Ġ T
lar ni
li gi
s a
ist on
q ar
li b
Ġe t
iy a
o k
Ġm u
o z
la t
r i
Ġ ch
Ġk un
a sh
Ġ B
Ġ O
Ġ S
r e
ĠâĢ Ķ
e v
a li
Ġb u
Ġ ay
k in
lan gan
Ġda v
on i
m oq
s t
u d
Ġta sh
o li
Ġq ili
o g
Ġq ar
b ek
a x
Ġh aq
lar ga
Ġo l
lar ning
ir us
l um
Ġ un
di r
Ġ chi
u t
Ġ R
o sh
z bek
ar i
Ġo r
on av
e l
y il
la y
Ġk or
m as
en t
n g
Ġ g
Ġ I
u q
a da
li sh
y i
Ġt ar
Ġt u
onav irus
Ġh ar
Ġd o
zbek iston
Ġ K
lar ini
Ġ (
moq da
i k
Ġ P
o d
Ġm um
ti b
Ġmum kin
a z
Ġb or
Ġn af
Ġ in
Ġkor onavirus
i ga
ka z
ot gan
Ġ2 0
âĢ ľ
ida gi
b u
Ġva z
de n
da m
Ġ z
y o
Ġy an
e s
ab ar
u b
Ġ a
Ġt ur
or i
Ġt om
in gan
li g
m o
Ġqili sh
Ġkun i
lari ga
q a
de k
iz m
asi da
Ġ N
m ay
k at
Ġx abar
in a
r o
lar da
li shi
Ġt e
g ar
il li
m i
Ġ an
Ġ ra
B u
Ġdo ir
da y
il oy
si z
Ġ as
Ġq ay
an i
y a
on a
sh ir
ar t
o h
u k
Ġ G
Ġv iloy
Ġ C
Ġ 3
as al
z u
un ing
iy at
uv chi
zi den
re ziden
o si
er ak
yi cha
Ġ av
Ġy et
av zu
Ġ D
Ġ Y
r am
Ġ J
ish ga
y or
Ġh o
Ġchi q
avzu ga
M avzuga
Ġk asal
i ladi
Ġk erak
li q
Ġs ab
ma gan
2 0
Ġsh ah
k il
o j
r in
Ġe sa
Ġ U
Ġ am
b iy
Ġde b
âĢĿ ,
an ing
Ġ X
r oq
Ġhaq ida
Ġ Q
at ida
e m
lash tir
lan ish
Ġm illi
Ġvaz ir
lar dan
e y
s at
Ġ ak
l ov
am la
Ġq ilgan
Ġva q
oy da
di m
m an
Ġo lib
k ent
Ġx izm
amla kat
Ġsab ab
Ġma h
or t
0 0
Ġt an
d or
Ġ Sh
sh bu
Ġh is
Ġy or
Ġyo sh
osh kent
Ġb ar
Ġ 5
Ġy il
Ġt ay
Ġq an
Ġm ar
lig ini
Ġk ir
li m
u sh
Ġi k
Ġnaf ar
Ġvaq t
qar o
t gan
Ġ ni
os siya
Ġ F
er i
Ġm amlakat
Ġm as
oni dan
la gan
il di
Ġtash kil
Ġf oyda
di y
t kaz
in chi
Ġqil di
Ġyo ki
Ġdav om
t r
v al
Ġ 4
uning dek
Ġyan gi
Ġe k
Ġq ur
Ġan iq
Ġu y
Ġqar shi
b at
Ġtom onidan
Ġqil in
Ġ l
Ġdav lat
Ġyor dam
r sat
a lar
Ġe di
a d
a p
ay otgan
m on
ay d
s ul
Ġe ng
Ġo y
may di
ab r
o f
Ġbosh qa
lum ot
y in
Ġj oy
Ġ al
Ġq ol
lan adi
Ġk am
Ġho lat
Ġo lish
Ġk om
Ġt um
Ġet gan
Ġhis ob
j a
Ġ E
Ġy uz
an d
asi ga
Ġ im
Ġm ing
ĠT oshkent
Ġs ur
i dan
Ġy ax
m iz
Ġ L
u h
Ġr e
reziden t
i d
as ini
Ġke l
Ġs aq
Q Sh
lar ining
Ġta q
1 9
Ġe ga
Ġham da
Ġ er
o iz
tir ish
s on
Ġ V
Ġ ah
lar ida
e ch
Ġva k
r an
Ġk u
Ġchi qar
Ġ 6
i la
or at
Ġf u
il m
Ġun ing
Ġf oiz
i v
s p
Ġik ki
k or
Ġmu h
Ġm at
Ġyax shi
Ġqan day
ĠR ossiya
r t
Ġd ol
un dan
Ġo shir
ish ni
Ġ ga
Ġu shbu
Ġi j
Ġsh u
Ġke yin
Ġhar ak
Ġy uq
Ġtu sh
Ġam al
Ġ shi
lay otgan
Ġq iz
Ġma sh
ili shi
Ġ si
b ir
sul ot
Ġh ud
Ġra h
Ġj ar
Ġtay yor
Ġx av
Ġi ch
q ali
ti q
Ġber adi
Ġmilli on
at siya
i de
lan di
Ġx o
a ga
Ġrah b
t er
u y
Ġmah sulot
Ġto p
Ġz ar
Ġj am
oli y
Ġk ishi
Ġ 7
ab i
Ġy ur
Ġfu qaro
at ga
Ġo q
ar a
Ġkasal lik
Ġyo z
e z
m in
Ġqil ingan
Ġq at
Ġ H
Ġf a
q i
p an
lay di
Ġo g
Ġq is
a la
Ġbo g
Ġo lgan
an t
Ġe mas
k ra
Ġo dam
ki d
x on
em or
lan ishi
Ġxav f
yil da
Ġda ra
ĠâĢ ĵ
s ti
Ġm e
i g
q at
ĠA QSh
Ġh ay
Ġxizm ati
Ġte z
lari dan
Ġhaq da
un day
ta di
Ġs ay
Ġq iladi
or a
chi lik
Ġy ar
D ar
Ġn ar
Ġ is
x ona
Ġber di
Ġharak at
er g
Ġ ist
ish da
Ġ1 0
ing iz
an g
A v
oz ir
bu ot
Ġvak s
li y
a j
m iy
Ġy ash
Dar yo
l on
Ġs oni
Ġq on
siy asi
Ġish lab
Ġke t
Ġb emor
Ġav t
u j
Ġbir inchi
Ġtum an
ga cha
Ġu z
Sh uningdek
Ġku ch
Ġ 8
reziden ti
t ar
si da
Ġmat buot
o p
Ġe ti
aq at
Ġdavom ida
r at
i h
Ġay ol
Ġkoronavirus ga
Ġk ar
ov chi
Ġs an
e d
o da
am iz
Ġm un
Ġsaq lash
as ining
Ġbu y
en g
ar d
x t
e p
zbekiston da
Ġviloy at
gan i
âĢ Ķ
Ġo sh
l sa
Ġj u
f ot
Ġol d
oy a
Ġu r
Ġx al
ada r
Ġvazir ligi
Ġk uz
at ta
kra ina
Ġn om
n at
ek t
Ġva fot
Ġh uk
ili sh
Ġqay d
Ġm av
Ġso g
Ġber ilgan
k on
Ġor qali
Ġsh ax
ar q
aq in
ĠI n
Ġa j
Ġin f
Ġshah ar
Ġta d
Ġb il
Ġviloy ati
asi dan
ok im
B ir
ak t
Ġ 9
Ġbar cha
u x
l di
Ġshi f
ib biy
Ġma q
m ol
Ġamal ga
Ġs uv
j on
v ar
Ġke lgan
an gi
Ġb el
q iq
Ġxizm at
Ġet ilgan
t an
o la
s k
g ram
ar li
Ġtash qar
Ġta lab
Ġh okim
Ġsi f
Ġch al
ĠM ir
es p
Ġt ibbiy
ay on
oy ev
Ġe l
Ġk atta
ur k
z gar
Ġyan a
Ġn am
Ġo v
Av val
Ġshah r
ek in
od da
M e
Ġbo la
Ġt av
Ġ1 9
Ġde y
Ġu lar
Ġt as
Ġm an
la shi
Ġek an
y an
ishi cha
Ġber gan
o siy
Ġp rezidenti
n a
Ġy aqin
Ġk ur
Ġfa oliy
Ġt iz
m at
u di
Ġhar biy
Ġqili b
Ġbel gi
m art
r on
Ġxo dim
ay t
av iy
Ġun i
Ġs ot
i f
Ġn e
Ġay t
Ġso at
Ġkom pan
Ġv osi
Ġish tir
Ġq ab
Ġist e
Ġbir ga
s ir
Ġt ak
il moqda
ub lik
Ġhuk um
Ġju da
Ġ ar
it oy
Ġol ingan
A m
Ġn az
esp ublik
Ġbosh qar
Ġtiz im
k ur
Ġtashqar i
Ġav val
Ġyosh li
m asi
Ġke ch
Ġt uz
Ġd un
ĠMir z
Ġ at
oy at
I D
ant in
ar o
Ġn ati
as t
n ali
Ġqab ul
oz im
Ġishtir ok
2 1
Ġh uj
Ġp ar
Ġor tiq
da t
Ġor gan
ol og
om at
s us
ov a
Ġ di
Ġs ar
Ġs am
av o
ĠC h
Ġk iy
âĢĿ .
mas lik
i ch
Ġh ol
m ir
s o
Ġy ub
tir ib
Ġah oli
Ġ1 5
Ġtav siya
adi gan
Ġ Z
Ġsh ak
O V
liq ni
Ġdara j
iy asi
z o
Ġf ilm
Ġr as
Sh u
r gan
Ġoq ib
Ġs al
Ġbil dir
b or
a g
Avval roq
Ġqar or
li f
ot i
ĠA d
Ġm ur
Ġm iq
ish ini
Ġo z
Ġda st
Ġr o
OV ID
d o
Ġinf ek
ladi gan
ob il
Ġ20 20
ĠU kraina
os ab
Ġhud ud
Ġma z
Ġvaz iyat
Ġrahb ari
Ġq iy
Ġp r
Ġmun osab
Ġ il
Ġm uv
Ġsh uningdek
Ġo b
Ġu larning
Ġch ek
Ġf ar
Ġyo g
tr is
n di
Ġkuz at
Ġy er
Ġu m
da r
Ġdol lar
j ud
lik da
l ga
Ġnaf ari
Ġs av
Ġviloy atida
Ġni s
e ti
Ġj av
Ġmav jud
d uz
M a
iy oyev
s ta
asi dagi
iv oj
Ġmu d
us t
ro f
ĠMirz iyoyev
Ġkar antin
Ġavt om
Ġb iz
g un
Ġo ila
Ġq adar
Ġr ivoj
Ġyet kaz
B undan
av kat
Ġnis bat
yil ning
Ġmu am
Ġjav ob
im iz
ĠC OVID
p er
Ġyub or
q uv
Ġh ech
Ġshax s
oy ih
ra sh
Ġkir it
Ġk on
Ġnisbat an
U shbu
Ġas os
Ġqili shi
Ġyuq ori
iy ul
la ti
er s
Ġdun yo
Ġp ayt
v a
Ġk abi
C h
Ġb al
ĠI I
lik lar
ay li
lan ib
Ġchal ingan
shi m
t yor
Ġsif atida
en ga
or iy
lash gan
Ġkur ash
Ġma x
Ġvosi ta
in oyat
lov chi
v at
Ġm o
ĠAd Me
Ġh ozir
di q
Ġtu f
akt ab
Ġyar at
Ġet di
Ġ la
Ġ ax
u g
Ġmas ala
sta gram
Ġin son
sp ort
ishi ga
Ġet ish
Ġs in
Ġtu g
ĠP rezident
l e
Am mo
Ġda r
Ġber ish
ok or
Ġqol gan
Ġsh un
o at
ev ro
Ġdav o
kin chi
lik ni
Ġma j
Ġs t
Ġmar ta
Ġt el
ay di
a at
y u
bor ot
Ġim kon
la m
Ġo m
Ġp rezident
Ġish lar
Ġne cha
Ġke lib
Ġtuf ayli
shi b
lan tir
Ġbir i
Ġl oyih
tib or
Ġol di
Ġm uz
Ġm us
Ġt er
Ġhay ot
b os
ti mo
ĠT urk
b ur
Ġtaq dim
lik ka
am an
Ġb e
h ur
Ġvazir i
a lari
Ġmilli ard
re l
r ib
ah on
ayd o
zi ga
at ini
Ġmuam mo
timo iy
as s
Ġp aydo
U ning
Ġmax sus
Ġso h
ĠM ar
Ġtar k
A y
Ġh im
si on
Ġtad bir
Ġhol da
shim cha
z a
Ġh al
an da
Ġmuh im
Ġtar tib
r it
ul duz
Ġaniq langan
k am
la tib
Ġe m
Ġum um
iy ati
Ġg ur
Ġ1 2
ĠIn stagram
iy un
Ġax borot
p a
Ġ iq
p ort
mas ligi
ĠX itoy
Ġvaks in
f oto
t o
lash ga
Ġbu t
in cha
Ġme h
in o
ĠSh avkat
at lar
Ġm aktab
Ġga p
A gar
Ġ1 1
Ġam mo
si m
ti so
r al
uq uq
Ġy ig
Ġtak lif
ri f
tiso diy
Ġshahr ida
Ġch ora
Ġas osiy
an de
ta x
Ġ20 1
Ġde ya
Ġrahb ar
Ġv ide
Ġyet ish
b a
Ġni ma
yi ladi
ay tir
Ġak s
n om
Ġtum ani
Ġg o
et r
lashtir ish
Ġf ik
Ġb an
Ġor asida
Ġnar x
Ġm ul
t amiz
in di
ili b
Ġqilin di
Ġxavf siz
Ġoqib atida
y x
af f
s latib
an iya
Ġr av
l lab
Ġfoyda lan
Ġras miy
Ġx us
Ġ cha
Ġak tris
Ġmu x
Ġy ak
Ġf aqat
Ġich ida
ar b
lan tirish
Ġ1 4
Ġqay ta
Ġhim oya
Ġtur m
Ġgur uh
Ġi chi
Ġ3 0
li s
Ġun ga
at lari
Ġdey di
Ġmiq dor
Ġbut un
Ġde gan
q on
Ġtom on
e gar
Ġoy ida
Ġhisob lanadi
Ġzar ur
Ġp ul
Ġmash hur
Ġrav ishda
Ġa g
ram p
q ir
ni k
Ġtur li
Ġjar ayon
Ġak tyor
Ġho lati
ri sida
Ġvaks ina
Ġ iz
or o
Ġqon un
si t
Ġsur atga
Ġfoyda lanish
ek tr
Ġbal ki
eri al
Ġshif okor
x ir
s adi
Ġqis m
Ġhud udi
in ch
E slatib
arq and
z al
Ġb un
Ġq uy
Ġb uz
Ġy on
Ġk im
Ġp oy
Ġv irus
p roq
Ġ1 8
si s
r im
Ġov qat
t on
si ga
Ġ20 21
Ġs ov
Ġhaq idagi
p oli
rin bos
re s
Ġmah al
oj aat
ĠS am
ĠA f
m un
Ġbo s
a lan
tkaz ilgan
l magan
Ġh uquq
o gi
Ġsh t
l oq
olog iya
r ta
k ak
Ġold in
on iston
Ġch egar
Ġij timoiy
Ġxal qaro
Ġb ah
am a
T o
Ġmaz kur
Ġre ja
Ġde di
Ġt ek
f on
g ust
z or
shi q
Ġe h
Ġyuz asidan
Ġsabab li
Ġso dir
Ġh af
Ġ1 3
ĠR espublik
Ġorgan izm
xt at
t iy
Ġtas diq
m it
q an
Ġtop shir
Ġmar kaz
Ġavtom obil
chi si
lishi cha
sh a
Ġke tgan
ĠK or
ĠA b
chi lar
Ġnam oy
Ġra q
Ġj oriy
Ġ siy
l om
r u
z ini
K o
g ina
la g
ir g
ay ev
Ġ1 6
Ġturm ush
Ġe tadi
q in
Ġuz oq
ng gi
Ġt ik
tax as
T oshkent
Ġshah ri
Ġmaq sadi
Ġsay lov
l ini
Ġyur ak
li da
ka zi
eri ka
ĠR e
Ġy e
al gan
Ġtibbiy ot
ot lar
Ġik kinchi
Ġv it
Ġham kor
lashtir ilgan
Ġla v
Ġte g
Ġdo im
Ġs ud
Ġnati j
Ġdast ur
ĠY evro
Ġel ektr
dar yo
ap rel
Ġfar z
e st
ti k
oq e
f t
Ġke lish
ĠT ramp
dek s
p p
Ġta h
Ġp ish
Ġy ulduz
Ġke ladi
r ish
Ġk ut
q ul
Ġre j
Ġmur ojaat
ol li
os mo
i si
ent abr
poli tan
n iy
Ġuch rash
osmo politan
Ġtar moq
ol y
Ġu st
Ġp ande
ti f
rinbos ari
quv vat
Ġtark ib
ut ers
Ġsh art
Ġvaqt ida
z lariga
S S
ĠC osmopolitan
av lat
Ġiq tisodiy
il magan
Ġn av
st on
ek or
Ġto za
et t
taxas sis
Ġr ol
Ġ /
Ġ2 5
chi q
Ġ1 7
u li
Ġb unday
un ki
ori j
Ġij ro
Ġk enga
Ġqar am
ati ga
Ġo ch
Ġo xir
Ġer kak
ran sport
c e
Ġda qiq
ev ral
Ġyak un
Ġbo y
Ġag ent
Ġeti ladi
Ġish on
ĠII B
H ozir
ish li
Ġdav r
aff aq
Ġmus ta
Ġj inoyat
n ash
Ġo ladi
um la
siy aning
Ġo n
Ġm in
Ġberilgan di
A k
m iya
Ġyo p
osi da
Ġte x
i layotgan
Ġnar sa
Ġkiy im
Ġqan cha
Ġkun da
ol ogi
Ġ1 00
U n
ki ch
ĠRe uters
Ġde yiladi
Ġtek shir
of a
Ġmaqsadi da
aro it
ĠA r
Ġva kil
Ġu larni
Ġer ish
) ,
ar g
Ġmuv affaq
er t
Ġhaf ta
Ġq ah
Ġh ayd
Ġs ah
ma g
Ġy uv
Ġzar ar
Ġmaj bur
Ġold ini
Ġso ch
ĠAb d
Ġv oqe
moq chi
Ġta x
d on
ari x
u siy
Ġtash qi
Ġ20 0
R ossiya
Ġke lishi
ĠSam arqand
ti m
ĠAf g
Ġvit am
li mi
Ġteg ishli
ot ir
aman gan
si dagi
Ġxal q
nali sh
Ġl ozim
ri k
umla dan
si q
ligi ga
Ġt ut
la k
h e
an a
Ġy oq
Bir oq
Ġbosh lab
t k
ra di
er sit
ĠB rit
Ġay ni
Ġ2 4
qi ch
Ġish lari
j at
Ġchiq qan
Ġr ux
Ġay b
z ining
ologi k
Ġq u
ligi dan
Ġun iv
Ġx orij
Ġmahsulot lar
Ġal oq
Ġsh aroit
p lab
B iz
l o
Ġvaqt da
ĠI mag
I n
Ġl ekin
ĠImag es
iy aning
os k
Ġet ildi
Ġmamlakat da
av gust
S o
ad r
m ur
res s
ndi jon
Ġqo ida
U lar
Ġlav ozim
Ġnaz orat
Ġtashkil ot
e ta
Ġb aj
t siya
Ġchiq ish
Ġmunosab at
Ġ ara
om i
Ġde p
ch on
chi k
Ġmud dat
Ġber moqda
sti t
Ġfoyda li
Ġumum iy
l y
Ġtash rif
Ġfoiz ga
m li
at to
tif oq
Ġxus usiy
Ġay tgan
Ġhukum ati
t ish
om on
Ġn ash
Ġd ona
Ġ2 3
Ġchiq ib
ya p
ot ib
b o
Ġnaf as
l dir
oh ida
d diy
ĠI s
Ġxodim lari
ilgan i
Ġbuy on
Ġuniv ersit
ĠA l
oz og
ing i
ab lag
Ġhukum at
Ġs ut
zi f
Ġqat or
yan var
Ġin ter
Ġtax min
Ġm odda
Ġy uk
Ġtush un
Ġ dan
Ġas osida
Ġd ori
z da
m adi
ay den
Ġx on
y lab
al b
Ġhayd ovchi
ev a
Ġjam oat
h on
Ġsot ib
Ġtad qiq
t abr
Ġva zif
t asi
u ch
Ġsh unday
Ġm os
Ġm ablag
Ġkompan iya
Ġrux sat
Ġshif o
a gan
mas a
Ġaj rat
ga ch
la ma
li ya
erg ov
Ġp as
Ġqol dir
Ġe n
Ġoshir ish
z ida
Ġqar at
ass as
Ġga z
Ġbaj ar
tir gan
ur at
Ġtay an
Ġkasal lanish
Ġnati ja
ut in
Ġodam lar
ett y
Ġqilin adi
e x
t di
A QSh
d in
Ġkasal langan
q ob
cha g
tkaz ish
it ar
ĠG etty
Ġdaraj ada
Ġtuman ida
Ġjoy lashgan
Ġr ang
Ġmu assas
s in
Ġfarz and
Ġ siz
ĠA n
maydi gan
Ġt arix
Ġfa ol
an ub
Ġt abi
Ġav i
Ġcha qir
Ġ5 0
d osh
ĠS og
r nat
Ġk ish
lari miz
Ġmuh ok
oy abr
Ġtar qali
Ġq ish
e h
Ġqis mi
z av
k o
Ġich ki
Ġsav do
l in
r or
Ġbuy ur
s ini
Ġnaf aqat
Ġaktris a
ram m
Ġpayt da
q iz
T a
Ġni qob
man iston
K ey
Ġt ort
Ġbosh langan
Ġtar q
Ġmu taxassis
z od
Ġu l
Ġs port
l ub
f evral
m al
K or
e ya
al p
Ġpr ok
on ing
tk ir
Ġban k
r iq
Ġr ey
chi b
j al
ov ning
angi z
Ġjam i
ĠA m
la h
Ġch or
Ġol in
Ġb a
us an
Ġtush gan
Ġyer da
Ġyetish m
Ġfik r
di k
Ġmul oq
b iq
B un
ĠN amangan
Ġnamoy ish
Ġsin ov
Ġ2 1
Ġqiz iq
Ġat rof
Ġj umladan
Ġqilish ga
at li
Ġyoz adi
Ġk eng
ali y
iz iston
2 2
Ġo chag
n an
Ġs ol
Ġkompan iyasi
Ġ W
Ġo dat
e lar
Ġke s
Ġqil moqda
iya da
ĠBrit aniya
Ġj ih
Ġyetishm ovchi
Ġ af
Ġtan ish
uvchi lar
Ġmo de
Ġhal ok
Ġyan ada
Ġkam ay
Ġo st
ch asi
s entabr
Ġx at
Ġtay in
Ġx il
Ġte st
s ep
Ġdara ja
ĠB ayden
Ġhaq iq
at sion
Ġtayan ib
Ġ ilm
e g
Ġboshqar masi
ĠQ or
p ar
Ġbosh lagan
lar dagi
Ġqaram ay
q u
z g
Ġal ohida
Ġe p
Ġk re
20 1
Ġ ib
Ġm en
Ġfuqaro lar
Ġ2 2
ekt ori
Ġhuj um
Ġmuloq ot
Ġber i
r en
tir ilgan
li l
on g
Ġu sti
Ġyet ak
Ġh avo
lgan i
elar us
Ġt ov
Ġo ta
im a
ov iy
Ġs ev
Ġbo zor
Ġe tib
Ġm ayd
H ar
Q ayd
Ġqilishi cha
Ġyetkaz ib
M az
Ġk an
ash q
Ġnav bat
Ġb ez
at dan
Ġq am
Ġb ayon
Ġmas lah
Ġdaqiq a
c om
kaz iy
Ġen erg
Ġh atto
Ġchiqar ish
Ġshu g
Ġ ishi
ĠA ndijon
Ġeti lishicha
rin ish
Ġmilli y
Ġq or
3 0
oz a
on al
el e
q it
k an
iy ev
ofa a
sa d
rt asida
Ġbe sh
Ġch et
Ġbosh lig
ekt or
Ġinfek siyasi
ĠYevro pa
Ġk i
Ġt eri
Ġt inch
ĠP utin
Ġtaq iq
Ġz am
Ġbelgi langan
ir in
s il
Ġy eng
ĠB ux
Ġp ast
ra z
ĠF arg
Ġfaoliy at
q il
v ud
Ġp art
Ġet moqda
Ay ni
Ġq ila
os t
Ġoz iq
Ġsah if
ĠS ur
oni ga
ashq adar
Ġtom ir
lig ining
Ġm ay
lashi cha
ri sidagi
Ġo yi
Ġom m
Ġchek lov
er man
Ġah v
ak k
r ni
Ġso biq
Ġe s
lanishi cha
Ġjar oh
Ġtel e
lanadi gan
Ġmux lis
f or
Ġm et
olli vud
ashqadar yo
ti ka
lash ni
Ġ Foto
Ġk il
Ġ gi
id diy
Ġ 0
Ġx ari
lishi ga
Ġyuz aga
Ġjar ay
Ġy ot
Ġy omon
Ġshak l
Maz kur
Ġ2 7
Ġbir oq
x an
Ġtur gan
Ġrivoj lantirish
ĠToshkent da
oj ik
ov qat
Ġbola lar
Ġmuhok ama
sh in
lumot lariga
i a
ak i
az a
Ġo ddiy
at or
anub iy
Ġu s
gun gi
Ġsal omat
ĠK ar
z am
sk iy
Ġkes kin
Ġj az
bat ta
Ġch unki
gar lik
Ġmash in
os siyaning
lab ki
Y angi
ĠQ ozog
rsat kich
ir ik
Ġkom is
Ġk al
ob od
ir ib
ur nali
q ot
Ġuchrash uv
Ġt ransport
r ak
Ġtabi iy
Ġbildir gan
lan ayotgan
Ġor t
p ir
Ġqah ram
Ġ dir
min lash
r ab
a lat
s m
Ġs af
Ġin stit
M en
or ti
es s
Ġbah o
p ay
Ġur ush
q o
m odda
x sh
Ġh ali
Ġ2 8
z on
Ġtu shir
az m
Ġmar kazi
n ov
Ġp rof
ok tabr
Ġbos qich
Ġm l
ati ladi
Ġtur ib
Ġomm aviy
Ġj iddiy
ligi da
kid lashicha
Ġham ma
of iq
um li
Ġr espublik
Ġ2 6
ĠQ o
Ġil k
lik ning
Ġs erial
Ġ20 19
Ġim zo
nom a
ar af
sh t
Ġt il
Ġholati ga
ir e
um an
Ġish ga
Ġch oy
Ġdol larga
Ġov oz
Ġyordam ida
ide mi
Ġ âĢĺ
Ġilm iy
Ġnaz ar
k siya
ek s
Ġj ang
ĠE ron
avo iy
Ġch o
To lib
ojik iston
chi lari
es ti
y ilgan
illi y
il ma
ide o
oli ya
Ġinfek siy
Ġo per
ĠN ur
Ġb ekor
Ġun dan
Ġvoqe a
Ġr et
dek abr
Ġnatij asida
si b
om ash
Ġkish ida
Ġmuz ok
Tolib on
b on
v er
Ġberadi gan
Ġmuv ofiq
ĠM a
Ġmuvaffaq iyat
Ġmaslah at
i j
Y an
or ati
Ġs ir
Ġk otib
cha lik
ladi mir
ĠJ o
Ġichi m
miy asi
Ġmahal liy
P rezident
onav iy
Ġagent ligi
d ori
Ġkir ish
Ġkuch li
v or
Ġaniq landi
Sh uning
Ġraq am
Ġyet di
Ġq ir
Ġshak ar
o lat
Ġay rim
b ol
Ġqilish ni
ish lar
uh bat
Ġq uv
Ġ4 0
Ġnafar ga
ĠM osk
Ġekan ini
Ġsiy os
Ġsh o
Ġmash ina
Sh undan
mit asi
az ir
os ti
Ġun da
an ba
oy ib
Ġtom osh
Ġfaoliy atini
y ur
Ġvitam in
Ġvide o
Ġqo shiq
Ġqiy in
Ġke y
zbekiston ga
Ġmusta h
Ġm ak
Ġp oli
Ġ it
Ġholat lari
Ġeh tiy
ele gram
Ġy ili
Ġi dor
Ġbemor lar
Ġta om
ilish ini
Ġqay tar
Ġbosh ladi
el en
iladi gan
Q o
f er
kid lanishicha
Ġvakil lari
Ġn o
Ġvak ili
I k
Ġfoiz i
Ġmu k
Ġmaq sad
am ol
Ġoz od
s um
) .
n oyabr
Ġayt di
on un
di t
ĠQ irg
Ġjaray oni
Ġu sh
Ġmeh nat
Ġ lib
A l
rt asidagi
ĠTurk iya
Ġmustah kam
Ġx ona
Ġx os
ĠS a
lish ini
Ġdoir asida
ĠD avlat
Ġimkon iyat
ĠRespublik asi
Ġmode l
oly ot
Ġt ergov
e w
Ġvaz n
Ġret sep
p i
ish dan
Ġra isi
Ġk ol
Ġhokim i
shi ga
i gi
Ġa er
Ġayol lar
Ġtadqiq ot
T urk
a chon
ini b
Ġqur ol
Ġt eng
er ik
is l
aq alp
Ġkom p
t in
Ġib orat
B uning
r iy
r om
Ġnarx i
ĠB elarus
Ġsam ar
laydi gan
Ġmuk of
Ġyet arli
en ti
l og
Ġp iy
indi ston
lik dan
ĠV ladimir
Ġqilin ishicha
it ob
Ġnash ri
Ġek sp
Ġki chik
B unday
t om
Ġm etr
ĠMar kaziy
e ni
k ar
om pan
ĠP h
Ġost ida
Ġo lim
Ġyash ovchi
Ġaloq a
5 0
Ġ2 9
Ġxavfsiz lik
a dagi
L ekin
er al
Ġbildir di
v on
ar k
Ġj urnali
Ġdey arli
ĠT elegram
ĠKor eya
n et
B osh
v ir
Ġs tan
Ġal ma
Ġe shi
ta zam
r g
Ġming dan
Ġo ra
Ġvosita lari
A s
Ġsav ol
Ġkel di
Ġq achon
ti v
Ġyeng il
Ġko sm
Ġtele fon
Ġis siq
aqalp og
gi z
y ekt
gan ini
Ġj alb
Ġkir ib
Ġk lini
Q S
Ġqilgan di
Ġshax siy
Ġasos an
at da
mon iy
q sa
Ġho di
20 20
Ġim mun
Ġsar f
ĠM ari
Ġq im
as b
Ġg ramm
ĠJ ahon
Ġhokim ligi
uv i
s ining
Ġhuj jat
yap ti
Kor onavirus
uh am
ati k
ap on
Ġmahal la
ĠF ran
Ġquy idagi
u si
n es
Ġtez kor
Ġtadbir kor
n al
Ġer ta
Ġmayd on
Ġy um
Ġloyih a
urat ur
l er
e sh
Ġket di
z en
Ġ @
Ġhududi da
langan i
Ġjam o
Ġiz oh
Ġxari d
Ġichi ga
âĢĿ âĢľ
Ġpish ir
omash niy
at siyasi
D omashniy
Ġf on
ingiz ni
ĠN avoiy
ĠG erman
Ġay tib
Ġyuq tirib
di mi
Ġh av
Ġkam ida
u p
Ġo f
Ġek ani
kra in
Ġay nan
Ġs uhbat
ĠR ossiyaning
Ġy irik
p chilik
Ġqol di
1 0
siz lik
Ġshahr idagi
Ġkotib i
al q
Ġta j
ĠB uy
mart fon
q is
itar iya
Ġqahram on
Ġah ol
x o
Ġpande miya
lan g
lan moqda
Ġkishi ga
Ġmav sum
Ġb ur
im li
Ġbi t
Ġr ak
Ġdoim iy
onal d
l maydi
y ish
ĠT he
Ġkurash ish
z arb
Ġprok uratur
si dan
ĠT ojikiston
Ġz iy
o ch
Ġo chiq
al l
Ġp ort
lumot lar
l jal
Ġo k
Ġo son
Ġs ing
lumot larga
ay r
v oz
Ġmu sh
Ġoy oq
Ġx oh
Ġqo lish
ĠD zen
SS T
Ġtar zda
m ni
u ti
Ġko deks
un a
di sh
ta d
Ġmun tazam
Ġfik ri
Hozir da
M as
Ġda m
ma d
Ġkasallik lar
Ġs uy
Ġreja lashtir
Ġsan ksiya
Ġchalingan lar
Ġdavo lash
ĠAm erika
Ġk art
Ġq ora
ĠBux oro
ĠBuy uk
Ġikki ta
uz a
Sh un
Ġgap ir
Ġkey ingi
U larning
mas ligini
Yan deks
Ġte mir
osi m
ayotgan i
iz z
Ġbayon ot
M amlakat
ir daryo
Ġj ahon
Ġtizim i
ĠQ ashqadaryo
ĠS an
w it
Ġtur k
Ġdir ektori
QS H
ch oq
Ġk isl
Ġkel tir
Ġs on
ka li
Ġayt ishicha
Ġb undan
zbekiston ning
Ġn ech
ra gan
y gan
Ġb ino
Ġe ndi
Ġkoronavirus dan
ur s
ek an
ĠC la
Ġlib os
Ġaer op
Ġu larga
st ra
Ġem lash
z oda
Ġish lash
Ġbirga likda
Ġn oq
Ġxo dimi
mas dan
Ġ6 0
s mon
Ġbun i
ti dan
ĠCla ire
xon asi
s angiz
k t
xon daryo
Ġh aj
Ġtex n
si sh
ĠJ anubiy
Ġdast labki
om etr
Ġsur at
Ġaj oyib
Ġrej im
Ġtaxmin an
Ġvaqt incha
ingiz ga
kid lagan
Ġpas ay
man g
modda si
Ġf il
s en
igi t
Ġk itob
ul os
t or
ab in
hon e
Ġkel tirib
Ġyar im
izz ax
Ġma dan
Ġog oh
an di
iz a
ĠN ov
âĢ ĵ
Ġtayyor lash
Ġsal biy
Ġfu qar
rt og
wit ter
Ġishon ch
A f
ax t
elen skiy
m ak
Ġo liy
Ġan ti
d j
Ġsamar ali
Ġkoronavirus ning
Ġke layotgan
Ġfaoliy ati
l lan
asi z
st r
Ġmunosab ati
Ġqim mat
j ak
ra f
at an
Ġber ildi
Ġtu x
00 0
xona ga
is moniy
Ġzam onaviy
s ak
av qul
s ga
q uvchi
ob al
Ġovqat lanish
Ġkam aytir
Ġxavf li
Ġsov uq
Ġqil uvchi
Ġ3 1
avqul odda
uz ur
Ġekan ligini
y er
Ġmin ta
D avlat
Ġmu t
ka lar
Ġkun lari
Ġqish loq
ljal langan
is s
z in
Ġchiq di
Ġh uzur
Ġyuv ish
Ġega l
Ġn on
Ġkun lik
Ġq ov
Ġr i
Ġvaq ti
Ġchegar a
U kraina
Ġuy ush
Ġtaq dir
Ġmeh mon
Ġf arq
Ġr us
it et
Ġin v
Ġtoza lash
ka sh
Ġt r
Ġm ik
lan magan
t ing
in ish
Ġqo ladi
Ġetgan i
Ġu x
ap ti
Ġqo p
Ġtarq algan
P hone
Ġnech ta
Ġri oya
Ġtux um
q ib
Ġan cha
Ġsab zav
c k
Ġkech ir
Ġv oz
Ġharak ati
lan uvchi
Ġto sh
Ġara lashtir
Ġortiq cha
Ġdar om
Ġmukof ot
d da
oro zi
Ġmumkin ligini
Ġbor ib
X B
lanishi ga
r ov
20 0
Ġuch inchi
Ġy ol
quvvat lash
Ð °
Ġuniversit eti
ob us
Ġyetishmovchi ligidan
ili y
Ġu sul
Ġbor asida
Ġol indi
ar ak
Ġb art
ĠE r
Ġ lab
E ng
ot in
Ġsaq lab
Ġbart araf
M T
qar or
ĠUkraina ga
f iq
ĠMari e
Ġa gar
Ġhamkor lik
Ġx ulos
ĠY o
eri ali
Ġholat da
Ġqiz i
l oh
ĠN A
Ġsut ka
Ġqiladi gan
Ġy a
Ġso liq
m ga
Ġtar qat
Ġ19 9
x ta
ch ining
Ġi dish
ĠT o
Ġsh ar
Ġkon s
Ġb ay
ay n
Ġklini k
al oq
di ya
m ini
Ġuy da
ir oq
ot a
ĠJ inoyat
v ideo
Ġke la
Ġqay si
Ġob yekt
ĠM illiy
Ġ li
Ġas orat
n o
r os
Ġo lishi
Ġshaxs lar
Ġhar orat
Ġyon g
Ġshi k
Ġtas vir
Ġdavr ida
ĠO l
Ġo id
Ġmahsulot lari
Ġra fiq
Ġuy g
Ġs martfon
Ġbir oz
Ġq ilayotgan
il sa
ĠQor aqalpog
Ġsiy osiy
Ġyarat ish
Ġtaj rib
ud di
ayotgan ini
lashi b
ilishi ga
v yu
Ġn orozi
Ġolish ga
i ti
am iyat
Ġyil dan
is mli
Ġbun ga
rta cha
Ġq ut
Ġz o
1 2
I A
ut bol
Ġnom zod
T ay
q iy
Ġk in
zbekiston lik
Ġber uvchi
Ġs er
Ġsam olyot
Ġju ft
ĠT witter
Ġal omat
Ġqat nash
Ġtomon lama
lar idagi
Ak tris
l et
Ġam aliy
ĠS t
Ġxorij iy
tad bir
ta xt
Ġxabar da
rni ga
g ir
kid ladi
Ġra d
Ġuy qu
Ġet tir
ĠB er
Ġiqtisodiy ot
rsat ish
R B
at r
Ġn uq
M ar
Ġu yi
shi dan
ul la
Ġmiqdor da
Ġalma sh
Ġb ag
en d
t ez
uz ar
Ġde n
Ġtel ekan
or k
z aro
Ġt on
Ġs e
Ġtu ga
ĠD onald
Ġusti dan
Ġbit ta
an j
Ġt ab
er lar
K un
u f
Ġy igit
ĠJ on
Ġhuzur idagi
Ġye tib
mur iy
U y
os il
Ġhozir da
ĠPh oto
ĠH indiston
Un ga
Ġkuch ay
siy o
Ġtah lil
Ġavval gi
art am
Ġtekshir uv
Ġharakat lari
Ġmusta qil
Ġuniversit et
b erg
Ġkor xona
sh ni
yil dan
Ġmud da
b ar
lay miz
ĠM ak
t tifoq
ĠT ash
ĠS irdaryo
Ġber iladi
RB K
ĠM ah
X itoy
ob iy
Ġbar av
t kazi
m u
Ġbu gungi
Ġyash ash
h a
Ġb uning
Ġqis qar
Bir inchi
Ġinter vyu
or iya
Ġi Phone
Ġmux bir
Ġkodeks ining
Ġt ili
Ġsharoit ida
ĠZ elenskiy
Ġtarmoq larda
Ġx otir
k ov
Ġs eriali
Ġsam ara
A V
la moqda
ro il
A n
ĠA P
Ġish lat
ĠSur xondaryo
ar alar
ti s
m ar
o di
ekor d
Key in
re m
om ila
Ġber ib
ĠH ar
ch an
Ġretsep ti
ĠL u
Ġdunyo da
Ð ¸
ag ona
Ġmiq dori
Ġman z
Ġkelish uv
ot or
Ġin sp
ali q
Ġqu lay
Ġ5 00
ĠRossiya da
Ġq i
ĠB osh
ro h
Ġqur ilish
ĠU krain
Ġtuman idagi
ĠA v
Ġtu shib
Ġmaz ali
Ġb alan
im ov
Ġyil lik
Ġk af
ĠM e
Ġchiqar ilgan
ĠNov osti
z osi
idemi ologik
1 5
Ġahv oli
ing ton
siy ani
Ġtar af
y ib
Ġch ar
R IA
Ġh osil
Ġtashkil oti
Ġur ib
Ġsh irin
rsat adi
Ġpar lam
ĠO liy
ĠJ izzax
Ġdep ut
lan ing
Ġreja lashtirilgan
Ġn or
Ġus lub
b iya
y n
ĠP rezidenti
2 5
ch ki
sti k
ew s
Ġtur adi
T O
ma lar
lan ishga
ĠI ttifoq
Ġyur it
Ġbor gan
Ġdep artam
Ġyum sh
Ġb in
Ġkerak ligini
Ġtarkib ida
Ġj ismoniy
Ġbir or
Ġxon anda
Ġshun da
Ġm od
Ġal batta
Ġaniq lash
xon ada
ĠM as
Ġmuammo lar
Ġq al
r av
v et
Mas alan
X us
b uzar
Ġimmun itet
Ġtur dagi
Ġbor ish
ri dan
Ġinstit uti
Ġrak eta
Ġd oza
ĠFran siya
Ġ7 0
Ġpayt ida
ĠMosk va
Ġqilin ishi
Ġtarqali sh
r is
s ar
Ġkasallangan lar
Ġdarom ad
p ut
Ġvaksin asi
Ġbu dj
ila k
ak lar
ri g
Ġqar ori
m dan
p incha
a lab
Ġf utbol
ud ofaa
ĠA QSH
Ġosh gan
Ġob raz
Q iz
Ġhodi sa
Ġber ishi
ah ar
Ġdavlat lar
ay gan
erika lik
Ġara lash
g ari
Ġyet gan
Ġbar chasi
aydi gan
ĠGerman iya
m ent
Ġt un
ov ich
Ġqat tiq
Ġbay ram
S am
Ġqar ab
ĠG o
e li
y di
Ġj o
Ġguruh i
b i
sh ma
ch aki
alar ida
Ġayni qsa
ĠQ ur
Ġpar voz
M u
Ġhaqiq iy
O l
ĠA ir
Ġxus usan
t ishi
at ish
Ġdaraj asi
ĠAl eks
ay jon
Ġbar qaror
ĠF a
Ġogoh lantir
k l
Ġt am
Ġy al
Ġa p
Ġak a
Ġso lish
it oyda
Ġxat o
Ġjurnali st
Ġkenga y
20 21
iy b
Ġij obiy
put nik
Ġo t
oj i
Ch unki
at ilgan
Ġqilgan i
lik lari
ĠRossiya ga
Ġbo sim
Ġbuy um
ash ington
Ġyot qiz
k asi
q nash
Ġt ran
Ġshifokor lar
Xus usan
ch ir
Ġs ez
Ġm eva
il maydi
Ġchiq ishi
mi d
zi lar
zo lari
esti tsiya
Ġu lardan
2 3
Ġaks ar
Ġqil ing
ĠSh ah
Ġta si
Ġviloyat ining
Ġichim lik
dor lik
Ġj an
sim lik
il l
Ġn ish
Ġol ti
Ġman f
Ġinfek siya
Ġinter net
rnat ilgan
qit uvchi
Ġp ich
rsat gan
Ġsar at
Ġkan ali
Ġrespublik a
Ġ Ð
ĠK iyev
Ġs um
Ġsht am
Ġp ech
b ul
zbekiston dagi
Ġkuch aytir
Ġbutun lay
q ish
Ġt or
oz on
Ġyuq umli
Ġoper atsiya
Un da
X on
or lar
uq ur
Ġk adr
Ġsiyos at
r ing
Ġan g
ĠU z
Ġholat lar
Ġmasala lari
m ati
Ġqam oq
zarb ayjon
y oning
z im
Ġsi m
may otgan
ĠU smon
Ġm is
im oliy
Ġsh uning
Ġqur bon
T A
siy asini
ĠAQSh da
Y o
Aktris a
Ġy agona
Ġs un
Ġsh amol
Tay yor
Ġdunyo ga
ĠI ta
ĠJ SST
m og
Ġvitam ini
Ġf avqulodda
Ġay langan
Ġqar iyb
Ġkil ometr
yx atdan
e b
or azm
Ġmumkin ligi
Ġm oliya
al qaro
Ġrey s
Ġun ut
ĠY er
is tik
ĠM udofaa
) ;
Ġb and
Ġshi m
Ġpoy taxt
Ġep ide
n oq
onun iy
N ati
g u
om il
Ġqar agan
Ġ3 5
Ġkun iga
H XB
y oq
o zi
ar di
am ir
en ko
Ġdi p
Ġvaziyat ni
bo ok
2 4
lash adi
Ġmamlakat ning
Ġmash g
Ġtizim ini
ce book
ĠAQSh ning
Ġman b
Ġuz un
p ka
er a
rin ishi
Ġjam iyat
Ġyol g
ĠO AV
lish er
Ġnom a
h ol
Ġhay von
l obal
Ġturib di
T ad
may apti
Ġmuzok aralar
U ch
ak s
Ġ201 8
Ġkenga shi
Ġorgan lari
Ġrahbar lari
r n
Ġkuzat ilgan
K asal
q id
Ġtan lov
Ġtexn ologiya
iq li
Ġhozir gi
r um
Ġbosh laydi
e ga
Ġay landi
Ġ8 0
j i
iya ga
Ġxavf i
Ġis ta
al lif
Ġrivoj lanish
Ġaholi si
Ġyan var
lashtir adi
ot os
Ġbosh landi
Ġich ish
Ġyash ir
Ġkarantin ga
Ġpande miyasi
Ġf or
ĠY angi
zgar ish
Ġjarayon ida
ay f
Ġch og
re y
Ġbosh ida
Ġah amiyat
Ġ9 0
Ġit tifoq
B ar
Ġch ir
lay n
siy asining
g on
Ġer kin
Ġyoz ishicha
in d
Ġet ishi
Ġmud ofaa
H am
y uk
Ġ lim
X abar
Ġ20 22
udi ya
ax ir
Ġma g
Ġbor ilmoqda
I sh
in ga
ĠB MT
yil larda
Ġr ekord
Ġbalan d
Ġi x
eti k
Ġkre dit
Ġavt obus
y ut
il y
Ġjamoat chilik
Ġehtiy ot
Ġm art
iston da
oh at
Ġzar arli
Ġhuj j
al di
Ġp alat
Ġd oz
Ġnafar dan
Ġmuz lat
Ġb l
Ġm ig
Ġx uddi
Ġf an
Ġqur ilma
l masa
gi ch
Ġe v
o diy
Ġch uqur
oliy aviy
Ġkirit ilgan
q ozon
Ġtayyor garlik
b us
ĠO q
Ġtash x
ĠY apon
lumot larni
Ġust ida
m ani
t ab
li ga
ĠY HXB
Ġx ol
Ġn ur
ĠT im
Ġb az
Ġbor ada
Ġst at
Ġaerop ort
Ġnoq onuniy
Ġ az
Ġsabab i
Ġbiz nes
Ġpish loq
S og
ab a
da sh
Ġol magan
Ġjoy lashtir
Ġmuxbir i
ng il
ĠM ad
Ġmar osim
I s
Sh unday
Ġkirit ish
Ġmay da
Ġrafiq asi
ek siya
Ġqaragan da
v iy
Ġb aliq
Ġo sti
Nati j
ri ga
osh ka
Ġpich oq
li z
os ini
Ġmat erial
Ġshun chaki
Ġtasdiq langan
Ġxona don
Ġnorozi lik
ĠO siyo
ĠRespublik a
in ter
ah o
Ġtar iq
e gi
Q uy
ĠA k
Ġpoli tsiya
ab et
ĠAr ab
Ġboshqar uv
v an
z iq
ay ra
Ġb ak
Ġxabar lar
ay ni
ĠTurk maniston
ĠNA TO
ĠM ed
Ġis tiq
Ġtan a
xsh ash
Ġd ush
Ġish lagan
Ġse zilar
un yo
ul lay
Ġman ba
Ġh omila
o lib
u lay
Ġrol ini
Ġml n
Ġyil ning
Ġoldi da
Ġchor alar
Ġk ino
zgar tirish
z iz
Ġt ir
ĠM i
ĠII V
ak u
Ġishtirok ida
Ġminta q
Ġdepartam enti
8 0
la s
Ġq av
Ġh ik
f ir
at ni
Ġkuch lari
u da
Ġbo j
Ġqar ash
ĠP ro
Ġnafar ni
Ġyarat ilgan
pp le
Ġyetak chi
Ġyal lig
Ġqo ch
Ġtan qid
Ġmas of
tr at
Ġsezilar li
Ġqancha lik
akk ab
e c
Ġqo b
4 0
Ġp re
Ġak siya
Ġsaf ar
Ġnish on
p ik
Ġol tin
P X
Ġq as
ĠM us
Ġ3 00
Ġek ran
Ġis b
ĠIs roil
im s
T H
ab zal
Ġet ishga
ik atsiya
Ġkompan iy
v ali
oy ish
Ġyil da
Ġxav otir
ompan iya
u diy
Ġyosh da
Ġeh tim
Ġber ishni
Ġx ara
Ġem langan
Ġfikri cha
Ġp ay
Ġd uch
Ġekan ligi
Ġv ari
st an
Ġsabzav ot
m asiga
Ġkel in
Ġil gari
qis mi
Ġel chi
mas ini
Ġek sport
ed ov
V azir
Ġol maydi
Ġinv estitsiya
Ġmanf aat
Ġ 000
Ġqis qa
h arak
Ik kinchi
ish a
uv oh
Ġhisob iga
Natij ada
Ġz axir
Ġrej iss
Ġij od
om an
Ġke tadi
ash in
Ġr ek
lanish ini
Ġumum an
Ġparlam ent
Ġ -
Ġo na
I j
Ġde k
Ġmamlakat lar
Ġtak ror
ino iy
Ġqarat ilgan
ĠK an
ĠD i
Ġyoz gan
ĠKor onavirus
Ġden giz
Ġt ish
Ġm oy
Ġh id
Ġfil mi
Ġm oliyaviy
rgan ish
n ev
ar ov
Sh avkat
ĠN av
Ġj on
ĠM aj
el l
gi da
ti mol
Ġqo g
Ġr uh
ĠA h
Ġkasal ligi
Ġsing ari
ĠM otor
og le
Ġmajbur iy
Ġke cha
ĠA s
Ġqay t
Ġ â
Ġyosh dan
Ġchiqar ib
Ġket ish
Ġhokim iyat
Ġber ishicha
ja ligi
Ġsov g
ĠFa cebook
ma lari
Ġvazir lik
Ġchora lari
Ġtomosh abin
Ġyil lar
Ġmuloqot da
ey n
Ġkut ilmoqda
Ġahv ol
Ġg um
Ġdollar lik
Ġtomosh a
ĠX orazm
Ġmuvaffaqiyat li
Ġ zi
Ġm iya
Ġosh di
Ġev aku
lash ish
Ġjam g
u shi
Ġr oli
Ġbor moqda
Ġmah rum
B a
s e
Ġoshir iladi
Ġjaz o
s un
Ġf un
Ġke ladigan
Ġpoy ez
Ġm ev
ĠSh er
Ġon asi
Ġuch ta
Ġish chi
Ġket ishi
Ak tyor
Ġshunda ki
Ġprof ilak
B ola
Ġtar biya
Ġyosh lar
ĠAr maniston
tkaz gan
Ġjaroh at
N oviy
S putnik
ĠG ollivud
lovchi lar
s am
Ġk ishini
Ġn oto
Sh if
ĠK ap
Ġas r
Ġchal inish
ob ar
20 19
rsat ilgan
ĠA lisher
qa chon
eti ka
Ġjavob gar
In ter
Ġimkon iyati
Ġbir ida
ush ta
Ġsan oat
Ġhuj ayra
Ġtah di
Ġtex nik
Ġb axt
Ġter ror
K ar
m oni
Ġal la
ni ka
Ġhisob ga
Ġoxir iga
s el
Ġyosh ida
Ġolin adi
Ġnavbat dagi
am as
ri p
Ġb ek
Ġkech asi
Ġinfeksiy asiga
si x
Ġs u
Ġsan itariya
yu ta
Ġsh ub
ĠD on
Ġ4 5
Ġhay oti
Ġman s
Ġsanksiya lar
Ġsh undan
Ġra is
Ġd in
Ġmodda lar
U ni
v it
ĠB aza
Ġtar mog
ĠX itoyda
Bun ga
Ġpiy oz
B o
m et
ĠS erg
Ġol ing
ada m
Ġmaj mu
Ġhozir cha
omi dor
Ġbarav ar
Ġmash q
Ġtartib da
Xon anda
Ġbo is
Ġg uvoh
Ġsuy uq
u al
rsat di
J ahon
K erak
Ġtash ab
ĠN or
P A
ĠBaza ar
illi on
Ġp un
Ġj inoiy
Ġmu allif
layotgan i
ob i
Ġtinch lik
t li
t al
Ġeti lishi
Ġsoh asida
v o
oy li
Ġquv vat
Ġqo lishi
lgan ini
Ġtop ilgan
Ġmutaxassis lar
Ġkamay tirish
h ez
ul y
Ġalla qachon
D ast
Ġo shib
ĠF ar
a ladi
TA SS
j ayev
t ak
Ġd og
Ġqiz il
Ġkomis siyasi
Ġaka de
Ġevaku atsiya
Ġs alat
E ndi
Ġo chi
un i
Ġr ossiya
ĠE l
Ġxavf ini
Ġoxir ida
p rik
Ġg or
ĠN ex
Ġtelekan ali
Ġqob iliy
Ġmuzok ara
Ġlab orat
ĠS S
Ġqism ini
Ġahol ining
g ini
Ġq ul
siy asiga
ati dan
Ġbor ligi
Ġkishi dan
zgar tir
e si
sh anba
Ġm on
Ġm er
Ġkun larda
Ġa d
ey t
ĠE m
ur ak
Ġam erikalik
ch asida
Ġb ren
Ġin qir
ur a
an k
lish ni
Ġst ress
Ġenerg iya
ĠMas k
Ġqur ish
yx atga
Ġquy osh
y us
da rt
ru p
Al batta
lan i
Ġz ir
yo h
Ġtur ish
Ġdol larni
Ġtayyor langan
Ġtop gan
ĠM uham
Ġisb ot
U m
la stik
aq a
ala m
Ġnar s
on asi
Ġmas alan
Ġyuq or
Ġmahsulot larni
Ġnash r
Q ur
magan i
Ġoshir adi
Ġpoy abzal
Ġtut ilgan
Ġxabar ida
Ġfuqaro lari
Ġtahdi d
Ġ ada
Ġo tasi
Ġx ayr
Ġtan lash
Ġk asb
1 8
Ġhuk m
Ġyubor gan
t lar
ĠGo ogle
Ġg en
Ġoshir ilgan
Ġxizmat lari
S A
Ġo s
ĠSh imoliy
ĠHar per
ĠR ah
ĠI chki
Ġtarqali shi
Ġinstit ut
e f
en siya
Ġosh qozon
Ġul g
ok ola
m ok
Ġjih oz
Ġton na
Ġq alb
Ġkir gan
Ġvak olat
Ġku y
Ġdi z
ish tir
ĠO zarbayjon
Ġin t
inter est
ra zi
lish ga
Ġcheklov lar
A r
y oviy
Ġm il
ti ga
Ġis loh
Ġqur uq
Ġyash agan
k et
Ġatrof ida
ĠK im
Ġsh osh
1 6
ĠP interest
Ġbor adi
Ġpar var
l ey
lash di
Ġdar hol
ran g
I V
Ī Ĵ
Bun da
Ġyetishmovchi ligi
nev mon
ch ak
Ġchiq ilgan
Ġaniq lik
ĠTash qi
Ġish dan
okola d
Ġavi ak
Ġq irg
Ġyo d
uv ga
ilish da
ver sa
Kerak li
a lariga
k s
r d
ta lik
Ġj abr
Ġ3 3
ĠY PX
ĠOl ma
Ġh ib
Ġas ar
Ġchaqir di
Ġpart iyasi
k un
lik larni
Ġras man
1 4
r ay
v ed
ay a
Ġmamlakat ga
Ġkenga sh
Ġusti ga
s an
chi m
Ġyor qin
li si
ur t
ĠS en
yil gi
maslik ka
Ġqiziq arli
lim iga
Ġtayyor lanadigan
Ġlim on
1 7
i cha
as ad
Ġg ul
ar iy
ĠD il
ĠY TH
ĠX on
ul mon
Ġkeyin chalik
Ġdi abet
Ġon layn
b atida
chi ligi
ĠS o
Ġmur akkab
Ġhududi ga
Ġar zon
l q
u la
y e
ta sh
ist an
Ġ ing
Ġk ayf
em ir
Ġbar obar
Ġkam roq
Ġboj xona
ili q
Ġloyih asi
Ġbo shidan
Ġjar ima
Ġtez roq
M ah
Ġqar z
Ġoy lik
Ġr atsion
6 0
Ġs udi
Ġto if
ĠM ay
ĠP ol
Ġtop ish
en ni
Ġso lib
Ġshun i
Ġqi dir
tadi gan
incha lik
Ð ¾
Ġs ekin
ĠR aj
Ġviloyat idagi
Ġinson lar
ĠNex ia
1 3
S ur
Ġu mid
ak an
Ġkoronavirus ni
Ġxavfsiz ligi
Ġkisl ot
V iloy
i gar
Ġber ilishi
Ġjoy lashtirilgan
Ġqonun iy
ĠLu kash
p tom
zgar ishlar
Ġpr ot
siy asida
siya ga
ĠMah kam
Ġqilingan di
k asb
ĠO lim
ĠU l
va ziga
K om
l lari
Ġjoy ida
bur g
r ok
u liy
Ġoy ining
ĠSS V
e la
g oh
Ġstan dart
ims oq
Ġkre m
Ġtur izm
Ġ3 7
lagan i
and r
ĠV ashington
Ġdunyo dagi
Ġyetish masligi
Ġsev imli
Ġehtiy oj
Ġp o
Ġke sib
Ġtash lab
Ġmar ot
ĠUkraina dagi
Ġoila si
Ġqo zon
Ġtan iqli
Ġelektr on
ĠO r
Bu gungi
Ġyur ish
Ġ15 0
Ġolim lar
Ġh azm
or od
ur mat
Ġmillion dan
Ġyur gan
Ġmet ro
k ani
er da
Ġoxir gi
Ġe vaziga
Ġf oto
Ġtayyor laymiz
Ġket ayotgan
Ġkar yer
Ġne ft
sh anda
F Y
ot ini
Ġtov uq
ĠArab iston
b er
Ġqism ida
Ġgum on
Ġn a
ter iya
Ġchir oyli
Ġn iyat
landi ya
Ġfarz andi
i c
Ġsay yoh
Ġnaz orati
Ġahol ini
l ing
Ġb ep
Ġdol lardan
Ġnom li
Ġkel moqda
Ġprok ur
Ġrey ting
Ġkela jak
T ash
iy oh
rin ishga
Ġsamara dor
ul ot
Ġtash lash
Ġfoydalan uvchi
Y ork
Ġoqib at
Ġo lam
Ġoq sil
Ġyaxshi lab
Ġus uli
l da
rin da
Ġfilm ida
Ġnav batida
ĠSamarqand da
Ġ iliq
on lik
Ġre st
Ġs trat
Ġsay ohat
tab ek
Ġmarot aba
R e
t f
Ġyotqiz ilgan
ov uq
Ġchiq adi
Ġkasallik dan
ĠQo dir
em ent
y on
oy aga
Ġ3 4
oz it
Ġqar in
ari ga
m en
ut o
Ġshifo xona
Ġs entabr
zi dan
l lash
Ġo la
zbek istan
m er
Ġ( âĢľ
Ġqur it
Ġdara xt
Ġdun yoning
ki t
og ramm
Ġyulduz lari
o ga
ĠE PA
Ġtartib ga
di a
or an
Ġerish gan
ĠMed uza
v and
Ġp lat
Ġcha q
ĠM er
Key inchalik
l dosh
alab a
p o
Ġham kasb
Ġvazir ligining
Ġdastur i
Ġprokuratur a
Ġqilish da
Ġbudj et
h am
er in
Ġst akan
ng ra
pp ar
Ġtab rik
Ġshik ast
v lat
Ġvazif asini
Ġmadan iyat
q ol
ili ya
ĠN ik
Ġkuz atiladi
il lar
Ġetgan lar
shi d
ĠM FY
Ġehtim oli
r uz
Ġfoyda langan
Ġmarkaz iy
Ġjan jal
Tayyor lanish
j id
Ġk ul
Ġn ut
Ġp nevmon
Ġqay tgan
Ġ3 2
Ġkir adi
qiq ot
art er
Ġfaqat gina
Ġyulduz lar
Ġk ap
ĠA pple
Ġoila viy
akk iz
Ġasorat lari
Ġber ishga
Ġyubor ilgan
Y osh
Ġo ladigan
ri d
ĠB o
Ġqiy mati
le g
Ġimkon ini
ov ar
Ġrossiya lik
iz er
ol lik
Ġde vor
Ġtopshir iq
ia omi
z lari
Ġz av
Ġqiy inchi
Ġ201 7
Ij timoiy
Ġavt ot
ĠX alq
ĠXitoy ning
z an
Ġbi lish
ka la
Ġkun ga
Ġyur i
Ġnamoy on
iya j
ĠE n
Ġhol larda
ar ri
Ġmu ola
ut un
Ġhar orati
Ġyoz moqda
ĠJahon gir
Ġming ta
ĠL a
Ġshart nom
al niy
ĠB ir
Ġaf zal
Ġjaroh ati
sh ish
Ġx amir
aq qiy
Ġqov ur
ĠMaj lis
Ġan j
Ġis mli
Ġqah va
Ġhaydovchi si
Ġintervyu sida
Ġsim ptom
Ġnars ani
ax ta
Ġdar s
Ġâ ĪĴ
sus ki
Ġe fir
Ġbar ch
ĠV azir
ob atga
Ġkasallik ka
Ġnavbat da
ĠIta liya
Ġinqir oz
b osh
Ġbu gun
ari dan
Ġdaraj asini
Ġqo lib
Ġbor asidagi
Ġyil ga
Ġgaz et
ch am
gan di
Ġq adam
imiz da
Ik ki
Ġeksp ert
at ning
Ġas lida
Ġkom mun
Ġnom i
Ġhudud larda
Ġkart oshka
Ġqan d
mart dan
t ur
Ġ ab
Ġkerak li
ĠX alqaro
Ġshart noma
ish langan
Ġda lil
Mu taxassis
l ining
ch in
ĠIIB B
lar di
Ġm ini
lik dagi
Ġban ki
Ġpart iya
log er
Ġs ep
Ġham masi
Ġkun dan
ĠK on
sion al
Ġmiqdor ini
Ġush lab
Q ar
sh ti
Ġm ol
Ġg iyoh
Ġchiqar adi
stit ut
S ab
Ġet ishicha
Ġor zu
Ġas ab
alar ining
Ġsev gi
Shif okor
j am
un kali
Ġsur atlar
Ġos oyish
av v
Ġtr illion
ay s
en s
Ġsur atini
m ik
ĠB ollivud
Ġay ti
Ġsav d
Ġeh timol
Ġmod diy
et ti
Ġvosi tasi
Ġora da
Ġerta lab
Ġbor ligini
Ġkunda lik
U z
iy ani
ĠT ur
Ġmat o
Ġuz aytir
Ġsoh a
Mamlakat da
lay man
Ġqat nov
ullay ev
stan bul
Ġi f
Ġmiqdor ida
Ġtayin landi
ĠMosk v
Ġtemir yo
Ġsarat on
b in
Ġhisob ot
Ġsalomat ligi
Ġrejiss or
ĠVazir lar
S iz
z ga
shir oq
19 9
Ġkuzat ib
Ġpalat asi
Ġhib sga
t ma
gan da
ov ga
Ġboshlangan idan
Ġfuqar osi
ĠIttifoq i
Ġbak teriya
Ġs pir
es la
son li
ĠTramp ning
Ġvari ant
Y evro
a if
h um
Ġf er
Ġpar hez
Ġbosh lanadi
Ġa ppar
qot ish
Ġkayf iyat
di ri
Ġm enga
lanish ni
Ġyax shiroq
id din
Ġharakat lar
Ġnatija lari
Ġtaqdir da
r q
lik a
Ġin obatga
ĠN yu
Ġyet ti
Ġaj ra
Ġpoyez d
Ġu rin
Ġjoy larda
Ġtalab a
Ġqut qar
rn ini
Ġkamaytir adi
Ġbl ok
Bu yuk
Ġpre par
1 1
g or
gan idan
Ġde mok
Ġqil maydi
tkaz di
Ġmik r
Sam arqand
Bu gun
Y ana
Ġtom oni
Ġdi q
Ġm ob
Ġbo z
G az
Ġsh okolad
tkazi ladi
Ġfoiz ni
im i
im ni
Ġsh erik
lash ishi
ĠM at
Ġvazif a
Ġq adr
Ġolish ni
Ġil oji
ti z
Z en
Ġ3 6
Ġvosi t
m lik
Ġ3 9
Ġro zi
Ġmin nat
Ġqila miz
Ġmudda ti
Ġulg ur
D unyo
Ġb ul
ir ov
Ġmuh of
T ur
ĠO tabek
Ġ6 5
h qon
Ġj in
Ġprezident lik
Ġkil ogramm
Ġhav ola
ishtir uv
Ġboz ori
Ġtik lash
l lar
Ġay lan
Ġim port
rat uz
ĠAleks andr
Ġmob ayni
E l
X X
Ġm oj
Ġsi g
Ġb at
Ġet amiz
Ð° Ð
l qin
gi dan
Ġj oyda
Ġde hqon
Ġbor ilgan
Ġtadqiq otlar
Ġnuq ta
Ġjuft lik
chi larning
Ġmas ofa
ĠN ews
ilish ida
Ġhaj mi
Ñ Ģ
Ġmamlakat dagi
Ġtov ar
Ġap rel
tf ilm
i p
Ġshifo xon
tadbir lar
Ġhomila dor
Ġ3 8
M ash
l ni
ec a
Ġy ut
Ġish larini
Ġyosh ga
Ġrahbar ining
Ġyetak chisi
kit ob
Ġm obil
Ġbor ayotgan
Ġerish ish
Ġnazar da
stra Zen
Ġparvar ish
Ġmobayni da
do lat
Ġbuz ilishi
straZen eca
X alq
r ir
t oj
ĠMotor s
I I
Ġaj rash
Ġayt ilgan
Ġm avzu
ĠK o
Ġinf ratuz
F ilm
Ġu g
Ġchiqar uvchi
sp aniya
Ġbemor larning
Ġsht ab
Ġqir oli
ck er
l ev
il on
Ġmu kam
D R
Ġra g
Ġorganizm da
Ġtar aqqiy
Ġkasallik ning
Ġplat for
Ġ iyun
Ġs akkiz
Ġolgan i
Ġshosh il
Ġgiyoh vand
u T
Ġk lub
im da
Ġshah zoda
Ġva l
Ġming ga
So ch
Ġjih atdan
tis os
Keyin roq
qnash uv
oy i
ĠSa udiya
Q ozog
ov uz
Ġ19 8
Ġmukam mal
un d
ol d
Ġp six
Ġpr ov
n er
Ġp ost
tkaz ildi
Ġshak li
Ġtartib i
Ġmashin asi
ka da
lash uv
oj ir
Ġ4 00
Ġkel ingan
Ġob una
Ġom ma
Ġhamkor likda
T an
Ġkasallik lari
xtat ish
par var
Ġziy od
Ġo p
Ġq alam
yil ga
ĠF or
Ġsay t
Ġtuz algan
Ġpr og
Ġmuddat ga
Turk iya
Shun ga
y ash
ĠU xan
ep idemiologik
Ġbep ul
D o
Q or
Ġv er
ul ton
Ġbir ik
Ġto g
Ġmas jid
Ġchiqar ishni
Ġyer ga
Ġtarqalish ining
Ġqil maslik
dim uham
Ġtayin langan
ĠTim es
y lak
Ġk at
ĠS ar
ub e
tkaz ib
Ġodam larning
Ġtarix iy
dir ish
Ġra z
Ġmuh toj
Ġamal dagi
Ġfoydalan ishga
Ġjamo asi
avv ur
p ol
en a
mas ining
Ġosti ga
A uto
Ġsol in
Ġqarin dosh
ch at
m ish
li p
vet siya
f izer
m ov
Ġf ili
ĠT ergov
Ġg lobal
zal lik
ab og
Q irg
ĠP ar
q ligini
ob ul
Ġsahif asiga
Ġf ed
Ġp omidor
ĠM in
Ġdavlat lari
Ġbelgi lari
Bosh qa
Ġdip lom
Ġval yuta
2 7
av f
Ġkor rup
Ġdek abr
F ar
Ġni k
Ġqism iga
Ġmush uk
str uk
q os
Ġ ali
Ġbosh lanishi
ok sidan
lashtir ib
ola versa
Ġavval roq
Ġqil magan
Ġega llab
Ġmarkaz ida
ĠA ng
Ġbosh lash
Ġkam er
ran s
Ġsay yor
Ġosh kor
Ġoldin dan
K adr
Q olaversa
Ġch ang
Ġhis sa
Ġkan al
si mon
Ġfuqaro larning
Ġmuzlat kich
Ġxayr iya
B emor
x a
on lar
Ġ aq
osi ga
Ġbiz ning
Ġ lay
Ġkam chilik
Ġku tib
chi ga
ĠT ay
ud lik
Ġat adi
Ġvaksin atsiya
Ġuyi ga
lish di
Ġdiz ayn
ĠLukash enko
X R
l masligi
on ada
Ġar iza
Ġpande miy
Ð¸ Ð
p ot
y um
ĠM ur
ĠR a
is tika
Ġj igar
Ġtashkil otlar
Ġbemor ning
k oni
ĠA y
Ġtashrif i
Ġmuxlis lariga
ĠNav alniy
Ġgor mon
uT ube
A R
M uh
gi ga
az ov
Ġar x
Ġter ini
Ġvaksin aning
dan ing
oq da
may man
ĠU m
Ġpnevmon iya
Ġx ur
idemi ologiya
Ġpiy oda
Ġix tisos
y na
Ġish lashi
Ġme ni
liy ada
Ġsan aladi
Ġlavozim iga
ĠQor abog
Ġmans ab
Ġhisob langan
imiz ni
Ġkirit gan
Ġshahri ga
Ġmadan iy
an im
di gan
um a
Ġde zin
Ġhud udiy
Ġmustahkam lash
Ġxizmat ining
lev od
2 8
h om
ĠT er
Ġshun ga
lo om
ĠIs lom
Ġyet magan
Ġmamlakat lari
sir i
s ov
adi r
Ġmu si
rsat ib
Ġmuh ojir
ĠYevro p
Ġqo la
ĠH am
Ġpun kt
loom berg
cha lar
Ġboshqa lar
Ġemas ligini
ĠBer dimuham
2 6
h avo
q ur
ard ob
bos qich
Ġqas d
d r
f eksiya
l mas
rgan ib
Ġtarkib idagi
ĠEr do
Ġ art
Ġbi tim
el osi
Ġfoiz dan
Ġur f
mur iyati
Ġvaqtincha lik
Ġt ong
Ġy evro
Ġz aif
Ġjarayon ini
raz iliya
y ing
un us
Ġs ub
cha lari
ĠA straZeneca
Ġtayyor lab
ingiz da
Ġtekshir ish
Ġqoida larini
Ġqal in
Ġasos chisi
Ġrest oran
Ġch op
Ġshak lida
Ġyulduz i
Ġaf g
Ġx otin
Ġsht at
Ġkomp l
Ġkosm ik
Ġy om
Ġh urmat
Ġs azov
osi b
Ġholat larining
Ġtas avvur
Ġqaror iga
yap miz
Ġnut q
X DR
oli f
ĠR am
yil di
ep a
Ġada biy
Ġq ot
si shi
ek sa
og raf
O q
S ev
n oz
ek si
Ġum r
Ġsazov or
t ayotgan
og ir
Ġbosqich da
Ġhujj atlar
I l
Ġr angi
ad dan
Ġkiy ish
Ġtadbir lar
t il
Ġ6 4
ĠYapon iya
Ġuch r
Ġch in
mat ov
t gach
lashtir ishga
Ġhudud larida
Ġqoida lariga
ĠR ay
Ġor qa
Bu x
Ġyubor ish
Bar cha
Ġr es
Ġsar imsoq
Ġvaksin ani
T M
it s
Ġnam una
Ġkal oriya
Ġnik oh
lik larga
Ġyo shi
lgan lar
Ġav gust
rin ni
Ġkel tirilgan
gun cha
ĠMad ina
ri pp
rif ing
r uq
ĠS al
f iy
in ning
ot si
as dan
ti hon
Ġ4 8
ch ini
Ġd on
Ġqur gan
ĠMuham mad
Ġavtot ransport
Ġkor p
Ġqilingan i
Ġmaq ola
Ġchek langan
z dan
ĠNamangan da
Ġtashx isi
A ndijon
on s
ĠM am
Ġay lantir
osi ta
Ġosoyish talik
j oy
ka ga
li t
is a
Ġyoz ib
nali shi
Ġmasala si
k al
Ġp ak
zi la
aqat nov
Ġqish log
Ġistiq omat
on don
Ġp or
Ġmus ulmon
F aqat
l dan
lari m
or oda
Ġl in
sul t
layotgan ini
Ġtex nika
Ġaralashtir iladi
ur nal
Ġp at
rin adi
Ġsur unkali
Ġhudud da
ĠYHXB B
Ġzir av
2 9
y ori
Ġ iyul
sh an
Ġ( @
Ġas kar
Ġshahr ining
Ġjavob garlik
Ġshifo xonaga
p e
al la
Ġ7 5
r atik
u ar
Ġbi ladi
oli ga
tr an
Ġvosita lar
shin lari
ĠYo uTube
Ġrang li
Ġavi aqatnov
z lar
Ġn oyabr
Ġichim liklar
Y uq
Ġ ati
Ġtash v
Ġep idemiologik
ĠSan itariya
Ġmut la
Ġqov oq
ĠRaj ab
Ġk as
iq tisodiy
Ġdavo lanayotgan
Ġtel ev
M osk
P ar
cha ga
Ġor tidan
Ġyetkaz ish
tiy oz
Ġaksar iyat
S an
Ġchi z
Ġz udlik
Ġqol moqda
Ġyaqin ida
Ġmuhof aza
ĠU zbekistan
atsiya ga
if eh
Ġml rd
ĠSerg ey
razi a
7 0
G ap
O lim
h an
q ligi
ĠY ulduz
Ġkir iti
Ġ4 3
liy ev
sen ariy
Ġyumsh oq
T er
tir adi
Ġay lanishi
Ġlavozim ida
Ġanti oksidan
g en
Ġor ol
Ġodam larni
c i
Ġt he
Ġs en
ĠP fizer
Ġfaoliy atiga
Ġsahif asida
Ġprof ess
Ġport lash
Ġshik oyat
Ġstat istika
Ġug levod
Ġ larda
Ġde leg
ĠI b
ĠN az
Ġqilin moqda
uh rat
ran t
Ġmus ob
E S
U lardan
a cker
Ġn aq
Ġqo chib
Ġter ining
Ay nan
Ġmul tfilm
ĠNur man
Ġprokuratur asi
w ays
y ili
Ġhisob idan
Ġtush di
Ġmahsulot larini
Ġur ingan
ayev a
Ġmer os
Ġvazir ining
ĠSh arq
tkaz ilishi
Ġkech ki
Ġchora larini
Ġtarq aldi
Ġnon ushta
Ġsh ish
Ġhafta da
stra liya
Ġtaraqqiy ot
ifeh acker
y ul
in lar
ĠI stanbul
Ġre ak
Ġsoh asidagi
Ġqaram asdan
T ech
r ug
Ġp ir
Ġvaksin asini
Ġyop ish
ĠAbd ulla
Ġhik oya
Ġb rifing
Ġbir iga
iya lik
ng illi
Ġqay nat
Ġjang ovar
k rak
Ġy as
er ga
ĠM o
Ġet ayotgan
Ġim tihon
Ġsur ishtiruv
Ġasos langan
ĠA ziz
Ġ4 6
sk ar
ĠKor ey
Ġfon ida
Ġraz ved
R espublik
Ġs p
Ġxizmati Foto
Ġhayot ini
ay i
aq iq
Ġoy larida
Ġkish ining
erik aning
bir iga
Ay ol
Ġust un
Ġishonch li
Ġrus umli
ilgan ini
Ġkerak ligi
rsat ki
Ġyaxshi laydi
Ġme xan
Ġmak iyaj
ĠX iaomi
Ġyubor di
Ġmul k
Ġkelishi b
im iy
en si
Ġkun duz
ĠB ol
ĠB ob
Ġnom idagi
Ġnam un
Ġfar mon
Ġmuassas alari
Ġes ki
Ġinfeksiy asini
Ġaerop orti
Ġmuola ja
i ka
es sional
Ġqarshi lik
Ġim tiyoz
Ġrek lama
M uz
Ñ Ĥ
Ġb ev
Ġm akt
Ġs a
ĠK am
ĠQ ar
Ġxodim larining
Ġketgan i
zgar ishi
Ġbo sib
Ġdar ak
Ġtajrib a
b aho
Ġ Ġ
er ni
Ġmatbuot i
Ġsho u
Ġchaq aloq
m os
20 22
ĠL e
Ġxal os
Ġkurash da
oniston dagi
Ġtasdiq ladi
s asi
s ev
lan a
Ġke chik
ĠG razia
ey k
Ġming lab
Ġsur ati
Ġish ni
ad ro
Ġfoiz ini
Ġtez da
Ġvaziyat da
Ġnoq ulay
ĠAir ways
z iya
Ġsin f
Ġsavol ga
Ġres urs
ta j
Ġbosh dan
den t
Ġkasal xonaga
Ġ5 4
Ġ4 4
Ġmuh it
Ġsot ish
lantir uvchi
ldir ish
Ġok tabr
Ġkengay tirish
e da
Ġx ab
Ġish laydi
Ġchi p
sim al
H ay
Ġboshqar ish
Ġaytgan di
Ġeksp er
F ran
f aks
tir di
Ġ4 7
Ġaralashtir ing
b iz
iy asini
er v
oda tiy
Ġkons ert
O dam
S t
l or
Ġu sk
ĠK ong
Ġ4 9
Ġtak omil
imiz ga
Ġf evral
ĠT IV
rt ta
Ġqat lam
Ġhuquq lari
Ġ25 0
Ġati gi
uman itar
Af g
N amangan
k um
sh un
Ġx ush
ĠM ax
rsatki chi
H uj
Ġish langan
Ġi sit
iyat ini
Ġre anim
Ġoshir ishga
xona lar
Ġozod likdan
Ġp lastik
Ġgi per
Ġtaraf dor
la st
oh ir
Ġga v
Ġkech ish
Ġajrat ilgan
Ġyetarli cha
Ġepide miya
Ġtariq asida
Ġtashab bus
f a
i x
p ed
y un
âĢĿ )
et er
Ġ5 5
Ġuy ga
Ġsur atlari
Ġkuz ati
K am
sh ilgan
Ġy ara
al ok
Ġviloyat da
Ġtor tib
n e
r uh
an aviy
ov aning
Ġhaqiq atan
Ġkal siy
q ishga
an s
lgan di
Ġyaxshi lash
Ġul kan
ilon zor
ĠBerdimuham edov
A A
Ġli t
Ġy ey
Ġv oyaga
Ġish la
rsat ma
Ġharbiy lari
ĠCh en
Ġpoy tax
Ġmin eral
Ġvoqe alar
Ġsalomat lik
Ġaz iyat
Ġqilish ini
Ġbar po
rt inchi
Ġar ti
Ġiz oly
Ġkiyim lar
Ġxon im
J SST
r mon
iy og
Ġbo si
Ġu rinish
Ġfilm idagi
Ġ201 6
Ġchar choq
Inter faks
Ġdiq qat
J umladan
Ġk v
ĠT om
Ġtur i
Ġishtirok idagi
ĠKan ada
S ay
Ġk eksa
Ġsaq lanib
xt iy
Ġsar iyog
Ġbiz ga
Ġbuz gan
Ġaloqa dor
ĠT esla
Ġf akt
Ġber magan
Ġch arter
Ġqur ilgan
Ġega si
p r
ga z
lan sa
ĠF in
ĠL iv
dar mon
Ġodat da
Ġmusi qa
ishi dan
ĠR ob
ĠSh oh
Ġkasallik ni
Ġtavsiya lar
Ð µ
Ġt al
ĠB ar
st lik
Ġbuy rak
Ġaholi ga
Ġmuammo larni
Ġfoydalanish ni
Ġmuassas alarida
Ġtort ish
st rat
Ġtaq sim
Ġich ak
Ġyoz ilgan
Ġbelgi landi
Ġxat ti
Ġprot s
I M
T ok
ĠSur iya
Ġkaf olat
b ag
l od
Ġharbiy lar
Ġturmush ga
elosi ped
T ramp
Ġk if
ri ka
ĠToshkent dagi
Ġshifokor ga
E ron
t epa
um iy
shi g
illi q
Ġdast lab
Ġfon di
Ġprog noz
Ġu chib
av er
en ta
Ġtar qa
Ġdol zarb
min laydi
Ġdavo lanish
sun g
Ġkif oya
Ġs senariy
Ġbo d
as ul
ri ladi
Ġqay tib
Ġhamkor likni
p h
la v
Ġuch ir
Ġtayyor ligini
qin lik
Ġshtam m
G o
K im
l sangiz
ok iston
ĠB r
uk um
ĠG ul
ĠE s
ĠL o
Ġkut ilmagan
Ġdaraja dagi
shi ladi
Ġf ol
tir ishga
oj a
Ġmas t
Ġjavob an
Ch J
lantir adi
Ġraq ob
Ġmush ak
Ġbren d
O r
lan d
ĠM on
Ġolgan da
Ġaks incha
Ġmashhur likka
Ġhududi dan
q im
iy oz
tibor ingizga
nalish ida
N N
c etti
Ġg r
Ġsif atli
Af suski
K ompaniya
j el
il g
Ġy adro
ug ur
As lida
Ġkisl orod
tran sport
g iy
l moqda
sh o
de l
ib ir
Ġay lanadi
Ġtush adi
Ġmuxlis lar
Ġprofilak tika
sh ing
Ġf otos
ari f
tkaz ishga
ĠBux oroda
T he
tir of
Ġbor icha
Hozir gi
ĠF er
Ġatrof idagi
ĠAndijon da
Ġminta qa
q ani
Ġm oda
Ġs ektor
ash ina
Ġhudud lar
Ġavtomobil lar
Ġqalam pir
ek tar
Ġd er
Ġg ripp
Ġga cha
Ġsay r
Ġtomon dan
Ġoxiriga cha
B elarus
r ilgan
Ġtash uvchi
ĠG ala
Ġuy ida
Ġolingan i
Ġiq lim
Ġsht abi
im aga
Ġsh arq
Ġso xta
Ġmunosab atlar
shun os
si k
Ġp ozit
Ġmar hum
Ġayol ning
Ġviloyat larida
Ġye gu
Ġfarzand lari
Ġsinov dan
let chat
d od
r atsiya
Ġbi la
Ġyil larda
sk aya
Ġyop iq
Ġaksar iyati
Ġspir tli
Ġ eri
om obil
Ġf ax
Ġol ma
ĠI spaniya
Ġ5 9
Ġmunosab atlari
Ġavtom ashina
Ġkirit di
Ġenerg iyasi
ĠUl ug
Ġbev osita
i o
ĠM ChJ
Ġg ektar
Ġqilish dan
mi ta
ĠL ifehacker
egi k
Ġy alp
Ġish ini
Ġay lanib
rgan izm
Ġmur ab
Ġshun cha
Ġnima lar
ir usi
Ġqil sa
Ġik kala
ĠToshkent ga
ux um
Ġman a
e in
l omat
ar biy
as a
ta li
Ġtizim iga
Ġmux olif
Q ashqadaryo
Ġsabab chi
Ġ5 3
pa ce
ros sov
Ġmintaq aviy
asad di
b ayev
k ul
k rin
ish ning
Ġda f
Ġ4 2
Ġing liz
Ġh addan
Ġholat ga
iyun da
Ġmunosabat da
Ġtarix i
d er
cha da
Ġke ma
os an
ĠI k
Ġqur ilishi
Ġtuz ilgan
Ġvaziyat lar
Ġinsp ektori
Ġshoshil inch
J o
f an
at ining
os ining
Ġda h
ĠT oy
mon ov
Ġold ingi
Ġbah or
ĠUkrain aning
Ġqav atli
Ġfuqaro larni
ard er
mir lash
ĠUsmon ova
ĠLa cetti
Ġyom g
Ġish lati
Ġfuqaro larga
Ġyon ida
Ġbosi mi
y od
Ġxizmat lar
est erin
Ġmaslahat chisi
Ġmev alar
Ġbuyur tma
vor og
Ġsabzav otlar
Ġdezin feksiya
M ak
O dat
Ġsuv ga
Ġayt ish
Bux oro
r et
ur iy
Ġp axta
Ġmasala lar
Ġayb lov
Tad qiqot
enni fer
p ur
u a
Ġet ishni
ĠY unus
Ġxulos a
ĠUkrain ada
ĠUz Auto
n am
Ġ ir
Ġb et
Ġtar g
Ġmar osi
ti ladi
ĠY e
ral gan
Ġxara j
Ġxara jat
Ġprov in
Ġ ash
Ġq ad
ilgan da
ĠK XDR
ik Tok
ona lar
Ġjar roh
Ġkuzat ildi
Ġtopshir gan
Ġahvol da
l yan
Ġbi lim
Ġish larni
ĠJ am
Ġmarkaz lari
ĠW day
tom ir
x y
Ġuch ragan
Ġ5 7
Ġost idagi
Ġayti lishicha
s qinlik
li dan
tir uvchi
uv chan
Ġhisob lash
iyul dan
Ġtushir ilgan
Ġhaj m
Ġsuyuq lik
ardob a
M ay
a ch
l os
r ist
r ux
rit aniya
qon simon
Ġyon dash
Ġpoytax ti
S uv
Ġh ash
am in
Ġr ub
ĠI l
ish loq
Ġs il
ay ib
Ġr esp
Ġber gani
Ġav lod
Ġosh ishi
Ġmaq om
Ġsot uvga
Ġaktyor lar
Ġmansab dor
F arg
Ġb en
Ġzar ba
Ġst av
Ġv elosiped
ĠI lon
Ġrahbar iyati
Ġkosm etik
la sa
Ġko f
Ġsh arb
ĠB ah
Ġfoyda lanib
Ġqilin adigan
Am erika
Mar kaziy
Ġshirin lik
B utun
Y aqin
el ektor
ĠU y
Ġyar ash
Ġtalab alar
Ġfilm lar
Ġkim yoviy
Ġbajar ish
E k
H atto
c o
ĠA J
Ġsam oly
Ġvaksina lar
Ġhaf t
Ayni qsa
Ġamaliy ot
Ġkuchay tirish
Quy ida
Ġdin iy
Ġdiplom atik
F P
d rom
Ġjoy ladi
Ġdavr da
Ġsoch lar
t ka
iy asining
Ġta f
Ġvosita larini
Q ay
S ar
Ġv atan
oy asi
Ġx itoy
ĠD amas
Ġ6 3
Ġxodim lar
urs and
Ġanj uman
T ez
k lar
tir iladi
ĠX o
em pi
man d
jon ov
In stagram
Ġmuddat li
Ġimkoniyat ini
Ġs ari
ot e
Ġuch ra
Ġ1 20
ĠN ew
Ġodam larga
Ġist algan
201 8
Ġimzo ladi
Y uz
y og
z A
ati v
ĠO b
Ġkasal xona
Ġ19 7
Ġshahri dan
Ġtarkib iga
Ġnarsa lar
ĠQur olli
B C
Ġqo sh
Ġ5 8
Ġmar ka
Ġaniqlangan i
Ġvit se
Ġraqam li
Ġo i
Ġer it
Ġbelgi si
Ġfilm da
ij oz
onun chilik
Ġsu per
K atta
t oni
x at
la gi
lar siz
Ġbor ishi
Ġchiq ishga
Ġamal dor
ande miya
Ġmuhok am
Ġsol ing
Ġaviak ompan
Ġmutla qo
d din
n iya
y adi
at larini
ek shir
ra dan
it al
may miz
ĠJ ek
Ġ5 6
lantir ishga
Ġorganizm ga
Ġpas aytir
Ġz ahar
Ġmas kan
Ġyangi lik
Ġmun osib
Ġdaqiq aga
Ġyakun iga
Ġpech da
Ġjavobgar likka
H ech
Ġh ind
ot ik
Ġham isha
Ġim p
Ġkel tirgan
Ġur ug
Ġhayot da
Ġraq ib
Ġoyi dan
ĠQashqadaryo da
Ġijod kor
Ġmarosi mi
Ġma la
Ġtush ish
maslik ni
Ġmashhur lar
xtat ib
Ġqand li
4 5
y ar
Ġb loger
Ġber a
Ġprezident ining
In son
Ġtarqali shiga
Ġmuxlis lari
Ġno odatiy
Ġqimmat baho
ĠQodir ov
E r
Ġet tirish
Ġjoy iga
Ġishtirok chi
pay ib
Ġbayonot ida
Ġkompaniy asining
Ġmamlakat larda
Ġbildir ib
Ġlaborat oriya
m oli
m ers
Ġy aq
de s
Ġj uma
Ġbir lash
Ġvaqt ning
Ġyoz uv
Ġorganizm ni
ĠArabiston i
ar chilik
al ol
ĠB loomberg
ĠS u
Ġdav ri
ĠK obul
Ġshaxs larga
Ġshakl da
Ġziy orat
ĠOr tiq
Q ora
S ud
l cham
z atsiya
la magan
Ġuch ast
Ġhisob laydi
Ġbah s
Ġqoldir gan
Ġqir ollik
mers ant
A b
Ñ ģ
ĠK omil
ro p
Ġkir ishi
ĠL ondon
ĠV ideo
Ġ6 00
Ġ7 3
Ġegal lagan
Kom mersant
Q an
or j
ĠR ed
ĠP ress
Ġ6 6
Ġom il
Ġayb dor
Ġkomis siyasining
Y a
l ning
u qaro
Ġo layotgan
ob ili
avo di
Ġtir noq
V a
am p
Ġx ursand
ĠA sh
ĠB ek
Ġyash aydi
Ġqu ti
Ġbudj eti
Ġtam om
Gaz eta
eter burg
Ġte atr
Ġtop ildi
Ġvide os
Ġcha p
Ġson ini
Ġtelekan al
an iyaning
Ġu larda
Ġd ok
Ġoy dan
Ġ7 7
Ġelektr omobil
Ġkomp yut
ashin yan
Ġzirav orlar
Ġkun gacha
Ġbu g
Ġtur ar
Ġqur olli
Ġxodim lariga
Ġbino an
Ġfarq li
Ġsolin adi
Ġpak et
g ent
gan dan
lash dan
Ġham m
Ġd ron
ari j
Ġas al
ĠF ed
Ġqol gani
rinbos ar
Ġham shir
ĠA t
N ash
ak o
uk us
Ġrasmiy lari
Ġbaxt li
Ġkelajak da
s ning
Ġqo dir
Ġjoy ga
Ġjang ari
Ġretsep t
Ġtasvir langan
ar masi
it tifoq
Ġish laydigan
oli da
ĠK ol
Ġme ning
ly atsiya
As osiy
Ġbo laning
Ġsh ov
Ġolgan lar
Ġme ga
tar ilgan
ĠQur bon
ili t
lgan ligi
Ġkam era
Ġzar b
sir ini
Ġtut ish
Ġkompaniya lari
Ġmak simal
Ġyuri dik
Ġqil inib
ĠO TM
Ġ19 6
larimiz ni
Ġnor mal
E m
p langan
s mir
Ġk letchat
on dent
or is
oli q
ĠSh vetsiya
Ġ7 2
Ġloyih asini
oniston da
Ġprof essional
Ġtran sp
Ġdip lomat
q qiz
us n
Ġz avodi
ich kin
ĠMirziyoyev ning
Ġmeh n
Ġbuyur gan
Ġidor asi
Ġtariq a
ĠK enga
Ġra di
Ġqur b
Ġsin ab
Ġvazif asi
b ass
Ġg var
Ġek st
kor lik
Ġkech gan
ĠKar imov
nov atsion
Ġshub h
il masa
Ġx iy
ax shi
Ġz anj
Ġdaraja ga
Tad bir
ma ga
Ġholat ni
Ġkal tak
Ġuchrashuv da
q qa
t en
y ini
Ġm ijoz
ĠO y
Ġyosh gacha
Ġvaziyat ga
Ġkon t
Ġpasay ishi
Yevro pa
Ġqot il
O skar
la tadi
Ġber maydi
Ġto b
Ġbar ibir
Ġtadbir lari
Ġishlat ish
ar x
ir a
ada l
Ġbar moq
ĠZ o
Ġqiy mat
yx atiga
AQSh ning
Mosk va
Ġbrifing da
Y ulduz
t ov
ĠT og
Ġhay rat
Ġkuzat uv
ly uk
Ġyot oq
Ġbur un
Ġqul oq
Ġxab ariga
Ġsharb ati
z larini
in ni
aq ti
ĠD mit
Ġmas sa
Ġsiz ga
201 7
Ġmet ab
Ġrejim i
Ġinsp ektor
Ġruh iy
Y ig
b oyev
Ġav j
Ġchiqar gan
kid lab
Ġxavfsiz ligini
Ġkim ga
Ġdir ektor
Ġsum ka
Ġshtam mi
Ġxol esterin
A h
i di
ek siyasi
ĠB en
yil dagi
ĠSh t
Ġoshir ilishi
Ġbemor larni
Ġye chim
Ġmutaxassis lari
Ġqila man
Ġmag niy
Ġstrat egik
k en
Ġaniq ladi
Ġoshir gan
min ot
Ġemas ligi
Ġtalab lariga
Ġvide oni
Ġtopshir ish
ĠMe gan
Ġta ga
Ġkam bag
Ġ9 7
Ġtek is
Ġmut asaddi
Um uman
m asida
n lab
la jak
on ning
as miy
uv or
ok ori
ĠG u
ĠRossiya dan
Ġkarantin da
Ġsud ga
iy undan
Sh ah
Ġor tib
Ġket ma
Ġavtom obili
xsh aydi
Ġtashx is
vali ga
Ġshub ha
Viloy at
G erman
da si
ma da
re d
oli z
ĠD a
id er
Ġsar oy
Ġom bor
ĠMak ron
Qiz il
Ġdoz asi
K e
Ġn us
Ġbi lib
Ġkor onav
ĠQ rim
sat dan
Ġsabab lari
ĠSh ar
Ġoy da
Ġun chalik
Ġ8 5
Ġur ushi
Ġne ga
Ġjaz osi
uf uz
z lab
Ġva h
ĠA mir
Ġbuz ish
Ġoch ish
Ġprokur or
Ġmexan izm
Ġm ish
ĠT ikTok
st lar
ik tor
Ġaholi sining
xtat ilgan
Ġbosqich ma
Ġora lig
Ġelchi xonasi
ĠMay kl
ĠQar shi
Ġraqob at
m ed
u ga
at ilib
ta lar
yil gacha
ech ak
Ġqiy of
tif ik
Ġmik ro
Ġtran s
lq op
Ġvideos elektor
f x
Sh ahar
ĠM un
lgan da
Ġet ilmoqda
og en
ĠD ep
ĠJ an
Ġshif okori
Ġshun chalik
Ġban di
Ġust uvor
Ġtadbirkor lik
pace X
Nash r
Ġo tish
Ġo chib
dan iyat
Ġqay n
Ġli tr
H indiston
il la
Ġyur t
min oti
ayt un
Ġvirus ning
Ġetadi gan
Ġust oz
Ġmoj aro
avf sizlik
Ġmarka ziga
J am
K A
K on
R ossiyaning
b ob
q otgan
ĠA x
tkaz adi
Ġim koni
Ġ6 1
Ġnom langan
obal t
Ġasorat laridan
Ġalomat lari
M is
l erg
im ga
Ġhaq orat
Ġqilin ayotgan
Ġmuddat da
ĠBritaniya da
Ġzav od
Ġmini mal
ir chiq
dan i
ĠA FP
el in
ĠG ur
ĠQ onunchilik
Ġkom bin
Ð¾ Ð
P eterburg
il zila
Ġber ishini
Ġhududi dagi
Ġerkak lar
Ġrejalashtir moqda
C OVID
S al
V irus
m asidan
Ġt ij
Ġajra lib
Ġo mad
Ġj anub
ĠM an
Ġtan qis
Ġku ti
Ġdey ish
imiz ning
H ukum
b es
Ġp ol
ev r
Ġg ub
Ġkeyin roq
Ġavtom ashin
ĠCosmopolitan Foto
Ġnuq t
ĠPol sha
Ġkommun ikatsiya
k ol
p iya
q ay
t ilgan
Ġv iz
siya da
kin s
ĠP okiston
Ġqay erda
Ġdi sp
ĠAbd ur
ĠGala xy
at siyani
as ta
Ġbelgi lab
ĠCh ilonzor
Odat da
9 0
h od
q ima
ar iya
Ġn ogir
Ġn ufuz
Ġde gani
ey s
Ġloyih alar
Ġlavozim idan
ĠAn d
Ġoyi ga
Ġanti tan
Ġxol os
r lik
ar on
ch il
af sil
ub ay
Ġprofilak tik
Ġtizim ida
ust am
yx ati
Ġbos tirib
Ġkomis siya
Ġdeput at
Ġqurbon lari
Ġlay fx
ĠB raziliya
ĠJ ey
Ġdol lari
Ġsal oh
Ġtashkilot lari
Ġsol ingan
Ġbin osi
k u
lik larning
Ġp ora
osh lar
magan ini
Ġchiqar ishi
Ġ201 4
Ġsah na
C o
Ġuch rat
Ġber ilmagan
Ġyuq tirgan
Ġ201 5
oniston dan
ĠRespublik asida
ĠTay van
M illiy
Ġke tib
ĠM oliya
ligi cha
Ġol madi
Ġjoy i
kid laydi
rash uv
Ġfoydalan ing
Ġvakil larining
Ġqisqar tirish
Ġniyat ida
P andemiya
ta h
Ġp og
Ġho jat
Ġbergan di
mat sev
Ġdoim o
ĠBayden ning
tadbir lari
ĠJon son
O xir
T om
Y apon
Ġa dolat
ĠU ch
Ġtan lagan
Ġboshqa cha
zgar ib
olog lar
ldir ib
arder ob
3 5
z oy
Ġso lig
ĠTurk iyaning
arb ar
Ġtun gi
Ġsavd osi
v ok
Ġv an
er ning
ak a
Ġto k
Ġmamlakat ni
Ġgap irib
Ġqaytar ib
Ġkol le
Ġgapir di
Ġahamiyat ga
ziq or
Ġtransp orti
L oyih
N ima
k aning
Ġb ildi
Ġv at
ob el
ĠT a
Ġoq im
Ġetilgan i
Un dan
Kar antin
yna gan
H olat
V az
Ġm ot
lari cha
ol gan
Ġj adal
kon g
Ġ9 5
Ġat agan
O liy
e op
l li
l lagan
di l
ĠA li
ĠI roq
Ġholat ini
Ġtik ilgan
aliy ev
lash gani
op kins
Ġnom in
Ġajrat ib
Ġtaqiq langan
Respublik a
ĠDmit riy
o ki
Ġt at
ĠJ ap
Ġkerak ki
Ġak t
Ġ4 1
ĠV en
Ġfoiz gacha
Ġqanday dir
Me h
Ġasos lanib
Ġnatij asi
Ġinfeksiy asining
ĠSher zod
Ġfili ali
D av
s ekin
Ġq omat
as an
ĠN ar
ĠC obalt
em b
Ġ6 7
uj et
Ġel ement
Ġavval o
Ġgav da
ab bat
Ġa udi
Ġodam ning
Ġtez likda
Ay rim
xan ov
Ġista gan
3 7
I m
Ġi xtiy
ĠY ork
Ġsab oq
ĠQ osim
Ġyaqin idagi
ĠTurk iyada
Bun i
ess uar
Koronavirus ga
Ġantioksidan t
Ġmusob aq
Ġk las
ĠT i
Ġhaq i
Ġbor di
Ġchiq indi
Ġob ra
Ġyak ka
Ġalmash tirish
z iy
Ġt orti
ĠR iz
Ġu kraina
Ġbir ining
ĠT rav
Ġor asidagi
ĠL it
Ġtizim ining
Ġkuzat ilishi
Ġmasala sini
Rossiya da
Ġkompaniya lar
Ġbuyur di
9 9
U larni
im on
Ġmu qa
Ġjam iyati
Ġ7 00
Ġasos siz
Ġteri si
Ġ c
Ġb aq
Ġk rossov
Ġy el
ĠB AA
ĠSam sung
r ishga
z ingiz
lar aro
ir ator
un ar
Ġtur adigan
Ġqilgan ini
Ġyash il
Ġeti ladigan
shiq chi
Ġsah n
Ġmajbur iyat
llan ilgan
Ġidish ga
Ġmil lat
Ġdah sh
Ġham roh
Ġg umanitar
ĠI m
rsat ishi
Ġar af
aprel dan
Ġyili ga
Ġdush man
j iz
k el
ch asiga
ch irib
lash da
Ġkuch ga
ĠXitoy dan
Ġmuassas a
ĠNA SA
Uch rashuv
ĠMin sk
Ġj as
el sin
Ġetgan di
Ġre al
Ġqiz ar
Ġaj r
Ġkech ishi
Ġv ert
oq lar
ĠU mar
Ġkam pan
Ġetgan ini
Ġminnat dor
Ġx oli
oz lik
ĠB el
ĠG arri
rin ishda
Ġqiz ning
Ġmiqdor dagi
Ġajrat ish
Ġalma shin
Ġshar bat
ĠAv straliya
Ġisloh ot
lq ini
tash am
Ġbat afsil
Ġb ilgan
om iy
Ġx ala
Ġet ilmagan
Ġkir i
xt ab
Ġtug at
aks ina
ĠKap ur
Ġyut uq
P oy
f et
g iya
j an
on kong
zi k
Ġch empi
Ġchiq qani
gun ga
Ġnatij ada
Ġhav oda
Ġprots ess
ĠP ashinyan
ĠJ en
Ġ5 2
Ġmanz il
Dast labki
Mash hur
N A
la mi
Ġh ov
âĢĿ /
ĠX ol
Ġchiqar ishga
abi iy
Ġhayd ov
Ġxususiy atiga
Ġfikri ga
ab ilit
Ġ100 0
Ġyoq im
Ġlibos lar
A QSH
n ab
om iddin
ov on
Ġj ad
ul lanish
Ġtash ish
ĠR o
Ġyil gacha
ĠCh irchiq
Ġtartib ini
Ġvirus ni
y am
Ġkun ida
Ġtaq ish
Ġsuv da
Ġorganizm ning
Ġyakun iy
par k
Ġtakomil lashtirish
Y og
h t
m s
Ġt ing
on ov
ak am
Ġr oman
Ġyordam i
ĠH ay
Ġmuz ey
sin f
Ġqaytar ish
Ġprofess or
lashtir gan
Ġsif at
Ġagent lik
Ġeshi k
Ġtomoshabin lar
I ta
e j
ĠS ev
re sp
Ġxabar dor
Ġosh xona
Shun da
Ġ w
Ġp esh
Ġoq sh
Ġchalingan i
Ġser tifik
ĠYunus obod
B el
Ġol inib
Ġsabab dan
Ġel chisi
Ġshaxs an
Ġshaxs ga
Ġsharoit da
Ġbesh ta
Ġux lash
ing archilik
Ġto la
lim ga
Ġis m
qu ire
Ġzi d
Ġdemok rat
Ġresp irator
O rganizm
ĠS er
od yus
ĠC NN
Ġuy dan
Ġqilin magan
Ġyar mi
Ġmur oja
Ġmaz mun
nalish da
Ġkol l
Ġbuyum lar
Ġr am
ĠR os
Ġyaqin da
Ġvaksin asining
Ġchaqir gan
Ġodat iy
Ġidor alari
Ġstan siya
a lib
Ġb yur
Ġd ram
oz an
ali t
tkaz ilmoqda
Ġtush ishi
Ġfuqaro lik
Ġpish irib
Ġbur chak
odi sa
Ġdush anba
Ġhash am
N av
Ġf as
ĠR asul
Ġtop di
Ġyash irin
rgan ch
lam chi
ĠOtabek ov
parvar lik
Ġusk un
m uh
v ey
z larining
in ot
Ġish layotgan
Ġg e
Ġte p
Ġqiz lar
Ġkishi lar
Ġ7 6
Ġbiri dir
Ġbos qi
Ġxorij dan
Ġinfeksiyasi dan
Ġmudda o
Ġkengash ining
Ġsayt ida
3 1
O radan
q tisodiy
x abar
on da
Ġy otgan
ti miz
iston ning
Ġsan o
oda t
iyul da
Ġmaj lis
Ġtah li
Ġmehmon xona
Ġbor ilayotgan
ep idemiologiya
Ġyetkaz ilgan
Ġban an
Ġmet all
eli zav
ĠMoskv ada
f i
l u
Ġh az
Ġet il
ĠB ax
Ġjar imaga
Ġaktris asi
Ġtarq al
Ġqor in
ĠDon bass
Ġpo lik
Ġlit sen
ĠLifehacker Kerakli
zoy n
J anubiy
f oga
Ġt en
kat lar
ĠJ orj
Ġak tiv
lov lar
ĠH opkins
Ġsay langan
Ġket moqda
ldir ilgan
Ġshifo xonada
Ġimzo langan
Ġidor alar
Ġmavsum da
Ġdalil lar
ĠTer miz
Ġs ug
er n
Ġx ar
ta qil
Ġso dda
ĠI r
ĠP ekin
tkaz ishni
Ġ7 8
Ġayol larga
Ġaks essuar
ĠYevro ittifoq
Ġhukumat ining
Ġunut maslik
Sab abi
ĠFin lyan
Ġanjuman ida
r di
ak ar
dagi lar
Ġ6 8
Ġoshir ib
Ġegal ladi
M aktab
T osh
q or
s om
y maslik
ut ur
Ġtar zi
lishi dan
Ġni h
Ġre abilit
Ġqis man
Ġaktyor lari
Ġodat dagi
Ġno zik
ĠEs quire
Ġmurab biy
Ġkompyut er
X o
ĠK eyt
Ġtasdiq lagan
Ġmavsum ida
K ech
N am
chi larni
ĠL i
Ġkelgan i
Ġoldi ga
S a
Ñ ĥ
Ġsuy ak
Ġuniversitet ining
Ġstat istik
Qar or
r s
r ot
Ġk uk
at kor
ol lar
Ġish lariga
ĠB urak
Ġas ta
kid landi
Ġbun da
rta larida
Ġsinov lari
Ġmayd oni
fer ensiya
Ġseriali da
Ġqidir uv
O qib
ov na
im dan
Ġz on
Ġbuy uk
Ġfilm larda
lantir gan
Ġmaktab lar
Ġhuquq iy
Ġboy ligi
Ġogohlantir di
Ġqurit ilgan
enta gon
oq li
ol di
ob ot
Ġish lashga
ĠP arij
Ġjoy lashtirish
ilm adi
Ġidor a
Ġden gi
Ġshim oli
ĠAh mad
Muh tasham
Ġaraf asida
e di
z and
it uriy
Ġich idagi
Ġharakat lanish
Ġshaxs larning
Ġgur uch
SS V
ĠSurxondaryo da
Vazir lik
Ġkul gi
ichkin a
m ul
li sida
iy asiga
Ġj oiz
ul langan
Ġqilish ning
ĠY us
Ġyor ug
19 8
tar tib
Ġsam mit
Ġmuhim dir
lo lat
rnat ish
Ġqahram oni
Ġxur uj
F or
T ojikiston
aq t
Ġol ov
Ġkor xonasi
oh id
Ġni zo
Ġolish da
Ġqarat ish
ĠAm erikaning
Ġsho x
ituriy ent
n oda
Ġb ada
Ġqil moqchi
Ġtur ishi
ĠD ubay
Ġqilin sa
ĠMar k
avgust dan
Ġxususiy atlari
Ġtam oy
Ġang latadi
Ġtashab bu
Ġakt yori
E n
b ay
ay ron
Ġda lolat
ali for
ĠP it
ĠD ev
Ġjoy idan
Ġayol larning
Kor resp
Ġfun k
Ġrais ligida
qur un
ĠD XX
Ġchiq ildi
Ġsar iq
Ġyetkaz ishi
Ġnarsa larni
xta lib
Ġbiror ta
Ġqamoq qa
matsev tika
P utin
Z ar
i an
Ġmu diri
ori dan
ĠN ukus
shin larini
Ġimzo lagan
Ġbren di
ef f
S port
an ka
Ġo smon
qar shi
Ġz im
Ġl oy
ez os
xon asida
Ġkiy inish
Ġes lat
Ġort da
ĠAleks ey
Ġgvar diya
Co V
Korresp ondent
g usi
r oni
Ġk aliy
ti g
ĠR ustam
Ġtur lari
ad da
Ġist am
Ġur g
radi gan
Ġnatija lariga
Ġeshi t
Ġjurnalist lar
inga pur
AR S
usn buzar
Ġt vorog
at larni
om ur
Ġx otini
Ġn ot
it or
Ġchiq ishni
Ġyash ab
Ġnarx lari
aygan lar
uly ator
Hukum at
F a
Ġx ay
Ġbu larning
Ġbola larni
Ġqonun chilik
uli ston
Ak s
Ġtushun tirish
Ġstandart lar
: âĢľ
q ini
Ġb ax
Ġp uli
Ġsh af
Ġyordam ga
Ġre z
Ġyoz di
Ġvirus ga
Ġnazorat ga
Ġkompl eks
k om
n aviy
v aqti
at larga
oq ov
Ġso atga
ĠP ot
yo ki
Ġsif atini
Ġbajar uvchi
Ġkasallangan larning
Ġenerg etika
ĠNATO ga
Ġif oda
O KA
V oqe
X alqaro
o id
p aydi
Ġq az
ov ul
Ġke masi
langan lar
ĠK er
Ġjoy larida
tar ilishi
Ġmuv ozan
Ġkon stitut
Ġoch ilgan
Ġpoli t
Ġof is
Ġdeput atlari
omiddin ova
D em
v in
ĠS ob
es k
ja lik
Ġtaq qos
Ġhayot dan
Ġdaqiq ada
Ġerish di
Ġendi likda
rem l
ĠRah mon
T uxum
q atga
on ni
chi lariga
âĢĻ ,
Ġma lika
dir ib
Ġat ir
Ġbiz ni
Ġyetkaz gan
Ġaxborot ida
Ġhuquq i
pi ada
ĠPh otos
M at
Q ah
ir ma
Ġan d
Ġsab zi
Ġsaf arbar
r ishi
er atsiyasi
ek und
od er
Ġkel maydi
Ġ8 00
Ġar miyasi
Ġaktris aning
Ġtili da
Ġaviak ompaniya
Ġadabiy ot
Q olgan
ĠM eh
Ġin sult
ĠG lobal
Ġqon dagi
Ġshahar da
Ġayt ilmoqda
Ġter iga
Ġrahbar lik
Ġtanish gan
rg at
ĠRob ert
Ġpolik lini
o od
ay yan
ĠT an
ĠS ardoba
Ġbor adagi
Ġkir di
Ġyuz lab
Ġamal da
Ġsif ati
Ġmiqdor ining
Ġorganizm dagi
Ġbez ov
Ġsutka da
Ġuzun ligi
Ġrazved ka
R o
j o
m gacha
r og
chi larga
Ġp rin
Ġke sish
ĠT ransport
ĠS tar
Ġay lanish
Ġqar ama
Ġ20 00
Ġyar m
Ġchora larni
Ġkelishuv ga
Ġfax riy
sh adi
adi iy
Ġham on
it an
bek ov
liy aning
Ġvazirligi ga
Ġdavo lanmoqda
Ġser v
Ġad vok
Ġprokur ori
Ġmega pik
b ang
on ent
ĠN et
Ġchiq iladi
Ġoshir ilayotgan
Ġxizmati ga
lam li
Ġter ma
Ġ18 0
amp un
Ġtu y
Ġin sho
Ġega lari
Ġmillion lab
Ġishtirok chilari
Ġyuv ib
Ġush langan
Ġmahalla sida
ĠTi xanov
M A
u el
Ġd um
Ġdav lati
es kov
Me ning
Ġmuam moni
Ġkon sul
Ġsahif asi
Ġstrat eg
Ġnufuz li
tartib ot
b oy
f f
y nash
av a
ul t
Ġkun ini
Ġmuh andi
Ġme da
Ġar iz
Ġchek lash
Ġtik lanish
Ġaloq alar
Ġqam rab
Ġjaroh atlari
Ġali ment
Ġmetab oliz
Ġtashabbu si
q oq
r as
sh on
in al
Ġy ugur
Ġn oy
Ġg arderob
Ġtu b
Ġqay tish
Ġmah bus
Ġdaraj ali
Ġpr odyus
Ġshakl lantirish
Ġinv est
tkazi ladigan
Ġqal qonsimon
Ġmoy il
Ġkoronav irusi
H T
K al
j ahon
m cha
Ð »
la maydi
ĠN obel
Ġhisob i
Ġyash ar
Ġnam oz
Ġbozor ida
Ġkan s
ĠNur mat
Ġsamoly oti
Oqib atda
bang uli
Y axshi
g er
min langan
Ġyash aydigan
var tir
ldir gan
Ġqoldir di
qiz lar
esh anba
Ġfon d
Ġmanz ar
Ġsarat oni
Ġyuqor idagi
Ġizoly atsiya
g ul
on ga
ĠA rip
Ġz ilzila
ĠV ol
Ġuz at
Ġkuzat ish
Ġtomon ga
Ġtashkilot ining
Ġqut u
An jel
Ġinvestitsiya lar
Ġbarobar ga
Ġkunduz i
A ni
s ekund
Ġq adi
il d
om ala
Ġbir ini
Ġch ida
Ġg raf
Ġis tis
Ġviloyati ga
Ġhuquq buzar
Ġrejalashtir ilmoqda
Shifokor lar
yash il
M ur
h ar
âĢ ĭ
gi m
Ġtop ib
Ġxodim larini
ĠMar kl
Ġye tadi
Ġtushir ish
Ġhodi sasi
end er
struk siya
Ġtashv ish
Ġm am
on d
al liy
Ġish lay
ĠS k
ĠP ost
Ġ6 2
Ġyoz uvchi
ĠAf rika
Xabar ga
Ġjarroh lik
J an
J inoyat
v eg
la jon
or gan
Ġf irib
ib er
et s
Ġkar am
Ġqaror ni
Ġlaborat or
Ġyod gor
mov chilik
Ġtaf sil
Ġnus x
Z R
m aning
q uvchilar
Ġp od
uv chining
af sha
Ġtuz ilma
ĠZ angi
aff us
Ġtort gan
ĠKiyev ga
Ġunut mang
Viloy atda
ĠJap arov
Ġyoqim siz
elizav eta
lar oq
Ġp ush
ĠM eksi
ĠS park
Ġhisob da
Ġfuqaro larini
Ġsoat dan
Ġnamoyish lari
Ġrak et
Ġimmunitet ni
ĠMahkam asi
Ġtarafdor lari
ĠToy yib
Ġistis no
6 5
M ax
r ishni
z chi
on iy
Ġet ishini
Ġz aytun
siz mi
Ġdar yo
ĠMar s
Ġyetak chilik
Ġfuqar oning
B ayden
o x
Ġt ren
ĠSh uhrat
Ġchiqar iladi
Ġaktyor ning
Ġodat lar
Ġtun da
Ġgen eral
zchi vit
S krin
Ġk ab
ek tiv
ka lari
yil lar
Ġal lerg
Ġqol maydi
Ġbola larga
Ġchor ak
Ġort ishi
Ġfed eral
ziqor in
Ġmegapik sel
R os
S erial
V A
p s
v id
Ġin ti
ush nik
Ġnom ini
Ġpas port
Ġgi giy
Ġush landi
Ġalomat lar
ula ziz
Qor aqalpog
er son
ah or
ĠD en
Ġ5 1
Ġsam imiy
Ġdaraj asiga
Ġil hom
Ġyon ib
Ġyop ilgan
Ġkiyim larni
Ġsiz ni
Turk maniston
Ġtadbirkor lar
Ol tin
Ġab ituriyent
io N
Ġs em
Ġs eshanba
gi b
Ġega lik
Ġij ar
Ġfilm ining
Ġmur ch
Ġyubor adi
Ġnatija larini
sentabr dan
ĠSan kt
Ġkamaytir ishga
Ġqatnash gan
Xabar da
ĠNik ol
u ft
um i
Ġf it
Ġma lik
ul otlar
ĠK al
rin ga
lashtir uvchi
Ġni z
lumot ga
Ġqonun ga
eh qon
Ġolim lari
Ġxotir a
Ġpichoq lab
Ġdemok ratik
lqin li
Ġben zin
n esi
p ak
t may
Ġv ayron
oz or
kid langan
Ġsavol larga
Ġqalb aki
da b
Ġto j
ĠT osh
Ġdav riga
Ġqur ib
ĠV iktor
kid lash
ĠAQSh ga
ton iya
Ġfarzand li
qiz il
Ġolin ishi
Ġsiyos ati
ĠNavoiy da
Ġok e
Ġnuqt ayi
Ġkolle j
3 9
T ah
b ga
e or
p rezidenti
t e
Ġk ash
is ini
lgan ida
ĠS i
ĠN ig
ĠD o
ad rat
Ġboshqa larga
miz ni
Ġvosita larining
Ġmilliard er
Ġsoch larni
ĠAbd ul
Ġmukof oti
Ġixtisos lashtirilgan
Ġtelev iz
Ġmuxolif at
Ġbada vlat
Ġ +
ram ov
lov er
Ġtan affus
ĠSh ay
Ġoshir ishi
Ġviloyat lar
Ġboshqar uvi
Ġzarur ligini
yanvar dan
vey sar
y ni
z ingizni
Ġs uz
ri gan
ĠIn ter
Ġbe g
Ġbuz ib
Ġqoida buzar
Ġvosit asini
Ġqasd dan
Ġtij orat
Ġbezov ta
ioN Tech
at ar
on om
il lari
am xo
Ġp an
Ġso us
Ġber ing
Ġvaqt ini
Ġaniq lanib
do shi
ĠPutin ning
Ġmuallif i
rans uz
Y il
Ġk lip
Ġkun ning
Ġtan tan
rsat moqda
Ġodam larda
miy asining
Ġyarat gan
Ġdori lar
egi on
M un
Y ash
Ġs el
as angiz
Ġbosh lang
ĠB ezos
Ġyangi liklar
Ġsaqlash ga
Ġkuzat ilmoqda
Ġsoh asi
Ġtopshir ilgan
Ġrang dagi
Ġhujjat larni
Ġkadr lar
ily am
ĠOrtiq xo
ĠDa ily
ĠGur banguli
F uqaro
Z am
m ud
r ilmoqda
z ali
il ler
as d
Ġuch uvchi
ĠB ur
Ġ8 8
Ġkirit ildi
Ġmaktab ga
Ġmuddat ini
AQSh da
sentabr da
Ġux lab
chiligi dagi
Ġefir ga
osan oat
K an
b ola
r va
âĢ ¦
ga b
ĠA lim
et sk
st e
ĠI XB
zbekiston liklar
Ġhuquq ini
Ġbosim ini
oder na
T uz
X uddi
ch og
Ġt iy
Ġp utur
it ish
Ġet ilmaydi
ud o
ĠP er
ĠRossiya dagi
Ġmahsulot lardan
op oliya
Ġkur s
Ġrivoj lanishiga
Ġmasala sida
Ġtasdiq landi
Biz ning
Ġqiziq ish
Ġqolish ga
K ol
i ta
ĠD av
Ġaniq lanmagan
Ġqol diq
Ġchiqar adigan
sti ka
Ġviloyati dan
Ġdaraj asida
yx atini
Ġiqtisodiy oti
Ġmashq lar
Ġsamarador ligi
xa il
Ġyalp i
Ab d
5 5
E h
E rta
N avoiy
T aq
p en
t uvchi
t ekshir
ĠS paceX
Ġ6 9
Ġnom idan
Ġtah rir
tim os
Ġaytgan da
Ġul ushi
mini strat
Ġsamarador ligini
Odam lar
Ġtal on
Ġvert olyot
J uft
ab il
Ġde mak
Ġtartib siz
Ġhuquq ni
201 6
Ġtarqalish ini
Ġmoliya lashtirish
Kasal lik
Ġbaz aviy
zoyn ak
ĠArip ov
P ol
an cha
Ġso chiq
Ġish siz
ĠB ill
Ġinf ark
Ġchalingan larning
Ġfoydalan ilgan
Ġqoida lari
ĠSa id
Ġora dan
Ġquyidagi cha
ĠTrav el
O g
ov at
ki p
ĠP eskov
Ġa ch
Ġekan iga
Ġpar cha
gun iga
Ġdastur xon
ĠMa daniyat
ĠJizzax da
Ġmarosim ida
Ġsayyoh lar
Ġfer mer
Ġmakt abi
Ġkv adrat
med ova
Mis ol
Ġbildi radi
f o
ar chi
Ġs onidan
qar uv
rin ishiga
ala ti
Ġchal in
ama gan
Ġhasham atli
K art
Q ir
om ati
ov oq
ul lo
ĠX ur
Ġ7 4
Ġinson ning
Ġgap lash
Ġtah sil
Ġtarkib i
Ġkons ent
Birinchi dan
Ol ma
ĠKomil ov
ĠPot ter
Ġnoy ob
h or
i den
n ay
sh lig
Ġmu ayyan
Ġan a
Ġissiq lik
Ġloyiha larni
Ġparlam enti
Ġ #
Ġy adr
Ġs m
Ġham j
Ġbosh chiligidagi
ĠP ZR
tgan i
Ġoshir ilmoqda
Ġis mi
Ġoz uq
Ġmarta lik
Ġxari dor
Uy da
Dast lab
Ġtabrik ladi
Ġklas sik
Ani q
m ark
lash uvi
ĠM ash
Ġchiqar di
Ġharakat lanib
ilish lar
Ġhokim ining
Ġbal l
Ġter ap
Ġmuammo larga
pay tirish
Ġsub yekt
ĠKorey ada
I chki
d lar
y uz
ul ov
Ġet uvchi
Ġodam ga
ĠAbd ulaziz
Ġyoq tir
Ġchor asi
Ġmasof aviy
Ġali f
t ex
il ov
Ġbo shiga
Ġe sk
ki ga
Ġqil dim
ĠS in
Ġtar j
ĠG ar
Ġvaqt dan
tar oq
Ġ9 9
Ġoldi dan
Ġmuvaffaqiyat ga
fer end
ĠFar hod
A d
Ġm ust
Ġx ak
Ġj oniga
Ġfoyda lanadi
lumot ni
ĠL egion
uquq iy
aff of
Ġyak shanba
Ġdastur ini
eni t
och ar
Ġyumsh at
qituvchi si
Ġminnat dorlik
ĠUm ra
T arix
Y urak
t oh
Ġt irik
Ġta dan
Ġr ul
ĠS ulton
Ġuy q
rsat uvchi
Ġishtir oki
Ġsar g
ĠII O
ĠPrezident ining
Ġarx iv
ĠNaz ar
ĠIXB T
K el
O ddiy
j en
al k
Ġf iz
Ġmamlakat dan
Ġtez ligi
Ġkelish ini
lak larga
Ġyoq imli
Ġuyush tirilgan
Ġzaxir a
Fran siya
Ġtob ora
ferend um
b od
t inchi
at ri
Ġq abr
Ġn os
Ġf ron
ech eni
Ġmaktab gacha
Ġ200 1
Ġsharoit lar
Ġkamay adi
yur ak
Ġtarqat ish
Ġyurit gan
Ġsiyosat chi
mayotgan ini
sam b
ĠMahkam asining
Mutaxassis lar
Yuq or
yar og
echeni ston
l us
Ġma osh
ĠS ARS
Ġtash langan
ĠQ iz
Ġdavlat larda
Ġholat larda
Ġfuqaro lariga
Ġmax fiy
Toshkent da
ĠBrit aniyaning
Ġkorxona lar
O v
r iya
y uy
da lik
il masligi
Ġbo lani
od diy
Ġrivoj lanishi
Ġsaylov lar
yn aydi
Ġtexnologiya lar
Ham ma
Ġfol lover
Ġmala kali
Ġnih oyat
S irdaryo
b el
l maydigan
s ing
an ch
Ġy u
Ġs k
ĠB u
Ġor tig
od ov
Ġkiy gan
ĠHindiston da
Ġfun ksiya
Ġbakteriya lar
Ġkuti layotgan
muh it
L iv
a shi
Ġb em
ti on
it y
ma zon
ĠM is
lgan idan
Ġqay moq
Ġchiq ishiga
Ġkech qurun
Ġkim dir
oniston ning
Uy qu
Ġakade miyasi
K iyev
V ak
k ib
lan maydi
az o
es li
rsat adigan
Ġij odiy
bir ini
Ġbelgi lar
Ġtadbir da
Ġmarkaz ining
eh ron
Ġxulos aga
Uch inchi
ĠKoronavirus ga
Huj jat
Ġxitoy lik
tekshir ish
kip aj
A j
Ġt ini
Ġe dim
al in
Ġp al
ili gi
lish ining
Ġhay kal
Ġayb ladi
qit ish
Ġkuchay ishi
Ġbayram i
Ġeksper ti
B r
H ud
u e
Ġk g
ol et
Ġn ey
Ġmu q
Ġte j
kil ot
lumot iga
Ġmillion ga
Ġmaj lisida
Ġom illar
tibor ini
Ġhim oy
SS R
ver adi
Ġjamo a
aho dir
Ġmasof ani
Ġmon itor
Ġnaq d
Ġxala qit
V aksina
ra ph
siy aviy
st in
ĠK ir
ik ki
ĠE k
ĠE v
Ġyoz ish
rat siyasi
Ġnaz aridan
Ġsal on
kov nik
dash yan
Ġzi ddiy
Ġkislot asi
Ġdaf n
z ov
lan gach
Ġda z
Ġz al
bat lantirish
Ġmuh abbat
Ġbemor larga
Ġtaklif lar
Ġmodda si
Key ingi
Ġchor shanba
Ġpast ki
Xitoy ning
Mah alliy
Ġdahsh atli
Ġol dim
Ġas s
ĠD eni
Ġtan ilgan
Ġtush kun
Ġ8 3
Ġkompan iyaning
Ġtuz alib
Ġ201 2
ark ib
Ġmetro poli
Re j
M ad
f li
li dagi
Ġh usnbuzar
Ġko st
ili pp
ali da
ĠSh odiy
Ġvaqt larda
tar ib
Ġbola larning
Ġmavjud ligi
Ġsev ib
Ġdavolash da
rem yer
rav on
Ġratsion ga
Ġsen ator
P oli
ma gi
ĠS ulay
ev ich
ĠY elizaveta
min lashga
ich dan
Ġom b
Ġhuquq larini
larimiz ga
iziston da
Ġsahif alariga
Ġquv v
Ġmaqsad ga
ĠShah zoda
Ġittifoq i
Ġterror chilik
ĠYevrop ada
Ġbod ring
M ana
q ayev
r ayev
lar ingiz
Ġm it
en dan
ĠS adir
ĠK ub
Ġqay g
Ġaktris alar
Ġtarmoq lari
Ġyoq ib
Ġtort di
tom obil
Ġtaj ovuz
met ana
Ġyegu lik
Ġajr atiladi
Y oz
c a
v oni
x otin
Ġmu omala
az on
Ġbor t
lim ida
Ġolish ini
Ġyuq tirish
Ġtizim lari
Ġtarix idagi
Ġbaho lash
urs un
Ġmukofot iga
Ġusul lari
Ġbarav ari
ĠMe dia
Ġqarz dor
Ġtamom lagan
Ġloy iq
Ġkost yum
B MT
U Z
n ey
v iya
x ush
la maslik
Ġbo ks
tr abin
Ġodam ni
Ġyaqin lari
Ġhayot ida
Ġraqam i
Ġqarash li
Ġna ushnik
eda g
Hay ot
Ġbosqi chi
Ġmuhandi s
trabin afsha
G arri
n av
at ori
il in
ka larni
Ġd u
it ilgan
Ġch ay
Ġin kor
izm at
ĠU ilyam
xon asining
Ġob ro
lovchi larning
Ġinson iyat
ĠXitoy ga
Ġ201 3
ĠRay hon
ĠIb roh
Y ong
t est
oq ib
Ġma gi
Ġoy din
Ġolgan ini
Ġharakat larini
oda vlat
Ġoqib atlari
Ġdeput ati
Ġtanqis ligi
Oxir gi
b e
on or
al og
Ġx asta
el lo
Ġ7 9
Ġkur si
Ġil timos
Ġinson parvarlik
Ġjarayon lari
lmagan da
Ġraq s
aprel da
Ġijro si
Ġtil ini
Ġvitamin lari
Shun i
M B
O ta
n un
ĠK os
may dan
uk sion
ĠX avfsizlik
Ġchiqar ilishi
Ġ9 6
Ġsot ilgan
Ġsal fet
Ġkuzat uvchi
lag en
quvvat laydi
don ez
Ġnatija ga
ĠEl le
A p
l larni
r ar
r gaz
Ġb adiiy
at ildi
lan ma
Ġet magan
rsat uv
lumot lari
Ġosh adi
Ġqaror ini
Ġyer dan
Ak sar
Ġyoq ilg
quvchi si
Ġinsp eksiyasi
ĠSerg eli
Ġif los
T ar
er li
ni t
um da
ĠB oris
Ġz ah
ĠY a
Ġmah orat
Ġharakat larni
Ġaj in
ĠAd liya
Ġyog urt
Ġyer dagi
Ġgaz eta
Ġkodeks ning
Ġfan lari
ullay eva
Ġmajmu asi
ritaniya lik
T ibbiy
e i
i ki
s al
Ġm eri
Ġv eb
Ġsh araf
Sh amol
Ġmumkin mi
ĠN ider
yin choq
Ġbe f
Ġtomon lar
larimiz ning
Ġklinik asida
Ġshamol lash
Ġtexnologiya lari
ngil ochar
Ġoqibat larini
ldosh ev
Ġgazet asi
Ġyadr oviy
U krain
sh ot
ra gon
ĠY u
Ġket ishga
Ġkatta lar
Ġkiy ib
Ġdep res
Ġmode li
Ġmuvaffaqiyat siz
Ġson ining
mayotgan i
ĠMi xail
Ġhukm ron
ĠFor bes
Ġaviakompan iyasi
Voqe a
Ġdaz mol
O zarbayjon
y sun
ĠS ay
ĠU rganch
Ġkel gusi
Ġtaq ib
Ġnarx lar
Ġuchrash di
Ġtarmoq lar
rni da
Ġinfratuz ilma
German iya
n ad
t ra
sh arq
an lar
Ġs ter
lan diy
Ġta la
Ġay n
Ġol uvchi
ĠK alifor
Ġvaqt gacha
ĠF avqulodda
Ġre p
Ġket ilgan
Ġras m
tiy or
atr ul
Ar maniston
Ġekspert lar
Ġyaq qol
m edov
s Foto
y gani
Ġm g
ka un
ul lanadi
Ġber iladigan
re ch
ĠK uch
ĠD em
Ġ19 4
Ġras som
yx at
Ġkol on
Ġkanali da
Ġmig rant
Olim lar
I B
K uz
M ir
l ya
r y
s gan
y lagan
Ġe slatib
Ġp ensiya
Ġsh ampun
Ġyosh dagi
Ġku chi
Ġyur ib
Ġnar k
Ġtuz ish
Ġmans ub
Ġqiyinchi lik
Ġuchr aydi
Ġlayfx ak
at siyasini
il gach
ov v
Ġchi ziq
ĠK en
od on
Ġsht ati
Ġsaylov i
Ġsaylov lari
Ġhafta dan
Ġort ida
uf ar
ĠUkrain ani
Ġreys lar
Ġgiper toniya
Ġarti sti
Ġrub l
T B
s er
v ig
Ġo mon
Ġch iroq
ĠY ash
ĠAQSh dagi
Ġ8 4
Ġnom zo
Ġoch ishni
Ġlavozim ini
Ġkisl ota
ĠKong ress
ĠRos siyani
B ollivud
M us
e ma
l d
sh gan
Ġe kipaj
Ġbi tiruvchi
ĠB oy
xon asiga
Ġ9 8
ayon ez
Ġar tib
Ġfar matsevtika
tibor siz
xtat ishga
Ġniqob lar
Ġzanj ir
M ari
O yoq
T abiiy
l sin
Ġ ildi
si si
Ġber ayotgan
ĠM oderna
ĠB otir
Ġor asidan
ĠC o
Ġ19 5
Ġax loq
Ġem landi
Ġkeltir adi
Is roil
Ġguvoh nom
opoliya ga
A gent
J izzax
O ila
Ġm ez
Ġy en
lan arli
Ġso ati
Ġbir dan
af a
Ġ20 23
Ġkir uvchi
kon ing
Ġmaktab da
ĠAbd ullayev
Ġaloq asi
ĠAn qar
Ġrais ining
Ġpun k
ĠIk kinchi
Ġmegapiksel li
mark et
D H
O sh
S in
S urat
X itoyda
d oni
o lik
t lik
ar l
at siz
si f
shi k
Ġda la
Ġte tik
ĠG eyt
Ġam in
Ġqur ilm
Ġuy lar
tar ish
Ġviloyat lari
Ġetilgan di
Ġar ab
Ġprezident ning
Ġrej asi
Ġagent ligining
Ġvazif alar
fevral da
Ġsalomat ligini
Ġpishir ish
Ġok rug
Ġsurat larda
quvchi lari
Ġchar cha
Ġjihoz langan
Ġmusulmon lari
Ġxaraj atlari
b ati
q ab
an ti
ol ga
ĠM uq
Ġmu siq
ĠS SSR
Ġak kaun
Ġeti layotgan
Ġayol ga
Ġnaz or
Ġvaziyat ning
Ġrivoj lantirishga
Ġuzoq roq
Ġmunosabat larini
Ġobyekt lari
Ġixtisos lashgan
Ġchip ta
Ġzim masiga
6 8
Ġy asal
ot lari
ĠT ursun
Ġmu j
ĠB ola
Ġqilin ishini
ĠE ng
Ġfar m
ĠAbd uh
Ġaralash ma
Ġkompaniy asiga
1 00
S ut
or ning
Ġn odavlat
ud rat
ĠD ehqon
ĠJ ennifer
diy ev
Ġmahsulot ni
Ġtas odi
Ġsal kam
Ġmarkaz idagi
Ġsaylov larda
Ġcheklov larni
ĠKar im
Ġmashin asini
Ġimkoniyat lar
Ġrejalashtir gan
Ġmaterial lari
Ġgazet asining
7 5
D on
Q onun
i land
r quv
sh ini
Ġk vartir
Ġsh affof
siya lar
ligi dagi
Ġeti lib
Ġtashqar ida
Ġtalab larini
Ġbelgi lash
Ġqilishi ga
Ġyarat ishga
Ġsoh ada
Ġnarsa ga
Ġsherik lik
Ġshubh asiz
eop le
Ġchempi on
P od
or taj
ra h
ra li
tir oz
ĠA z
it oliy
Sh imoliy
st er
Ġyan g
ĠD unyo
Ġchiq moqda
mon don
Ġkel tirish
xon toh
Ġkuch lar
op er
Ġsuv er
Ġmuammo lari
Ġchegar asida
mur iyat
Ġtushun ish
Ġfarzand ini
Is siq
Ġsimptom lar
Ġmehn atga
ĠZo ir
Ġnogir on
xontoh ur
K i
Ġk oni
Ġs es
om ali
ĠA OKA
ĠT em
Ġtash lashga
rin ews
em ik
Ġfoiz iga
eng rinews
Me ni
Ġtak si
Ġcheklov lari
Ġtaom lar
rav onlik
Ġisloh otlar
M o
u siga
y oni
ĠS ingapur
oni vor
Ġchiq ishini
Ġis lom
Ġist asangiz
Ġayol ni
Ġ13 0
Ġyop ib
yap man
qot adi
Ġmasofa dan
Ġgiyohvand lik
ĠFinlyan diya
Ġmam nun
iden iy
f oni
t ishga
Ġh idi
Ġp edag
Ġj urnal
Ġkom e
Ġyash ayotgan
Ġosh ishiga
Ġxal qi
lashi ga
Ġmunosabat larni
Ġatrof dagi
Ġrejim ini
chir ish
Quy osh
Ġmanba lariga
Ġmuqa d
Ġnomzo di
K iy
N af
T arkib
b ank
l eri
z ni
Ġb ron
Ġk rip
Ġk ichkina
ob iq
oli ddin
Ġtu tadi
Ġyet gani
ĠH i
Ġvide ok
xtat di
Ġlav ha
Ġistiq bol
ĠOlim piada
Tash qi
Ġmoj ar
d ok
sh oq
in s
Ġp och
Ġd yuy
Ġg lyuk
rin li
ĠL av
Ġoshir ildi
ala k
Ġsar m
nalish lari
oktabr da
Ġsing lisi
Ġmoy i
Ġasab iy
ĠAbdur ah
ĠRiz ayeva
av do
Ġbir on
ĠS e
Ġmamlakat larga
Ġbemor ga
Ġqator ida
Ġaf s
Ġtaqiq lanadi
ĠKar dashyan
Ġmak aron
Ġmavsum i
ĠSirdaryo da
Um umiy
Ġkorrup siya
3 2
X amir
l ol
sh oh
ay z
Ġf alok
ud s
Ġolish dan
Ġre ferendum
Ġsan tim
Ġyetkaz adi
Ġuchrash gan
Ġtanish ib
Ġqobiliy atini
Ġshox ob
Ġtoj ik
vig at
Ġmuqad dam
M ed
y layman
il lat
ur ov
ati layotgan
langan ini
oj o
man uel
Ġhis si
Ġfuqaro larining
Ġnom iga
sir ida
ĠMirz ayev
ĠZ F
Ġob razi
Ġvosita lardan
shimcha lar
Ġul ush
Ġtergov ga
Ġogoh lantirish
Ġqoch qin
Ġulgur gan
I S
lar dim
asi b
Ġp osh
Ġsh illiq
Ġso ladi
Ġber ilishini
Ġol may
mas in
Ġtom chi
lagan da
Ġjoy lar
Ġtush lik
Ġshahar larida
Ġkiy in
fevral dan
Ġkamay gan
Ġkamay ishi
Ġki prik
Ġgi gab
Ġbul g
Ġass otsi
Ġyasal gan
G ollivud
R asmiy
T ax
l larini
p gina
Ð ½
Ġy apon
Ġs ara
Ġe ta
Ġet ishda
Ġsabab larga
Ġur gan
Ġboshqar ma
Ġpayt gacha
sion er
Ġmuhim i
ilayotgan i
Ġurush ga
Ġquv on
ĠTo ki
Ġmanba i
Ġad ministrat
Ġkof ein
Ġukraina lik
H aqiq
Q on
b it
Ġt iq
ir t
uq li
ĠG onkong
ĠF MB
Ġdavlat ga
Ġ8 9
Ġhudud ga
ĠInstagram Xonanda
res si
Ġtarmoq li
Ġzarar siz
Ġmashina lar
Ġqobiliy ati
ĠMer kel
Ġqarindosh lari
Ġminnatdor chilik
Ġhaz il
Ġsantim etr
Ġgigab ayt
M art
o ka
v en
x ay
sh ab
il yapti
lik larini
Ġp remyer
ik r
ĠG ruz
Ġchiq ing
Ġyub ori
Ġhayot ga
moqchi man
Ġqator da
Ġnashri ga
Ġdepartam ent
ĠIta liyada
Uz oq
Ġjin si
mos fer
Ġoqsh om
M ux
t ori
at ur
un da
ur ta
Ġf ransuz
Ġj asad
Am erikalik
Ġaktris alari
Ġhuquq iga
Ġqoldir ilgan
Ġfikr lar
Ġsir ka
ĠRa shid
Say lov
m e
p rezident
iz da
ĠY aqin
Ġal yan
Ġkasallik larga
Ġ8 7
Ġboshqar ib
Ġtizim li
Ġrespublik aning
Ġkey ing
up ol
zim ni
Ġqurbon lar
Ikkinchi dan
Ġakade mik
Sur xondaryo
E p
H odisa
b asa
Ġ &
sh at
ish k
Ġu dda
Ġch an
Ġz ab
Ġkuni dan
Ġtaq inch
ala v
Hozir cha
Ġtushun ib
Ġruxsat noma
lanayotgan i
Ġmuvofiq lashtirish
ĠSen at
Ġzav q
Ġinfratuz ilm
Ov qat
3 4
N ur
h at
n el
il ufar
ab ib
ĠT ehron
Ġ201 1
Ġmodda larni
eh r
Ġdaqiqa dan
rinish ida
Ġort ga
Ġvitamin lar
Ġkons er
Ġmis ol
eb rey
ĠAs al
Ġochi lishi
Ġoqibat larga
Ġshakli dagi
Ġuchra shib
ĠGu ardi
Ġkommunikatsiya lar
ĠMis r
B al
S en
Ġk ub
Ġt us
ot ex
ov et
lash ishiga
Sh ID
ĠM ish
es us
ya d
Ġvaqt ga
tar ilib
Ġberilgan i
Ġsuv i
Ġkelgan ini
Ġyub ka
Ġshakl lantir
Ġbosqich ida
Ġmaydon chasida
ĠGerman iyada
ĠBir lashgan
ĠFer uza
Ġyondash uv
Aksar iyat
J urnali
m eni
r ush
ga sh
ir ligi
Ġs illiq
ay ri
ĠO zod
ĠS zin
Ġtash lagan
Ġan tib
atsiya lar
Ġbuy ruq
Ġsuv ni
Ġfilm lari
Ġsin drom
Ġsoh alar
xtat ildi
Ġqu yiladi
Ġhukumat ning
Ġstan siyasi
Ġmakt ub
Ġhaft asiga
Qan day
B en
O m
j et
Ġ 00
la mo
Ġe giz
ab ir
ta ga
ra d
Ġj is
adi y
Ġnaf aq
Ġaj ab
Ġkon tr
Har orat
tad qiqot
Ġgapir gan
qol gan
Rej iss
Ġzab t
ebrey esus
F A
K ir
ar rir
Ġo shiq
al t
de v
rin di
Ġeti lishini
Ġtalab lari
Ġsoh asiga
Ġtaklif ini
Ġkelish movchilik
Ġqoldir ib
zg u
riy e
Ġson iya
Ġinternet da
ĠOlma zor
Ġing ich
Ġtat biq
Ġsano ati
ĠGuardi an
H ayd
a larni
b op
Ġs us
Ġp lan
ĠR av
Ġqon da
zgar tirib
Ġavtom atik
ass am
Ġmeh rib
Ġkut moqda
Ġjahon ning
Ġkeltir di
Ġap elsin
Bola lar
Ġoi lani
ĠKenga shi
j ar
p in
Ġs pik
er lik
chi ligida
Ġbosh pan
ĠS putnik
az ar
ĠD e
Ġtizim idagi
Ġfar moni
ĠMar yam
Ġvide omur
Ġqah v
Ġmashin asida
Ġkechir gan
Ġshifoxon asiga
Ġaviaqatnov lar
Ġpir og
3 6
M in
j in
k asiga
t ok
an daning
Ġt rom
Ġish chilar
ĠT ovuq
ĠP entagon
Ġbor ishni
lashtir ishi
ĠE d
ly uz
Ġuchrashuv i
up qa
Ġxotir jam
Ġbaravar ga
ĠOlma liq
its sa
Ġmuj assam
e yi
k asini
r ining
u shiga
Ġs metana
as ar
az ab
ĠJ oli
ĠX ar
ap miz
Ġqiz ni
Ġoq imi
Ay tgan
Ġkut ub
Ġrol ni
Har biy
Ġmustahkam laydi
dj et
Ġnomzod ini
rsatdi ki
Endi likda
ĠPit t
Ġijar aga
ishk ek
M an
N ik
O n
t moqda
Ġk era
or dan
Ġta all
Ġf lag
Ġde tal
Ġun dir
ĠF ilipp
Ġdavom iy
Ġyaxshi lashga
Ġsht atida
Ġxalq iga
Ġsanksiya larni
Ġtelev ideniy
Ġash yoviy
Ġdisp ley
ovv oyi
p lagan
âĢĺ ,
si a
ov ni
ra ladi
ĠB e
Ġ3 50
ĠV irus
Ġqiz aloq
ingiz dan
Ġtuman iga
Ġqiy ma
Ġdavo lanishga
for d
Ġtarqat gan
Ġhamkasb i
Ġmikr obi
ĠShoh rux
ĠLit va
/ /
: //
E s
H okim
p aytir
t ari
iy os
Ġf osh
Ġmu taxas
oj ib
tiq cha
Ġkon sep
tibor ga
masligi ga
Ġyop iladi
Ġpishir ing
Ġepide miyasi
gu sida
Ġmanb asi
ĠKon stitut
O y
U sti
Y er
l sak
v est
Ġq ush
Ġber ishda
ĠT engrinews
ĠL at
uy g
Ġtuman larida
Ġhokim lik
Ġbiz da
Ġst ol
ĠXitoy dagi
Ġsiz ning
pay gan
Ġvideo larni
Ġaloqa larni
Ġeshi tish
Ġparvoz larni
Shah zoda
Ġotish ma
VA C
Ġbem alol
Ġtaall uqli
S ovuq
q qi
on at
Ġv ra
aq qat
Ġbir lamchi
Ġay tadi
Ġbor a
es si
em at
Ġaniq lagan
Ġtashqar iga
ĠCh ex
Ġloyih ani
Ġmuammo si
yx atidan
Ġruxsat nom
Ġqoldir ish
Ġtabi at
pay ishi
Ġkosm etika
Ġpishir iladi
Ġharorat da
Ġjabr lanuvchi
Ġmassa j
endan tlik
Ġingich ka
Y or
m ush
t ps
Ġt i
Ġo pa
ĠB ahodir
ro up
Ġoy n
Ġmuh arrir
Ġga djet
Ġharakat ini
Ġov ozi
yan a
ĠZ ok
Ġvaziyat dan
ĠRespublik asining
Ġyakun ida
Ġtarix ida
Ġul trabinafsha
Ġsol gan
Ġbesh inchi
tor oj
Ġhayvon lar
rid din
Yuq ori
ensi v
oqib at
T eri
X orij
y et
Ġb ari
Ġbo shi
ĠA sad
ĠA ES
Sh ax
oz ib
Ġtar biy
ĠN iz
rsat malar
ĠV al
Ġoshir di
bur ug
Ġ11 0
Ġyuk sak
sep tik
qit uvchilar
Ġok ru
Ġdarom adi
ĠAv str
vet lana
ji di
ĠSen ati
Ġsig nal
biz nes
kum ulyator
Ġtuy g
ĠZangi ota
Ġv odiy
iy asidan
Ġn ojo
en j
lum ki
Ġkasallik larning
Ġ9 4
Ġrej asini
oly ut
lak lari
Ġmuassas alariga
dekabr dan
Ġkomp onent
Ġhaj mini
ĠUsmon ov
uliy ati
Ġpsix ologik
Ġyey ish
Ġfotos urat
ĠIl hom
Ġqurb oniga
esli han
Ġbef arq
N ega
b and
n os
x ori
ar iq
ch ani
ish ining
om a
Ġf esti
Ġsh anba
ati onal
ah riye
ali m
ĠK rist
lashtir di
Ġek ologik
Ġtayyor lang
Ġxodim iga
Ġat mosfer
ich ak
ĠZ ar
Ġil g
Ġsov un
Ġchegar asidagi
lin ken
rsatkich lari
Ġserial ining
Ġqir ol
Ġsmartfon lar
Ġkorxona lari
harak atlari
Sev gi
ĠShay xontohur
fli x
G ul
S uhbat
S martfon
Ġt ani
ish gan
as ur
Ġyo s
Ġbosh larida
ĠO siy
Ġol moqda
ĠK ris
Ġin a
day oq
rin ishini
ĠSh od
Ġqol sa
ĠMirz o
Ġhayot iga
rit ancha
Ġmeh r
Ġ201 0
dosh lari
Ġpay shanba
Ġfoydalanuvchi lari
biz nesi
ĠYus up
Ġserv is
ĠTixanov skaya
Juft lik
A pple
g o
Ġt onal
Ġq ishda
Ġs ul
tir ishi
ati ladigan
ri x
ĠP op
Ġbor iladi
Ġyubor ishi
Ġmiqdor idagi
Ġno xush
ĠBelarus da
200 1
Ġaksiya lari
ĠĠ ĠĠ
ĠLo ok
Ġqalampir i
ĠMun isa
Tax min
Z elenskiy
o i
q oli
r inib
Ġj ozib
Ġa uksion
em is
Ġkir ishga
Ġqildi k
Ġtop a
Ġ8 6
Ġyarat adi
Ġista gi
ĠAk ramov
ĠMus taqil
Ġrek on
Ġmuzlatkich ga
ch el
di radi
Ġd vigat
Ġan tir
ĠSh veysar
miz ga
bir idan
ilish ining
Ġsuv siz
Ġsot uvchi
Ġaholi sini
Ġmaktab larda
Ġturm ak
lmagan i
Ġsaylov larida
Ġolin adigan
201 5
Ġkart in
ĠOlma ota
Ġqiroli cha
Ġtong da
Sev imli
Ġqad oq
Ġyen gib
3 3
K os
q ishni
t oy
w ood
y om
or ld
Ġy iq
Ġbo m
ti lishi
om e
ĠA mazon
Ġch er
Ġvaqt ni
Ġmas jidi
Ġoy na
Ġosh gani
Ġshahar ning
Ġfoydalan iladi
Ġtopshir ig
Ġnamoy ishi
Ġdollarga cha
Ġmodel lar
Ġkol lagen
ĠKap itoliy
Ġuchr aydigan
Aytgan cha
w w
lar mon
at h
ĠY ev
lanish dan
Ġdavlat ning
tar ildi
Ġkar ta
Ġkirit ilmagan
Ġrasmiy lashtir
Ġerish ilgan
dik al
ark ov
Ġaviaqatnov larni
Ġreanim atsiya
Ġkletchat ka
Ġach chiq
J ons
M er
w ard
âĢĿ :
ist lar
ĠK ush
Ġra dikal
ĠY oshlar
Ġfoyda si
Ġchiqar uvchilar
Ġbuy rug
Ġhuk mi
Ġinf lyatsiya
Ġbil maydi
Ġoila siga
Ġpul ni
Ġoch lik
Ġboshlagan i
Ġmodel lari
Ġshirin liklar
Ġxavotir da
Ġkeying ina
N on
l ingiz
Ġish lashni
Ġav ariya
ĠY ang
Ġtan k
Av gust
Ġ9 00
Ġqaror ga
Ġqayta dan
tim e
atsion ar
Ġyetak chilari
Ġxoh la
Ġmod erni
Ġhokimiyat ni
Mah sulot
ĠAx borot
ĠMeksi ka
S entabr
l uk
la moqchi
ch mas
Ġk um
Ġk last
ir lik
Ġta ass
Ġke sim
ok rat
ĠG am
Ġjoy lari
Ġshax mat
ers al
iyati ga
lin masi
Ġsuhbat da
Ġogohlantir gan
Ġehtiyot korlik
Ġshaf qat
Ġhamj amiyat
Hud ud
ĠGeyt s
Ġmutaxas sisi
t am
y ishi
Ġo lishiga
er nat
os for
Ġber amiz
it si
Ġay lantirish
st lari
Ġbor ishga
uk ni
lim lar
Ġ7 1
Ġuz r
Ġob y
Ġkuzat ilsa
Ġhal qa
Ġvaksina dan
xtat gan
mit asining
Ġyulduz larining
Ġaloq ada
Ġtanish ish
Ġkaf e
sar iq
Ġbak alav
ĠEm manuel
ĠRam azon
A ng
S ulton
a dan
q otib
sh ah
iya lar
ĠB ioNTech
st ana
og ar
ĠX erson
Ġuy ni
Ġkom endantlik
Ġbemor larda
Ġur ilgan
Ġaholi siga
Ġpayt larda
Ġ12 8
Ġhimoya lanish
quvvat lashga
Ġanti septik
Ġahamiyat li
ĠAk mal
Ġhik oyasi
Ġjon li
Ġint ensiv
lmas in
ĠKorey aning
Poy taxt
Ġqutu lish
Max sus
H is
l oy
Ġko inot
ut er
Ġ( +
ĠJ av
Ġmah kam
Ġmah kum
Ġvaqt lar
id d
Ġfuqaro ga
Ġket ishiga
Ġloyih alari
ĠAn var
Ġqish ki
Ġimkoniyati ga
Ġekst rem
Ġesk ir
Ġmust as
M ul
k echak
ot da
Ġbi ologik
Sh irin
ax on
ĠP o
Ġbar g
ĠF V
Ġmamlakat larning
yin lari
Av tomobil
Ġshahar lari
Ġbola lari
gun icha
Ġnarx ining
Ġzarur ligi
Ġ200 8
ĠEron ning
Ġhujj atlari
Ġaeroport ida
Ġtovar lar
Ġfili al
Ġchin dan
Ġmustas no
D onald
r ingan
at siyaning
un yoning
Ġdi d
bur chak
Ġfoydalan uvchilar
Ġxorij da
Ġbaho langan
qnashuv lar
qay moq
ĠShodiy eva
Ġyos tiq
M av
z gi
Ġm i
ish iy
ay tirish
ni ki
ak imov
Ġf id
lat ish
lat ilgan
Ġ14 0
Ġsov rin
201 4
Ġsarf langan
ĠFransiya da
Ġehtim oliy
bosh qaruv
ĠMoskv aga
Ġtaqsim lash
Ġgavda lantirgan
Anjel es
Ġtaass ur
J on
M S
u lida
Ġn at
im ning
dagi dek
Ġish tah
Ġkun lar
ĠK om
Ġyet ishi
19 7
Ġhamda rd
Ġqiz ini
Ġyoz gi
Ġqilingan idan
Ġ10 4
Ġbil magan
ich ment
Ch ek
Ġhozir ga
ĠIs omiddinova
Ġavi a
mal oq
Ġzam burug
Ġfuqar oni
Ġxulos alar
Ġtab ass
ĠMah mud
Ġqadr iyat
dok rin
b ritancha
Ġsh e
oli m
Ġor q
zbekiston dan
ĠP ort
ub ey
rt oq
Ġkuch larining
Ġaktyor lik
Ġtekshir uvi
Ġxalq imiz
Ġayb lagan
Ġmuassas asi
Ġjaray oniga
ĠDil ruh
ĠSar dor
luk siz
J ennifer
M ush
V ide
m or
ur i
ĠM ag
Ġtur uvchi
ĠJ eff
rin diq
Ġoy og
Ġkel magan
Ġetilgan lar
Ġyarat di
Ġpul larni
Ġqonun ni
Ġkut ilgan
avgust da
Bun gacha
llan iladi
Tur li
Ġxiy ob
Ġtahli li
p lam
sh ak
Ġb log
gan sk
Ġh omiy
Ġf ak
ek a
ra x
uz u
iston lik
ĠP eople
Ġchiq adigan
Ġsabab ini
Ġmamlakat larida
Ġre zav
Ġtop adi
rik dan
ly wood
Ġfikr ini
Ġsurat larini
Ġobyekt lar
bi larmon
Ġmanb alari
Yaqin da
Ġmonitor ing
k asida
n oza
Ġy oy
ka f
ĠT ra
Ġol masligini
ĠD aniya
ĠF re
Ġyordam chisi
ĠV an
ĠV eng
Ġtayyor ladi
Ġsay oh
Ġxodim ining
Ġsov et
rinish idagi
arak ter
Ġ199 2
Ġkuzati ladigan
Ġbod om
Ita liya
Eh timol
Ġantir ekord
D ep
m ishlar
z e
Ġf oji
aq lli
Ġbosh lashi
dir gan
ĠK atta
sat siya
Ġqol magan
Ġxizmati Ma
Ġbola ga
mun itet
Ġdori xona
Ġhatto ki
Ġserial da
Ġtil ga
Ġkela ja
Ġamaliy oti
Ġnashr ining
Ġkaryer asini
Ġehtimol ini
ĠTur izm
B esh
k oli
l ch
t ingi
v e
shi lish
Ġj onivor
Ġqo choq
ati on
af ar
oz ga
el la
Ġnaf aqa
Ġtan lab
Ġqarshi sida
Ġij ara
mat ova
so at
Ġqolgan ini
Ġst atsionar
tibor li
Ġnarx ini
Ġaf suski
shin larining
Ġqahramon lar
Ġmudda tidan
Ġobraz ni
drom et
Ġvat and
L imon
U larga
V aqt
a gi
at al
Ġm ayonez
Ġs ak
er dan
Ġe kin
Ġbi lishi
Ġbir j
ĠM al
Ġchi zi
Ġin qil
lashtir ishni
Ġni mani
Ġfoyda lanishi
Ġkam aydi
Ġhisob lab
Ġoshir iladigan
Ġtuz atish
Ġhudud ini
Ġum urt
lam ent
Ġbuz ilgan
Ġvirus li
Ġlozim ligini
Ġoper atsiyasi
Ġziy of
Ġparvoz lar
Quy idagi
Ġreanim atsion
evr olet
ĠMash hur
Ġmoderni zatsiya
3 8
h uj
y os
Ġb is
am ik
Ġf ani
Ġuch ish
Ġish lovchi
iya dan
ĠS och
el ement
ĠI sh
Ġas l
Ġyuz ini
Ġhudud lari
Ġrivoj langan
Ġshaxs larni
Ġyakun lari
Ġrey tingi
Ġquyidagi lar
Ġseriali dagi
ĠYapon iyada
El ektr
Ġpiyoda lar
Ġmuhojir lar
Ġxush bo
Ek sp
Ġalmashin uv
Med uza
r magan
an ce
Ġv ok
iy o
ak im
Ġuch dan
tir ildi
Ġet sa
ĠB ul
ĠO ta
ĠO qil
Ġan im
ĠL os
Ġre per
Ġmuh r
Ġich k
Ġyur timiz
rgan gan
Ġyubor gani
Ġagent ligiga
Ġtut gan
Ġmashin ani
Ġtasvir ga
Ġmanfaat dor
ĠDon etsk
nad zor
Hayd ovchi
6 7
J oriy
k iliy
v uz
x izmat
ab z
Ġsh isha
lash ning
ok ar
ok ard
ĠB red
ĠI qtisodiy
Ġas ir
Ġyil ligi
Ġsur tish
Ġtush gani
Ġkasallik larni
ĠIn son
zo lariga
Ġmiq yo
Ġhozir gacha
Ġxorij lik
yanvar da
raz iliy
Prezident ning
ĠTurkiya ga
Ġora liq
Ġettir adi
Ġaksiya dorlik
Ġprepar at
Ġkorp orat
Ġkiriti ladi
Ġdok tor
Ġkiri tib
Ġyarm ida
Poli tsiya
ĠTem ur
O II
t uyg
u per
v ili
um lar
ĠM or
Ġun dagi
ut m
Ġas tr
ĠG ebreyesus
yor da
Ġdavlat larga
Ġme bel
Ġhokim lari
Ġtaklif i
Ġtik lanishi
Ġsud ining
Ġtarkib iy
Ġtaqiq landi
Ġsir i
Ġsavol lar
Aktris aning
Ġkuy ov
Ġuglevod lar
Ġgub ernat
Loyih a
T el
z it
Ġb uv
Ġk m
Ġs otgan
en koning
ĠS un
Ġqilgan idan
Ġuy ning
ad ol
Ġtaq diri
Ġqon iq
Ġuz luksiz
Ġmavjud ligini
Ġjarayon ni
Ġchegar ada
Ġuyi dan
Ġchar m
Or tiqcha
Ġlitsen ziya
J uda
T V
n obod
ur ce
ab o
cha di
ĠM av
Ġol maslik
ĠL XR
qi gan
Ġolingan lar
Ġtadbir larni
Ġkut ish
zav ot
Ġgi d
Ġtekshiruv dan
vali da
Ġyuqor ida
Ġqozon gan
ĠJey ms
adda s
Ġpolit siyasi
ĠQiz il
Ġoydin lik
ĠNider landiya
L u
z larni
Ġ iy
Ġy upqa
Ġx arakter
cha larida
ĠM DH
ok da
Ġkun gi
Ġz ona
Ġz erik
Ġqiz lari
bir i
Ġtop ishga
Ġjam lan
Ġviloyat dagi
Ġaj ral
Ġxizmat chi
Ġkirit ishicha
Ġmasala lariga
Ġbut kul
Ġoch ildi
Ġnamoyish chilar
Ġtanish di
Ġuniversitet ida
tkazi layotgan
Ġjamoatchilik ning
Far zand
Ġkans leri
Ġteleviz or
Ġeksperti za
Ġayn ishi
ayri oddiy
ĠRav shan
S obiq
d oy
s lar
t ga
y ishni
on in
Ġv iza
Ġs tr
lan uvchilar
Ġn ev
Ġn asib
Ġqo lip
Ġr ost
ĠSh an
ĠL ola
ran tlar
Ġqiz ga
Ġodam da
erg etika
ard o
Ġhokim iyati
ĠCh an
Ġrivoj lanayotgan
Ġom ega
Ġdastur ida
Ġyakun langan
Ġfaol lik
Ġtexn olog
Ġtosh qin
Ġmayda langan
Ġemlangan lar
ĠUl tra
ĠEn toni
Ġhayrat da
Ġixtiy oriy
ĠYa IM
asar oy
J ar
P iyoz
m etr
t qa
Ġo qar
Ġe g
Ġu sta
Ġj umla
Ġso diq
ĠA liyev
ĠM uz
ĠB i
Ġxabar larni
ĠSh ri
Ġayol larda
ĠCh iroq
zo larining
arb oyev
Ġmaqsad da
ĠEm omali
Ġola miz
Ġvazifa larni
Ġplatfor ma
Ġhamshir a
Ġtok sin
Ap rel
Ġkesim ida
N K
N or
s ert
an iyev
ĠB linken
Ġor tadi
Bu larning
bat lantiradi
Ġqilin maydi
Av valiga
Ġbemor da
Ġayol da
Ġshahar lar
Ġfaoliy atida
Ġhudud larga
Ġvaksin asidan
Ġtopshir ildi
Ġtekshir ib
Ġboshlangan i
Ġboshlangan ini
Ġmahalla si
Ġxoh lagan
Ġkart ina
Ġyumsh atish
Ġpoytaxt da
Ġaz ob
Ġhomila dorlik
Ġsoha larda
Ġdengi zi
Ġquvv ati
Ġtala fot
O ziq
T inch
c al
de st
Ġsh ay
Ġsh aro
Ġtash lanadi
Ġol dirish
mas di
ĠI z
ĠG uliston
Ġvazir ning
Ġtan langan
Ġhis siy
Ġyil gi
Ġqur ishi
Ġyax lit
Ġbemor dan
Ġbelgi lanadi
Ġsin dr
Ġqam al
Ġmavsum iy
Ġolti ta
Ġmasalan i
ngilli lar
Ġqadi miy
Ġomb ori
Ġegiz ak
Ġsindr omi
F oyda
l madi
q ora
r atga
v i
de al
Ġd ub
ĠT V
Ġg onor
Ġqilgan da
ĠH asan
ĠCh arl
Ġkon g
Ġ16 0
ĠTramp ga
Ġhafta lik
Ġavi atsiya
Ġep iz
Ġtov ush
Ġes da
ayr og
Ġmanz ili
Ġasr ning
Ġtopshiriq lar
Ġshartnom asi
Yash il
M et
b om
u shidan
Ġ lat
ur giya
lash ini
Ġqil may
ĠB ab
Ġtar zini
tib os
Ġin sul
Ġqay tdi
oh n
ĠG en
ĠD XR
Ġkam dan
Ġyar atiladi
Am erikaning
ĠZ e
Ġyarat ib
Ġvaksina larni
ly ut
Ġnamoyish lar
for m
Ġjaz oni
Ġloyiha larini
Ġ199 0
tis od
ĠShah lo
Ġqurilma lar
Ġyod ga
Ð°Ð ½
Ġkuzati layotgan
ĠUmar ov
6 9
s ay
t lari
v ard
y ilishi
Ġ ning
Ġ lov
Ġk iber
Ġq isi
ini ga
ra j
Ġso dasi
ev ra
Ġbor ing
Ġin di
ĠG roup
oj dest
Ġtan ovul
of t
Ġket ishini
Ġhudud dagi
Ġtaqdim ot
ĠEron da
Ġeksp orti
Ġson li
Ġsurat larni
ĠLu gansk
Ġmig ratsiyasi
Tash kilot
Yosh lar
B er
Ġb ayrog
Ġx omash
Sh akar
ĠM um
Ġol maydigan
ĠK reml
Ġtom oniga
ap or
Ġoshir ishni
ara g
ĠH abib
sir ga
Ġsal qin
Ġoila sida
Ġguruh ining
Ġchegar asi
Ġraq sga
Ġshifo xonasi
Ġchet da
Ġmashina lari
Ġtelekanali ga
Ġprofilaktik asi
ĠSzin pin
Ġrekon struksiya
Ð ¼
Ġva siy
chi gi
Ġr om
ĠS pot
re et
tib biy
Ġyor masi
ap re
Ġal omati
chilik ka
zgar adi
so urce
Ġpayt ga
Ġquy ida
Ġyulduz li
Ġrang da
Ġurush ni
Ġtaraf dori
Ġfak ult
Ġchizi g
8 5
T ergov
m ning
Ð ´
Ġb as
Ġu kasi
ak or
iz atsiya
ol maydi
uz ash
Ġbu k
lashtir iladi
Ġak asi
Ġholat larning
Ġkel indi
Ġdi ag
Ġmasala siga
Ġdavo langan
Ġguruh lar
Ġpul ini
Ġbozor da
Ġqoch ish
ĠOlim lar
Ġsayyor a
ĠRed mi
zgi dromet
Ġmi okard
apor oj
r moqda
v ersit
sh od
Ġy ech
ing ga
Ġs vit
er bayev
ĠA ward
lib u
ĠB eh
Ġtu tib
may da
Ġxabar larga
ĠY aman
ĠIn donez
zgar gan
Ġboshqar gan
ĠCh j
ag ner
Ġkon ferensiya
Ġkurash ishga
Ġtaqdim oti
Ġsaylov ida
Ġxorij ga
lin e
Ġbayon noma
Ġort ishiga
ĠMa il
Ġvitamin ining
elen a
Ġeshi tgan
Ġbino lar
Ġiqtisodiyot ni
Ġolam dan
Ġbarch asini
aka o
Ġbyur osi
ĠVirus ologiya
P F
d ob
m da
li lar
Ġq af
Ġs ehr
Ġe lastik
ti an
Ġp ap
ul lanuvchi
ma larni
ĠM IB
iya dagi
ĠI ShID
od rom
osi t
Ġmilli metr
Ġsabab lar
son ning
xon aning
Ġnam lik
Ġkon dit
Ġrahbar larining
mun ikatsiya
Ġqu yi
Ġxususiy ati
Ġqator iga
Ġpech en
ĠKap ri
Ġdeleg atsiyasi
Ġsari g
Vaz iyat
oka do
Ġspik eri
O b
T emir
U l
x en
ka dan
Ġham yon
ĠM art
Ġqay na
uk er
ĠX ubey
ad osh
Ġavt omat
Ġsan ab
Ġshahar larda
Ġchal g
Ġoz gina
Ġvosita laridan
Ġberish dan
ĠTurk meni
ĠNor veg
Ġkap ital
Ġshifoxon asida
Ġmuolaja larga
Ġarti st
Ġxaraj atlar
Ġsuper market
Dav omi
ĠBax tiyor
Qah va
Ġtub dan
Tah lil
B it
h aqiq
k og
sh aroit
ur d
lash moqda
us ini
oz dan
ĠB utun
ĠP en
Ġqilish di
ĠN ote
Ġqay tishi
Ġholat ida
Ġdavo lashga
qul ladi
Ġimkoniyat larini
Ġqahramon lari
Ġsutka ga
Ġot asining
Ġyashir ish
Ġpay p
ĠOlim piya
Ġimp ichment
Ġdok tori
Ġgigiy ena
loy d
4 9
l ton
Ð º
Ġma f
ma x
ĠS to
Ġtash kiliy
kil ometr
Ġhis sini
Ġqur i
zgar di
Ġ19 0
Ġtas lim
Ġayt ildi
Ġoila lar
ĠPrezident ning
Ġoldi dagi
ĠMar iya
Ġtopshir di
Ġhaydovchi lari
Ġhaqiq atga
Ġbez atilgan
Ġmaydon ida
Ġbayonot da
Ġrejim ida
Ġton n
ĠJon s
Ġang lat
Mutaxassis larning
Ġdizayn er
Ġshov qin
Ah oli
Ġbeg ona
A t
T ush
l ot
r da
Ġ Ñ
Ġ ishiga
la si
sh ahar
Ġb riga
ir lab
Ġbosh liq
Ġmu sht
ĠS vetlana
re dit
dek si
lashtir adigan
ush an
Ġdavlat larning
Ġsan ada
Ġsan itar
Ġqiy noq
Ġil ova
Ġimkon siz
yx atida
Ġdastur lari
limi dan
Ġhaydovchi lar
ĠXorazm da
ĠMask ning
Ġkat taroq
Ġinvest or
Ġsharaf iga
A X
s v
Ġol masligi
ĠP ay
ĠX ali
Ġkar di
Ġat om
Ġkarantin dan
Ġbe zi
Ġnima larga
Ġbun yod
Ġavtomobil lari
Ġhali gacha
Ġjurnali da
mak lashish
Ġtanlash da
Ġobuna chilariga
Ġisit ma
Ġmaqom ini
Ġreabilit atsiyaga
Sa udiya
Ġlaborator iyasi
Vak sin
Tibbiy ot
Ġpoch ta
yet nam
ch echak
at ov
on ish
Ġh ush
Ġs ti
is ney
Ġn abir
Ġish lov
Ġish bilarmon
ĠP ix
Ġyosh ni
ush ka
Ġsur ish
Ġkel sa
Ġmahsulot i
Ġdi st
eti ga
Ġmasala larni
Ġkim yo
Ġ200 9
Ġbuyur t
Ġolin magan
Ġba dan
Ġhujum i
Ġqam rov
Ġmanfaat larini
Ġint eg
Re uters
Ġreak siya
Ġnoqulay lik
ĠMon opoliyaga
Ġniz om
Ġbirdan iga
U zbekistan
V it
d ing
t obus
v ay
v estitsiya
y ishga
Ġm al
si diya
un g
Ġber madi
ĠA rt
Ġak kumulyator
ĠF ahriye
Ġdavlat lardan
Ġsur ting
Ġtayyor lanadi
Ġmahsulot larning
Ġyoz da
min lanadi
Ġ8 1
Ġhukum atga
ĠCh echeniston
Ġbildir ilgan
Ġhayot iy
Ġtasdiq lash
ft or
Ġbildirgan di
Ġhodi s
Ġoson gina
Ġista gini
Ġdoz asini
Ġarx it
Ġchida mli
Ġtej ash
P ort
Q at
an ning
in t
Ġt arif
Ġyo dda
ĠB ay
re b
Ġhar f
Ġin novatsion
ĠSh uk
Ġolish ning
Ġkel uvchi
Ġxodim larning
Ġprezident likka
Ġchegar asini
Ġnatij alar
Ġrol larni
Key t
ĠSa ida
Ġtexn ologik
Ġtaqdir lash
rok koli
Ġmikr oto
kitob lariga
Ġjigar rang
Ġoi laning
Ġmikro element
ĠTa iland
Ġdum aloq
ĠDen ov
ohn son
4 6
D i
T ovuq
X roni
lar dir
at ch
at siyasining
or s
ay hon
us ni
Ġas bob
ĠQ ay
rsat ishga
of f
Ġsaq lanadi
Ġah am
Ġsi q
ĠH o
Ġkar ra
Ġtalab lar
Ġkuzat ilmagan
Ma lika
Ġkim ning
Ġsud ya
ĠIs uzu
Ġniqob siz
Ġmustahkam lashga
riy anka
Ġtosh qini
ĠDi ana
ĠRah im
Ġbul ut
ĠBah rom
Ġhamm om
ĠKalifor niya
Ġyubori ladi
lywood time
f ikatsiya
l ladi
p ligi
Ð ³
Ġk anda
dan iy
de ni
om pe
Ġp ly
Ġsh oh
ĠA g
Ġish emik
ri j
ĠP a
Ġbor mi
Ġich ishni
Ġkishi lik
Ġat ab
ĠCh evrolet
Ġoqib atda
Ġfar ovon
Ġqilishi miz
ex as
zav t
ĠW ashington
modda siga
Ġstress ni
Ġklub i
Ġfarmon ni
Ġaeroporti ga
ote atr
Ġjas adi
Ġtartibsiz liklar
Ġsarg uzash
Ġflag man
ĠKush erbayev
Ġsharo iti
ĠTurkmeni stana
J ismoniy
N yu
T ish
f ar
u an
si li
ol l
Ġuch radi
ĠA ta
et ch
Ġch ast
ĠY oz
Ġim per
ĠH ello
tar gan
Ġel lik
oti p
Ġmuz qaymoq
quvvat lagan
Ġxorij dagi
iziston ning
Ġqam aldi
Ġtomir lari
Ġmush aklar
Ġtr akt
Ġboshqaruv idagi
tur e
Ġdeleg atsiya
Ġtorti ladi
mul k
Ġmikrobi ologiya
4 7
D e
I yul
P rof
U rush
o dir
al oliddin
chi p
ĠM illat
ud uq
Ġqilish ingiz
Ġqay erga
ĠU n
tkaz ilib
Ġkel gusida
Ġmat em
Ġuz aytirish
Ġ8 2
Ġviloyat ning
Ġbal li
Ġbuz ilishiga
Ġketgan ini
ru f
Ġkelish ilgan
Ġmashin ada
ĠMa libu
Ġpishir ilgan
ĠBer lin
Ġmaterial lar
Ġzi ch
Ġplatfor masi
ensi al
Ġyalp iz
ĠEv jen
ĠShod monov
X iaomi
m illiy
y asi
sh undan
am aliy
al ovchi
ladi m
ul tirilgan
ĠM yan
ĠT ar
ĠB ach
ĠK un
Ġtom oq
Ġchiq ilmoqda
amla k
tkaz ishi
ĠL op
Ġzar ra
lga ch
Ġkon struk
Ġguruh iga
Ġqism lari
Ġchegar adagi
Ġtasdiq lovchi
Ġjinoyat lar
Ġmodda lari
Ġhaqiq at
Ġib odat
Ġgi lam
Ġpishir iladigan
Ġbayonot iga
Ġten den
ĠAlim ov
ĠYash nobod
L e
R atsion
Y ar
x ud
z imiz
z lashtirish
in da
Ġb ritaniyalik
Ġh an
Ġd ug
Sh oh
ĠB and
ĠB ishkek
Ġun umli
iyat ga
ĠJ e
Ġchiq ayotgan
ĠToshkent ning
mart da
ĠCh op
Ġyubor ildi
Ġshaxs ning
Ġla k
Ġasosiy si
Ġzarar langan
Ġmuassas alar
Ġqor ong
Ġzam on
Ġgor moni
Ġkat tasi
Ġprofess ori
Ġqaynat ib
Ġimtiyoz li
Ġxar it
Ġqaz ib
Ġinsho ot
samb ley
h unar
ar ma
ch asini
on am
il dir
Ġs mart
Ġr obot
ĠA sk
uz i
af t
ĠB ig
uq ori
uvchi si
Ġmamlakat imiz
Ġfuqaro lardan
ĠIn novatsion
ich ard
Ġoila larga
Ġla qab
Ġavtomobil ini
Ġ17 0
Ġtayin langani
Ġmayd oniga
esti t
nal tirilgan
Ġshar ti
ros oft
Ġfor um
Ġzaxir alari
kun duz
ograf iya
ĠNaz arboyev
ĠBr yus
ĠDep p
Ġuskun alar
Ġkuk uni
vid ual
Ġoke an
Ġozuq a
tex nik
Agent lik
Ġtrom b
idd lton
Ġhamdard lik
C E
D en
k ay
r asi
lar Foto
si d
iy an
er atsiya
gi k
oq siz
ma li
Ġun von
Ġg rech
Ġmumkin ki
ori lik
oj ia
rin ishni
Ġjoy larga
Ġsuv dan
Ġsoat da
Ġter isini
Ġpoy ga
Ġtoza lashga
Ġsol uvchi
ĠEron ga
Ġraqam lar
Ġsiyos atini
Ġhujjat larini
Ġqimmat li
Ġuyush tirgan
Ġochi lish
Tramp ning
Ġtarqa lib
emb ed
ĠDev id
Ġkonsent rat
Ġmuq obil
Ġsarm oya
H a
M aq
S uy
T uman
g raph
n ish
z bo
Ġk ot
Ġm amlak
un uk
am aydi
ab op
Ġso da
az asi
Ġbor ayotgani
ĠN a
ĠQ ah
Ġqol masligi
Ġyuz ni
Ġqiz dir
Ġxizmat larini
Ġmiq yos
Ġmaktab ining
Ġkamay ib
Ġpast asi
Ġserial lari
dekabr da
Ġab adiy
Ġqola veradi
Ġyarash a
Ġyotoq xona
ĠAnd rey
Ġpush ti
ĠToki o
ojdest vo
H M
b oq
u ela
la z
Ġt erak
ay man
is ining
is siya
Ġp ala
ib ot
iq lar
Ġish lamoqda
ĠS pir
yi ladigan
Ġas rab
ĠY an
Ġkasal ligining
dor a
Ġkir ishini
lim ni
ĠF ilm
Ġaniq lashga
Ġshahar ga
Ġbola larda
Ġdey ilgan
Ġloyih asida
Ġishon ish
Ġyop ildi
ĠReuters Foto
nalish lar
201 3
Ġnavbat dan
qo lib
up nay
Ġhayvon ot
Ġkorrup siyaga
Ġhaydov chining
Ġglyuk oza
Xroni ka
5 8
K uch
b og
g e
g in
y adigan
at a
om et
Ġj ig
ĠA sak
ĠB BC
Ġqar zi
Ġbor adigan
Ġin tiz
Ġas ari
Ġam erika
Ġtaq qan
Ġkelgan idan
zgar tirgan
Ġar ziy
Ġfilm ning
Ġdavo lanib
Ġtartib iga
Ġhamkor ligida
ĠIs mo
lin malari
Ġurush da
ĠJo urnal
Ġkomp en
Ġsum kalar
Inter net
Ġmuola j
Ġart iller
ĠAsh x
Ġprin si
Ġfirib garlik
Aniq lanishicha
Ġrul et
landiy ada
Ġpunk ti
Rejiss or
Usti dan
Ġgonor ar
zavt osanoat
L i
d oq
p on
Ġbo xabar
Ġva gon
Ġp ress
tir o
iston ga
Ġg arov
Ġz umda
Ġra sh
iv a
Ġayol larni
Ġxodim larga
Ġoila sining
Ġxavfsiz likni
Ġye chi
Ġtort ilgan
ĠGerman iyaning
Ġuyush masi
Ġfutbol chi
Ġjurnalist larga
Ġhamkasb lari
Ġsub sidiya
ĠJam shid
Er kak
ĠUch tepa
Ġdyuy mli
Ġadministrat siyasi
ĠCharl z
aporoj ye
Ġchast ot
I yun
L av
l ingan
l yapti
s ur
iy asida
Ġqo z
Ġda ft
st ona
Ġtar ang
Ġtu yu
Ġtur magi
ĠQ ora
Ġkom il
Ġyuz ga
ĠV er
Ġzar garlik
Ġharakat lanishi
Ġboshqar masining
Ġat ash
Ġbaho ladi
Ġrejim iga
Ġaralashtir ib
Ġmukofot ini
Kun iga
Ġochi ladi
uliy at
Ġsep iladi
Ġrozi lik
Ġurf ga
ĠSht atlar
Nashr ning
asd dan
ĠIbroh im
ĠAta gul
p chiligi
v ari
ch aning
Ġh oli
Ġh akam
iy di
ot er
Ġr ukni
ĠM iddlton
ev in
Ġor gani
Ġkasallik larining
ep ik
Ġur ushiga
Ġat aladi
Ġorgan lar
Ġorgan larining
Ġvosita larni
Ġla h
Ġinson larning
oniston ga
Ġqismi dan
Ġquv ur
Ġsarf lagan
Ġpasay tirish
Ġkin osi
ris abz
ĠPol sh
Ġpunkt lari
Ġeksper tiz
Ġmineral lar
ĠLiv e
Ġbaq lajon
ĠYu N
Kiy im
ĠOqil ov
B ur
G ur
H omila
b ahor
o lay
y la
di da
Ġe sadi
oy alar
Ġp itssa
iq ob
ma larini
ĠM et
ĠT alk
ĠS ovet
Ġqar ish
siz lar
Ġkasal xonada
Ġqur ishga
Ġyordam chi
Ġharakat lanayotgan
Ġaj inlar
Ġoila da
Ġmasala ga
Ġprezident lari
Ġtartib sizlik
Ġaniqlangan di
Ġsaylov oldi
Ġtoza lab
Ġmin or
Ġkelishi ga
201 2
Ġbez ak
Ġqilayotgan i
Ġjabr langan
Ġreyting ida
Tan iqli
Ġqola versa
ĠWday Foto
Ġuchrat ish
Ġsertifik at
Ġmusiq iy
Ġassotsi atsiyasi
O k
m aktab
y ilgani
y imli
Ġ diy
ing ni
ak ror
ati t
Ġkun larida
ĠO n
Ġte shik
Ġdoir asidagi
Ġumum ta
Ġovqat lar
Ġust ki
Ġ200 4
xsh ab
Ġqir rali
Ġsuhbat lashgan
ĠTojikiston da
Ġqop langan
Ġraketa lar
bi lan
Mu am
Ġband lik
Ham masi
Ġbiznes men
ĠNav ro
Ġurf da
Ġqurb oni
ĠShar of
Vaz n
Ġkulgi li
Dem ak
ĠNet flix
Ġfollover lariga
Jurnali st
5 2
n ta
x it
la miz
il don
il masini
al likni
um umiy
ov aga
Ġj anubiy
os ton
Ġqil madi
Ġtash lang
ĠN eslihan
Ġkasal ligiga
Ġyosh Foto
Ġyosh larni
Ġyosh larning
Ġedi k
Ġtush ayotgan
ola v
Ġob odon
Ġichi dan
Ġdaraja gacha
Ġhamma ga
Ġjoylashtir iladi
Vazir lar
Ġberilishi cha
Ġkamchilik lar
Ġgormon lar
Ġisit ish
ĠAt lan
Ġqotil lik
qima chilik
Ġsem iz
Ġindi vidual
4 8
p ost
in jon
ing lar
av i
iz ga
Ġn emis
Ġf ur
Ġp ot
Ġsh eri
Ġyo xud
Ġi deal
ĠS p
Ġdeb yut
lov ga
Ġoy ga
Ġoy idagi
Ġij odi
Ġtuman lari
op a
Ġtumani dan
Ġrasmiy lashtirish
Ġrasmiy lashtirib
Ġoxir larida
Ġon k
Ġpast ga
Ġmuxlis larini
rsatkich lar
Ġkol basa
Ġpiy o
Ġsuhbat lashdi
Ġkart osh
ĠPhoto graph
Ġxato lar
York da
last in
ĠVideo dan
Ġalif b
lamo ur
urd ona
6 6
Q ovoq
n ap
p ov
ch asidagi
Ġta g
Ġqo lar
ĠK ur
ĠK ruz
ĠX X
ĠX ud
lov larni
ĠSh o
ĠToshkent dan
Ġqilingan ini
Ġxizmati Qayd
Ġyaqin dan
Ġhukum atiga
Ġqaror goh
Ġtik lashga
Ġdastur lar
Ġoxir i
ĠAbd uv
riq ish
Ġqoldi riladi
sish ini
Ġtarqat ib
ĠTash kent
Ġbuyum lari
ĠBMT ning
Sur atga
Ġishlashi ga
Olim larning
Ġishlati ladigan
Ġelektromobil lar
Ġtabass um
Ġblog erlar
8 7
E D
T S
u ka
ar siz
ar eya
Ġy eti
Ġs uli
iz oda
cha larda
Sh arq
Ġish qa
Ġtur istik
ĠC ity
ĠE p
Ġqiz ining
Ġbergan ini
Ġshak lini
Ch oy
Ġsoh ib
Ġtaklif iga
Ġavi ar
Ġbank lar
Ġqor inga
Ġjaz osini
Ġshar h
Ġqilayotgan ini
Ġjon lantirish
Ġop tim
ĠAng liya
Ġkorp us
rinbosar lari
Ġsaloh iyatini
Ġmuroja atida
ĠAvstr iya
Ġcher kov
ĠKapri o
Ġrash k
Ġdaft ari
5 3
M on
o in
sh uv
at siyasida
on ardo
ay ish
er on
oq qa
Ġham masini
Sh o
Ġqil maydigan
ĠB ey
ĠS lov
ĠR ey
Ġg ol
ĠP ompe
ĠN e
ĠG lamour
Ġtan qi
Ġyil lardan
Ġek ologiya
Ġuy lari
ĠL y
ran da
kor lar
Ġga l
ard oz
akt erial
ola ti
Ġkur tka
ast in
Ġsar oyi
Ġkurash ishda
Ġla ger
Ġmuammo larini
Ġquy ish
Ġkelish gan
Ġoch gan
Ġrang lar
Ġsinov lar
oktabr dan
Ġmaslahat lashish
rg atish
Ġklini ka
Ġusul lar
Ġettir ishga
Ġavvalgi dek
Ġtanlov i
Ġqatnov i
Ġxur mo
Ġshtat idagi
ĠRay an
Ġmusob aqa
Ġusk una
Ġdaf tar
Ġpasaytir adi
ĠOzod bek
ĠBach chan
G archi
M aj
p ress
r ati
r oz
Ġs ujet
iy oda
lan tirib
Ġe zgu
ul lar
ob ga
mas angiz
ona ga
art rans
Ġbar ham
ĠF anlar
Ġfoyda siga
kor onavirus
Ġhay ratga
Ġbemor ni
xt atiladi
Ġar miya
Ġdi sk
Ġqaror lar
Ġinson ga
Ġki chigi
Ġoliy goh
Kun dalik
Ġoperatsiya lar
Ġfan lar
ĠMat iz
ĠMur od
Ġxotin ini
Ġpat ent
ĠSharq iy
Ġantitan a
Ġkuk un
Ġkab ob
Ġallerg iya
ĠNazar bekov
boshqaruv idagi
Ġnat riy
kilometr ida
artrans xizmat
N ov
T ir
t oz
âĢĺ -
chi larining
Ġx unuk
Ġbir gina
Ġtash landi
Ġtu proq
es uela
Ġas rash
yor dan
Ġtan ib
Ġuy ini
ap man
Ġsaq lanishi
ant lar
Ġist amagan
Ġar miy
ers og
ĠTurk iston
Ġyetish tirish
Ġnatij asiga
ce des
Ġyakun landi
Ġyuv iladi
Ġjih atidan
Ġvideo ga
ĠEr gash
Ġkuchaytir ilgan
Ġmintaq ada
Ġaq l
Ġantioksidan tlar
ĠFed eral
Ġdram a
Ġpoliklini ka
Ġtantan ali
Ġbort ida
lya j
Ġakkaun t
Ġtaqinch oq
ĠFre epik
Ġumurt qa
reb nadzor
B og
C F
I dish
Q B
R aq
i otik
l en
m atga
u lar
y ida
ch uk
Ġma ishiy
ĠB ot
ĠS tiv
ĠR us
ĠP at
ĠG re
Ġmasala da
ĠYevro siyo
ĠKoreya ga
ĠMari upol
Ġof isi
Ġpandemiya ga
Ġkin of
ĠAv stra
Ġuslub dagi
Ġichimlik larni
Ġterror izm
St ress
Tosh shah
Zam onaviy
ĠVeng riya
Ġlov iya
ĠMillat lar
Toshshah artransxizmat
I spaniya
q og
y ev
z ingizga
sh er
Ġq um
Ġs tadi
am i
um in
ta da
ĠM aq
ĠT ed
Ġkir ishiga
Ġholat dan
Ġket ishni
Ġsam mi
Ġovqat dan
ĠTramp ni
Ġen dokrin
ĠAn jel
qis m
Ġegal laydi
Ġqop lash
Ð° ÑĢ
Ġmanz ara
Ġfun t
Ġvakolat li
ĠSo diq
Ġbirlash masi
ĠSu per
boyev a
Ġantitan alar
Ġalmashin uvi
Ġjad val
oi ce
A x
B ank
s ayt
at siyasiga
Ġy ovvoyi
Ġs oya
Ġe ff
Ġu p
ol ov
Ġx afa
Ġf ran
ash shoq
Ġtash laydi
Ġxabar ni
tr us
Ġal kog
Ġtush um
omat lik
Ġiq tisod
Ġpul lar
Ġtoza laydi
Ġtashkilot ga
Ġhukumat ni
Ġ0 9
Yan ada
pchilik ka
Ġnon ush
Ġalmash tir
rn atiladi
Ġappar ati
Ġmikr ob
Mash ina
Ġver siyasi
pot rebnadzor
Ġaylanish ining
Ġtarj ima
Ki chik
ojib oyev
ĠMustaqil lik
4 4
A lisher
K in
T as
h uquqiy
l ok
s da
Ġber sa
Sh vetsiya
ĠO ks
el d
Ġvaz ni
asal liq
ĠX ay
ĠSh irin
Ġmas s
Ġ4 50
ĠE ston
Ġeti k
Ġnam lantiruvchi
Ġorgan lariga
Ġnima da
Ġmul oh
ĠAn na
lin adi
ele fon
Ġkal ta
igi tali
Ġkechir di
Ġtajrib asi
Ġjuft likning
Ġuslub idagi
Ġbin osiga
Ġtran zit
Ġmeva larni
Ġxonadon ida
ĠDil shod
Ġmato dan
ĠBol lywoodtime
Ġprovin siyasi
Ġprovin siyasida
ĠDav ron
lyuz iv
okda un
5 7
8 6
B ritaniya
X orazm
c on
l masligini
n ot
r lar
ga l
on asini
or ak
iy or
iz ni
Ġsh kaf
en ce
lash a
Ġch ak
ĠB al
ĠB ag
ĠO chag
Ġay lanishini
st at
lish gan
ro pik
Bu lar
ona lari
Ġsabab larini
Ġmahsulot larining
na shib
Ġsot uv
Ġtizim larini
Ġpar da
OV AX
Ġinfek sion
ĠMirziyoyev a
Ġmuammo ga
Ġgap lar
Ġoldin ga
Ġkosm et
Ġusul da
xta sh
Ġishlat ilgan
Ġyal tir
Ġmig ratsiya
Ġbudjet dan
ĠNavalniy ning
Ġgormon al
ĠIb ra
Ġfakt lar
ĠAsh raf
oliq ov
Yapon iya
Ġreabilit atsiya
Ġtamoy il
ĠMish el
C B
K S
N a
g ey
q az
q mi
r ildi
s es
Ġs uh
Ġf en
Ġp en
ladi mi
ka jo
Ġto z
ĠM en
Ġish ora
Ġg el
Ġkasallik lardan
Ġrahbari ga
Ġtel ek
Ġloyih ada
Ġmuz eyi
rif at
Ġturli cha
Ġyon ilg
Ġ16 8
ĠAn toni
Ġjih atlari
ĠQor ako
Ġrespublik ada
Ġsir t
Ġmustaqil ligini
mar kaz
Ġsabzavot larni
ell ekt
Ġmuzokara larni
Ġfer ment
Ġyara langan
Ġjanub i
Bal ki
Ġbakalav ri
ĠFV V
Ġxomash yo
A ra
P omidor
k ot
n tar
Ġ Â
ot aj
Ġp osti
Ġqo lishiga
Ġbir lashtirish
ĠS mit
ali z
ĠK uz
ĠJ ohnson
Ġyangi liklari
Ġsi trus
Ġis yon
Ġvafot i
Ġxodim laridan
Ġolingan ini
Am al
Ġem lashni
Ġquy uq
Ġhamkor likning
qul ov
uli ya
Ġyop ilishi
Ġayb langan
Ġqoida larga
Ġbajar ishga
Ġaf sus
Shun chaki
rsatadi ki
Ġboshqaruv ni
Ġvari anti
Ġkecha di
Shif o
Dast ur
Ġuzaytir ildi
Ġbet on
Ġvah ima
itan ik
Kart oshka
Ġsalfet ka
Ġdepres siya
Ġnogiron ligi
Ġjis m
Ġmuharrir i
4 3
I ste
p lanib
ar dim
oy oz
shi lishi
Ġqo ladigan
Ġso atiga
zi lari
ĠT il
og ue
Ġor deni
Ġg er
Ġtar moqda
Ġtan aning
ad oq
Ġfoiz ida
Ġsay lovchilar
Ġmaq bul
lovchi larga
ĠAdMe Mavzuga
Ġiq tibos
Ġchora gida
yx atda
Ġfoydali dir
201 0
Ġjamo aviy
Ġof at
Ġfil tr
ĠEr kin
Ġmuallif lari
Ġkommun al
Ġshokolad li
ĠAng ela
Ġtarqal gani
ĠSulay moniy
Ġsuver enit
Ġtaassur ot
raziliy ada
K ela
c y
f ek
q inchi
z gacha
Ġt esti
ay ishi
Ġf osfor
Ġet maydi
yil larning
diy asi
Ġyordam ni
mon doni
Ġyuz iga
miz da
Ġtuz at
imiz dan
Ġtomon ida
Ġmuassas alarining
Ġsho ir
noyabr dan
Al eks
ĠMoskva dagi
ĠMus ulmon
Ġakade miyasining
irov ka
Ġboshlanishi dan
Muz ok
tov al
Ġtiy ilish
Ġterap iya
Ġkera gi
Ġdvigat el
B i
B od
D ev
T oza
x un
y da
ch e
Ġy otib
Ġh unar
ov siz
Ġr oz
Sh ar
Ġi p
oz lar
ĠS ir
Ġun day
Ġz ali
Ġte pa
20 00
ĠQ atar
Ġoshir ishda
kon lar
Ġtav sif
Ġekan ligiga
Ġyarat ildi
Ġmasala larini
Ġbe h
Ġtarmoq lardagi
Ġ200 6
Biz da
Ġrang ga
lin es
Ġtaqiq lash
noyabr da
Ġkin oteatr
Ġuyqu sizlik
Ġqi lar
Ġmart ab
Ġtir band
Ġekran ga
harak at
ĠAh medova
York dagi
pol kovnik
ua w
ĠKenga sh
Ġadolat li
Qaror ga
Ġmetaboliz mni
Tarkib ida
Ġvra ch
V I
v ogar
z y
sh et
Ġq it
Ġq ich
Ġv irusi
cha dan
Ġf ir
ĠT un
Ġet tirgan
ok ratik
ri lik
Ġtash ladi
ng li
Ġg ran
ĠP av
Ġqilish lari
uk kak
ĠJ alol
ĠX XR
ĠV ak
Ġij ros
Ġayol lari
Ġinf ly
Ġdun yoni
Ġyarat ishda
Ġbe qaror
Ġmuammo lardan
Ġsoh asini
Ġkim ni
Ġchegar ani
Ġxususiy atga
Ġrang ini
Ġjaz osiga
Ġimzo landi
Turk iyaning
Ġmetr ni
ĠSan jar
Ġmehmon lar
Ġepide miy
Ġjamiyat da
ĠSher matov
Aktyor ning
Ġisbot lovchi
Ġkaryer asi
Ġqurit ish
Ġishlati ladi
ht tps
Ġzon asida
Ġmalik asi
tari ladi
Ġkong ress
ĠLop es
Ġkot let
J abr
K O
a ladigan
b an
z ning
z lagan
am oqda
um ni
Ġko d
Ġma lak
Ġr it
Ġd or
ĠB or
Ġtur ishga
ĠG er
ĠY uz
ram oqda
ĠJ aloliddin
Ġmamlakat lardan
Ġyangi langan
Ġaniq lab
ide miya
Ġaj rim
Ġxizmat chilari
Ġtalab i
Ġla g
Ġrahbar lar
Ġvide oda
inch li
xtat adi
ĠIIB ga
nalish idagi
Ġlozim ligi
Ġtashkilot iga
Ġjih ati
Ġes ga
Ġbaho lanmoqda
As ar
Ġqatnash ish
Ġxonanda si
ĠAir lines
Ġshim oliy
Ġyashir ingan
Ġqovur ilgan
Ġbarch amiz
Far mon
Ġkiriti lishi
Ġyopish ib
ĠQurbon ov
Ġyel ka
Nam oyish
Ros potrebnadzor
essi ka
qoli shi
ĠMart in
uker berg
Ġply on
B loomberg
I qtisodiy
M enga
Q is
Ġ lik
la gich
Ġy oniga
ov er
uz or
Ġi pak
ĠP anj
Ġtur ing
Ġmah orati
lumot larini
Ġyuz asiga
ĠV atan
Ġqat oridan
nat ilgan
akt eri
Ġbarcha ga
Ġov qatga
ers ona
qon li
Ġshifokor larning
Ġvakil lariga
Ġqoldir ildi
Ġbajar adi
Ta lab
ator lar
Ġbay roq
Ġqulay lik
Ġdeput atlar
Ġnor oz
ĠIttifoq ining
Ġdek lar
Ġbek ati
Ġtoif a
Ġtoif adagi
Ġtovuq li
ĠRam zan
Ġkutilmagan da
Ġtelekanal ining
Ġtafsil ot
Erta lab
ĠGruz iya
otex nika
max sus
Ġdist ress
Ġpiyo dani
K itob
M K
S ir
S ov
T itanik
V ashington
Y et
h o
t ildi
âĢĺ .
ak ov
om in
Ġta xt
Ġf ojia
Ġbi chi
uk n
ĠQ am
lanish ning
Ġtan ada
lim ning
Ġuy dagi
and li
miz ning
min laydigan
erg ovchi
ep ortaj
Ġat algan
Ġqiy n
Ġkirit ishni
Ġpul larini
Ġovqat ni
Ġsud langan
Ġsoch larga
ĠW orld
ĠKar antin
Ġbaho lagan
Ġtil la
Ġnomzod lar
Ġuyqu ga
Ġmis olida
ĠYer ga
Ġinstitut ining
Ġqiyinchi liklar
Ġomma ga
Ġpandemiy asiga
Uchrashuv da
Ġpesh ob
Ġadvok at
Ġposh nali
versit et
V ladimir
r aydi
x in
ã ģ
an an
Ġp yur
Ġuch ar
ĠG a
ĠJ asur
20 23
lov lari
Ġl otin
Ġsur tiladi
Ġfuqaro ligi
Ġtalab alari
Ġfilm ni
Ġreja lari
yanvar ga
din ov
Ġul ug
Ġsalomat likka
Ġtushir ib
Ġ26 6
Yan var
nal tiriladi
Ġqoldi radi
ĠTojikiston ga
Ġpasay adi
Ġharorat ining
Tash rif
Ġmuzlatkich da
Ġmanzar asiga
Ġdasturxon ga
Ġkum ush
ĠChiroq chi
Ġaham iyati
uaw ei
k os
l cha
r gani
Ġm em
am etr
Ġp anj
ati ka
Ġi for
tkaz moqda
Ġqur oli
ĠV oice
Ġtayyor lagan
Ġhol ga
ĠZ aporojye
Ġdaraj asining
Ġbildir ish
Ġmarkaz larida
Ġmaslah atlar
Ġmuhokama larga
Ik kala
Ġuyush tir
Ġxulos asiga
Ġtuga ydi
zgarish larni
Ġzaxir asi
ĠNor matova
ĠMer cedes
Ġnutq ida
ĠSal mon
lor ida
Ġpozit siya
Ġobra zini
Ġxuruj i
Ġxak erlar
Yuqor idagi
D il
l langan
la qonli
ch asidan
Ġk akao
Ġm asalliq
Ġh oliga
Ġp op
Ġsh ishi
zi ladi
ĠR oman
ĠK az
Ġhisob lamoqda
Ġhay dab
Ġuz ilishlar
oniston lik
ilmagan i
Ġsoch larning
rnat ildi
Ġbank lari
Ġmen ej
Ġyeng ishga
qo ladi
Ġserial lar
Ġkomp ozit
Ġfil esi
Ġavtobus lar
Ġxavotir ga
Ġzanj abil
Ġkrossov ka
Ġprodyus er
Ġmetropoli t
7 7
J ig
P lus
S pir
U larda
e ing
k ilishi
p ri
sh ap
ch ida
at ed
on asining
adi m
ki dan
Ġbir ja
ĠT exas
ut ter
rin larni
ayotgan da
Ġku p
Ġchiqar ilmasa
Ġqilingan da
Ġis mini
Ġtuman ining
Ġayt moqda
Ġiz tir
ogi stika
Ġikkinchi si
ĠReuters Mavzuga
Ġqoida lar
Ġtashkilot larning
Ġhaydovchi ga
Ġqurol lar
Ġhav as
Ġqop lama
Ġkuchaytir adi
ĠYer niya
zgartirish lar
Ġolam ida
ĠFor d
ĠYevrop aning
ĠKol um
Ġprotsess ual
Ġolov da
ĠMeh nat
Ġinfark ti
Ġtasodi fan
Ġbis yor
Ġmetropolit eni
T ekshir
Y T
t ishni
u sida
ð Ł
Ġb aza
Ġo tib
ir lashib
ev an
lish ingiz
Ġas osi
ĠD ay
ĠV ogue
Ġdol larini
Ġkurash ayotgan
lovchi larni
Ġdar voz
Ġsoh il
Ġ11 5
Ġvide olav
Ġiz chil
Ġvakil ining
Ġsoch ni
Ġuniv ersal
Ġqarat ing
201 1
Ġuchrashuv lar
Ġqaytar di
Ġimkoniyat lari
tadbir larni
ĠUz erli
ĠTurkmaniston da
Ġpay q
Ġelchi xona
Ġdin amik
Ġqovur ib
Ġsep ing
Ġdekabr ida
Liv e
Mari e
ĠSe ul
ĠZok irov
ĠTed ros
Ġtoz ala
Ġmartab ali
A hol
B rit
B aliq
V agner
an iq
di ga
ay rat
ab ek
Ġf inal
os tan
Ġqo lishini
Ġber il
Ġish larida
ĠI T
Ġtar vuz
ĠN ilufar
ĠX arkov
ey lor
Ġyosh larga
Ġboshqa larni
Ġmahsulot ning
ala stin
oda r
Ġ9 3
Avval o
Ġman tiq
Ġvosita larida
Ġinson larga
qul lagan
Ġoch di
Ġ200 2
Ġxususiy atlarga
Ġtort ildi
Ġtest lar
Qo ida
Ġnur lari
Ġqoch ishga
Ġshartnom alar
ĠBir inchi
rq inchli
Ġfed eratsiyasi
Ġrazved kasi
Ġuchast ka
haqiq at
Ġlaqab li
Ġijros ini
P ech
Q al
g raf
l dim
n ar
n az
t ani
il os
ab ay
is k
ol on
ol magan
Ġj angi
ĠA bu
ob odda
ĠB HM
ĠO m
st ligi
ĠR ichard
ĠK eng
Ġtur t
ĠC OVAX
ĠY ar
Ġxizm atga
tr al
Ġek sk
Ġyuz i
Ġtush adigan
Ġolgan di
Ġavt onom
Ġkuz da
Ġsot ayotgan
Ġhudud lardagi
Ġoldi k
Ġsoh alarida
Ġzarur at
Ġzarur iy
Toshkent dagi
Ġmurojaat lar
eg o
Ġsalomat ligiga
Ġmashin asiga
ler eya
Ġdam da
ĠShah risabz
Ġdaraxt lar
Ġhisobot ida
mish larga
Ġfax r
Ġdron lar
Ġsaboq lardan
Ġaviar eys
4 2
5 9
K ap
l maslik
l oro
r ob
s et
Ġk oy
Ġm A
ir lagan
am ni
ay otib
ĠM u
Ġqilish laricha
ĠG uter
Ġav valiga
ĠE x
Ġsaq laydi
rt burchak
Ġsay ti
Ġ9 2
Ġsot si
Ġhukum atlar
olog ga
ĠAdMe Foto
Ġishon chi
Ġon asining
Ġajrat adi
Ġtov on
Ġurush ning
Ġsir li
llan ilishi
Ġkechir ish
Ġharorat ini
Ġtun nel
Ġpandemiy aning
Ġbila man
atkor lar
Ġyang lish
Ġafs onaviy
Ġvideomur ojaat
Eksp ert
Ġpechen ye
Ġhan uz
Ġkompen satsiya
F evral
I z
N e
Ġk rax
ish lab
Ġs oq
chi laridan
it e
ĠM A
ĠM akk
ud ga
ik yur
Ġhis s
Ġqur di
Ġmat n
Ġ10 5
Ġtuman da
ĠIn ning
Ġat ay
Ġshak lga
Ġyubor ishga
lovchi si
Ġtartib ida
Ġumum milliy
Ġjarayon larini
Ġqism idagi
Ġjinoyat ni
Ġchiqqan ini
Ġtashkilot ning
Ġyot ishdan
Ġayrim lari
rg ut
kt am
Ġmuzlat ilgan
Ġtakror lardan
ci al
Ġfol ga
ĠOb ama
Ġustoz ligicha
Ġjad vali
qor g
ĠAbdurah monov
vestitsiya lar
Ġpot ensial
Ġturt ki
4 1
7 6
D A
T ana
d ragon
k ning
r ilishi
u tib
y ov
sh iy
Ġx om
aq lajon
ĠS il
ax ovat
Ġchi qa
ĠP ic
ĠN ima
ĠY uqori
ĠQ an
iv i
Ġshi d
Ġmillion ta
Ġhay da
Ġist amas
Ġsan asi
Ġshahar dagi
qiq otlar
Ġchek adi
Ġmaktab ni
zal ligi
Ġbank ning
Ġxat ar
Ġteri siga
Ġmet eor
Ġtushir gan
Ġserial ning
Ġmaydon da
Ġuslub i
Ġbuyum larni
Ġsez gir
ĠMam aj
Faqat gina
Ġmintaqa dagi
Ġstav ka
Ġviz ual
Ġislohot larni
ĠSev ara
Ġsammit ida
Fa cebook
Ġpedag ogi
zbo shimcha
nap dragon
A er
B raziliya
D a
M i
M ag
N oyabr
h is
n ational
Ġso usi
Ġd ov
ĠS uv
Ġkerak siz
Ġsabab laridan
ĠSh am
Ġtay oq
Ġqan ot
rsat ishni
Ġyuq ishi
Ġyash ashi
Ġbelgi larini
Ġhudud ni
Ġinson ni
Agar da
Ġfoydalan iladigan
Ġye chib
ĠImages Foto
Ġpart iyasidan
Ġes lab
sht ni
Ġsarf lash
Ġqizi gan
Ġkons erv
Ġqaysi dir
Ġtab let
Ġratsion dan
Ġsayyoh lik
tiz ol
Ġqaynat ilgan
aver adi
Ġfotos ur
Kan ada
Ġballi stik
Ġtanqi diy
Ġshid dat
C D
E rt
K ompan
O AV
l larda
r shap
t emir
la masi
an na
Ġv ar
Ġs y
gi d
shi p
shi lib
âĢĿ ;
Ġp ardoz
Ġj ah
ati q
Ġish tiy
ev er
el li
ĠK um
Ġmumkin ligidan
Ġas ter
ĠG ret
ram on
Ġyangi lash
yin lar
Ġholat lardan
Ġtush ishni
Ġsi qib
Ġtayyor gar
Ġyur ishi
ĠH aj
Ġsoat lik
Ġkiy ishni
ĠAd ham
Ġtuf li
Ġter ida
Ġrahbar iyat
Ġjarayon da
Ġbuz ilish
Ġdastur iga
quvvat ladi
Ġshart lari
Ġdavr idagi
fer en
Ġmaydon chasiga
Ġoyoq lar
Ġxoh laydi
Ġpech ga
Ġvitamini ga
Ġint ellekt
Kal mar
Pol sha
Ġnihoyat da
ĠAbduh akimov
ĠOsiy oda
Ġvatand osh
Ġmiqyo sida
Bit ta
oyoz uv
p or
r ut
t s
x il
Ñ Ī
Ĩ Ĵ
Ġb y
at si
lash ishga
ĠM uh
Ġde f
Ġch eg
Ġol sa
az z
Ġchiq magan
Ġoq il
ldi radi
Ġkech di
so ci
Ġvide osi
Ġavtomobil ni
Ġ200 7
nalish ini
nalish larda
ldir di
Ġfarzand larini
ĠBayden ga
Ġtov ada
Ġfaoliyat ining
Ġush langani
zbekistonlik larni
Ġjuft liklar
ĠSt reet
Ġuslub da
Ġkanali ga
zgarish siz
Ġbaland ligi
Ġix cham
Ġâ ĨĴ
Ġsu ya
Ġsevgi lisi
Ġkamchilik larni
ph otos
Ġqosh idagi
Ġixtiy or
Ġchiqqani dan
Ġbriga da
ĠChop ra
6 2
A dolat
D ey
E F
K ino
K reml
R ey
e ning
h av
Ġv uj
iy digan
ti c
im lar
os p
ul lan
Ġso f
lgan larning
Ġish da
ĠT el
Ġkun ni
ĠS af
ĠS of
ĠS ukerberg
st o
Ġbor ayotganini
gar et
siz likka
ĠG in
Ġkasal lar
ĠQ ir
Ġvazir lari
Ġhisob ida
Ġmahsulot larga
ara j
Ġharakat langan
Ġtav all
lashi miz
Ġsot ishga
Hozir gacha
Ġtut uvchi
Ġxon andaning
Ġqarat gan
Ġmaqsad li
Ġkitob lar
Ġkredit lar
Ġpalat asining
Mah alla
Tur mush
Ġbirik tirilgan
ĠYevrop aga
Ġxarajat larini
Ġetil maydigan
Ġfirib gar
Mad ina
ĠAnqar a
Ġkrip toval
uds man
Ġboshpan a
ĠYang iyo
Ġkondit sioner
xen yan
kunduz da
Ġkup yur
L anka
P ul
S oh
Y uv
j um
r ilmagan
in e
Ġm og
ol g
Ġp uf
Ġuch rab
Ġda t
Ġol maymiz
ĠR en
Ġor bi
ĠK ab
od u
Ġan or
ĠD ar
ĠD isney
Ġkasal ligidan
lashtir ilishi
ĠSh ax
Ġjoy dan
Ġhisob lagan
Ġchiqar ishda
ĠAQSh dan
zgar ishiga
Ġtav siyasi
Ġil ov
Ġshifokor larga
Ġuchrash ish
riq ni
Ġrey si
Ġfikr da
ĠPutin ga
akk asaroy
As al
ĠOl ot
Ġkaf ed
Ġqoch gan
Qur ilish
Ġvazifa larini
Ġmala ka
Ġsaroy ida
Ġhojat xona
Ġkiri tadi
Ara lash
9 5
I r
I stanbul
R ep
U mid
Y uk
i al
p lanishi
q asddan
Ġq ashshoq
Ġs emir
ak tiv
Ġn as
Ġbi tk
Ġde l
Ġol moqchi
Ġg rant
ĠC or
ram iz
sul ton
Ġoshir adigan
chilik ni
Ġyar mini
Ġur inib
Ġtalab larga
Ġchal inib
Ġboshqar masiga
Ġloyih asiga
Ġvirus dan
Ġtarkib ini
Ġqarat a
Ta om
Ġxil of
Ġ27 0
Ġvoqea larni
ĠBelarus ga
Ġtuga shi
Ġinfeksiya ga
Tad qiqotlar
Ġbaxt siz
zgartir ishga
ĠBollivud ning
Ġdiq qatga
Ġpandemiy asining
Ġpor tali
Par hez
ĠLiv an
Ġkont eyn
Ġkampan iyasi
NA TO
Ġmagi strat
ĠMuq addas
Ġantib iotik
osit photos
Ġpayp oq
Ġsmart foni
Ġyeti m
ĠPompe o
ĠVak illar
C A
G A
T E
V ideo
Y e
i Phone
s ot
Ġq oy
is ta
cha larni
Ġsh ap
Ġbir dek
ĠT uxum
iston dagi
Ġol masa
Ġol tinchi
osh abin
ĠI van
Ġtu tash
ĠK amol
Ġqilish adi
art ar
dor lar
Ġnafar ida
dar ilib
Ġtel es
ĠTurk iy
nom asida
Ġmarkaz ini
Ġnatija larga
Ġsiz da
Ġtarix da
Ġoper ator
ler gik
Ġpishir amiz
Ġishlash ini
Ġinv estit
Yo ki
Ish on
harak atlar
Qur ilma
Ġqalb idan
Ġola man
ĠNik olay
Uz Auto
Ġappar at
Ġajrash gan
ograf ik
Ġfas lida
Ġtep asiga
Ġfron t
Ġarxit ekt
ĠAnjel ina
Ġishtiy oq
p az
z ib
ing s
ol s
ol ey
en ch
en ning
Ġso ladigan
ĠA sia
Ġbosh lanishini
ri layotgan
Ġtu h
ĠK a
ĠP ech
kaz o
ub a
ro id
ona lik
ĠD ushan
Ġchiq ilishi
rin lari
Ġ10 3
Ġmaq omi
Ġyer osti
Ġst en
Ġguruh lari
Ġdegan di
Ġuzoq likda
Ġnatij ani
Ġkut ayotgan
Rossiya lik
Ġsport chi
Ġoson roq
Ġmush kul
Ġlibos larni
Ġtosh lar
Ġkela si
Ġyurit ayotgan
Ġmig rantlar
Ġyuri tadi
Ġtuzalgan lar
Bemor larning
Ġder aza
Ġhaft aning
ĠDep ositphotos
Ġroman tik
adol u
Ġnev ar
Ġoqil ona
Q iy
T omon
sh var
an y
ta ha
ul lanadigan
Ġbosh q
Ġhaq li
ent al
Ġin s
Ġ20 30
osi dan
Ġqur ilayotgan
ad o
and ra
Ġsur tib
Ġnam likni
Ġxodim ini
zo larini
Ġoila ga
Ġovqat lanishga
Ġchegar adosh
arg oh
Ġsoch larini
ĠW all
Ġtayin lash
Ġkil o
Ġketadi gan
ĠBazaar Foto
Ġkayfiyat ni
dod li
ĠIk rom
Ġyangilik laridan
Ġomad li
Ġrez olyut
Ġcharcha gan
Ġokru gi
evra lida
Ġartiller iya
ĠAshx obod
Ġalkog ol
6 4
N iqob
O lib
Y ur
m uham
p ul
r il
s di
v ada
x em
z ak
Ġt ram
at larda
Ġh or
Ġs ust
Ġp ersona
Ġbosh lanib
Ġbosh chiligida
el s
ĠU est
Ġyangi lanish
Ġdavlat da
Ġyaxshi si
Ġhay kali
amiz da
Ġishtirok chilar
Ġfilm ini
Ch o
Ġtasdiq lanmagan
ĠAr gent
ĠAl loh
Ġxon ada
lin k
Ġfikr larini
ĠW e
Ġsaf ari
Ġvoqea dan
ĠEr chel
Ġidish da
Ġshar f
qiy os
Ġang lab
zgarish larga
Vazir ning
ĠGollivud ning
Uni versitet
Ġkislot alari
Ġbarch ani
Ġadabiy oti
Ġxiy onat
Non ushta
Ġeskir gan
Ġinsul in
Ġsvit er
Ġamerika liklar
Ġqolar li
Kela jak
soci ated
7 1
b et
Ġbo l
ek ti
os ter
ĠS E
ĠS ab
ĠS PF
oni ka
Ġg ersog
ĠI j
ada str
zbekiston ni
izm i
ĠJ er
Ġkerak mi
Ġtan ani
Ġyaxshi lanadi
Ġtez lashtiradi
Ġis maloq
Ġuz atish
Ġkuch siz
Ġsan a
mol chilar
Ġsuv osti
Ġvaziyat larda
ug urat
Ġmaj lisi
Ġbe qiyos
Ġavtomobil larni
Ġxalq ning
Ġayb lanib
Ġhujum ga
ĠYevropa dagi
Ġyeng ish
Ġmet al
ĠMa lay
Ġkamaytir ishi
ĠHindiston ning
Ġbin osida
Ġmev ali
Ġquvvat lantirish
Ġquyosh dan
rup siyaga
Ġqovur iladi
Ġnuqta i
Ð¸Ð ½
han gar
Ġsamoly otlar
Ġqomat ni
Ġdu o
Meni mcha
Ġina ugurat
Ġklast er
Ġavia chip
Ġdiag nos
ĠAward s
Ġobodon lashtirish
7 8
A q
F in
F er
n gida
v el
x us
z idagi
at on
un iy
Ġqil masligi
Ġet ayotgani
Ġqay erdan
liq qa
rsat ayotgan
Ġtop ishi
Ġqat ori
kon lari
Ġem lanishi
Ġ12 5
Ġjarayon lar
Ġtasdiq langani
Ġxususiy atlarini
Ġvazif alari
riq lash
Ġkuchay adi
yn adi
inga lak
Ġnur i
Ġbaz asi
ulot lari
Ġanj um
Ġekspert lari
Ġjin oy
Ġjin siy
Do imiy
ĠBob ur
pr og
ĠJek son
NA SA
Ġsafarbar lik
Ġkash f
Ġpal to
Ġkome diya
ĠLat viya
Ġtavall ud
6 3
H ali
t m
Ġq oq
Ġs oy
Ġbo sish
iz ayn
Ġsh ir
ili gini
Ġber ilmoqda
Sh er
Ġor oli
Ġtar zida
Ġho kazo
Ġkasal ligini
Ġsab r
Ġbar dosh
Ġholat larni
Ġrah mat
Ġ7 50
Ġyash ay
Ġxizmat chilar
Ġsar lav
Ġkon sult
sim liklar
Ġdegan da
lin ma
Ġfikr ni
Ġshakl dagi
Ġmaqsad larda
Ġtadqiqot chilar
Ġeshi tib
Ġmadan iyati
Ġamaliy otini
Ġsolish ga
Ġdiz ayni
Ġchin akam
Qay si
des sa
Ġnazor atiga
ĠTursun ov
Ġshafqat siz
Ġekstrem istik
8 8
B ay
c t
j uda
n as
x sha
y laydi
on e
il ing
ot s
ol may
ma h
Ġbosh lashga
Ġqil sangiz
ĠT at
oli cha
Ġtom or
Ġqay noq
liq lik
ĠL ay
Ġer tak
ilishi cha
ekt emir
Ġbola si
Ġdi s
Ġsoh aga
ĠMar ch
Ġraq qos
madi r
Ġsinov i
Ġbozor lari
qot ishga
ĠZelenskiy ning
Ġxotir asi
Ġobraz ga
Ġmanb ayi
Ish lab
Ġix tiro
Ġmasof aga
ĠBo eing
Ġdars lar
ĠSuriya dagi
Ġbila miz
Asosiy si
Ġmuomala ga
ĠLav rov
Tir noq
ĠGuter rish
E I
M ish
O ch
T est
b emor
m ut
s ey
Ġt ergovchi
ol tin
Ġx ira
Ġqo plab
ok isl
Ġun ash
ĠD in
ĠQ uy
Ġl okdaun
Ġdol lariga
Ġkishi larning
xon ani
Ġyar oqsiz
Ġtuman dagi
Ġur ish
Ġne gi
Ġtug atish
Ġchegar alar
Ġ200 3
Ġxalq qa
Ġnazorat ni
madi m
ĠAm erik
Ġ199 1
Ġobyekt lariga
Ġiqtisodiyot iga
Ġerkin ligi
ĠMus a
Vazir likning
Ġsu iq
Ġtelekanali da
Ġjihoz lar
Ġkuy lagan
Ġsudi ga
Dunyo da
Ġrestoran lar
darmon lar
krin shot
uga liya
Ġmuroja ati
sekund gacha
Ġnark otik
Ġvideok on
ĠChex iya
ĠJe en
Ġterak t
artar osh
6 1
B or
R ukn
T un
X ur
b il
r us
u shbu
ist e
ali sh
ĠK i
ĠP ishloq
osi bir
ap ekan
ĠE y
Ġharak atiga
Ġshahar ni
Ġkelgan ida
Ġetilgan idan
mart ga
Ġtuz ilishi
Ġqiy na
Ġrivoj lanadi
tibor ni
ĠMar sga
egar a
Ġbos qinchi
Ġchegar alari
Ġsaylov da
Ġkut ilmaydi
Ġkiyim ni
Ġlavozim ga
Ġfaol lari
ĠAmerika da
Ġpasay ib
Af tidan
Ġettir uvchi
Ġinstitut ini
Ġnamun alari
shunos lik
Ġimp orti
Ġtelevideniy e
ĠZar ina
ĠTurizm ni
ĠMyan ma
gey mer
ĠMamaj onov
osibir sk
I IV
L ab
S avdo
m aviy
s ab
t el
x alq
sh ildi
in k
ga k
iy es
Ġu langan
Ġu krain
iz dan
Ġf ot
ek sp
Ġish larga
ĠB ak
ĠS on
Ġkor tizol
Ġ20 24
Ġchiq ishda
ĠU ni
ĠU rgut
ĠF ayz
Ġmamlakat imizda
Ġyuz asida
Ġqat lami
kid lamoqda
zgar tirilgan
Ġbola kay
Ġsot iladigan
sir lar
ĠCh im
Ġchek kan
dar ak
Ġshaxs ni
Ġasos da
Ġkurash adi
Ġvosita lariga
Ġrasmiy lashtirilgan
Ġquy ib
Ġketgan idan
Ġsud da
Ġshart larini
ston liq
Ġon am
Ġ200 5
avgust ga
Ġajrat di
Ġolin sa
Ġhujum idan
Ġjaroh atlar
Ġsir lari
Ġrejim da
Ġtajrib ali
Mar kaz
Ġtekshiruv lar
qnash uvi
Is lom
Ġehtiyoj mand
Ġola mi
Ġjanjal lashib
Ġlayfx aklar
Meh nat
Mux lis
form atsiya
ĠHabib ulla
Ġfakult et
Ġgrech ka
ĠAsak a
ĠXud oy
ĠEston iya
A zov
M ing
Y ak
m siz
r ida
r ini
Ò Ľ
ch o
Ġy ir
al yan
ab ridan
ĠB ok
Ġun voni
ĠR ojdestvo
ari pov
el ektr
Ġg ar
ĠK asal
Ġqay tadi
ĠY igitali
Ġtan adagi
tkaz ayotgan
Ġal bom
ĠV yetnam
Ġqiz g
ant as
ux ta
Ġjavob i
Ġhayot idagi
Ġtomon lari
Ġust idagi
rnat gan
Ġbez orilik
sht ini
Ġmak ro
Ġtadqiqot da
Ġkitob i
Ġux lashga
dda s
200 9
bar ang
otor eportaj
Ġbosim ining
liz abet
Ġpolitsiya chi
las s
Ġmanfaat lariga
Ġpoyez di
apre lga
ĠNorveg iya
Ġinteg ratsiya
ĠBryus sel
Ġoptim al
Ġkinof esti
Spir tli
M eva
X avf
e nik
j ay
y maydi
ch qor
Ġt ims
uv on
Ġber aman
ĠM ey
ri gidan
kin o
langan larning
st al
ĠK at
ĠK em
ĠP ark
ĠU mid
ĠX en
ĠSh utter
ĠF ax
Ġkel sak
Ġkuch larini
Ġel da
Ġsot ishni
Ġhukum atini
Ġpar ad
Ġfilm larida
Ġhudud larni
Ġyubor ib
Ch ar
Ġtadbir larini
Ġtadbir larda
Ġfoydalanish da
tkazilgan i
Ġoldin da
Ġaf v
Ġmode lini
Ġhavo ga
Ġyomon lashishi
Ġyum gan
Ġof its
Ġyurit ish
harak atlarini
Ġasar lari
Ġqutqar ish
ĠAng ren
Ġkamer asi
Ġkamer aga
Ġqovoq cha
Ġnaq sh
Ġsharq iy
Ġbudjeti dan
Ġzarb alar
Ġney tral
Ep idemiya
Ġkutub xona
Ġrezav or
Ġhamyon bop
Ġfur sat
Ġiztir obi
ĠBHM ning
7 2
Y TH
d ullayev
l ob
n or
Ġm oh
ir usiga
om atga
um on
ta lari
ta liya
lgan iga
Ġqil masdan
siya lari
yil lardagi
ro siy
Ġtan aga
tgan di
ĠF lorida
Ġuy lariga
Ġjoy ni
Ġqol madi
Ġtayyor lanmoqda
Ġuz um
Ġkuch ini
Ġviloyat larda
Ġur ishi
Me gan
Ġpr oto
Ġkon feren
Ġnima ga
nom alar
Ġ16 9
chiq ish
Ġijro chi
nalish dagi
rik otaj
ĠBrit ni
ĠAn adolu
Ġjih at
ess enj
Ġtadqiqot lari
Ġuyush tirdi
Ġ199 9
Ġettir moqda
Sam olyot
Ġjamiyat ining
Ġfilmi dan
Ġkas sa
Ġmuqa ddas
Ġamin okisl
Es ki
ĠKatta qo
J ang
N ews
b ert
p lami
s geymer
y ot
y ingan
z aki
Ġb rokkoli
on se
am at
al eya
Ġta sida
Ġp ik
iya lari
Ġbu lar
Ġyet kazi
Ġyor it
Ġfoyda lanadigan
ĠH ali
ĠH uawei
Ġsay in
sir iga
Ġkech ayotgan
lovchi lari
Ġdar d
Ġ13 5
Ġlav ash
quvvat lab
Ġshart li
Ġrol lari
ilayotgan ini
Ġ23 0
Ġqoldir ing
Ġsinov larini
Ġpart iyasining
Ġinfeksiy ani
ĠYo xan
ĠÐ ±
Ġyanvar ida
Ġfor mat
Ġistiq b
Ġasr da
Qur uq
Ġprots ed
Kim dir
Ġvatan ga
Ġmuhokam asiga
Ġjangari lari
Ġyodgor lik
Ġarxiv idan
Ġnazor atida
ĠShan xay
Ġmamlak ati
Ġmasalliq lar
sto ck
rosiy ob
5 4
D ori
H avo
S erg
T ak
g ining
t ishini
si vir
as talik
ka dagi
Ġ2 20
ĠS ol
ĠK av
bu k
Ġte atri
ĠJ oz
Ġsabab siz
Ġmar sh
Ġboshqa lardan
Ġjoy ini
Ġsaq lanish
Ġega lariga
xon asini
aj on
Ġyash irib
Ġpar ametr
Ġmuammo larning
Ġhimoya langan
lis ini
Ġiz hor
Ġsov it
Ġayb lab
Ġtushun tir
Ġmos lash
Ġqarat di
Ġqarat ildi
Ġchor rah
Ġtaom larni
Ġturk cha
Ġtozalash da
Ġmik rof
Ġkechir im
Ġjoylashtir di
ĠMi c
ĠAh medov
Ġlimon li
ĠMay k
Ġqiyinchi liklarga
Ġkas biy
Ġimtihon lari
Ġram zi
For bes
Ġmetropoli ten
Osh qozon
ĠXar ris
Ġkelaja gi
Ġgubernat ori
Ġxarit asi
Ġbakalavri at
loro xin
5 6
A na
B ul
F utbol
T elefon
d us
l uvchi
l end
Ġv od
Ġs ex
Ġf e
ib ray
ĠM old
ĠO li
ĠK as
Ġxabar lari
iyat ni
em de
Ġtan lang
Ġkel masligi
ĠV ar
Ġah moq
Ġikki si
ter ror
Ġmav q
Ġshahar lariga
Ġtizim ni
Ġtuz gan
Ġat aladigan
Ġshak liga
Ġdollar Foto
tibor an
Ġorganizm ida
Ġketgan da
Ġ24 0
Ġmak kajo
Ġxona d
Ġgapir ish
Ġpasay ish
shni chilik
chir ilgan
Ġsim siz
Ġquvvat lanish
rok om
Ġaylan masi
pr il
Mak iyaj
ĠYe OII
Ġyaq ini
Yulduz lar
Ġinti lish
Yuqor ida
ĠAOKA da
Tomon lar
Ġsuiq asd
apekan ka
D unyoning
H uquq
k asining
r qib
x l
y lash
ar ruf
ga lereya
on asiga
si shiga
Ġy ovuz
Ġs ek
Ġs kan
Ġs ulton
ta f
Ġsh uk
en n
ĠT uz
st log
Ġg l
ĠP axta
Ġni madir
Ġetgan larning
Ġmash aqqat
lanishi dan
Ġ10 1
Ġur ilishi
Ġmav z
Ġtas arruf
Ġbe darak
Ġrej alar
Ġmen da
Ġbayon oti
Ġ0 8
Ġshakl langan
rak ti
Ġqolish ni
Mar hum
Ġsamara dorlik
Ġjoylashtir ildi
ĠDon iyor
Ġzir h
Ġada sh
Ġurin moqda
Ġtuzalgan larning
Ġtal qin
Ġash yo
ĠBen k
ĠVen esuela
Ġhaydov chilik
Ġodatdagi dan
organ izm
Skrin shot
ĠRashid ov
His obot
Ġsammi ti
Ġhunar mand
ĠGin nes
Ġnegi zida
M oliya
O z
T ug
g umanitar
x ar
Ġb ash
Ġt vit
Ġq otir
iy eva
gi za
av tobus
Ġke tkazish
Ġd ukkak
Ġber ar
Ġch am
ĠB ozor
ĠS napdragon
ut an
Ġtar ziga
ĠP oli
Ġav valida
ram an
rin lar
ĠSh oy
ĠE sh
Ġchiqar iladigan
Ġtez lashtirish
Ġtuman ning
Ġuz ib
Ġkelgan da
sir chan
Ġ15 00
va langan
Ġst art
nik ov
Ġon asiga
ĠBayden ni
lanayotgan ini
Ġlib osi
Koronavirus ning
200 8
ĠAQSH ning
Ġmis siyasi
Qar shi
Ġpoyezd lar
Ġaq lli
Ġresurs lar
qay ta
Ġraket asi
ĠInter national
muhit ni
irt ual
Ġmehrib on
ĠNiz omiddinova
Kuch li
ĠAvstra liyada
Tekshir uv
osp ital
Ġhor diq
ĠShutter stock
emde sivir
H D
R us
S um
T elegram
i iste
m iq
y ga
Ø §
la siz
Ġk ast
Ġt ishlar
on ida
ish ish
om o
Ġj ingalak
Ġbi chim
Ġke fir
uv vat
Ġber moqchi
ĠA pril
Ġqil mang
sa id
mas ligining
Ġg archi
rin adigan
Ġtan ga
Ġqur iladi
of an
Ġodam lardan
ĠIn vestitsiyalar
Ġmo lik
Ġprezident ligiga
Ġter min
Ġem lanadi
Ġiq ti
Ġqonun buzar
Ġqism ga
Ġtik langan
Ġust asi
Ġon asini
Ġmajbur iyatini
Ġxalq ining
Ġmetr ga
Ġchegara larini
rov noma
Ġklinik asi
Ġnor asmiy
olib i
Ġhujayra lar
Ġsu iiste
bosh lovchi
Ġosoyish ta
Ġinfratuz ilmasini
Ġprov ok
Il gari
Sar imsoq
Ġkont ent
Ke cha
Im munitet
ĠIr landiya
Ġbaravari gacha
Ġastr onav
Ġajral mas
Ġmal ina
Ġvuj udga
9 8
B ahor
N o
O S
T esla
t mish
da v
si v
Ġh ij
Ġs tik
Ġbo q
er Foto
ni ston
Ġp atrul
ul loh
ĠO rganizm
Ġay rilgan
ud jet
Ġtu yul
ĠK lar
em en
em iya
lov ni
lim lari
tgan ini
Ġqol may
Ġholat ning
Ġega sining
Ġhay ron
Ġtez lik
Ġis pan
xt or
Avval gi
Ġyetkaz adigan
Ġyubor ishni
Ġkirit magan
lam adi
Ġhal ol
oniston ni
ft un
qul langan
Ġishon adi
ĠW atch
ĠBelarus dagi
Ġxoh ish
Ġlibos lari
Ġqop qog
ĠIttifoq iga
ĠÐ º
Ġqas am
ariy og
ĠOr ol
Ġavtot ur
Ġspir t
Ġurin di
Ġtalaba larga
ĠFed eratsiyasi
Ġyakka lash
Ġlitsen z
esk ari
Ġmeda li
ĠDehqon obod
Ġkrax mal
zboshimcha lik
0 1
D avo
I F
M ol
Q ish
T og
d ingiz
f ud
n ologiya
p atrul
an cial
Ġq ada
Ġq atiq
am ay
er adi
Ġko oper
Ġf am
Ġma ftun
us ti
Ġqil yapti
ĠB raziliyada
Ġin deksi
tkaz ilishini
Ġal lergik
Ġtaq chil
Ġqiz iga
ter n
xona dan
Ġinf or
jon ova
Ġsif atiga
Ġsot moqchi
ĠUkraina dan
Ġshifokor lari
Ġvirus lar
Ġvirus ologiya
Ġyakun lariga
Ġzarar ni
Ġaytgan i
Ġfarzand lariga
Ġchet ga
Ġjang lar
Ġit alyan
nal tir
axt akor
Ġmut atsiya
Ġsutka lik
Ġidish larni
Ġyashash ga
Ġmig ren
Ġqarash da
Ġmasof ada
Ġisbot langan
rok six
Ġayti ladi
kitob larga
Ġkamer alar
yori dan
ES KO
smir lar
Ġqoldiq lari
Ġtiq ilib
Ġudda sidan
Ġplan shet
Ġfesti val
Den giz
oter ap
shvar iya
ĠMic rosoft
D ek
L ED
k asidan
p lanadi
q ildi
y lar
la j
Ġs yur
ot rop
Ġish latib
ok s
lat kich
ev ada
iga cha
iyat li
ĠX ayr
Ġ5 000
ap ar
Ġsaq langan
Ġsaq lagan
Ġfuqaro da
Ġharakat ni
Ġbola ligidan
ag en
Ġinfek siyaning
Ġhayot ning
Ġchora lariga
Ġnima larni
Ġfoydalan maslik
Ġguruh ga
quvvat lovchi
Hozir ga
Ġdori larni
ĠMa lika
Ġkuchli roq
Ġsarf laydi
Ġtadbirkor larga
Ġerta ga
Ġizoh ladi
Ġkeltir ishi
aloq a
Ġsamolyot lari
Ġjan ob
Ġoperatsiya larni
mati v
Ġdoz ani
Ġsuyuq likni
Ġtinchlik parvar
Ġvakolat xonasi
Ġpor ta
San itariya
Ġbahor da
Ġir oda
Ġjangari lar
ĠAnd roid
Ġuchuvchi siz
Ukrain aning
IS EF
Ġtonn aga
ĠPix abay
Ġbadan ga
ftor lik
ĠEp idemiologiya
stat us
Ġmalak asini
Ġkriptoval yuta
Ġsarlav h
5 1
I q
O M
Q ishloq
R S
l uq
l lashga
x itoy
Ð Ĳ
da i
at ir
Ġm essenj
ay an
iz i
Ġx ushta
os us
Ġd ovon
ud din
ĠP ens
ĠP xenyan
Ġin nov
lig ingiz
ĠG or
ĠC om
Ġmar so
Ġkir ishni
Ġqur ishni
Ġholat larini
ĠE ast
Ġsaq lanayotgan
Ġfoiz lik
ez d
Av i
Ġviloyat laridan
Ġhudud laridan
Ġmunosab atini
Ġem lanish
Ġxavfsiz ligiga
Ġjarayon ining
Ġoldin roq
Ġvoqe ani
tk asi
Ġayb lamoqda
Ġchaqir ish
Ġbuyur uvchilar
Ġtushir di
Qiz iq
Sam sung
Ġnur laridan
Ġqav at
Ġnishon ladi
Ġmajmu asida
Ġreyting ini
Ġkul rang
Ġaylan ma
Ġurf dan
til ga
ĠAziz bek
Ayol lar
Ġepidemiya ga
shunos lar
Ġkof ta
ĠAt am
ĠQurbon ova
Ġavtomashin asi
Ġaktiv larini
Ġchorak da
ĠShveysar iya
ĠAbduv aliyev
J ek
S iyos
r f
x anda
lan uvchining
im e
Ġp uxta
Ġke chib
ĠT ohir
dam an
Bu y
Ġchiq sa
Ġqan dolat
tgan idan
lumot noma
Ġkam tar
Ġtop ilgani
ĠH akim
Ġharakat lariga
Ġbirinchi lardan
Ġ9 1
Ch ilonzor
Ġhayot ining
Ġmaktab larida
Ġvide oro
Ġrasmiy lar
Ġvakil larini
Ġtut ilmoqda
Ġqu lab
ilgani dek
Ġvazif ani
Ġbank ining
Ġaloqa larini
ĠFran siyaning
nal tirish
ĠUsmon ovaning
rinishi dan
Ġhujayra lari
chin ka
Ġsil j
Ġamaldor lar
Ġraqib i
lcham i
ten berg
Ġyurt dosh
Jam i
Ġxoli s
Ġshimoli dagi
Taxmin larga
ĠOta jonov
Tinch lik
any ax
H af
L ondon
S oat
T ransport
Y unus
c s
g ni
h ay
h odisa
j iza
l ett
t osh
x ol
y ak
Ġs artarosh
lan t
ak ash
de sh
Ġke si
ul f
ul lanib
Ġbir dam
ĠS el
larga cha
dir ishi
ĠR i
Ġvazir lar
Ġtan li
Ġkam ar
son Foto
Ġyur ishga
Ġxizmati Prezident
op har
Ġprezident ligi
rif iy
Ġyakun ladi
Ġlavozim larida
Ġtashkilot larga
Ġchaqir uv
Ġfikr lari
Ġsol inib
ĠW oman
Ġmuloqot ga
ost ov
Ġnazar dan
ĠTurkiya dan
qiy otgan
Ġnuq son
An ti
Ġmanb alar
Ġdoz ada
harak atlarni
Ġterror istik
Ġbek at
Ġinqir ozi
ray miz
ĠMo del
Ġustun lik
alok at
Ġoqsh omi
Ġyarmi dan
Ġdavomiy ligi
Ġsheri gi
lcha sh
Ġhanuz gacha
7 9
A Z
F C
K XDR
T ong
q lik
y ol
sh ash
in lari
Ġt ilak
il of
iy oq
ot t
lan masa
al s
de mok
Ġp lyaj
Ġsh am
ĠM ett
Ġch ekin
ĠB a
ali tsiya
Ġay ir
yil Foto
ĠI M
ĠP rin
Ġtur gani
Ġhis sasi
ayd er
Ġre g
Ġshi mol
Ġme lat
Ġyar oqli
Ġkuz ida
Ġsam arqand
Ġfilm dagi
Ġhayot ni
Ġguruh ini
mit asiga
Ġtax all
Ġqu lagan
Ġbajar gan
Ġboshlagan ini
Ġboshlagan idan
Ġsev gan
Ġes laydi
pay ishiga
qo ida
Ġtil lar
ĠNur sulton
Ġvideo lar
Ġyili dan
Ġhujjat li
Ġendi gina
Ġkitob iga
Ġ199 8
Ġasorat lar
Ġuyqu dan
Ġobraz lar
Mu allif
Ġap re
Ġmanf iy
Ġpoytaxt dagi
ngil siz
Ġshifoxona larida
Sab zavot
Ġajrash ish
Ġqiroli chasi
ĠAsad ov
huj um
Vit amin
ĠErgash ev
ĠMaq s
Ġeff ekt
Ġbichi mli
Ġvar aq
H uquqiy
K et
K ons
R oman
f el
g ohida
n ews
q am
r uk
s oy
y inchi
Ġt eskari
ol tenberg
cha digan
âĢĿ âĢĶ
Ġp ic
Ġda y
ĠM oz
Ġol mos
Ġun dirish
ĠR im
ĠR osh
ĠK id
ĠQ ibray
Ġqilgan dan
Ġdavlat larining
Ġer ishi
Ġer tasi
Ġ6 50
ilishi dan
Ġodam i
Av straliya
Ġuz ilib
ĠCh ern
Ġchek siz
Ġter ib
ĠInstagram Foto
Ġmaktab lari
Ġrahbar lariga
nom asi
Ġpul lari
Ġorganizm i
Ġvakil laridan
yanvar gacha
Ġmos lama
Ġchaqir ib
Ġkre mni
Ġhujum iga
Ġbozor idagi
Ġsarf lanadi
Ġhuzur ida
Ġhodisa lar
ĠMuham medova
Il k
Ġpat ogen
Ġzirav or
gen iy
xtiy or
Ġmarhum ning
Ġbet akror
Ġradi o
Ġmot iv
Kech asi
Ġmetaboliz m
ĠSaid ov
Mus taqil
Ġjozib ali
boq ar
Ġaster oid
Ġgersog in
B ek
B ob
D am
J ey
O zod
V atan
j ali
k z
Ġb uly
lar ingizni
Ġy ap
am id
ay mon
ri kada
ĠO z
Ġchi m
Ġor asiga
Ġbor uvchi
kat ta
ĠJ im
Ġyosh ligida
lim da
lim dan
Ġl ogistika
Ġmat ni
tiq lol
Ġmahsulot lariga
Ġyoz ida
Ġharakat lanishiga
Ġket maydigan
Ġetilgan ini
Ġel ga
Ġshahr ini
Ġtuz aldi
Ġmuam moli
lashgan ini
tibor iga
Ġsoh adagi
ĠMar g
Ġyon idagi
Ġ18 3
Ġbah ram
Ġuzoq qa
Ġsud yasi
Ġijro chisi
Ġyakun i
Ġboy kot
Ġyuv ing
ĠAbd us
Ġxususiy at
Ġqor ako
Ġtomir larining
ĠKar l
Ġtaom ni
Ġqaytar ishga
kar am
200 6
Ġ199 7
Ġkuchay ib
Ġbarqaror likni
Ġkadr larni
Ġreys larni
Ġepide mik
Ġjoylashtir gan
Ġosti dan
SA ID
san oat
Ġsudi da
Yevro p
Film da
Ġop asi
ylak lar
Ter miz
ĠIstanbul da
yun dai
Ġmuhokam asi
Ġishtirokchi larining
Ġbaq ir
Ġkonsul lik
Mur ojaat
Ġtren d
sing il
Mo del
Ġmehrib onlik
Ġqamal gani
Ġprinsi p
ĠBot ken
ĠQan day
Dey arli
P entagon
R ob
i gan
i dir
k e
m osini
n ora
x e
an ish
Ġk eks
di g
at uv
Ġs uti
er o
ak iya
ak kur
de m
de mir
ĠâĢ Ŀ
ov ut
Ġf la
Ġde sa
ĠB ank
Ġqar iyalar
Ġun cha
zbek kino
Ġz ina
ĠD an
ĠD og
ĠY akkasaroy
liq ligini
Ġyangi cha
Ġqilin ishiga
Ġdavlat larida
Ġsur gan
Ġega siga
Ġer t
eng il
Ġhokim lar
Ġfilm larni
Ġsal om
Ch aq
Ġdavo lanishi
lantir adigan
Ġxus usida
Ġhafta ga
Ġbuyur adi
ĠW iki
Ġbozor lar
Ġomm abop
rsatkich dan
qot ishi
Ġtransport ida
araf shon
Ġmashina ga
Ġsamar asiz
Ġyigit ning
Ġtahlil lar
Ġnish oni
Ġbaz asini
Ġhujayra larini
Ġinstitut ida
Ġqozon di
Ġhurmat li
ĠMam ada
Hay von
ĠIspaniya da
Ġijodkor lari
Ġpush aymon
ikr oto
Lu kash
ĠIndonez iya
Kompan iyaning
Ġzirh li
Ġbahram and
7 3
7 4
R am
l may
p lash
r ishini
v ori
z ot
da k
Ġt iladi
ilgan ida
ilgan idan
Ġda b
Ġr atsi
ma gida
ĠM ang
qar rar
Ġay iq
ĠK evin
ĠP iyoz
ĠG om
uvchi lari
ĠL am
Ġdol chin
Ġsay lovchilarning
Ġist aydi
oda ra
Ġosh xonasining
Ġqaror ida
Ġsav oliga
Ġyubor maslik
Ġmuhim ligini
ĠInstagram Aktrisa
nom ada
Ġnarx larining
qon iy
Ġmashhur lik
Ġhamkor ligi
Ġkut gan
Ġmunosabat larning
ldir ishga
Ġfarzand ning
lin ton
Ġbozor iga
Har ak
Ġno aniq
Ġyengil lashtiradi
och ka
Ġoyoq larni
Ġ199 4
Ġobyekt larini
ĠOl tin
Ġmustaqil ligining
Ġqisqar ishi
Ġkengay tirilgan
Ġshim lar
Ġjavobgar likni
Ġqobiliy atiga
ĠLukash enkoning
Ġfoto graf
Ġchang yut
ĠHam id
Ġkompl eksi
Ġimtiyoz lar
Ġhamm amiz
Jam oat
Ġoqim ini
Ġkoll eksiya
Ġulush ini
Ġrom ani
Ġkafed rasi
Ġtram vay
hangar on
Ġsamarqand lik
A xir
P ish
b ozlik
Ġm om
am ond
er iya
ka ut
Ġqo layotgan
it ni
Ġet ishiga
ĠB ektemir
Ġol mayman
dir ishga
Ġg ilos
Ġas qat
Ġqay iq
ĠD ragon
ĠY on
ĠF ox
diy eva
Ġyordam ini
Ġoshir ayotgan
Ġtez ligini
Ġsoni ga
ilish ga
sir idan
Ġfar qi
Ġjavob ini
iyul dagi
Ġbe jiz
Ay tish
Ġfoydalan sa
Ġ14 4
Ġjarayon larida
Ġqonun ning
lag ini
Ġishon ib
Ġon alar
Ġtex ni
Ġvoqe alari
Ġbajar ib
riq lar
Ġhujum lar
Ġsaf iga
Ġbosqich ga
sht li
Ġyili da
Ġtuga ganidan
Ġyurit di
vet of
Ġpich og
Ġrekord lar
ĠAk bar
Ġrejiss ori
Ġahvol ga
Ġmil lati
uliy atni
Ġqutqar ib
ĠUxan dagi
Ġaq liy
Ġkunduz gi
ĠShoh ruh
Tadbir kor
Ġjoiz ki
Ġgraf f
Mun tazam
Ġepiz od
ĠJeen bekov
Ġiqti dor
ĠAtam bayev
G en
P ekin
Q andli
S ujet
V al
h em
k uy
m us
p orti
la man
la gach
Ġo tr
Ġm ohir
gi giy
ĠâĢ ĭ
Ġber maslik
re st
lish ning
ĠK rem
uk lar
Ġav okado
yor iy
Ġl o
Ġjoy larni
Ġjoy lariga
Ġemas man
Ġtez likni
ang la
Ġsan asida
sk ay
Ġxodim larni
Ġtak tik
Ġtel eradi
Ġhim oyaga
Ġmuhim ligi
xtat ishni
Ġye b
Ġdavr asida
siq lar
bo shi
Ġniqob i
Ġchor va
Ġbozor ga
Ġjaz ir
pay adi
kar antin
Ġkechir adi
Ġmag nit
Ġbaz asida
Ġmajmu a
ĠArabiston ida
Ġorzu si
Ġvan il
Ġtini msiz
Ġquvon ch
Ġchan qoq
ĠAntoni u
Ġdat chik
P ad
Q ov
R ah
S paceX
o ziga
Ġb r
ili ga
adi d
ul lari
ĠT e
Ġmu qarrar
oz iq
ĠS ardob
Ġay ta
Ġol mayapti
Ġhar or
Ġin k
Ġa chin
Ġxabar ga
ĠD urdona
ĠSh ot
Ġuy ali
Ġtush moqda
Ġket sa
Ġosh paz
Ġishtirok chisi
Ġpar v
Ġpar randa
Ġkirit ishga
Ġmarta dan
ass eyn
Ġvaksina larning
Ġiz i
Ġerkak ning
ĠAbd ux
Ġchiqish ida
Ġsmartfon ini
Ġtili ga
Ġuslub ida
ĠJSST ning
ĠOAV lari
Ġmanfaat li
ĠKan ye
ĠNor boyeva
Ġkaryer a
Ġmasjid lar
shan dan
ĠBol gar
Ġuchir ilgan
Ġmehn ati
Ġqiymat ini
Ġqiyof asi
Br avo
Naf aqat
Dep ut
Ġinqil ob
Ġkorporat siyasi
Ġsehr li
Ġmatem atika
Ġsyur pr
I b
M illion
R ang
f yum
k ech
l sam
r ayotgan
sh il
an ali
in am
in aning
da vlat
lar us
Ġk er
Ġk adastr
ga m
Ġq udrat
ing da
Ġs ingan
ur od
om ot
Ġko kos
Ġso z
it ora
ĠB og
lish dan
ĠP el
ĠP rot
ĠP riyanka
kil oti
diy aning
Ġdavlat dan
Ġjoy larini
Ġim om
Ġkel maydigan
Ġku chiga
Ġyaxshi laydigan
Ġkasallik larini
Ġ10 8
op ol
Ġxizmat ini
Ġman ikyur
Ġtuz ib
Ġishtirok ini
olog iyasi
Ġhudud larning
Ġhudud lariga
Ch et
Ġbe larus
Ġqism lar
Ġbos gan
Ġchegar asiga
Ġmodda larning
Ġajrat ilishi
Ġfarzand ining
ĠAn ton
riq li
Ġhaqiq atni
eg et
Ġturgan ini
sht eyn
Ġmodel larni
kar lett
pchilik ning
Ġturk iyalik
Ġpasay gan
llan ma
Ġyol lanma
Ġkelishuv lar
Ol din
Ġtexnologiya larni
ĠEm ma
Ġarx e
otsi kl
Ġyas ash
ĠKong ressi
Ġkeksa lar
ĠLondon da
Tadbir da
ĠYus uf
ĠKal kin
Ġpedag og
ressi v
Ġarziy di
Ġbitk oin
Ġavtotur argoh
K of
T axt
c ess
w agen
âĢĺ âĢĿ
il may
or e
ing em
Ġv ayr
Ġva lyut
ol t
Ġp rop
Ġj un
tir uv
tir adigan
ali ti
Ġmumkin ligiga
siz ligi
Ġviloy atga
ĠQ QS
ĠE niston
Ġyuz ma
Ġtaq oz
Ġga st
ldi k
Ġman da
Ġkech ishga
Ġfilm lardagi
Ġbal zam
ĠII I
Ġyarat ishni
Ġyig irma
Ġrahbar ini
Ġturm ushi
Ġquy ing
Ġtik laydi
Ġerish ildi
Biz ga
Ġtushun cha
Ġtushun tirdi
uch an
Ġajrat gan
Ġtayyorlash da
quvchi larning
Ġancha dan
ĠMe di
ilak tika
Ġkuchaytir ishga
Ġshikast langan
Ġshahzoda si
Ġchiz ilgan
Ġir q
Ġekst radi
Ġshubh ali
rs atiladi
ĠSob yan
Ġziddiy at
Ġster ling
Jar ayon
Qal qonsimon
Ġshiddat li
C NN
H ind
J igar
Q as
Q ul
a c
e pan
g ov
h ish
k oniga
z ura
an as
il uvchi
Ġv irtual
Ġs ens
am ga
ay lik
lan masligi
lan madi
Ġber ishiga
Sh okolad
oz ning
Ġol qish
mas alan
ĠK ey
ĠN o
Ġnafar ining
lumot larida
Ġetgan idan
Ġikki lamchi
Ġqiz larning
Ġket maydi
tar ilishiga
Ġkar iyes
mol ini
Ġyaqin lashib
Ġsot iladi
Ġhukum atlari
Ġorgan ik
Ġqaror lari
Ġoz ishga
Ġpr av
Ġkon struksiya
Ġetish dan
Ġsin tez
Ġbuz iladi
Ġrol lar
Ġjinoyat larga
Ġxon asi
larimiz dan
Ġdaraja dan
for mat
Ġno ut
Ġno kaut
Koronavirus dan
ulos a
Ġkelayotgan i
Ġ199 5
Ġettir ilmoqda
ĠTash kiloti
Ġdoza dan
Ġsiyosat chilar
Ġmanb asiga
Ġolmagan i
Ġjarohat langan
ley k
Soch ni
Ġmutla q
ĠRajab ov
Ġlit sey
Ġhajm ining
Ġmikro organizm
Ġprotsess ori
Ġstansiya lari
ĠTan zila
alim piya
ĠĠĠĠ ĠĠĠĠ
Ġfid oyi
Ġqochoq lar
Ġnonush tasi
ĠPic ture
Ġsten okar
Siyos at
Buy rak
Ġtexni kalar
Ġparv ozi
E shi
G ruz
G onkong
h ozir
l guncha
z larga
Ġ arter
li siga
Ġbo b
ur qat
ab h
ab on
Ġke ti
Ġso chi
zi lat
Ġay oli
dam iz
kat larni
oj xona
lov i
man da
Ġqan chasi
tkaz ishda
tkaz gani
Ġaniq lanadi
Ġjoy lardagi
Ġholat larga
ĠV asi
Ġchiqar ildi
abi at
Ġyoz ma
Ġket masligi
Ġhol sizlik
ĠZ afar
Ġmur os
Ġchek adigan
Ġinson larni
bur iy
Ġtasdiq laydi
Ġdastur iy
est er
Ġerkak ni
Ġayb lanmoqda
Ġaloq alari
Ġlavozim i
ĠAl sgeymer
Ġyuk latilgan
Ġbajar ilishi
Ġbuyur ish
Ġmen emen
Ġdaqiqa lik
Ġenerg iyaga
Ġmaslahat chi
Ġmaqsad lar
Ġpasay ishiga
Tay in
Ġiqtisodiyot ning
Ġmustaqil ligi
Ġuniversitet ini
Qiz ig
Ġjamoatchilik ka
Ġakade miy
Ġgul lar
Ġ37 0
Ġxamir i
Uz un
Ġpsix otrop
qos lash
Ġsp ekt
ĠLe onardo
Ġpozit siyasini
Ġxarajat larni
Ġkombin atsiya
ĠJen ner
Ġbax sh
Ġistiqbol lari
Ġpremyer asi
qqi siga
okrat lar
atal ya
Ġjamlan masini
ĠSpir s
omet rik
ĠKum ar
M O
N arx
S im
b az
e dik
i on
q al
t sa
Ġt rikotaj
ish on
lan iya
Ġda xl
Ġish taha
st ab
ĠI ordan
Ġtur iga
may ga
ĠX iva
ĠQ ishloq
Ġtan ishi
ĠSh on
Ġkir ishda
ĠF loyd
ĠF alastin
lagan ini
Ġoy larda
Ġsur ilgan
ĠL in
ĠH e
ant al
Ġket ayotgani
Ġtuman lar
Ġayt aman
Ġoqib ati
Ġshaxs lardan
Ġavtomobil larini
Ġdastur larini
Ġkes ilgan
Ġhujum ni
Ġmuloqot ni
rinish dagi
Ġvitamin ini
Ġqaytar gan
Ġtadqiqot larda
ompan iyasi
ĠAmerika lik
apti va
200 3
Ġ199 3
Ġtuga gan
Ġyurit uvchi
Ġrivojlanish ini
Ġpolitsiya chilar
Ġisb oti
ks wagen
Ġqola miz
Ġart erial
Huj j
Ġ196 2
ĠBel giya
Ġmurabbiy i
ĠNet anyax
Hujjat da
ĠSulay mon
ĠDem okratik
Ġfarm oniga
Ġoby ektiv
Ġtomor qa
Ġyetkazi ladi
Ġistiqb olli
3 00
9 7
J av
L it
M uk
P er
R VI
S er
X HT
h er
i Foto
j ir
k ori
y liq
Ġ dim
in ada
Ġb asseyn
Ġm iyaga
ir i
ak h
Ġx it
Ġko gni
Ġma o
Ġish sizlik
ĠB in
ĠK l
ĠK in
ĠK ay
mi g
Ġaniq lanishi
Ġsur atda
Ġga shish
Ġharakat ining
Ġar miyasining
Ġchek ish
Ġyer ni
Ġrivoj lanib
Ġqolgan da
Ġloyih aning
Ġloyih asining
Ġmus odara
Ġaniqlangan ini
Ġvaksina lari
Ġorganizm dan
lak larini
Ġyoq qan
Ġtushun tirib
Ġkasallanish ning
Ġavi atsiyasi
Ġsavdo lar
Ġmutaxassis larning
eg ishli
Ġchet lab
Ġserial larda
Ġquv ib
Ġvazn ga
Ġkosm os
Ġhujjat da
Ġbur ni
Ġbit tasi
Ġyigit lar
Ġbl end
Ġterror chi
Ġsalat ini
zgartir adi
Ġgen etik
Ġtonna dan
Ġkuy ladi
enni s
Ġolam iga
ĠMajlis ga
Ġprepar atlar
Ġyut qaz
Ġsakkiz ta
Ġmaqola da
Ġpak eti
Ġzahar lanish
Ġmijoz lar
Ġdirektor ining
ĠKer ri
Ġqadi m
Shax siy
Ġsul h
ĠGam aleya
Ġbarg lari
Ġishtah ani
ĠBeh zod
Yar im
ĠBand lik
Qis qa
ĠArgent ina
rokom issiya
Dek abr
Ġayir bosh
Ġkogni tiv
D izayn
N oto
U st
Y igit
m erlar
r ani
r gim
s lon
z laridan
ar lar
Ġm iyaning
il uvchan
si sk
Ġy iroq
lan maslik
lan giz
Ġta gacha
Ġf ab
Ġj im
ĠO dil
Ġay r
oli gini
ĠI P
ĠK O
Ġbor ishini
Ġbor ligidan
ro u
ĠG T
ĠC aptiva
ĠJ astin
lanish ining
Ġharak atga
ĠMir obod
ĠMirz a
Ġpar k
rgan ishlar
Ġbildir ishicha
Ġhudud ining
Ġdavo lanishni
Ġbuz adi
Ġbos qini
Ġnatij asini
Ġmunosabat lariga
Ġrey est
Ġtaqiq ladi
Ġ0 6
Ġkomis siyasiga
qot di
Ġrespublik asi
ĠMa daniy
Ġmaydon ga
Ġqatnash di
ĠHindiston ga
Ġyashash ni
rn ak
ĠRah mat
Ġkelajak dagi
ham at
Ġkorp usi
Ġsharq dan
ĠDonbass dagi
Ġfunk siyasi
Putin ning
Ġmahbus lar
ĠViktor iya
Ġtushkun likka
Ġmuhandis lik
ĠSto un
Qat tiq
Ok tabr
ĠPhotograph y
Ax borot
ĠJalol ov
Jig uli
Ġpersona j
Ġanjum ani
Ġekstradi tsiya
/ âĢľ
B anan
I lon
M ut
M oda
M eksi
Y ot
b udsman
g n
j ut
k otib
r ilishini
z ar
â ĪĴ
an aga
Ġk abin
Ġo jiz
or iyasi
Ġs ent
Ġs ath
oq chi
Ġn evr
tir a
ob e
ĠB un
ĠB illi
ari k
ori g
ĠU S
Ġqur ilishini
Ġqol dim
Ġmahsulot laridan
ĠH yundai
ig ment
Ġbola ligida
Ġprezidenti ga
Ġyaqin lariga
rgan ishga
Ġpayt lar
Ġiz lanish
Ġtopshir iladi
Ġsud lanuvchi
Ġoch likni
ldir ilishi
Ġkompaniya ga
Ġtayan ch
Ġtarix dagi
Ġep idemi
Ġmen dan
Ġoper atsion
Ġvakili ga
Ġquyidagi larni
Ġok sid
Ġqora ladi
Ġchegara dan
200 5
Ġsamolyot da
ĠJon ni
Ġdaromad lari
Ġband ligini
Ġqurilma lari
Ġsekin lashtiradi
Ġsentabr ida
Ġinqiroz ga
El chining
Ġreak tiv
Qay ta
Ġhamshir asi
Ġprokuror ning
Ġsaloh iyati
Ġvan na
Kech ki
Ġnos oz
Ġrep ortaj
Ġfarm oy
Pod s
Ġmamnun iyat
Ġup asi
ĠAdham jon
ĠMamada liyev
I X
k es
r ayn
t asini
y algan
Ê »
sh u
on na
Ġs vetof
lash ayotgan
tir ing
tir gani
Ġham mani
Ġr ektori
uv affaq
Sh uhrat
ĠT ojiboyev
ĠT eylor
ĠB et
ĠS ing
ĠK linton
ĠP od
Ġbor ligiga
Ġtur larini
ĠSh ols
Ġuy langan
son ar
Ġshu lar
Ġtush ishiga
Ġtayyor lashni
Ġ10 6
Ġuz atilgan
Ġel ekt
Ġtas dig
ĠCh er
Ġhudud dan
Ġst udiy
rit sa
port s
Ġqism larini
alan d
lmagan ini
Ġbah ona
Ġketgan di
Ġerish a
mur odov
Ġkasallanish lar
Ġfaoliyat ni
Ġmarkazi dan
Ġovoz ini
dori lar
yur t
Ġolim larning
Ġbur ilish
ĠTojikiston ning
Ġziy oli
ayr ut
Ġegal lash
Ġ199 6
xta gan
Ġjuft ligi
Ġbarav aridan
Ġnor don
Ġaralash mani
ĠIta liyaning
Ġpishloq li
Ġahvol ini
Ġtarbiya lash
Ġnut qi
Ġtalaba larning
Ġdiqqat ni
Ġder az
Ġvelosiped da
Ġinspektor lari
Mashhur lar
Ġistam aydi
Ġtafsil otlari
Ġabituriyent lar
Ġsuz ish
Ġfiz i
ĠDeni z
Ġzah arli
Ġmez on
Ġses siyasida
Haqiq iy
ĠZe landiya
Ġmuolaj alar
Ġchak ana
Ġkoy ka
kotib i
C C
O chiq
R ayhon
S T
S ardoba
b y
b andi
d ullayeva
l ma
t kalar
y angi
z yan
Ġ Ñģ
sh ar
da qiq
da raj
at oriy
ir li
on t
on dan
Ġp ro
ib i
os os
ĠA i
Ġish chilari
Ġet ayotganini
Ġhaq ini
lay siz
ent ily
Ġnaf is
Ġz onasi
ĠJ um
ĠU b
Ġbar ini
Ġyil ni
Ġqol in
Ġyuz da
ĠRossiya lik
Ġavt o
mat buot
Ġmuam mosini
Ġnarx da
Ġishon gan
tirgan da
Ġkre mi
Ġyomon lashgani
Ġshakl lanishi
Ġovoz li
Ġbur cha
Ġtaqdir langan
200 7
quvvatlash ini
Ġavvalgi dan
Kasal likdan
Ġrivojlanish ining
Ġkelin adi
Ġtish larni
jayev a
Ġmuzokara larga
Ġpoyabzal lar
ket bol
uliy atli
II I
ĠPar izoda
ĠMur ojaat
ugur atsiya
Ġnomin atsiyasi
ins let
ylayman ki
Ġoqshom ida
Ġbuv isi
Ġqamrov li
ĠIsmo il
Ġpedagogi ka
chqor ov
9 6
B ila
D P
X ulosa
l n
o dam
Ġk alit
on tepa
il maydigan
Ġh ur
Ġs krinshot
ot ga
Ġu kol
Ġf az
Ġsh a
Ġsh ogir
Ġbi ladigan
af ot
re w
Ġun utib
Ġg ert
ĠI ris
Ġz enit
Ġa do
Ġtur ishini
Ġte ga
Ġak siz
lov a
Ġmamlakat ida
of ur
Ġqol ingan
ĠE rg
Ġ10 2
Ġvazirligi da
Bir oz
Ġharbiy larning
Ġavval dan
Ġtuz di
Ġshaxs ini
Ġaktris aga
Ġvirus olog
Ġbos uvchi
Ġqu lashi
Ġpart iyasini
Ġgi p
Ġkirish gan
Ġshakar ni
Ġqurol lari
Ġishlash da
ĠNov osibirsk
Ġidish lar
zbekistonlik larga
Mar osim
Ġnor ma
Ġbarqaror lik
Ġtor tadi
Ġyuqumli roq
Ġjamiyat ning
Ġhik oy
Ġroli ga
zgartir di
ber diyev
ic ial
Ġshifoxona larda
Ġola siz
Ġver siya
Ġkanal ga
Ġlin eyk
Ġaskar lar
pe dia
Ġmuhit ini
Ġgav jum
ans ur
Ġkv ot
Ġishlati lishi
May da
ĠOb id
Hindiston ning
ĠIm ron
Ġram ziy
Ġinvest orlar
Ġnusx asi
ĠInter net
Ġsm uzi
Vide oda
Ġsti pen
Ġmuloh aza
ĠMalay ziya
xus usiy
Yunus obod
Ġteleradi ok
stab loger
M iya
S oy
T witter
e Foto
n aq
n gach
p rom
q uduq
r ek
r uza
s sv
t ishiga
z imizni
la ck
li van
at vor
Ġm ina
ab anda
Ġn ob
Ġn iyati
Ġsh ok
ĠM ol
Ġish qiy
oz av
ĠR iv
mas ak
ĠI D
ĠK ech
Ġz alida
ĠD NK
lashtir ildi
Ġqilgan lar
Ġyosh lari
Ġmar kali
Ġfoiz li
Ġhay f
xona larda
Ġharakat lanadi
ingiz ning
Ġavt or
Ġberilgan ini
Ġbil may
Ġbirga likdagi
Ġar bob
Ġqiy os
Ġoila sini
Ġprezident ga
shiq lar
Ġavtomobil da
Ġtik lanadi
Ġdastur ining
pp os
Ġust ini
Ġnarsa larga
Ġmodda sini
Ġtomir lar
Ġtele boshlovchi
shin lar
pay gani
Ġvitamin larga
Ġmehmon xonada
ĠHar biy
Ġbosim ni
Ġyotqiz ildi
Tayyor lanishi
Kasal langanlarning
Ġix los
ĠNATO ning
Ġyuqor iga
Ġgazet asiga
Ġbakteriya larni
Ġyetti ta
Samarqand da
Ġmavzu si
Ġumr bod
Namangan da
ne ft
Ġtorti lishi
Ġsharbat ini
Ġrez ina
Anjel ina
Ġlaborator iyada
Ġdaryo si
Taq qoslash
yinchoq lar
ww w
Jabr lanuvchi
matbuot kotibi
ssv matbuotkotibi
A ziz
F i
Z anj
a lik
c an
o dik
r v
z iyev
z oqov
Ġ lif
âĢĺ âĢĭ
ch ar
ir choq
il mayapti
ilgan dan
Ġkun idagi
ĠB uk
ĠB arak
Ġqar ishga
ĠK u
ĠK et
Ġ20 25
ub orak
ĠU inslet
lanish ida
Ġkir a
Ġmamlakat lariga
Ġyuz dagi
ĠL iga
Ġtush ishga
Ġich ing
Ġmahsulot dan
Ġhay dash
do di
Ġkon ting
Ġkurash ga
Ġst udiya
ande x
Ġnarx larning
Ġiz lari
aprel dagi
Ġyakun lanishi
ĠAbd uq
Ġnash riy
rnat di
rnat ishga
par ast
Ġbozor ini
Ġchet dan
Ġtaqiq lab
Ġpoli organ
Ġport lab
Ġsanksiya lari
Ġkechir moqda
Ġtajrib aga
Ġxotir asiga
ĠYer evan
Ġtanlov ida
Ġqul upnay
Ġad liya
Ġyuqor iligi
Ġparvar ishi
Ġtoif aga
Ġshartnom ani
Il oji
Ġnoyabr ida
Tadqiqot chilar
Ġnomin atsiyasida
Aks incha
Mun isa
Ad Me
Ġqochqin lar
ĠYev geniy
Ġkoinot ga
At rof
Muzok aralar
ĠPav el
Namoyish chilar
Ġproto kol
Ġgl obus
roksix loroxin
Ġgraff iti
Ġspekt ak
Ġhayf san
A g
F avqulodda
S J
S axovat
Y oq
f in
g ol
l lashni
m iga
la sangiz
Ġo sib
il mas
Ġv et
Ġu ran
ur uq
Ġko alitsiya
Ġf evralida
Ġham jam
Ġber masligi
Sh ay
ĠS ara
Ġtash lashni
ĠR eyn
ĠN as
ĠX KS
Ġkir adigan
ĠL ego
Ġzar ari
Ġchal indi
Ġnam lash
Ġtuz langan
Ġoz ish
Ġtaklif larni
uli ga
Ġxalq imizning
Ġtut ishi
Ġsharoit larni
osk op
ĠAl lam
Ġgaz langan
Ġ0 1
ĠNur said
Ġvoqea larga
yur ar
Ġsurat ni
200 4
ĠMah alla
aygan larning
Ġang lash
zim ga
Kasal langanlar
akkab og
Ġsabzavot li
Ġpiyoz ni
Qur itilgan
Far hod
Ġaskar lari
Ġyuqtirgan lar
ĠIroq dagi
Ġaudi o
ĠIm om
ĠRo uz
Ġkoll ek
Ġtarqal moqda
ĠVol kswagen
Ġfron tal
Ġguvohnom asi
Ġqayna shi
Ġnabir asi
Ġsuh bati
pri gi
Ġorbi taga
rgim chak
' s
8 1
P ishloq
S e
U N
V iktor
Ñ ı
ar az
at s
er lari
lan maydigan
chi lardan
cha dagi
Ġp er
ra ga
Ġj ilov
sa j
ĠS v
st algan
ent ra
Ġas k
ey l
ey ev
Ġyosh ini
ĠF uqaro
Ġfoiz idan
Ġyuq ish
Ġqat n
Ġodam dan
ig shid
Ġkuch larni
kon sert
Ġkur ort
Ġtuz ilm
Ġtuz alish
ĠCh o
Ġyer usti
Ġshaxs lari
Ġhim oyasi
Ġjarayon larni
xtat ilishi
Ġuzoq da
Ġyulduz iga
Ġijro sidagi
Ġmuvaffaq iyati
Ġbozor larida
Ġcheklov larini
Ġort idagi
Ġoper atsiyani
ij d
Ġsir op
Ġraqam iga
Ġerta labki
Ġhav z
Ġqahramon ni
Ġfil e
Ġqi lardi
Ġmod ul
Ġmis siya
Ġyashir ishga
gich lar
Ġnishon lash
Ġduch or
Ġgen otsi
Ġqovur ing
Ġmol ek
Ġyom oni
Par voz
Ġnamun asi
Jo urnal
Ġijodkor lar
Ġtij oriy
Nav alniy
Jan ob
Ġoke ani
ĠIbroh imov
rgaz ma
mondon ligi
Ġsuver en
Ġkontr akt
Nik ol
Ġqoz og
Ġtelek om
rshap alak
Ġxonad oniga
ĠKid man
ĠWiki pedia
eget ari
ĠUb ayd
B ah
S uper
b ard
b obi
r qi
s ang
u i
v aniya
v oza
da l
Ġk en
Ġo da
ot ransport
ur e
om al
ul u
Ġ1 200
ma sh
Ġdav ridan
Ġbor gani
Ġz ot
ĠN af
ĠG ab
Ġyet tinchi
ĠY andex
Ġaniq lansa
mon ing
Ġjar im
Ġxizmati dan
ingiz dagi
uj eti
Ġmun oz
Ġ19 80
Ġharbiy larni
Ġasos li
Ġtartib dagi
Toshkent ning
lini b
Ġsoch lari
Ġayb lanuvchi
Ġfarzand ni
Ġniqob da
sentabr ga
Ġxil ma
Ġ28 0
Ġimkoniyat larni
Ġtelefon da
Ġtezkor lik
Af rosiyob
Ġalmash ish
Ġmuxbir ining
Ġnor mativ
Ġqayt ishga
Jahon gir
Ġquvvat lantir
ĠFar rux
Ġmil k
Ġdiabet ning
Ġqarin doshi
Ġshifoxon asining
Ġshtat ining
Ġaylantir gan
Ġkas aba
iyoz ova
moli dan
Ġmajburiyat larini
Ġqizar ish
Ġburchak larida
Ġshaf t
ĠXur shid
Ġtini q
Naf as
jin si
ĠButun jahon
Ġqiynoq qa
Muam mo
antas tik
ĠShoy gu
ĠIris ov
Ġnob ud
/ @
8 2
A MA
B e
C ola
K ris
R ak
s aki
Ġ lar
Ġ adi
in f
il b
si der
Ġv el
Ġs adoq
Ġu lash
Ġp os
ek at
Ġsh uhrat
Ġyo shiga
Ġber ilib
Ġto zal
Ġi taliya
ĠT ech
ĠT inch
ok o
ĠO stin
Ġkor eya
Ġtur a
Ġtur ist
may dagi
ĠG e
ĠG al
yor ni
yor ida
ĠQ ovoq
lashtir ishda
Ġqan aqa
Ġaniq lovchi
tirish ni
ĠV ohid
Ġharakat lanuvchi
Ġ10 7
Ġ10 9
Ġsan ch
Ġsan atoriy
Ġxizmat larni
Ġsot ildi
Ġar zim
Ġhudud lardan
Ġmud ofa
Ġpayt dagi
Ġinson iy
Ġbe xabar
Ġem langani
Ġnarx larini
Ġturm ushidan
Ġtarkib idan
Ġishon aman
ĠAbd ura
Ġajrat ishni
Ġsinov larning
Ġkamay ishiga
Ġzam in
sil vaniya
Ġyomon lashgan
Ġxona ga
Ġmetr lik
Ġqov un
Ġiqtisodiyot ini
ĠTim ur
Is tiqlol
ĠMus ayev
Ġkelin moqda
Ġtexnik asi
sel ona
Ġmer osi
Ġjihoz lash
Ter ining
Ġbuzgan lik
ĠBar n
Ġbuyrak lar
Ġgripp ga
Hatto ki
Ġgub ka
Ġobra zida
ĠStar ship
Ġgraf ik
ĠSk y
Ġozuq aviy
Om maviy
Rey ting
ĠYoxan s
ĠMold ova
Ġdab dab
gigiy ena
ĠSobyan in
M ik
P al
R T
T il
Y agona
b al
i per
k lub
t magan
z langan
z Li
ch qa
Ġq abar
ir roq
Ġy onidan
lan yapti
om ar
om ini
Ġf ast
Ġyo shidan
ladi k
Ġ1 21
it lar
dagi dan
Ġqil yapmiz
ĠT ez
oz da
ĠO hangaron
ĠI sa
Ġtu p
ad di
ja liklari
Ġdol larning
Ġoshir ilishini
aga zin
emor and
Ġavt oh
Ġkuz gi
nat ish
Ġel liklar
Ġqolgan di
Ġaniqlangan idan
Ġtaklif ni
tax min
Ġbuz gani
Ġtarmoq larida
Ġkiyim lari
Ġtest dan
Ġsaf aridan
ĠEron dan
ver maydi
Ġqachon gidan
Ġhujjat ni
Ġtuxum ni
Ġusul ini
ĠSt oltenberg
qnash gan
ĠKoronavirus dan
ĠAs sociated
Ġtomoshabin larga
Ġmuzokara larda
Ġdiabet ga
Ġreyting da
ĠQodir ovning
Ġop tik
yul let
Ġresurs lari
Ġyegu liklar
ĠJam oat
Ġomad siz
Ġuskun alari
Ġxar ob
Ġariz asi
Ġuyq uni
nav iyat
ĠDehqon ov
muriyat ining
Mul oq
Ġichk ariga
ĠOks ford
ĠIbra gim
ĠYerniya zov
Ġmelat onin
ssvmatbuotkotibi Yangi
G or
H addan
b oz
l larida
t ning
w er
an ga
Ġt in
di kam
Ġo si
ir iq
Ġy ori
ot ada
as evich
ti lib
ol o
cha larini
Ġj ag
Ġj osus
Ġuch ayotgan
ul lanishga
Ġish ida
Ġqil masligini
ĠS y
ĠS em
lay apti
ĠN on
em og
Ġyor itish
Ġyil larida
id jak
ĠV it
Ġtayyor lashga
Ġyur adi
ig n
Ġsay landi
Ġuz ilish
tar biya
Ġvafot idan
kon da
Bir lashgan
Ġhokim ligining
sir li
Ġtizim idan
ĠZ arafshon
Ma daniyat
Ġkarantin ni
Ġkirit ishi
Ġshun doq
Ġmaktab ida
Ġmaktab ning
Ġvide osini
Ġtarmoq larga
Ġjinoyat larni
Ġkompaniya larining
Ġpas porti
Ġbuyur ib
Ġolin moqda
iziston ga
Ġib n
ĠPutin ni
Ġ0 7
Ġsalomat likni
Ġmashin asining
Turk iyada
ĠBelarus ning
Ġmetr li
kidlagan di
Ġmut atsiyaga
Ġalomat larini
Ġtuga di
Ġbarqaror ligini
Ġittifoq chilari
Ġhujj ati
ĠOq oltin
Ġaz iz
Ġqob ig
Ġmashq larni
ĠSen atining
Sur unkali
Ġturizm ni
ĠVashington dagi
Ġrest or
Huj um
ĠMon ro
Em lash
ĠOy bek
Ġhayrat lanarli
Meh mon
kom munikatsiya
Ġstrateg iyasi
Ġyugur ish
ĠNig ora
Ukrain ada
Ġajab lanarli
Ġtenden siya
ĠQuy osh
0 5
4 00
8 9
B urak
B loger
M ark
U rganch
X ona
c es
k er
m etik
r ning
s ni
z m
ch enko
Ġo dob
am et
ti co
Ġko dek
im dagi
ul lanishni
Ġd osh
Ġber ilayotgan
ĠT ush
ĠB lu
ĠO zoda
ĠS oli
ax sh
Ġin y
Ġan omal
ĠJ eyk
Ġtan laydi
ĠF ir
ĠF al
Ġfoyda lari
of er
Ġolish lari
Ġkom ik
Ġich aklar
Ġtop ilib
Ġemas di
Ġuz ilgan
amiz ning
ĠMir olim
Ġharbiy larining
oyat ov
rgan di
Ġmuv aqqat
Ġob lig
Ġfar g
ust in
ug e
ĠXitoy ni
Ġchora larga
Ġfoydalan a
Ġ16 5
Ġlav lagi
Ġuchrash ishni
Ġkiyim i
lak lar
lak dan
Ġbajar ilgan
fevral ga
Ġolin ishini
Ġnavbat chilik
Ġyot ish
Ġtushir iladi
Ġtil da
Ġozod likka
Ġsuy aklar
llan iladigan
ulla s
Ġtuga shini
vet siyaning
ĠYapon iyaning
Ġmanba larga
Qur bon
Ð¾ ÑĢ
Ġtabrik lab
Ġqiyinchi liklarni
Ġkunga boqar
Ġefir da
bosh qa
Ġsep ib
Ġsherik lari
ĠMat chon
Ġaylan a
erga ment
Ġkechik tir
Ġmurab bo
May kl
Ġzarb alari
Ġkont akt
Ġxolesterin ni
Ġnus xa
Ġmexanizm i
Ġsalon ida
Ġtushkun lik
Ġmagi st
ĠKos on
Sin ov
Surat da
Ġfalok at
Ġbas ketbol
De P
ĠYuN ESKO
Sharq iy
ĠGret siya
ĠPrin cess
Ġchim dim
zLi DeP
) :
H iz
K rist
M oy
U xan
Z o
k ey
m is
Ġb yullet
at ash
at uvchi
gan ing
gan ida
Ġq omatga
Ġva li
ov ka
Ġf rak
Ġbi ologiya
Ġqil m
ĠT emir
Ġkun iyoq
ĠB M
ĠB on
ĠB re
Ġz apekanka
ĠN ensi
Ġas sambley
ĠC on
ĠX ande
Ġnafar gacha
ĠF urqat
tkaz adigan
Ġboshqa larning
Ġjoy lab
Ġchiqar ilayotgan
Ġchiqar ilishini
Ġtush magan
Ġtayyor ligi
Ġolgan idan
Ġsuv ning
ola s
rgan ilgan
lif f
Ġkuzat ilgani
Ġrivoj i
Ġaxborot ni
Ġpul lik
Ġfoydalanish ning
Ġovqat larni
Ġtoza langan
Ġtoza lanadi
Ġnazorat ini
Ġajrat ildi
rnat ilishi
Ġsinov lardan
Ġgi m
ovqat lar
ij don
Ġkirish di
Ġhujjat lariga
Ġyum ush
Ġmehmon xonalar
Ð¸ ÑĢ
Ġfutbol ka
Ġobraz lari
ĠGermaniya ga
Ġfor umi
Ġqurilma larni
Ġhid ni
Ġhujayra larni
rip t
Ġqul og
zgartir ishi
ĠSar var
Ġlay oq
Ġpozit siyasi
Ġmot otsikl
Ġprotsess or
Ġmanzil ga
Xo dim
ĠDubay da
Ġhuquqbuzar lik
ĠAbdul loh
Taq dir
ĠSulton ov
Ġfiz ika
Ġqabr iston
Ġantib akterial
Ben z
ĠMum toz
ĠXali mov
Ġbulut li
Ġmiqyos da
Internet da
Ġroz iligi
ĠKab ulov
ĠHali ma
Ġqasam yod
demok ratik
ĠBolgar iya
omot iv
Tayin lovga
K er
N ukus
k im
k redit
l mish
n ini
r dim
r oriy
s anj
sh iz
Ġb akteri
Ġt it
Ġbo t
ot adagi
ta q
ta larni
uv ayt
Ġber ilmaydi
it ch
it sa
ĠS av
ĠS avdo
Ġol ol
Ġchi gir
el y
ĠK el
Ġnaf rat
ĠJ essika
ĠU mir
Ġoshir ilgani
Ġyur a
Ġyur adigan
Av t
Ġket moqchi
Ġshax si
Ġtalab asi
Ġel dan
Ġbola ligi
ĠMirziyoyev ga
Ġoila larning
Ġmuz dan
Ġtopshir adi
Ġkelish ga
nalish larini
Ġchiqish dan
Ġjih atlar
Ġhalok atga
Ġchoy shab
Ġxos ligi
Ġvazn dan
Ġsavol lariga
Ġizoh lagan
Ġsuhbat dosh
Ġbino lari
Ġemlash dan
Ġaralash uv
Ġinfeksiya lar
Ġkuchaytir ildi
Xon andaning
Ġreys da
Bo laning
Ġmuzokara lari
ĠEn dr
199 2
Ġajrash ishga
Ġmultfilm lar
Ġhash ar
rinbosar ining
Ġmetab olik
Ġjanub idagi
ĠHay it
ĠSob irov
esk op
Abd ulla
Qir olicha
Ġtarj im
ĠAz iza
laz er
ĠQam chiq
Ġdiagnos tika
ĠHakim bay
ilb lazer
Ġtozal ovchi
B oy
P axtakor
S av
T or
V en
m av
n oy
p at
p rof
q ligiga
t dan
sh arif
an gan
li ch
Ġk rist
Ġf orig
it eti
sa lish
ok gol
Ġbu x
Ġay on
ĠR uh
Ġor tgan
lay lik
Ġtar zidagi
ĠK iy
ĠK ras
bu diy
Ġra dar
ĠY akkabog
Ġchiq q
Ġchiq ilib
Ġyil ligiga
val yuta
ĠE ur
ĠL ev
ĠL otin
Ġtop iladi
Ġyoz uvi
Ġqat ag
Ġdara x
ĠAQSh ni
kon larda
Ġxodim ga
Ġar bobi
Ġboshqar adi
Ġaholi dan
ĠAd obe
Ġkon sili
iyul ga
ers ever
Ġtartib ni
Ġ11 1
etr ushka
Ġguruh ning
shiq chining
Ġavtomobil ning
Ġ17 5
Ġvakil lar
ĠSamarqand dagi
Ġayb li
Ġtanish lari
Ġpast roq
Ġoddiy gina
Ġraqam lari
Ġqir uvchi
ĠFran k
Ġpishir iq
Ġklinik asiga
ĠSt al
Ġiqtisodiyot ga
ĠÐ ¿
Ġmis li
Ġuzun likdagi
Ġmaterial larni
Ġekran da
ved chuk
Ġpartiya lar
Ġbirik tirib
Ġzaif lik
ĠGul nora
ĠBah or
Ġkasalxona dan
Ġmuhokam aga
Hindiston da
ĠNar giza
Ġkonstitut siyaviy
Ġpod shoh
Ġzal lari
ĠZoir ova
Ġvideomur oja
Yor qin
Ġjumla sidan
sharoit lar
Homila dor
Fin lyan
ĠIM EI
Ġharor atida
Ġhamjam iyati
Ġken ja
taxmin an
9 2
B ioNTech
K eng
O per
O voz
b as
h arbiy
k ut
n y
n ir
y oz
z at
Ñ ĩ
ch ava
di ra
ish laydi
siy osiy
Ġto lib
Ġhaq dagi
ĠP r
ĠP ast
Ġkoronavirus ining
es siya
Ġtom at
ĠN atalya
ro en
ĠJ ill
tkaz malari
Ġdavom i
Ġqur ilishiga
ad d
mon ova
Ġkam sit
Ġyuz ning
Ġyuz asi
id o
Ġtez yurar
Dar haqiqat
Ġtuman lararo
ĠIn sider
mol og
Ġboshqar iladigan
ĠCh in
rgan adi
Ġberish ning
Ġshun aqa
Ġst omat
Ġom ili
Ġtadbir larga
Ġqonun da
Ġkim lar
Ġbah ola
ĠKor rupsiyaga
Ġmunosabat larga
ly as
Ġyuk lab
Ġxon ali
Ġfaol ligi
Ġchaqir adi
Ġfikr larni
Ġota xon
Ġolim piya
Ġkosm odrom
Ġmahalla da
all el
Ġkin osanoat
Ġton gida
Ġyigit ni
rig inal
alab asi
ĠAir ports
ĠShah noza
qituvchi lari
ĠTim e
Ġrejiss orlar
met ov
Ġvakolat xona
ĠVashington da
Ġefir ida
tur ush
Shifokor larning
diri ladi
El chi
Ġmavzu sidagi
Muz latkich
ĠToy loq
Ġamaliyot ga
Sar iq
Ġerit ish
Ita liyada
Ġkoll eksiyasi
Ġidoralar aro
ian u
ĠStar link
ĠXur ram
Ġkrip to
Taxmin an
Ġhush yor
ĠPanj sher
olon tyor
Ġcheg irma
ĠDushan be
Ġkonsult atsiya
ĠAbdux oliqov
ijd uvon
B ritaniyalik
L a
M ig
M udofaa
O na
R a
T egishli
Y od
j e
n arx
p l
s li
u larni
x ara
y dan
Ð ±
Ġb lo
Ġt ender
Ġm emorand
am ada
Ġu v
ov o
ĠT ry
ĠO s
ĠS ari
ax o
ĠR ostov
yil larga
ĠI d
yi ga
ĠK X
ĠP omidor
Ġqilish gan
ĠN YT
gar in
Ġra und
ĠG aga
ĠY oq
ĠJ az
ĠU xanda
ĠX an
Ġvazir liklari
man a
Ġaniq lanmoqda
Ġuy larni
of ir
ĠL E
ĠL ong
Ġer iydigan
Ġyur ishni
Ġodam lari
Ġqon dirish
Ġtuman larda
Ġkar bon
Ġmaq bar
Ġtalab iga
Ġbola da
Ġboshqar malari
Ġhudud larini
Ġrivoj iga
Ġbe ta
Ġ11 6
nom ani
Ġichi b
Ġaktyor larning
ĠAb bos
Ġsiy rak
Ġyulduz larning
Ġuchrash adi
Ġkenga shiga
Ġerkak ka
Ġyakun lash
Ġtut ing
Ġmuloq oti
Ġbez ang
Ġort ilgan
pchilik ni
200 2
atr iya
Mar yam
ĠMak oley
Ġishlat gan
ĠÐ ²
Ġyashir gan
Ġmanfaat lari
Ġtarbiya lanuvchi
ĠFar zand
ulot larni
Ġvosit asining
Tur izm
Ġdezin fek
ĠSal livan
Ġdon li
Ġportlash lar
Ġoktabr ida
ĠFin ancial
Ġfondi ga
Ġistagan lar
Ġsifat siz
Ġsoatga cha
Ġpan el
ravon likka
landiy aning
Ġyurib di
ĠTra ilblazer
Ġfoji ali
Shoh rux
ĠKengash ining
ĠKolum biya
Ġsuya gi
Azov stal
Ġmashaqqat li
Ġiqtidor li
Ġqabar tma
9 1
B axt
B red
K rem
K ichkina
N et
P r
S mak
X ari
Y um
b eh
t ojik
la f
sh atilgan
Ġo li
Ġm otor
il lik
si st
Ġu chi
Ġbir ort
lgan dan
ĠS ci
ali ga
ent lar
ĠP an
Ġqilish dir
ĠY osh
Ġtan asi
Ġmas kani
Ġuy ining
Ġuy larning
sp irin
Ġsi vili
atsiya dan
amiz ga
kon tr
osiy o
Ġtavsiya lariga
Ġyarat ilishi
Ġla z
Ġqolgan ida
Ġnima dan
Ġvaksina ga
quvvat lashi
Ġoch ko
Ġnarsa dan
Ġkiyim da
Ġpas ta
Ġaktrisa lik
Ġfikr ga
Ġchet ida
Ġtushir ildi
Ġboshladi m
Ġozod likni
Ġsarf lab
Ġsuy ul
Ġkelayotgan di
Ġuyush malari
Ġxulos asi
Ġtarqat ilgan
Ġharorat ni
Ġbitta dan
Ġtili dagi
Ġtam aki
Ġkengay tirishga
Ġot asiga
Ġinfeksiya dan
ĠAs sambley
Ġmuallif lik
Ġqobiliy atining
Ġneft ni
Ġanj om
Ġbat areya
qur ilish
Ġorqa ga
Ġtashv ishga
ĠBol sonar
Ġhajm da
Tez kor
Ġpaket ini
Ġzavodi da
Ġxala l
Organizm da
Ġmajlis da
Ġodatdagi dek
Ġqoldiq larini
Ġtahrir iyat
ĠBola lar
Ġina uguratsiya
Ġarxitekt ura
A rab
D er
R osk
S ingapur
Y al
f ilm
g ot
k g
k ok
l g
m edi
s u
t ug
y obga
on chi
il o
tir ohat
et ta
ĠT or
dir man
ĠR umin
yil sa
Ġkor eys
Ġg araj
ĠK art
Ġtur g
âĢĿ, âĢĶ
Ġtan im
Ġbar gi
Ġtashkil lashtirish
yin magan
Ġolish ingiz
Ġchiqar a
Ġkeyin ga
Ġtush dan
ĠH usan
Ġharakat siz
Ġkuch lariga
tar ilgani
Ġeti lishiga
mart gacha
oti pi
Ġetish ning
Ġberish di
Ġgap larni
Ġgap lashib
Ġfik rim
Ġiz lab
Ġdastur x
tif ikatsiya
Ġoxir idan
Ġboy lik
Ġagent likning
Ġvoqe aga
Ġtarix ga
Ġfaol lar
Ġchaqir iq
Ġsport chilar
Ġ21 0
Ġhalok atli
Ġkamay gani
Ġep idemiologiya
Ġkre mdan
Ġenerg iyani
Ġ0 5
Ġmaslahat lashuv
Ġpoli gon
Ġholatlari Yangi
Ġqaytar ilgan
Ġjamo asining
Ġqahramon ning
Mamlakat ning
Ġtr ln
Ġolishi miz
Ġsmartfon lari
Ġkin emat
Ġkuchay gan
bar chasi
Ġparvoz ni
Ġot asini
Ham m
Ġaksiya lar
Ġhid ini
ĠMaj lisi
jayev ning
Ġvakolat larini
Ġgumon lanuvchi
ĠQodir iy
Ġshikast lanishi
Ġsavd osiga
Ġaylan tirib
Ð°Ð »
Ġmakiyaj ni
Ġsil kin
ĠFed er
Ġsifat idagi
Ġaksessuar lar
Ġsk rab
Ġhimoy alovchi
Ġtajovuz kor
Ġmez bon
Mux olif
Ġhomiy lik
Ul ug
Ġmusht lashuv
int uv
off icial
Suy uq
ĠStiv en
Bod om
Ġvideolav ha
Ġnout buk
Ġtelekom munikatsiya
AMA S
A li
B ag
k liff
q nashib
s ent
t y
v aridan
y lashi
y omon
sh tidan
at gan
ir o
Ġv illa
Ġs eni
am aydigan
Ġbo yi
is ti
cha larga
ra lib
Ġuch gan
Ġuchun gina
Ġi Pad
ĠB ray
ĠS ayf
az n
Ġbor magan
Ġtur ini
Ġtur ishni
ori es
may siz
gar chilik
ĠG iz
ĠU ot
Ġmamlakat laridan
Ġdavlat laridan
ĠE lizabet
Ġtaq ishni
min lab
min lashi
Ġbirinchi si
Ġsaqlash ni
Ġosh magan
Ġosh xonada
kon ga
zgar tish
Ġbola sini
Ġat irg
ĠZ iyoda
Ġmuz latib
Ġtadbir i
Ġtartib li
Ġem lashga
Ġem lanishni
Ġaxborot iga
Ġ11 7
Ġrahbar ligida
Ġnarx larda
Ġtomon da
qir ozga
Ġtopshir ilishi
Ġavtomobil larga
Ġust ama
Ġrol ga
Ġboy itish
Ġqu choq
Ġsharoit larda
Ġsiz lar
Ġniqob larni
Ġmutaxassis larni
Ġolin ayotgan
Ġmaslah ati
Ġtinch lantiruvchi
Ġsahif a
Ġmashin aning
Ġovoz lar
Qo dir
Ġlibos ni
Ġkamaytir adigan
Ukraina dagi
Ġusul larini
Ġrafiq alari
Ġtili dan
Ġsez ish
Ġahamiyat ini
Ġpay ti
met all
Ġfarzandi ga
Ġyuri tib
Ġhisobot da
Ġprepar atni
Dunyo dagi
Ġdizayn erlar
Ġkompl ek
Ġkaloriya li
Ġlin ey
Ġorol lari
Ġmuhit ni
Ġmushak larning
Ġuchast kalari
Ġbahs li
Ġpol kovnik
Poy abzal
Ġfunk siyasiga
Ġdavlati miz
Ġyu tib
Ġmuq ov
Ġkolon iya
Ġbom ba
Ġziyof at
Ġyurtimiz da
ĠMuz aff
Ġdub l
Ġpala ta
Ġyechi mi
Ġlah z
ĠRus lan
Ġtermin al
Ġjazir ama
Ġdabdab ali
I chim
L ola
X ol
b ozor
l ek
q ishi
s ozlik
y lik
z lashtir
in iy
ar masiga
Ġt ekin
at e
ir ilgan
ir ova
il ton
Ġko kt
ra gani
Ġsh on
us e
Ġr ent
ĠM ig
ĠS ax
ev aning
ĠR an
Ġg rim
ĠI gor
ĠP or
ĠP lus
ĠD er
ĠD ey
Ġvaqt dagi
Ġyangi dan
Ġyangi landi
rsat gani
Ġich gan
Ġqat l
ĠH ind
Ġxizmati Davlat
Ġsay tiga
uj ohid
Ġkuch uk
ih at
Ġkech irib
Ġtuz ilishini
Ġdun yoq
eti tsiya
Ġyetkaz di
Ġkabi lar
Ġloyih aga
Ġter isining
ino x
Ġmaktab larni
Ġ11 8
Ġmux lisi
Ġsov ut
Ġhuquq idan
Ġreja lashtirish
Ġmarkaz lar
tik al
oly ak
Ġyakun lagan
Ġmin ora
Ġmajbur iyati
Ġyoq adi
Ġchiqqan di
In feksiya
avgust dagi
Ġmuassas asida
Ġfaol ligini
Ġniqob ni
Ġatrof i
Ġenerg iyasini
Ġchet idagi
shin larni
ĠNur iddin
Ġxarid lari
Ġpandemiya dan
Ġport al
sish ni
Af s
Ġsovuq da
Ġchegara larni
Ġobyekt larni
Ġli ga
ĠSt ef
end ra
Ġkelishuv ni
ĠIttifoq ida
ĠMoskva dan
ĠAir Pods
Ġista gida
Ġxonadon da
ĠOsiyo dagi
Ġboshqaruv ini
Ġhukm dori
199 0
Ġvosit asida
Ġ198 9
Ð¸Ð »
Ð¸Ð ¼
ĠFer uz
Ġdeyish di
Ġmot am
Ġdemokrat lar
Nav bat
Ġtamoy ili
Bayden ning
Ġuyq uning
Ġuyq uchan
Ġmahorat li
Ġsara lash
ĠEd vard
Ġsovrin dori
Ġtexnolog iyasi
Ġkiber hujum
Ġboshliq lari
Ġdiy et
Ġkartosh kani
Ġkongress men
ĠKeng esi
ĠGom es
ĠProt asevich
Ġblend erda
bard osh
Ġshaft oli
emog lob
B S
r oyev
x od
y ab
z demir
sh ida
ch ma
Ġk ich
or ant
Ġs ektori
am b
iy el
iz o
um o
oy im
ra qo
Ġber uvchilar
et siya
Ġ2 21
ah udiy
ĠM S
ĠM azasi
Ġqil dir
oni d
Ġol sak
yil maydi
ĠP atri
ĠC all
ĠX V
Ġl og
Ġoy lari
Ġoy gacha
ĠE qu
ĠV il
Ġchiqar moqda
iv o
Ġyur agi
Ġme dit
Ġme dia
Ġur ilib
ĠIn dia
Ġtalab ini
rgan ilmoqda
Ġter m
Ġmilliard erlar
Ġ11 3
nom aga
Ġjarayon lariga
ĠAf rikada
Ġorganizm iga
Ġ16 7
Ġbajar ayotgan
lah at
Ġtaqiq lagan
Ġmay iz
Ġsir kasi
Ġqurol larni
Ġeksp ress
Ġmukofot ni
Ġsmartfon ni
ĠUz oq
Ġjazo lanadi
uly atsiya
Ġisbot ladi
Ġtahdid lar
Ġinstitut lari
ĠDil dora
ĠYTH da
Ġratsion da
Ġkislot alar
Re al
Ġbarch asiga
Tan lov
Ġxonim lar
darmon larni
Ġayblov lar
Ġmaskan lari
ĠRed dit
Ġqiyof asini
Ġviz aj
Ġbosqi chiga
Ġtvorog li
Ġfit nes
Taq dim
ĠCo ca
Ġqurilm aning
Ġkvartir a
Ġqahv ani
Mag niy
Ġjinoy ati
Muxlis lar
Ġfam iliy
hay ot
hodisa larga
Ġixlos mand
Ġgim nas
D XX
N BC
O siyo
P rok
S p
Y on
a dor
k asidagi
n ining
p yut
u yi
y ust
z ing
sh ay
si g
or g
or din
Ġv entily
um ga
cha don
Ġn ol
Ġn erv
Ġf otoreportaj
ra qam
lash ishni
Ġd ini
Ġber masa
ĠA q
it ler
Ġi si
ĠB esh
ĠO leg
Ġtur istlar
Ġte jam
Ġas f
Ġas lo
Ġ3 000
lim ining
Ġqur uvchi
Ġim ij
ĠL yu
Ġkel gach
Ġyar asi
Ġosh masligi
Ġkelgan lar
Ġxizmat chisi
Ġsoat lab
Ġdi kt
rgan ishni
Ġbildir moqda
Ġum ri
Ġsoh ani
Ġ12 6
Ġaks ini
Ġ14 3
qon da
Ġpul ga
Ġbos qin
Ġ13 1
mit aning
avgust gacha
mur od
Ġbaj ara
Ġtushun arsiz
Ġkasallangan i
Ġtort ilgani
Ġkamay tirib
Ġmay mun
Ġtele foni
irib garlik
qot ar
Ġvazn ni
Ġpiy ola
Ġloyiha larda
Ġprokuratur asida
Ġovqatlanish ni
Ġtarqalgan di
Ġqamoq xona
Ġhayvon larni
Ġbaz asiga
Ġmarosim iga
Ġmoy chechak
Ġlaborat oriy
Ġbarch aning
Ġuzaytir ilgan
pot eka
Mosk vada
Ġnaq adar
Ġmexan ik
ĠLo ur
Ġuchra shi
Ġqosh ida
ĠBek obod
Ġkaltak lagan
Ġvah imaga
Ġkrossov kalar
Ġsahn aga
Ġjas orat
ĠJen eva
Ġadvok ati
Ġteleviz ion
Ġintiz om
ropik amid
Ġplyon ka
Ahol ining
odu gar
ĠJoz ef
Ġbr illi
Ġsyurpr iz
daraj asi
ĠNursaid ova
Ġkonsili umlar
A ka
I L
K ong
M ikroto
P o
S el
T ex
g umon
h abo
k tika
n dir
t etik
v ov
z aniya
sh ov
Ġt ig
chi ligini
ti mi
lari mni
Ġn oh
im oya
Ġr ayhon
ĠB at
ĠO lga
ud dus
og on
Ġol masdan
lish adi
siz likni
ona larga
ĠG r
ĠG old
ĠD urov
ĠY ak
Ġbar rel
Ġyuz ida
and er
Ġer ining
Ġvak olati
Ġku lib
Ġoshir moqda
Ġshu ki
Ġtayyor miz
ĠH us
Ġxizmati Shavkat
Ġket ayotganini
tar adi
amiz ni
Ġur di
Ġbil mayman
Ġsot ilmoqda
Ġtavsiya lari
le sh
rib un
ĠMar habo
Ġ12 7
Ġ12 9
zal ligini
Ġreja larini
Ġdastur ni
nalish larida
Ġsut li
Ġnatija larni
fevral dagi
ĠBritaniya ga
Ġtanish tirgan
Ġtayin ladi
Ġoyi gacha
Ġnazar iy
Ġraqam lashtirish
Ġmetr dan
igit al
Uy g
Ġmustaqil lik
Ġimmunitet ning
Ġinstituti ga
Ġrespublika chilar
ĠUz oqov
Ġyashir incha
Ġehtiyot kor
Ġmuzlat gich
ĠDi amond
Ġasar lar
ĠSen atning
Ġyetishmasligi dan
Ġshoshil mang
Ġfed eratsiya
ĠHam dam
Ġimtihon lar
Ġurinish lar
Go ogle
ĠYe ar
Ġvatan iga
Ġhamm aning
lqop lar
Ġvat tli
Ġobra zda
ĠBel g
Ġqidiruv da
Ġtanaffus dan
Zam on
Qir ollik
Ġbron x
Ġalyan sga
Ġzerik arli
say lov
ĠChj e
Ġsti li
ĠTun berg
Ġeksk lyuziv
Ne ft
ĠXen ks
Ġdukkak li
angla desh
Ġqadim gi
ĠBarn oyev
Moy chechak
Ġbakteri ologiya
Ġkarbon at
A OKA
B aland
H urmat
J oy
N om
N ider
N ilufar
Q ishda
R oy
T aj
W day
q asi
r ul
t h
t oza
t uman
z ladi
la masdan
Ġt rakti
Ġm ili
ay miz
ot adi
Ġe st
ol ining
Ġx ul
ov i
im an
im mat
Ġf in
Ġp edi
Ġp lastin
ili giga
Ġ1 19
uv chini
ĠM urat
ĠM uborak
af iq
ĠB ayrut
ĠO t
st em
ĠR onald
ĠK itob
ĠP e
Ġqilish larini
ĠN am
ĠN ational
ĠD unyoning
ĠJ ar
Ġkasal lanib
liq ligi
ĠQ ish
lov larini
Ġtan beh
Ġmar ket
Ġmamlakat lardagi
rsat a
rsat ildi
Ġyuz idagi
ĠL ey
Ġer ini
Ġyur iti
Ġavt ob
Ġosh moqda
ĠIn de
aro kash
Ch ex
Ch echeniston
Ġberish laricha
Ġmus bat
rib onlik
iyun ga
Ġzarur ati
To ki
Ġmarkaz lariga
moqchi miz
Ġlavozim da
larimiz da
Ġkeskin lik
Ġkotib ining
ĠTurkiya dagi
pi ka
Ġqurol langan
Ġyengil lashtirish
Ġqim matga
Ġsuy ultirilgan
Ġbino ga
Ġmukofot ining
Ġuniversiteti ga
Ġalomat siz
ĠMak sim
ĠLu iza
ĠÐ ¾
Ġxonadon ga
ĠAh ror
Ġqayt ishni
Ġhujayra larining
Ġguvoh i
Ġqul f
Ġgen er
ĠYTH ga
Ġqatnov lari
Ġkayfiyat ini
ĠPar kent
ĠUm ida
Ġtong gi
Ġnikoh dan
San kt
Ġvah im
Sal omatlik
ĠTayvan ga
emb rij
ĠIm munitet
Nav bahor
Yil ning
Uchinchi dan
ĠAbdurah mon
Ġinfratuzilm ani
Ġrezav orlar
Nor veg
ĠQay um
Ġqizdir ilgan
Ġonk ologik
Ġgran ti
Ġbash orat
ript ofan
1 50
= "
A sh
B in
N ar
O nam
P ast
R aj
b aqa
e o
h uquq
t tiz
Ã ©
li ta
Ġt alq
Ġh ovuz
as sa
ti li
ak li
Ġn ok
Ġf als
ib os
Ġma dr
Ġj ome
Ġke malari
us kun
Ġber dim
Sh ri
ma guncha
ĠM ansur
Ġqil mas
af shon
Ġet tirilgan
ok er
Ġmu bor
Ġmu xtor
Ġkun dagi
ĠS ut
ĠS MS
Ġg ender
ĠJ a
ĠX or
em ber
lim ini
Ġik k
Ġmamlakat larining
Ġholat ining
Ġyaxshi lanishi
Ġoshir uvchi
Ġsi k
Ġfuqaro dan
Ġoq sili
Ġxizmati O
Ġist aydigan
Ġbemor lari
Ġkelgan di
Ġtizim da
Ġtuz ishni
Ġbildir ildi
Ġro lik
Ġyubor ilishi
Ġkon v
Ġinson larda
Ġst ul
Ġzarur dir
Ġag rar
Ġtoza lashni
Ġtoza lang
ĠAr slon
Ġyuv ishda
osk ler
Ġtaxmin iy
eh ra
Ġbuyur uvchi
ren d
Ġbozor larda
Ġurush dan
Ġoper atori
Ġmashina dan
Ġmodel lik
Ġkichik roq
Ġmetr gacha
Ġoyoq qa
Ġsamarali roq
Ġmik ser
Ġtasvir i
Ġalmash tirib
Ġraketa larni
Ġkilometr dan
Ġvakolat lari
Ġarzon roq
Ġkislot ali
ĠEn ergetika
Ġab onent
Ġqutqar uv
ĠHam royev
Ter ini
ĠKam ala
Ġshtamm lari
Ġelement lar
Ġkans ler
Ġsuz ib
Ġalif bo
ĠDeni s
Ġmit ing
Ġdepartament ining
Ġrasmiylashtir ilib
Hudud lar
Ġvasiy lik
ĠSto ck
Ġkonstruk tiv
ĠPolsh aga
ĠGre ta
sayt ida
Amal dagi
Yuk salish
Ġtuh mat
Ġyaroqli lik
ĠErg ench
ersever ance
kontr akt
Ġmubor ak
A tir
B ill
G ar
K ur
P arij
S of
S if
T vorog
m uz
n aning
t u
t ay
u ey
z ap
Ð ·
Ġ ÑĤ
ar kan
ch ishi
Ġt intuv
ga y
ish ida
ish kor
or d
Ġs men
iy osiy
oy asiga
oq at
Ġf oh
Ġp ergament
Ġke ta
ul om
Ġber may
et aning
ma dan
ĠM aktab
ĠT r
ĠT Journal
ri si
ĠB od
ĠS at
ĠS im
ali shi
Ġhaq ining
Ġtur di
Ġan anas
Ġav lo
ĠY uriy
ĠJ azo
yor lar
rin dan
Ġak siyasi
ĠF o
Ġek ish
Ġqilin gach
rsat maydi
Ġkam ligi
ĠL ab
ĠV u
Ġmahsulot ini
Ġkasallik lariga
Ġhay ajon
Ġharakat larga
aj ol
tar ilish
Ġkar av
ep atit
Ġtiz za
Ġtavsiya larga
zo lar
Ġchek lab
Ġtel eskop
Ġ11 2
Ġaktris ani
Ġhimoya chisi
ama shi
Ġon axon
Ġxalq ini
Ġqoida larni
Ġxon imi
Ġfarzand larining
zav otlar
Ġkeng roq
Ġaf ro
rsatkich ga
Ġuchrashuv ida
minlash da
ĠKoreya dan
Ġqimmat roq
Ġqatnash adi
Ġettir di
ĠTash kilot
25 6
Ġinternet ga
Ġband lari
Ġtanlov da
Ġekran larga
Ġgum baz
Ġmev aning
Ġqizil o
Ġstress ga
Ġqalb ini
ĠXon ning
Ġehtiyoj lari
Ġdaraxt ga
Ġsimptom lari
Ġop iy
joy lar
Ġreak siyasi
Ġaeroporti dan
Ġkoronav irusiga
Ġaudi tor
Ġantioksidant larga
ĠMinsk da
Ġhov li
Bel gi
ĠSer dar
Ġqonunchilik ka
Mat buot
Yaxshi si
Ġpod polkovnik
Serial da
Ġfit na
Ġqoidabuzar lik
Ġsubyekt lari
ĠDunyo dagi
Mush uk
Ġbirj asi
Ġvok zali
Ġintiz omiy
Ġhukumatlar aro
Ġnevar asi
ĠIj timoiy
Kof ein
Ġtaqoz o
B ozor
C H
N ih
R ed
R emdesivir
S ara
T av
V afot
f osini
g ur
l dagi
s oq
t as
t ara
t ishda
y ganini
Ñ ŀ
Ġs uk
ot ni
lan ki
gi mov
Ġu pa
al dir
Ġx lor
Ġj ir
Ġj iyani
Ġbi timi
os mos
Ġd ur
Ġish larning
iston dan
ok os
ĠB arb
ĠO p
ĠS itora
moq li
Ġol xo
ĠR ep
ĠI ng
Ġtu tilishi
ĠK ayli
ĠN os
Ġas li
ĠG rin
osi la
Ġyet uk
rin larda
Ġtan narx
yin ga
Ġsur di
Ġmat oli
Ġtush ishini
tiq od
Ġzar yad
Ġkishi larga
ĠH usni
Ġqis qich
Ġolgan dan
sti m
Ġis tirohat
tar di
Ġxizmat laridan
Ġnam ozi
udi o
Ġbelgi ladi
Ġbelgi lagan
mart dagi
if t
Am ir
olog larning
so atga
Ġdaraj asidagi
rgan moqda
tibor dan
Ġter idagi
Ġelektr obus
Ġtarmoq qa
Ġqancha lar
nalish ga
Ġayb i
Ġxususiy atini
Ġmodda larga
Ġsaf ida
oktabr ga
oktabr dagi
Ġserial ni
Ġsiyos atiga
Ġkol umni
As osan
Ġziy on
Ġturk iy
ygan di
ekan al
ĠClaire Foto
Ġfuqar oligini
Ġanti qa
lanmagan i
Ġtajrib asini
alab asini
Ġqamoq da
rum p
Ġerkin lik
Ġbl uz
liz atsiya
egi m
Ġmintaq asida
ĠIsroil da
Ġyozgan di
Ġrossiya liklar
ĠVashington ga
Ġaytilgan di
Ġfed er
Ġmeros xo
Ġyas agan
erv is
ĠBar no
Belarus da
Ġstav kasi
ĠOTM larga
Ġdiplomat iya
Ke lish
ĠDonbass da
Tosh qin
som ol
ĠPit er
Ġtuzilma lari
Ġmuxolifat chi
Ġzah oti
Ġbitiruvchi lari
Ġqurilm asi
Ki prik
Ġkonser vat
Xorij iy
ĠPort ugaliya
ĠTra cker
ĠHo shim
ĠKamol ov
Bay ram
Ġmakro iqtisodiy
Ġpik sel
ĠGinnes ning
HD Yo
Ġasqat adigan
ĠSardob adagi
Ġachin arli
Taxt lar
Ġprav da
Ġvali ah
8 4
A sk
B A
S k
f en
g us
q ilgan
y aning
Ġ .
in dan
li yo
on asidan
un ga
Ġu loq
ak et
oq lari
ol ovchi
Ġp ista
Ġp igment
ra g
Ġke masining
us ov
Sh T
ĠM ux
Ġde sert
lab ay
ĠO laf
ĠS uy
og ram
ax ar
dir uv
ĠP ad
od o
mi di
ĠY I
ĠJ azir
kent lik
ĠF QB
Ġ4 000
Ġaniq lanishicha
Ġhisob layman
Ġsaq lanmoqda
Ġikki tasi
aga j
qi diruv
Ġist ak
op ort
Ġxizmat ni
tan a
Ġhokim liklar
Ġar sen
Ġdi ldan
Ġ15 5
Ġchek ka
iyul gacha
Ġvosita dan
lantir ishi
qon lik
Ġtomon ini
Ġbun chalik
Ġ18 5
Ġ13 6
Ġdastur larni
aprel gacha
Ġqaram og
Ġoch ishga
Ġyop ing
Ġyoq lab
Ġqiziq qan
Ġtayin lagan
rak eta
Ġtil ining
Ġsiyos atga
Ġteng dosh
Ġiqtisodiyot ining
ĠMe laniya
Ġchar ch
ĠOAV da
Ġbaland likda
Ġmashq lari
Ġguvoh noma
ĠRah imov
ray man
Ġdevor lari
Ġhisobot iga
Ġparvarish lash
II B
Ġkamer alari
Ġmuhojir lari
Oq sil
Ġrangi ga
ĠSharq dagi
Ġishla may
ĠBah rayn
Ġkasalxona larda
Em ma
Ġqayn atiladi
Ġvan ilin
Ġmuassasa larini
Ġsano atida
Ġstatistik asi
ian na
Ġtaqqos laganda
Ġgigiy en
Ġxasta ligi
ĠEng in
iyos ov
yana ir
Mul tfilm
Anjeles dagi
Ġtoksin larni
ĠYuN ISEF
Ġqarorgoh i
Yet arli
Ġintellekt ual
ĠBozor ov
Ġgenotsi d
Ġkrist al
medi ani
Muxolif at
ĠEqu inox
ĠLour ens
B ol
K at
M uq
c c
j amol
k od
n ur
p lar
w n
y moqda
ar masining
ish lari
Ġs ey
de vor
Ġp idjak
ra da
Ġke masida
Ġber ki
Ġto ki
Ġet aman
Ġet nik
Ġhaq qoniy
ent ina
Ġg ospital
Ġin j
Ġin deks
ro da
ĠG b
ĠD el
Ġam ak
ĠSh injon
ĠSh aripov
Ġmar vari
Ġnafar ini
Ġni goh
Ġjoy langan
Ġxavf ining
Ġsay lovchi
Ġharbiy larini
Ġbelgi lanmagan
Ġne f
Ġar man
ĠCh ina
ĠZ h
ĠZ ohid
Ġoqib atlar
oti j
Ġqiy nal
Ġchek landi
Ch ang
lantir di
Ġmuhim roq
Ġnarx larni
Ġshifokor ning
Ġtopshir ishi
Ġtik lanishiga
Ġjinoyat chi
Ġkiyim larini
Ġrux s
In stabloger
Ġgaz li
Ġgaz ak
Ġbank rot
Ġsev ishgan
Ġpast ligi
Ġpart iyaning
Ġuchrashuv ga
xsh aydigan
Ġovoz dan
ĠSa akash
Ġteng dir
ler od
Ġhav oni
Ġof itsi
Ġmut atsiyasi
Ġegal lashi
Ġkin osining
ĠSt epan
Ġalmash di
Ġoshgan di
Ġtexnologiya larini
Ġmaterial larida
Ġyetakchi sining
ĠKoronavirus ning
Ġmajmu asini
Ġzir ak
Ġtoif asi
Ġsayyoh larni
Ġafzal liklari
Tur on
Bemor ning
Ð¸Ð ·
ĠRam et
Ġsp rey
yod kor
Ġtugat gan
Ġrez erv
Fuqaro lar
ĠKarim ova
Ġinfratuzilm asi
Ġtarbiy asi
Ġsayoh atga
Ġvok zal
ĠTil lay
Ġsuverenit et
Aleks andr
Ġhiss asiga
sab zavot
ĠChim kent
ĠNetanyax u
ĠEndr yu
A bu
E A
I N
b uz
f uza
i at
r qit
z siz
ar masidan
ch kov
di ston
il e
Ġh ad
Ġs nar
er ina
Ġta zy
Ġko ordin
ov skiy
Ġp iling
Ġham dir
uv a
Ġso sis
Ġber maydigan
Ġi den
ĠO sh
ari ladi
Ġtu gun
mi siz
Ġra un
ĠU izer
ĠX udo
ĠQ on
ĠF aqat
ĠF old
ap oli
Ġhisob lanib
Ġhisob lashicha
sp un
Ġmat osidan
Ġsi ch
Ġfa zilat
Av str
Ġket yapti
Ġayol lardan
ep al
kon dan
Ġtalab ning
Ġtalab larni
Ġchal kash
Ġpar allel
Ġtavsiya larni
Ġbildir aman
Ġmaz asi
Ġil timo
Ġsav od
Ġkarantin dagilar
Ġetish laricha
Ay b
Ġem b
Ġ12 2
Ġgap lashgan
Ġmodda lardan
Ġajrat ishga
Ġqoldir ishi
Ġqoldir maslik
Ġmuassas asiga
Ġaktrisa laridan
Ġbank not
angiz ni
Ġkre di
Ġbez at
Ġtaqiq lovchi
ĠSur iyada
Ġimzo lash
Ġochiq chasiga
Ġhaj mli
Ġkechir ayotgan
Ġtosh ma
Ġmukofot ga
Ġser j
ĠSt okgol
Ġkaf olati
Ol d
Ġtam oman
Ġkuchaytir iladi
Ġband ligi
Nati ja
Kasal likning
Ġchir og
ngil dagidek
Ġaksiya larining
Ġsabzavot lardan
ĠDi or
Ġyod dan
Ġkrem lar
Ġqatnov ini
Ġulgur di
ĠPar alimpiya
ĠNavalniy ni
Ġyevro pa
Ġhajm dagi
Ġaviakompan iyasining
ĠKobul dagi
ĠLondon dagi
Qan cha
minot ida
Ġmutasaddi larga
Ġkommunikatsiya larini
Tom oshabin
Ġkolle ji
ĠHay ot
Ġburchak li
Ġnot anish
Ġmahbus larni
Kal siy
Ġhuquqbuzar liklar
Mari upol
Ġqurilm ani
Haqiq atan
Ġoby ekti
Ġanim atsion
Tel ekanal
Ġiy ulida
ĠHello Foto
Rep ort
Ġteles erial
ĠTat yana
Ġraqqos a
Ġbosqinchi lik
ĠBok u
Ġvod orod
Ġhij ob
Ġporta lida
ĠâĢĭ âĢĭ
Hujj atga
Soy uz
rqi tib
Hurmat li
aldir oq
I ng
Q rim
V aqti
Z ilzila
h ech
l gunga
in son
li liy
Ġt ip
Ġo pp
ir oyli
si di
ish ton
lan masdan
gi dek
om ad
oy o
Ġko alit
ov onlik
ra un
Ġsh ishidan
ul l
lgan larga
Ġde dim
Ġet ilmadi
ok tor
ĠB ren
ĠB lack
ĠO skar
ĠO xun
ĠS oliq
Ġun itar
lish ida
ĠK iv
ĠP elosi
Ġan gid
ĠG entra
ĠD X
Ġho j
ĠU mur
Ġqilgan man
Ġqilgan likda
Ġyosh idagi
Ġbar mog
Ġyil lari
yin lariga
Ġjoy lagan
Ġetgan likda
ĠL abo
Ġ6 60
Ġikki ga
Ġqiz alog
Ġmahsulot ga
min lay
Ġhay iti
Av okado
Bir or
Ġsuv li
Me dia
Ġtas ma
Ġtak roriy
Ġfar ovonlik
Ch egar
Ġbal et
Ġsin dirib
Ġdar voza
lam ini
Ġrahbar larini
Ġ14 5
Ġaktyor ga
Ġeh tir
Ġshart lar
Ġoch archilik
Ġerish ishga
Ġxalq imizga
Ġtut qich
Ġyoq tirgan
ĠAl ma
Ġtaxmin lar
Ġavi ah
Ġboshlangan dan
angiz ga
sentabr gacha
Ġtelefon ini
Ġoyoq lari
Ġxoh lasa
rov iga
Ġkin oda
bar dim
Ġkelishuv larni
Ġkelishuv larga
Ġbin oni
Ġkompaniy asini
Ġketish ining
Ġkayf iyati
Ġkrem lardan
Ġsentabr da
Ġinqiroz ni
Ġappar atlari
Ġappar atiga
Soch larni
Ġart rit
Ġchip talar
Ġmusiqa chi
Ġkafolat lari
Ġder mat
Ġtirnoq lar
Ġdirektor lar
Ġhamroh lik
Ġvert oly
Ġchempi oni
ĠMars da
yni ga
Ġtojik istonlik
irt qich
Ġsohalar dagi
Ġsohalar idagi
Ġkera gidan
Ġstr it
Ġmanzili ga
ĠPen silvaniya
ĠRahim ova
oll s
ĠMusulmon bek
Ġpayq ash
Ġprotsed ura
ĠMoz ori
Ġgast rit
ĠMirza obod
ĠKech ki
Ġadi b
amet ri
ĠMatchon ova
Ġdasturx oni
K en
P esh
P riyanka
S oliq
T I
T iz
n gan
p t
u larini
Ġ ,
ar ash
ch k
Ġk kal
Ġt ennis
ir lar
Ġv olontyor
lan may
av or
ab ul
lik lardan
de y
ka d
et o
Sh veysar
Ġbosh lashni
Ġbosh lasa
Ġet tirib
Ġet moqchi
ĠB iz
ĠB aqlajon
ĠO ziq
ax loq
ĠI ftorlik
Ġbor ilib
ĠG B
Ġ3 25
Ġ3 60
ĠY ens
Ġyor liq
Ġyosh ar
Ġmamlakat larni
Ġuy landi
Ġqilin uvchi
yin da
miz dan
Ġtayyor landi
Ġich ilsa
ĠH ukum
Ġosh ganini
Ġayt dim
Ġbiz dan
yu art
Ġhayot dagi
Ġmaktab larning
Ġ11 4
Ġtaklif larini
Ġqonun chiligi
Ġqism larga
ĠSam ara
Ġ13 7
Ġikkinchi dan
quvvat laydigan
Ġdavr ining
Ġyop ilib
Ġerish ib
Ġsoch ini
Ġyoq ish
Biz nes
Ġtov aga
Ġbozor dagi
Ġbez ning
Ġbez gak
rab ot
Ġtushir ilishi
Ġquv noq
Ġqurol larini
Ġsuhbat lash
Ġxoh ishiga
Ġkitob ni
Ġishonch ini
Ġmehmon xonasi
zbekistonlik larning
ĠSt rip
Ġaralash maga
Ġbarqaror lashtirish
Ġjurnalist larning
ĠKiyev da
Ġkuchaytir ilishi
Ġkilometr ga
Ġfor mu
Ġmuzlat ish
Ġchuqur roq
Ġbiznes ini
Ġmarosim da
Ġhid larni
Ġpoyez dda
ĠGollivud da
Ġmuzokara lardan
Ġmon arx
Ġhib s
Ġprot otip
Ġoqsil ga
Ġsep ish
Ġparhez ga
Ġvosit ani
Ġprog no
Ġsolin adigan
Ġbitim ni
Ġyey ishni
Ġtarqa ladi
Er kin
lcham dagi
Peterburg da
Ġxay ol
Ġchalin gach
Ġfiz ik
ĠDeni el
Yoz da
Ġguvohnom asini
Ġzararsiz lantirish
Ġkonser valangan
Ġyiq ilib
Ġjonivor lar
Ġsak rash
Ġeg iluvchan
ĠMum bay
Ġbeh uda
ĠKaz akh
Ġmagistrat ura
Kelajak da
Ġinaugurat siyasi
Ġprovok atsiya
Ġtaxall usi
jali gini
Qas os
Ġsens or
Ġvet erin
ĠAllam jonov
Ġfast fud
Ġkolumni sti
ĠUizer spun
Ġangid rid
9 3
B ey
D og
D eni
J orj
L iza
O tabek
P fizer
S uli
i lan
i siy
i siga
l em
m od
r ilib
t ni
Ñ Į
la may
Ġt illi
Ġv ijdon
er kak
lan ga
as in
av val
chi gan
om ik
im mun
Ġf injon
Ġp ud
Ġr ish
Ġso lishi
Ġd om
ĠA mit
Ġde sam
Ġbosh lovchi
Ġqil masa
ĠT u
Ġay anch
Ġor om
Ġor olida
ent er
qa ch
Ġan samb
Ġchiq qach
ĠU il
ush li
ĠF at
Ġaniq langach
Ġuy larini
rsat ilmagan
Ġjoy lash
Ġqol maslik
Ġer taroq
ĠV or
orat oriy
Ġqiz larga
Ġeti klar
oyev a
Ġar ava
Ġtuz ildi
Ġdi ler
ĠZ ir
Ġqaror gohida
Ġmur da
Ġoz g
Ġkurash ni
yu ti
Ġter lash
Ġqism lariga
Ġpoy devor
Ġbah am
Ġtopshir ishga
Ġjinoyat lari
Ġyuv adigan
Ġxalq lar
In donez
Ġtashrif ini
Ġgaz ni
Ġqor ovul
Ġturib miz
Ġ26 0
Ġimzo lanishi
Al lerg
Ġtelefon ni
Ġhav oning
Ġqahramon larning
Ġxavfli roq
Ġhamkorlik dagi
Ġli p
Ġtajrib alar
Ġser ot
Ġjuft liklari
let ovuz
yoq lar
ĠMad ur
Ġdevor ga
Mutaxassis ning
Ġver siyasini
Bux oroda
Kam AZ
Ġyara dor
Ġtortish uv
Ġbet araf
Ġmaqom iga
Ġtaf ovut
ĠBek hem
Ġraqobat bardosh
Ġxoli slar
ĠRasul ova
Ġmuvozan at
Ġmuvozan atini
ĠEk ologiya
Ġsenator lar
Tar tib
Ġmuvaffaqiyatsiz likka
atur e
Ġalyan s
Ġyaxlit ligini
Ġmikroelement lar
Ġstadi on
Ġpyur e
CD C
Lukash enko
kech aklar
Ġkoreya lik
Ġbyullet en
8 3
A pp
B ax
B ayon
G iper
K alifor
P a
P okiston
R ez
S un
X ullas
e a
l bar
t tps
v anda
la mas
la magani
sh adigan
an dar
li d
ar vo
ch ang
at larning
Ġo chadi
Ġq otib
or ol
am pa
am erikalik
Ġbo ji
ay adi
er larni
um um
ol e
ol f
Ġx ir
Ġn otij
Ġp ur
ek is
Ġr ati
Ġbir lashtirib
ĠA ga
ĠM y
Ġbosh lanishiga
ĠB ell
Ġtu yn
ub h
ub ov
kat siya
ĠG S
ĠG ay
ĠG eor
Ġyet maydi
yor ga
Ġmar d
Ġfoyda siz
rsat ishini
Ġim z
Ġim mig
Ġkasallik laridan
xon ov
Ġtav siyasiga
Ġkur d
Ġtashqari sida
Ġtuz ishga
Ġpar fyum
zo laridan
Ġbiz nesi
Ch an
Ġqolgan lar
Ġvide ot
Ġhimoya lash
Ġhaf sa
Ġavtomobil larning
Ġhamkor likka
rish gan
Ġzarar lanish
Ġtushun adi
Ġvazif asida
Ġfikr lash
Ġtanish ing
Ġ27 6
Ġkomis siyaning
qot ishlar
Ġtushir ishga
Ġovoz larni
dekabr ga
Ġidor alariga
Ġmodel ning
Ġkeltir iladi
Ġse ziladi
Ġyigit ga
Ġuniversitet ga
Ġkuchaytir ishi
Ġqas os
Ġterror chilar
Ġshifoxona lar
Ġxamir turush
Sab zi
lashuv iga
Ġver tikal
ĠSar imsoq
yna shi
Ġpunkt larida
St at
Ġaytish di
Ġbirlash masining
Ġziyorat chilar
Qan chalik
Ġkletchat kalar
Ġlitr li
Ġtok sik
Ġmetall urgiya
En ergetika
ynash ni
Ġtantan a
Ġxaridor lar
ĠKub ogi
sharq iy
sharq idagi
ĠEd u
Ġfesti vali
ĠYusup aliyev
ve dev
Ġtuyu ladi
Ġekspertiz asi
Gur uch
ĠAtlan tika
ses siyasida
Shifo xonada
Ġkast ing
Ġkonting ent
ĠNon ushta
ĠFal con
Ġsich qon
X astalik
Y u
Z amin
b ovar
n ep
r sa
s ki
s ula
Ù Ħ
an ni
ch ish
at ilgani
Ġo ng
on aning
or lari
as vir
ov chilik
aq aldiroq
ĠM ujohid
ok omotiv
lat gan
ri ana
ĠB ush
ĠO dessa
ĠS ovuq
oni k
ĠR at
ĠK arter
ĠG rey
Ġyet ganini
ĠY urak
ĠQ arag
Ġqan oat
Ġmar jon
Ġer onlik
Ġku yish
ĠH AMAS
xon ning
ig ht
Ġmun cha
xt aydi
Ġvazirligi dan
Ġbil maydigan
Ġbelgi laydi
Ġxodim ning
Ġtizim ning
Ġbildir uvchi
Ġhudud laridagi
ĠMirziyoyev ni
Ġkirit ilmoqda
Ġax lat
Ġom adi
Ġsoh ili
Ġ12 3
Ġiq ror
Ġiz larini
Ġbuz ishi
Ġchegar asidan
xtat ilib
Ġkelish ni
Ġsharoit lari
ly us
Ġhaydovchi lardan
Ġchaqir ilgan
Ġhavo dan
Ġbez aklar
Ġpart n
Ġyomon lashadi
Ġ27 7
Ġbaho lanadi
ij od
Ġraqam ini
Ġqiyin lashadi
Al ohida
Ġaer odrom
Ġimmun iteti
ĠFran s
Ġoson lik
Mamlakat dagi
asiz mi
ĠQur ilish
Ġogohlantir ilgan
Ġichimlik lardan
Kasal likka
Ġfor masi
ĠMed vedchuk
ĠMi lan
Ġyuqor iroq
Ġqidir ish
rq adi
Ġulgur ji
Ġplatfor masida
Ġ198 1
Ġpsix olog
Ġpnevmoniya dan
Ġyevro ga
Par lament
Ġuringan i
ĠLe onid
Ġqatlam ini
Ġuchir di
Ġyangilik lardan
ĠQosim ov
Ġting lash
En erg
Ġxotini ga
Ġyugur ib
Ġkash fiy
Ġhamj ihat
Ġnos ozlik
ĠKuch lari
Mir obod
Ġmojar oni
Ġqush lar
Ġjozib ador
His ob
Mav sum
Ġsarguzash t
Ġsarguzash tlari
ĠPaxta chi
ulf iya
Chaq aloq
Harak at
Ġqudrat li
Ġinj iq
Ġayanch li
Ġrati fikatsiya
D ush
O Q
Q ot
Y as
b ital
g h
l tan
n avo
n CoV
q ina
r ga
r may
u er
z ilib
sh e
da st
Ġo h
Ġo layotgani
on Foto
Ġy ahudiy
gi dagi
Ġbilan oq
os e
Ġbir idan
Ġbir lashgan
ĠA j
ĠA dam
ĠA gen
ĠM agazin
ob at
Ġi sish
ĠT ibbiy
ali zatsiya
Ġqar oq
Ġqar atiladi
Ġol omon
dir uvchi
dir maydi
ut b
ĠY un
ĠJ ak
ĠQ amashi
ĠSh if
Ġyangi liklarni
Ġdavlat lariga
rsat ilmoqda
lumot larning
Ġkel masligini
Ġku ylab
Ġuz ra
Ġkar ant
Ġsan algan
arq o
ĠIn qirozga
Bir gina
Ġ19 60
Ġorgan larida
ĠCh ak
Ġasos ini
Ġmax luq
Ġcha sh
Ġaktyor larining
Ġye tadigan
Ġkiyim ning
Ġtashkilot lariga
Ġrang ni
Ġchaqir gandi
Ġsavdo lari
rsatkich ni
modda sida
orati v
fer ens
Ġmaqsad larga
Ġmodel ni
Ġkomp ress
Ġekani dan
llan ildi
Ġuyush gan
Ġqatnash ishi
ĠSt yuart
Birinchi si
Ġmanz ur
Ġbin oning
Ġxonanda lar
Ġaralash uvi
Ġparvoz ini
ĠKiyev dagi
Ġsiyosat chining
Ġpoytaxt ida
Bar selona
Ġkredit lari
Ġaksiya larini
Ġqisqa cha
Ġqayt ayotgan
met anali
Ġochi lib
Ġmon taj
san am
Sur iya
Ġug lerod
Ġ198 2
Ġqarindosh lar
ĠTom as
Ġdavolanish da
Ġbrend ining
Ġeri tib
Ġir rig
Ġdisp ans
Ġnomin atsiya
ĠJen evada
lu at
rs atilayotgan
ĠRobert s
ĠTixanov skay
Ġstrateg iyasini
ĠSk ott
Ġraket ani
Ġchiziq lar
Tabiiy ki
Agent likning
ĠKarim ovning
Ġruxsatnom alar
ĠYusup ov
Ġkartin asi
ĠKapitoliy ga
ĠYev rokomissiya
Ġmaf iya
Homila dorlik
koronavirus ga
Ġfran shiz
ĠSE OM
Ġaminokisl ota
Ġsarlavh asi
Ġratsi oniga
ĠSoli h
Ġiny eksiya
ĠBM W
Finlyan diya
ĠLE TA
metall urgiya
ĠKazakh stan
0 8
5 00
G id
V an
Z ir
Z aytun
h ind
q omat
u larning
v ich
v aqt
y en
y le
Ð ²
Ġ layn
la d
li Foto
Ġk aliti
Ġt ribun
at ali
ir ot
ir langan
asi ya
ov e
Ġp udrat
os lav
Ġr ektor
Ġd jinsi
Sh arif
ĠM iya
Ġmu dir
Ġch ell
ĠS tan
Ġay langani
ĠR od
ĠK ogon
ĠP erseverance
tib oridan
Ġbor ildi
erak tiv
ĠD ori
ĠU inf
ort oq
dor lari
ĠSh akar
ad diy
Ġkom andi
sp ir
Ġyaxshi gina
bir larini
Ġoq iz
ĠH oj
chilik da
Ġharakat lanadigan
Ġsaqlash da
Ġxizmat larining
Ġhokim liklari
Ġar cha
ova c
Ġ15 8
Ġsin algan
Ġmul ki
res siya
Ġ13 4
Ġsiy dik
ilmagan ini
Ġ17 6
Ġyop ilgani
Ġyuv ishga
ĠAbd ullayeva
Ġtax mini
ldir gani
uch chi
Ġqarat ib
Ġqismi dir
Ġqiziq ishi
Ġsol di
Ġboshlagan di
Maz ali
Ġishi dan
Men dirman
Ġvoqea lardan
dekabr dagi
Ġtaom larga
Ġhujjat larga
ĠFran ce
xo di
Ġfikri dan
Ġturk man
Ġsurat kash
quvchi larni
Ġsamolyot ini
Ġbin osini
sar oy
Ġqattiq qo
chir ishga
Ġpoytaxt ning
Ġnishon lagan
Ġahvol dagi
Ġjihoz lari
Ġolam idagi
Re ja
Ġtabrik lagan
Ġkap sula
ĠMoskv aning
Ġyaxshiroq dir
Ġ198 6
Ġsayyor aning
Ġkanal lar
Ġpor siya
Ġnonushta ga
Ġyas miq
Ġchaqaloq lar
Ġquti si
Ġxiy on
ĠAmir liklari
Ġdegani dir
Ġsahn ada
rs ula
Fa oliy
Ġxay oliga
Ġqonunchilik da
Ġaviakompaniya lar
Tah rir
Ġekipaj i
tok s
ĠOsiy oning
ĠJav ohir
Ġqisi lishi
Ġavtomat lashtirilgan
Ġdug onasi
sur ishtiruv
Ġsuverenit eti
Ġlik op
Ert asi
Ġbardosh li
xsha gan
Ġinfor mat
oterap iya
ĠâĢĿ ,
ĠSing x
Ġstipen diya
Zanj abil
omar kaz
Ġterm ometr
1 80
B aqlajon
E y
G ala
N ovich
O bod
P axta
S alat
S HT
X otir
X arkov
Y HXB
h ap
l larga
l lanadi
m enti
n ud
n ess
q ah
t ayev
ch gan
Ġt re
Ġt riptofan
at t
at adi
Ġo riginal
Ġm arix
Ġv egetari
Ġs eg
Ġva j
Ġu t
al on
chi larini
Ġx antal
lash ayotgani
us ga
ĠA p
Ġ2 19
Sh an
Ġqil dirgan
ĠS and
ev ning
Ġqar dosh
Ġol uvchilar
ĠR id
yil magan
ĠK ul
ĠK uvayt
art iya
ĠC in
ĠU SAID
ĠQ ozon
ĠQ obul
ĠQ uddus
Ġqilgan ida
Ġyosh lik
ĠF ot
Ġyangi dek
sp aniyaning
Ġoshir gani
Ġoq i
ĠH er
Ġqon ni
Ġviloyat laridagi
Ġkur a
Ġtizim ga
Ġyub kalar
dar g
va dor
Ch uqur
Ġsin ishi
lantir ilgan
ĠMar garet
Ġumum xalq
Ġtaklif lari
Ġaktris alarining
Ġag ressiv
Ġbah osi
tiy ot
ce uti
Ġboy ligini
Ġxalq ni
Ġaloq ani
In f
ldir ildi
madi k
Ġkompaniya larga
lub iyatini
Ġba chadon
ĠBritaniya dan
qu shi
Ġjaray onidan
Ġyomon lashishiga
ovqat larni
Ġtabiiy ki
Ġrespublik adagi
Ġeksp luat
Ġizoh lar
Ġport lovchi
Ġxoh ishi
Ġkitob xon
Ð° ÑĤ
Ġagar da
Ġsoliq larni
Ġharorat ning
12 8
Tay van
Ġtekshiruv lardan
Ġtaraf dan
Ġbayram ona
Ġxato lik
Ġyotqiz ish
Ġqamoq dan
Ġshim olida
ĠOq daryo
Ġjoylashtir ib
inter nat
ĠAs sanj
ĠNor in
Ġamerikalik larning
ĠXon Foto
Ġbep arvo
199 7
Ġbul og
Ġmavzu sida
Qor in
Ġlin iya
ĠYulduz larning
Ġstatistika ga
Ġuglevod larni
ĠNurman Foto
Ġeksper im
Ġbila sizmi
Mak simal
Ġir siy
Ġyozuv iga
ĠQrim ni
Ġvah shiy
Sal omat
Loyih aning
oki a
Ġeslat di
Ġtren dda
Ġsalfet kalar
Ġmigrant lari
Ġasabiy lashish
alt h
Ġkonsep siyasi
Ġvodiy si
Ġbom bardim
Ġekstrem izm
Ġqoniq arli
Ġqolip ga
Ġhissiy ot
ĠBab ari
ĠSlov akiya
ĠSodiq ov
Ġyaltir oq
Ġyotib di
Ġtafsilot larini
Ġsotsi al
Ġqoy il
Fer uza
Ġfursat da
Ġbichim dagi
Ġquvvatlantir gich
Rak eta
Ġitaliya lik
Ġasf alt
Ġruxs ati
Novich ok
D ip
S pot
T T
T ram
T aqiq
U x
a gani
k asal
l uda
p lanishiga
s ka
y lay
z imizning
ã Ĥ
la mang
sh liq
Ġb ahon
Ġo ft
ish ib
am ida
ay apti
al ov
ur g
iz or
Ġp ank
Ġyo ga
tir ilib
ĠA nat
Ġqil magani
Ġch etiga
ĠB us
re li
langan da
ut s
ut qaruv
zbek lar
zbek konsert
ĠP al
ĠP re
Ġbor ki
ĠN odir
Ġte shi
ĠC rew
ĠJ uman
Ġchiq amiz
rin mas
ĠU N
ĠX orij
ĠQ iy
amla gan
Ġyor iqlar
Ġyosh ligidan
ĠF HDYo
Ġmuh ab
Ġzar dob
lon e
Ġavt os
ilish ni
Avval lari
Ġbola likdagi
Ġkur sini
Ġkech ishni
do diy
Ġkuzat gan
Ch oli
ug urt
Ġtug ma
Ġdar goh
Ġmuammo lariga
Ġgap lari
Ġvaksina larini
Ġboy it
Ġaloq aga
Ġsharoit larini
Ġmunosabat larda
Ġxon asida
Ġmos lashtirish
Ġbajar ishi
Ġbajar ishni
Kor eya
Ġ21 1
Ġqiziq tirgan
Ġyetishmovchi ligining
eg u
Ġchiqarish ning
Ġshakl lanishiga
ĠKar mana
Ġbosqich ini
Ġchoy i
yur ek
kar ta
Bosh qar
Ġissiq xona
ĠBuxoro ga
Ġkeltir moqda
quvchi larga
Ġuyush tirish
Ġnorozi liklar
qiy digan
Ġxotir ani
Ġmanz illi
Ġqurilish ida
yn oq
Ġxato ga
chir ildi
Ġmeva lardan
Ġqurbon larining
Ġhayvon lari
yuk s
Ġaeroport da
Ġkelin ishi
harak ati
Ġtomoshabin larni
Ġdiz el
Ġjabr langanlar
Ġkap ita
Ġshartnom asini
Ġjin s
Ġsakkiz inchi
Ġbirik malar
Ġart ish
Ġavgust ida
Ġmusulmon lar
Ġpat ologiya
Ġtashv iq
San ksiya
ĠIstanbul dagi
ĠAziz ov
ĠBob oj
Ġnamun alar
Fran siyaning
ĠMax sus
ĠRed kliff
Ġkaltak landi
Ah mad
Ġqilaman ki
Ġjadal lashtirish
eop or
Ġmoyil lik
Ovqat lanish
rindi g
Elektr on
Ġastr onom
Ġmaf kur
Gur uh
Ġminor asi
muham edov
ĠKlar k
Ġqatiq li
ĠMaqs uda
ĠBuk ingem
ĠKet rin
Muloq ot
ĠMuzaff ar
hind cha
ceuti cal
9 4
A rt
B eh
M illi
N az
O lov
S R
X avfsizlik
Y engil
c tion
q av
sh ona
ar oyib
il mi
Ġv ul
Ġh a
Ġbo sishi
Ġbo dikam
chi g
ti ariq
om en
cha lariga
Ġko deksi
ĠA A
ĠA zim
lgan man
Ġde sak
ob axsh
Ġqil yapman
ĠT oj
Ġmu f
Ġkun jut
ĠB it
ĠB erg
ĠS id
Ġqar ovsiz
ĠR yanair
lay d
Ġkor i
lish lari
Ġbor ilishi
Ġz ul
ĠN asi
day am
ĠG av
Ġ3 20
uvchi lik
ĠD u
ĠJ ismoniy
Ġchiq dik
ĠU ol
ĠU rsula
Ġtan asida
Ġdavom idagi
Ġuy larda
ad jet
Ġboshqa lari
Ġkel dim
Ġsaq ich
rt asiga
Ġtayyor laydi
Ġtalab gir
ĠMir ishkor
zgar uvchan
Ġat al
ĠCh egara
Ġnafari ga
Ġbe jir
Ġmaktab larga
Ġ18 6
Ġ13 9
Ġtik tok
Ġtah r
qul ova
Ġ25 6
Ġerkak da
Ġdavr ga
arg o
Ġmajbur an
lak ka
Ġmutaxassis ga
Ġsinov larida
eg raf
Ġqor ni
Ġcheklov larga
Ġgi pot
ĠKar ol
ĠKar ina
Ġbaho landi
Ġ26 7
Ġvoqea larning
Ġmak on
Ġmodel larga
Ġtadqiqot chilari
ĠTelegram Ma
Ġsuhbat lashib
Ġchegara chilari
Ġtaqdir ini
Ġtaqdir landi
Ġtosh malar
Ġser iya
Ġqarori dan
Ġsez uvchan
qituvchi larning
Ġnur idan
Ġpolitsiya ga
olib lari
Ġtir kam
Ġtanqid larga
Ġparlament ga
Ġsekin lashadi
Ġsaraton ning
Siz ning
199 5
199 9
Yevro ittifoq
kitob lar
Andijon da
Ġdavolanayotgan i
Ġyopish qoq
Ġmuolaja lari
ohir shoh
Ġtashabbus ini
ne di
Ðµ ÑĢ
Qashqadaryo da
Ġhisoblash ini
Ġuchra gani
Ġzarb asi
Ġmutasaddi lari
Ġtrans lyatsiya
Ġkombin atsiyasi
Ð¾Ð ½
Ġtat u
ĠSer biya
Ġmazmun i
Ġnusx asini
Juft likning
Ġterap ev
Aj oyib
Ġster e
ĠKalifor n
Ġsus aytir
Chek lovlar
ĠMav lon
Ġstr im
ĠIsmo ilov
Ġdov g
Ġixtiyor iga
Serg eli
ĠKav kaz
Ġapre lida
Ġink lyuziv
Ġrent gen
Taj rib
Ġtazy iq
Ġhoj ati
Ġchash ka
Ġkomandi ri
Ġbejir im
B AA
J onni
M al
O tam
Q ayn
R ux
S ovet
T im
V ektor
X ar
Y ev
Y PX
f ild
k ilishiga
o dagi
r yu
r fa
t d
v y
v od
y oshlar
Ġ Ñĥ
la gidan
la veradi
Ġb ali
Ġt h
Ġo lis
Ġm iyada
Ġs ujeti
Ġbo bo
Ġta qa
Ġx ati
Ġp orti
Ġma d
ul lanishi
ul lanayotgan
Ġr ev
it atsiya
Ġde m
Ġish ining
oz lari
lat or
ĠB y
ĠB oston
ĠO chil
ali stik
st antin
Ġbor maydi
Ġtur oper
ĠN an
ĠN iki
ĠD ol
ĠY agona
ĠJ uli
Ġvazir likning
Ġbar bod
Ġyil likda
ayotgan lar
yin larida
ja obod
Ġim koniga
ĠL iz
19 80
ĠV azn
Ġqiz ig
Ġoq ishi
Ġqilingan dan
ĠH ech
ala quduq
Ġuz il
Ġuz uk
rat on
ed ovning
oya lari
Ġur ildi
Ġtalab ni
zgar gani
Ġbola li
Ġat er
ĠCh ust
Ġhudud ning
Ġob od
Ġchek lanadi
Ġom let
Ġumum lash
Ġ12 4
Ġrav naq
Ġ14 1
Ġtomon ining
Ġjarayon ga
Ġiz idan
Ġshifokor larni
Ġqism ining
Ġtopshir ib
Ġsiy oh
Ġtik landi
Ġrol lardan
Ġbajar magan
Ġfarzand lar
Ġsiz ib
Ġhaqiq atdan
Ġtomir larini
Ġes dan
Ġ0 4
Ġraqam larni
Ġqurol dan
Ġjurnali sti
Ġtadbirkor likni
Ġjamo alari
Ġxoh lamaydi
Ġxavfli dir
Ġtosh kentlik
Ġsoliq lar
mini str
Ġtasvir lar
shni si
Ġdaromad li
Ġaralash masi
Ġbayram ini
Ġkilometr ni
Ġkilometr lik
Ġkino dagi
Ġzaxir asini
Ġroli da
uly ar
eyt en
ket in
Ġqidir ib
Ð°Ð ¼
Ġkelingan i
ĠAy shvariya
ograf iyasi
Ayol ning
Ġmuhit da
Ġkimga dir
Kon t
Ġkuti layotgani
Yapon iyada
Ġkrossov kalarni
Ita liyaning
Ġfas li
ĠFinlyan diyaning
Ġnizo lar
Ġyarm iga
Ġsel fi
ĠTravel Ask
Kel gusi
Ġchay ish
Ġtala ff
sif ikatsiya
Ġshakllantir ilgan
Ġkontr abanda
ĠNiz om
Ġalmashinuv ini
Ġlat of
ĠShuk ur
etch er
Lav lagi
ĠAtlan tic
Farmon ga
Da ily
Ġshuk r
atir chi
Ġdovon ida
ĠShot landiya
Gruz iya
Rosk osmos
Roy ce
Ġvaliah d
Ġnotij orat
Choli qushi
M I
N urmat
P six
T ropikamid
X izmat
Z av
k eyk
p ladi
r aning
s uli
v ye
w ay
an dim
Ġq ashqadaryo
un cha
iy ning
ay ollar
gi si
ta dan
Ġp last
ra dim
aq om
os a
ĠA st
Ġish laridan
Ġet madi
ĠS ud
dir ilgan
ĠR ax
ĠR es
ĠK ut
ĠP as
tib ori
ĠD ilm
Ġkasal xonalar
ĠU FC
ĠX yu
ey li
Ġ5 50
Ġyil ini
Ġmar om
Ġkir gani
tr ak
Ġdavlat larni
Ġga lak
Ġtush ishdan
layotgan da
Ġqiz cha
Ġtop adigan
xon ga
Ġxizmati Ta
Ġket ildi
Ġavt op
op e
arli z
Ġtalab ga
Ġnam langan
if ei
Ġsoat lar
Ġboshqar ishga
Ġorgan larga
Ġyub il
ust un
Ġyetkaz ishni
Ġasos chilaridan
Ġmilliard dan
Ġyetish maydi
Ġmashhur larning
Ġqism larida
Ġ13 2
Ġ13 3
quvvat lashni
Un dagi
siq larni
Ġqoida sini
Ġmos lashuv
Ġajrat ishi
Ġqarat adi
Ġbajar maslik
Ġavi atash
ĠSur iyaga
Ġ0 3
Ġserial dagi
Ġtil lari
Ġehtiy oji
Ġtelefon lar
Ġqahramon larni
raf ik
Ġqop lanadi
Ġshar manda
Ġrafiq asini
Ġrespublika chi
ĠYangi qo
las sik
Ġnishon lanadi
Ġeksport ini
Ġzaxir alar
Ġjon zot
Ġhokimiyat ga
Ġgul karam
ĠSo ip
Kom somol
Ġkaryer asidagi
ĠArabiston ining
Ġuzaytir iladi
Siz ga
Ġbakteriya larning
Ġtovar lari
Mash g
Ġmasjid larda
Ġmeni mcha
Ġizoly ator
ĠKanada da
Ġben zini
Ġinspektor iga
Ġombor ida
Ġtrans format
Ð¾Ð »
Ġaudi oyozuv
ĠRiz ayev
Ġaktiv lari
ĠParij da
Ġfunk siyasini
ĠSob ir
Ġsem irib
ĠBezos ning
Ġkonsent ratsiyasi
Ġyoqtir maydi
Ozarbayjon cha
Ġtasodi fiy
Ġbron za
Gollivud ning
Ġkomponent lar
Ġichk ari
Ġtrakt or
Ġlah za
opa uza
ĠBey onse
ĠLy ay
Ġshap ka
Ġbuly on
Ġyap rog
ĠIordan iya
Ġmolek ula
Ġkodek siga
Ġdarax ti
ĠJazo ir
ĠTashkilot ining
ĠZh ifei
D b
G lobal
I ttifoq
K ut
M anba
P ay
P ashinyan
X ush
a ut
e ar
l larning
l chan
l ektiv
m ib
r ilishiga
t witter
z ay
Ñ ĭ
li cha
ch or
ch asining
ch ehra
di tion
Ġo lig
ir og
Ġbo tirib
gi mni
Ġe stra
oy asini
oq dan
Ġbi ometrik
Ġqo layotgani
Sh art
Ġde port
Ġish ladi
Ġbosh li
Ġqil ol
Ġqil maslikka
ĠB lum
ĠO d
ĠS ot
ĠS ey
Ġor z
az mol
Ġbor ishiga
mo del
ĠN i
ĠG itler
ĠJ AR
ĠJ uliya
lov chining
Ġtan lashga
ĠSh arif
Ġaniq laydi
Ġqilin masa
Ġqilin maydigan
Ġholat lariga
Ġhisob lan
Ġsur tilgan
Ġega larining
Ġich ishga
Ġyoz ilishicha
min ov
min landi
ih od
Ġbil sa
Ġdi areya
ĠCh arli
Ġyer to
Ġkirit ilgani
Ch ap
ĠAdMe Ushbu
Ġem ot
Ġfoydalan ilmoqda
Ġbun gacha
Ġsht atlar
Ġlav h
Ġkelish uvi
Ġuchrash ishga
ett en
Rossiya ga
Ġlavozim larda
Ġyuk langan
Ġxon ani
Ġnatija laridan
Ġbuyur ishi
Ġqiziq ib
Ġatrof da
Ġatrof iga
Ġatrof licha
Ġ22 5
iyev ning
Ġkirish adi
Ġshakar siz
Ġmaqsad lari
Ġkol got
Ġsarf lanishi
Ġport lashi
Ġjahon da
Ġqishloq da
Ġkin ost
Ġnuq tasi
Ġtuga b
Ġbin oda
ĠÐ ¼
Ġaeroport ga
Ġaz ot
Ġmayda lab
aho lanki
Ġqarash lari
Ġnishon ga
Ġvari k
ĠAs li
Ġqayt gach
Ġasr lar
Ġbek alari
Ġbek atlari
Ġsalat lar
Ġmuzokara larning
Ġtoif asiga
Ġdaraxt larni
Ġqatnov lar
Ġsaraton ining
Ð°Ð ´
Ġmushuk ni
Ġpunkt ida
Ġchaqaloq ning
Ġbrend lar
Ġaytish im
Ġresp ondent
Ġ197 9
Jam o
Ġmusobaq alari
Ġmajburiyat lari
ĠPashinyan ning
Shunda gina
Ġsodda lashtirish
Ġajin larni
Ġtaqinch oqlar
Ġsuvsiz lanish
ĠKom mun
Ġtejash ga
ĠYan deks
ĠOn line
Ġmikrob lar
naz arov
Ġfotosur atlar
Ġsy ujet
Ġvideokon ferensiya
Ġtasarruf idagi
Ġchangyut kich
Ġmanda rin
Ġshogir d
ĠUmir ov
ĠBolsonar u
uskun alar
ĠNonushta ga
Komsomol skaya
B ino
E K
F ed
J in
L ifehacker
L ibos
P op
S tar
Y olg
d og
e sht
e era
f ekt
j u
n tarish
r ol
t urk
sh atish
lar ing
ar ali
Ġt rey
at in
Ġm oviy
ir lashgan
un t
ur lar
ak lari
ta qa
Ġf l
Ġf at
siy alovchi
Ġyo u
Ġda dam
ul laning
Ġso kin
Ġber ilsa
ĠT al
ĠT ad
Ġkun larning
ĠB as
ĠB ojxona
ĠO g
ĠS mart
Ġqar i
Ġ( -
ĠN ab
ĠG uli
ĠD oh
ĠY ekat
rin larini
ĠX oliq
Ġvazir iga
Ġyor ilib
Ġyil dagi
ĠF ren
Ġmas siv
ĠL loyd
Ġkel ini
Ġyaxshi langan
ĠH omila
Ġharakat ning
Ġket ayotib
Ġaj dod
Ġbil in
Ġtuz al
ova Foto
Ġdi ametri
Ġkiy ishga
Ġob ida
Ġmuam moning
Ġyubor ishini
Ch ern
Ġkurash gan
Ġsin tetik
Ġmilliard lab
Ġem al
arb dan
arb idagi
Ġmiqdor iga
rta lariga
shiq lari
xtat ishi
Ġmarkaz da
Ġ16 2
lini k
Ġtarmoq lariga
Ġshart lariga
Ġjinoyat chilik
Ġtekshir ilgan
Ġtut di
lak da
ĠIs oqov
lama chilik
Ġtayan gan
Ġchaqir moqda
Ġmuxlis larga
Ġkil oga
Ġyomon roq
yilgan ini
noyabr ga
Ġolim piada
Ġprokuratur aga
Ġrejalashtir ayotgani
Ġemlash lar
Ġrafiq asiga
Ġkin ok
Ġettir ishi
Ġalmash ildi
Kun i
Uy q
artam ent
Xitoy lik
zosi ga
Xus usiy
Ġdaromad lar
Ġogohlantir gandi
Ġkuchaytir di
Ġoperatsiya lari
Ġmig rat
ĠIsroil ov
Ġruh ida
Inter vyu
Ġstandart lari
Ġstandart larga
ĠArabiston iga
Ġoqsil lar
Ġmingta ga
Ġurin ishda
Ġulgur magan
Ġmaqola lar
Ġpir otexnika
ĠQar shida
Ġnoqulay liklar
Ġxab ari
Ġgiper ten
Ġtashabbus kor
Or ol
Ġbila siz
German iyaning
Ġajr atiladigan
Ġdemokrat iya
ĠRasul ov
Ġsodda lashtirilgan
ĠEsquire Foto
Ð» Ð°ÑĢ
ĠGar rining
Ġyu an
Ġvra chi
Ġquri tib
Ġanglat maydi
Ġhodis ani
ĠIbra gimov
Ahol ini
hav oda
Ġdel ta
Ġmagistrat ur
Ġantibiotik lar
ĠKi chik
Ġsovit kich
Ġmarso xodi
ophar m
Ġjarim alar
ĠIsa jonov
ĠTry udo
Yum shoq
ĠKart oshka
Ġnoh aq
Ġofitsi ant
Ġkredi ti
ĠZir oat
ampa ign
ubh asiz
Ġirrig atsiya
Ġater oskler
; âĢľ
D oktor
G adjet
N as
P re
Q abul
R as
T e
T rans
n azar
v ers
x avfsizlik
z imizga
Ä ±
Ġm ix
Ġm oratoriy
ir lash
on im
il en
Ġy oyib
Ġv arag
Ġbo sa
ay ol
ay gani
ay rit
ot ton
as min
ti ladigan
ta gan
Ġf antastik
Ġp i
ma z
ĠM c
Ġish q
ĠO ne
ali mov
Ġol gach
Ġtar ov
ĠK ajol
ĠG ir
ĠG ran
ĠC ar
ĠJ ob
liq likni
ĠU or
ĠX ov
ĠX ush
man ning
Ġyor ma
Ġyordam ning
Ġoy lar
Ġhisob lanuvchi
ĠE le
ĠE shon
ĠL or
Ġchiqar ayotgan
Ġyuq qan
Ġtush a
Ġrah nam
Ġfuqaro laridan
min lanishi
Av stra
xt aldi
Ġbil mas
Ġsot ilishi
Ġtuz li
Ġtuz ilib
ĠCh ap
Ġkiy ingan
Ġfilm laridagi
Ġoila sidan
Ġyetkaz ildi
Ġhozir dan
Ġmasala larga
Ġrasmiy larining
Ġhimoya chilari
mun cha
Ġye lim
Ġhamkor lar
Ġtarmoq larini
Ġ17 3
Ġyakun lanadi
Ġnarsa lardan
Ġkiyim ga
Ġyuv ishni
Ġtut un
Ġ24 4
Ġtashkilot larida
Ġmuddat lari
Ġsut ni
Ġtushun gan
ĠW hat
Ġbayon otlar
Ġtinch lantiradi
Ġqila siz
Ġtil ni
Ġmashina larni
Ġmashina larini
Ġit lar
Ġtaom ga
Ġqaytar adi
Turk iston
kar otin
Ġkeltir adigan
Ġishlash dan
sish ga
Ġrus um
Ġqop qoq
Ġsmartfon ning
ĠHindiston dagi
Ġuniversitet da
bar moq
ĠAv az
rig in
Qiz ning
ĠÐ ½
ĠOAV lar
Ġboshqaruv ida
ĠMed vedev
Ġjavobgar dir
Kar am
Ġisbot lagan
Ġint eraktiv
ĠDil noza
Ġratsion ni
Ġfoydalanuvchi larning
Ġfoydalanuvchi larining
ĠMer ilin
Ġmato lar
Ġtalaba larni
Soch lar
Ġ198 8
ĠFor s
Ġkorrup sion
ĠRa isiy
Ġmusi qali
ĠHam do
rika cha
ĠEs ki
ĠYe XHT
Ġmaskan ida
Er do
Ġuchast kasida
Ġavtomobili da
Ke ma
Ġavtomashin ani
Ġbax tiga
Ġinsho otlar
Ġmeda l
ĠSin ovac
Ad liya
Ġnos og
Ġboks chi
ĠKuch lar
lya pa
Osh xona
Ġkiprik lar
Ġkarta lari
Vaksin aning
ors u
Maq ola
ĠPhotograph er
Ġdor ini
Ġatay lab
Aer oport
Ġrahbariyat ining
ĠSof iya
ĠPoli tico
Ġmessenj er
rf az
ĠRosh an
Lit va
Ġmao shi
Mut asaddi
ĠPast darg
Ġatirg ul
Ġxul q
ĠAlma zbek
gh ini
Ġkura shib
B ak
B et
B ez
J essika
N orozi
Q am
R iz
S i
S af
S ariyog
V aholanki
m atik
o ila
r li
s ma
s ud
s ari
u et
v osita
y idagi
y amin
y axshi
Ġ arq
ch ina
at o
Ġo tgan
on larni
Ġh ttps
un ov
lan do
al lar
ti gi
iz on
Ġn ay
Ġp la
Ġp alla
Ġyo shim
us lar
Ġber masligini
it ova
ĠM el
ĠM oh
ĠM arokash
af qat
ĠT B
ĠB aliq
ĠS oy
Ġtash lanishi
ĠR olls
mas sa
Ġg emat
ĠI xtiyor
Ġtar ash
ĠK adir
es ning
ub er
Ġtur lariga
Bu g
siz likdan
ona larning
Ġav ar
ĠU nit
Ġtan lashi
Ġqur ilmoqda
Ġqur iladigan
Ġqur shov
lumot lardan
Ġal yum
Ġkel dik
Ġega sini
Ġmahsulot ining
oliy asi
min otini
Ġolgan larning
Ġharakat larda
Ġharakat lanishga
Ġket dim
Ġnom lari
Ġkatta ligi
Ġtizim lar
nali shiga
Ġbildir maydi
bor ghini
Ġil in
Ġkuzat moqda
Ġyer lar
Ġyetkaz ishga
Ch iroyli
Ġyarat ilgani
Ġsin chkov
Ġter im
Ġquy ultirilgan
Ġyon ma
Ġ18 7
Ġ16 4
Ġye gan
Ġsud ning
Ġfarz andim
pp o
Ġyulduz ning
Ġmurojaat da
Ġon asidan
Ġerish ishi
ly ar
Ġkompaniya larning
Ġpas aydi
Ġqoldir uvchi
Ġtort ishdan
ĠNamangan dagi
Ġodat ga
Ġib or
kan alida
Ġes dalik
Ġhamma dan
Ġsir daryo
Al loh
Ġsamar asi
usi qa
ĠTojikiston dan
Ġkeltir ildi
sen ova
An or
Ġsolish tirganda
ĠUz Report
ec t
Ġtomoshabin larning
ĠSher ali
Ġhujayra lariga
Ġbek asi
Ġpoyabzal ni
Ġkasb ini
aqqiy ot
Ġinqiroz dan
Ġqadr li
Ġpost ida
Ġaylantir di
Ġchiz ish
Ġyey ishi
Ġcharchoq ni
Ġtarqa layotgan
Ġash addiy
Ġmaskan lar
lcham li
Ġuchast kasi
tarilgan ligi
Ġdiplomat lar
Ah v
Ġtrans formatsiya
Virus ning
ĠJey son
Ġtat ib
Ġsahn alar
Zar ina
Ġgarderob ida
Ġyozuvchi si
Ġchempion ati
Ġses siyasi
Ġdetal lar
rindiq lar
ĠChan el
Ġshay x
Foyda li
lyut en
Ġtrakt ining
Maj lis
Ġinvestit sion
Ġinvestit siyaviy
ĠEy fel
Ġmaftun kor
Anti oksidan
ĠChern obil
Rob ert
Ġmagnit uda
Ġprop is
Ġayirbosh lash
ĠGT L
kes il
ĠReyn old
Ġfile siga
Ġoda ti
ĠTush likka
Hiz b
Ġmili tsiya
Nih oyat
Ġopp oq
Ġinformat sion
YHXB B
ĠCin ema
ĠDilm urod
ayrit abiiy
A mazon
D ol
G uliston
I stalgan
J im
K obul
R est
T onal
b r
b ot
b ara
l la
m oz
m oriy
t un
an iyeva
in av
Ġs omon
er ing
lan aman
al lik
Ġko eff
ta lab
ov id
Ġp nev
Ġp etrushka
Ġsh inam
os pi
tir maslik
Ġbir in
ĠA un
ah ob
ok e
oz il
ash a
ĠS W
Ġay lanishiga
Ġdav olovchi
st ini
ut h
osh tepa
el lar
ĠK lich
ĠP esh
Ġ20 6
âĢľ âĢĺ
ĠN azir
ĠJ arqo
ĠJ alaquduq
Ġchiq uvchi
ĠX yust
ort ni
ĠSh HT
ĠF T
Ġuy al
Ġuy larida
Ġetgan ligi
Ġyuz dan
Ġkel yapti
ĠV as
Ġyaxshi lik
Ġsi garet
xon asidan
Ġist ayman
Ġyaqin roq
mat illa
Ġayt magan
Ġpar he
Ġ15 6
Ġfilm ga
ag etti
Ġil oj
imiz dagi
Ġmo di
Ġtug atilgan
Ġtel egraf
Ġprezident ni
ass om
masligi miz
Ġmaktab iga
ba ch
Ġbuz ishga
Ġreja ga
Ġmarkaz larini
irg in
Ġteg ish
Ġsud rab
ĠCosmopolitan K
Ġerkak larga
Ġdavr ini
Ġkelishi dan
Ġtashkilot larining
Ġen aga
Ta iland
Ġtanish adi
sentabr dagi
akk al
Ġbaho lab
Ġbosqich li
Ġbekor ga
Ġshakar ning
Ġsamar asini
ĠKoreya dagi
Ġidish larga
Ġettir iladi
Ġtekshiruv idan
An d
Ġkaf t
yn ab
yn aydigan
Ġsum masi
Ġhayvon larning
Kasal lanish
Ġbiznes ni
Ġqarash lar
Ġtakror lash
Ġdengiz ga
Ġtoif ali
Ġehtiyoj larini
Ġpnevmon iyaga
Ġkayfiyat da
Ġmasjid da
Ġqilmaslik ni
ĠMur odov
Ġdavolanayotgan lar
Ġqaynat ing
Ġkechik tirib
ne apoli
Ġizoly atsiyaga
ĠLiv iya
qim alar
Ġayblov larni
Ġkasalxona larga
Ġbudjeti ga
Ġhamshir alar
Ġtob ut
lyuk va
Ġinspektor ining
ĠHay dar
Ġeshik ni
Ġdram atik
Nav ro
vin et
Ġfaxriy si
Serial ning
Ġqoidabuzar liklar
Liv an
Br yus
Ġpunk tiga
ĠDunyo da
Ġkome diy
Ġshoxob chalari
ĠKrist ofer
Ġdvigat eli
ĠPa ul
Ġmatem atik
ĠQah ram
Ġarziy digan
Ġdiy eta
Ġdeklar atsiya
Ġvideolav h
Brit ni
ĠMA N
ĠShax siy
Ġkonteyn er
Ġmarsh rut
ĠVasi ylik
ĠPod olyak
ĠIbragim ova
Gor mon
Ġavlo di
Ġimz ola
0 9
L isa
M um
O tasi
T IV
U K
Y alp
a gar
e lik
e lida
r uj
s uv
u den
v aning
z ovning
z atsiyasi
Ð ¿
Ġ ðŁ
sh ishi
an aning
ch ay
Ġk ru
Ġq ori
il masdan
ot iz
Ġe shak
ur ilgan
ab bor
ak sa
Ġta lay
Ġx ud
Ġf oliy
Ġj il
Ġr ob
Ġber magani
Ġto shi
it rat
Ġish qib
Ġi ti
Ġi poteka
ĠS iz
ĠS um
Ġol mas
ĠR oy
Ġor tgani
ĠK ing
Ġz ob
Ġa uto
ĠN ature
ĠG az
ĠJ ay
Ġam ir
Ġvazir liklar
Ġtan asining
Ġyor iq
ush lar
tgan dan
ĠF oyda
Ġmas sasi
tkaz ing
tkaz gich
Ġaniq lay
Ġuy idagi
ja ligida
ĠE rik
ĠE gam
ĠE dition
ĠL and
Ġchiqar ing
Ġyur gani
min lovchi
min lashni
Ġemas mi
Ġemas ligiga
Ġshahar chasi
Ġxizmat chilarning
Ġ19 32
Ġular dagi
ĠCh empi
zo daning
dar yoning
Ġyubor ilgani
ĠAdMe Bu
Ġyarat ishi
Ġdar rov
lam ani
Ġyetish masligini
Ġfoydalanish dan
Ġtasdiq lanadi
lom lashtirish
Ġ16 1
Ġyop di
Ġqoida si
Ġmuddat dan
Ġxususiy lashtirish
Ġtushun arli
Ġsinov larni
Ġatrof dagilar
ĠW i
ĠFoto galereya
Ġuchrashuv dan
Ġuchrashuv lari
Ġchoy ni
dekabr gacha
ĠMa lik
ij im
Ġqir q
Ġvitamin ga
Ġno oziq
Ġmustahkam lab
Ġmustahkam lovchi
Ġstan dar
Ġeshi gi
Ġeshi gini
Ġeshi klar
Ġprokuratur asiga
Ġport ret
Ġsanksiya larini
ĠAmerika ga
Ġturk um
Ġson iyada
ygan dek
Ġlibos da
Ġtasvir ni
qiy di
ĠJon dor
Xitoy dan
Ġqulay liklar
Ġyurit moqda
Ġraketa lari
Ġogohlantir adi
Ġogohlantir uvchi
Ġot asidan
Ġjan r
ĠUsmon ovning
Ġlim fa
ĠBMT dagi
Ġnur oniy
Is maloq
ĠAk yurek
Ġdush mani
ĠKan iza
Ġmuallif larining
Ġpoyabzal larni
Ġkasb i
ĠYTH lar
Ġna chinka
landiya lik
ĠMer il
Sab zavotlar
Ġurin adi
Ġshtab da
Bemor ga
Ġvaksinatsiya dan
Ġpandemiy ani
Ġsp azm
Ġmulk ini
ĠBob olov
Ġavtomashina lar
xat ar
Ġretsept ini
ĠOy ga
Ġvideoselektor da
elin da
ĠUch qo
ĠMinsk ka
Ġhov lisida
Ġmurabbiy lar
Ġidora larga
Ġnot inch
Ġqaz g
jo u
Qir ol
Ġtini qib
vest iya
Ġyech ish
Ġelastik ligini
ĠPay ariq
Port lash
Ġprinsi pi
Ġaql bovar
ĠQir ollik
Tak lif
Ġmom aqaldiroq
ĠRiv z
Ġask ari
Ġosi lib
ĠGiz mo
ĠSaakash vili
Ġorom goh
Ġvideot asvir
Ġchell enj
ĠAnat oliy
A z
N ig
N ex
Q osh
S il
S ot
Z axir
b ili
e zi
i tali
k uz
l bola
n tak
s ori
u ell
v as
y ong
il masligini
ish t
Ġv in
Ġv ido
Ġs enga
ni gi
Ġu cha
um ent
oy oq
cha p
ta z
Ġn ari
im ar
en ov
en iya
Ġbi tirgan
aq am
Ġr em
Ġbir ov
ĠA ut
ĠA gar
Ġuchun Foto
ĠO v
ĠS trat
zbek neft
Ġg ospi
ĠP et
Ġz omin
Ġtur ardi
lishi b
Ġte b
Ġas tma
ya g
ĠD am
Ġchiq dim
Ġchiq maslik
Ġam mi
Ġmah suli
ĠSh vetsiyaning
Ġbar ra
Ġmar gan
Ġkir magan
Ġmas xara
Ġqur ishiga
Ġqur ult
ap aksa
mon taj
yin ni
Ġqol dik
ĠE bola
Ġsur t
Ġsur ib
ĠL im
Ġsaq lanadigan
ĠV is
Ġmuh iti
ron bay
Ġar e
Ġboshqar uvchi
Ġkech ga
Ġorgan larning
Ġberish adi
Ġem lanishga
Ġfoydalan magan
Ġvirus larga
rta laridan
Ġsaylov larga
ĠCosmopolitan Aktrisa
Ġerish adi
ĠImages Mavzuga
Ġbajar ing
Ġchaqir amiz
Ġmutaxassis ligi
lub iyatga
Ġtushgan ini
Ġhujum lari
Ġbesh barmoq
Ġchet lat
Ġserial ini
Ġovoz ni
Ġmuvofiq lashtiruvchi
Ġqiyin lashtiradi
aqalp oq
xo dim
Ġxoh layman
Ġxoh lamagan
ĠAmerika dagi
Ġbayonot ini
Ġson iyasiga
quvchi sini
ĠOl tiariq
Ġnomzod larni
Ġqatnash chilari
Ġtuga gandan
shni lar
ĠMak aron
Ġbalan si
Ġtam addi
Ġap el
Ġbuyum larini
Ġjan oz
Ġmanf a
Ġsum ma
zim ning
Ġjamiyat ga
ega l
Ġkino ijod
ĠIsroil ning
Ġpay qab
Ġinvestitsiya larni
Ġishchi larning
Ġtexnik um
Ġrais lari
Ġmon op
ĠOzarbayjon ga
Ġshifoxona dan
Ġfoydalangan da
Yosh lik
Ġrejissor lik
199 1
Ġsherik likni
Ġtovar larni
Ġ198 4
Ġbirik ma
Ġlay k
Ġyevro dan
Ġshtat larda
Ġumr ini
Ġsarimsoq ni
Ġresurs larni
Ġresurs larini
Ġtarqa la
Ġmushak lari
Ġikkala si
Ġkletchat kaga
Ġdeyish adi
ĠJonson ning
Ġtahli liy
Ġnih oyasiga
Ġmuvozan atni
Ġmit ti
Ġnaushnik lar
Ġmahorat ini
ĠDem okratlar
ĠKen nedi
Pod polkovnik
Ġglyuk oz
Ġjasad ini
Ġkelishmovchilik lar
Ġruxsatnom asiz
lch ov
Ġgid roksixloroxin
Le onardo
Ġchastot asi
Iz vestiya
Ġteles eriali
Ġkamtar ona
Ġzina p
Ġgimnas tika
Ġbrilli ant
Ġmadr as
8 00
A straZeneca
I P
M ev
M uvaffaq
X or
m p
m amlakat
n da
s App
v is
y li
y aqin
Ġb eva
ir ish
on ali
iy otgan
Ġe gi
ur ur
ini st
lari Foto
Ġf oy
Ġp axt
ra shi
Ġj em
Ġbi tir
lash sa
Ġr ok
uv ofiq
Ġbir ligi
Ġber ayotganini
Ġi OS
Ġqil gach
ĠT op
ĠB angladesh
Ġtash uv
Ġol mayotgan
osh enko
ĠK eti
Ġbor maslik
lig ingizni
Ġan emiya
Ġas orati
ĠG ol
ĠD or
ĠD ik
ĠJ amol
yor lari
Ġchiq maydi
ĠU t
ĠX em
ĠX atirchi
Ġtan ladi
Ġtan lashni
Ġyosh ligi
ĠF red
eri dan
Ġ4 80
Ġqarshi sidagi
ĠE b
ĠE li
Ġre akt
ĠV in
rt asidan
Ġyoz ishni
Ġxizmati Shuningdek
Ġtez lashtirishga
Ġberdi k
op la
oya larini
Ġnom usiga
Ġ19 50
Ġtiz z
Ġdi ver
ĠCh av
Ġshak arli
Ġfilm lardan
Ġqiy m
Ġyer larda
Ġoila dagi
Ġprezident lar
Ġmuammo siga
Ġgap ni
Ġmul tf
Ġfoydalan moqda
Ġ14 2
Ġ14 8
lis ining
Ġaktyor laridan
Ġqism dan
Ġbun cha
Ġhuquq shunos
Ġavtomobil ga
Ġboy itilgan
Ġyop ishtir
Ġmajbur lash
Ġara lashtirish
ĠAn der
Ġfaol likni
Ġmutaxassis larining
ĠAm eri
Ġolin ishiga
Ġhalok ati
Ġtayin lanishi
Ġtinch likni
Ġ27 3
Ġkal oriyasi
pay moqda
Ġjang da
Ġno o
ĠBelarus dan
Ġmaydon lari
Ġjamo asiga
Ġkeltir magan
Ġkitob larni
Ġishonch ni
Ġsovuq dan
ĠBer uniy
rem mi
Ġshirin liklarni
Qiz aloq
ĠRespublika chilar
Ġdepartamenti Ma
ĠMus taf
ĠAs qar
Ġimkoniyati dan
Kar yer
Ġdin ozav
Ġnars aning
ĠDil fuza
ĠXon obod
Ġafzal ligi
Ġkartoshka dan
ĠTur dim
Siz lar
Ġurin ayotgan
Ġ198 3
Ġ198 5
Ġmushuk lar
Ġdon er
Ġkorp orativ
Ġaylantir adi
Ġgiper tov
Ġbahor ida
Ġstav kalari
Ġishtirokchi lariga
Ñģ ÑĤ
German iyada
Ġavtomashin asida
Ġuchrat gan
Ġmusobaq asi
99 8
Ġyutuq larga
inot eka
Kech qurun
oid lar
ĠKer em
Ġkonstitut siyaga
Ġprin tli
Ġariz alar
Ġmanzar asi
Ġnusx ada
Ġsous da
Ġinfark t
Ġyoqtir maydigan
Ġmust amla
Ġxak erlik
ĠNazar xon
sing illar
Ġqaymoq li
Ġrasm lar
mondon lik
Sen at
Ġxotirjam lik
Harbiy lar
Ġsul ola
Poytaxt da
Ġkuyov i
ĠShuk r
post lar
ĠKur diston
Ġsohib i
Ġmuloh az
Ġkosmet olog
Dev id
Ġnoroz iligini
Ġasosi dagi
Ekspert lar
GA TE
Ishon ch
Xavf siz
ĠFax riddin
ĠAbduq odir
ĠYoxans son
Ġavtoh alok
Ġoblig atsiya
ylashi mcha
Ġmedit atsiya
Kong ress
Gala xy
Ġmuf tiy
Ġstrim ing
Ġbali g
Ġauto immun
Ġmultf ilmi
6 00
A rg
B O
J er
J amiyat
K as
M ashin
M ic
N eslihan
P en
P lastik
S tiv
T ov
V t
Z angi
b egim
c ell
d oz
h ud
i dek
l ut
n asi
p f
p al
u gi
u chi
u ana
x ema
in ar
Ġk ivi
Ġbo tin
Ġe miz
av orlar
oq ni
cha lardan
Ġn ov
Ġf irma
en in
en koni
Ġbir lashtirgan
et lar
Sh ubhasiz
Ġqil sak
af g
ĠO mon
ĠS tr
ĠS yuz
ĠS ariyog
langan idan
st um
Ġqar zini
el ka
ĠP andemiya
may gacha
[...]
