{"<s>":0,"<pad>":1,"</s>":2,"<unk>":3,"<mask>":4,"!":5,"\"":6,"#":7,"$":8,"%":9,"&":10,"'":11,"(":12,")":13,"*":14,"+":15,",":16,"-":17,".":18,"/":19,"0":20,"1":21,"2":22,"3":23,"4":24,"5":25,"6":26,"7":27,"8":28,"9":29,":":30,";":31,"<":32,"=":33,">":34,"?":35,"@":36,"A":37,"B":38,"C":39,"D":40,"E":41,"F":42,"G":43,"H":44,"I":45,"J":46,"K":47,"L":48,"M":49,"N":50,"O":51,"P":52,"Q":53,"R":54,"S":55,"T":56,"U":57,"V":58,"W":59,"X":60,"Y":61,"Z":62,"[":63,"\\":64,"]":65,"^":66,"_":67,"`":68,"a":69,"b":70,"c":71,"d":72,"e":73,"f":74,"g":75,"h":76,"i":77,"j":78,"k":79,"l":80,"m":81,"n":82,"o":83,"p":84,"q":85,"r":86,"s":87,"t":88,"u":89,"v":90,"w":91,"x":92,"y":93,"z":94,"{":95,"|":96,"}":97,"~":98,"¡":99,"¢":100,"£":101,"¤":102,"¥":103,"¦":104,"§":105,"¨":106,"©":107,"ª":108,"«":109,"¬":110,"®":111,"¯":112,"°":113,"±":114,"²":115,"³":116,"´":117,"µ":118,"¶":119,"·":120,"¸":121,"¹":122,"º":123,"»":124,"¼":125,"½":126,"¾":127,"¿":128,"À":129,"Á":130,"Â":131,"Ã":132,"Ä":133,"Å":134,"Æ":135,"Ç":136,"È":137,"É":138,"Ê":139,"Ë":140,"Ì":141,"Í":142,"Î":143,"Ï":144,"Ð":145,"Ñ":146,"Ò":147,"Ó":148,"Ô":149,"Õ":150,"Ö":151,"×":152,"Ø":153,"Ù":154,"Ú":155,"Û":156,"Ü":157,"Ý":158,"Þ":159,"ß":160,"à":161,"á":162,"â":163,"ã":164,"ä":165,"å":166,"æ":167,"ç":168,"è":169,"é":170,"ê":171,"ë":172,"ì":173,"í":174,"î":175,"ï":176,"ð":177,"ñ":178,"ò":179,"ó":180,"ô":181,"õ":182,"ö":183,"÷":184,"ø":185,"ù":186,"ú":187,"û":188,"ü":189,"ý":190,"þ":191,"ÿ":192,"Ā":193,"ā":194,"Ă":195,"ă":196,"Ą":197,"ą":198,"Ć":199,"ć":200,"Ĉ":201,"ĉ":202,"Ċ":203,"ċ":204,"Č":205,"č":206,"Ď":207,"ď":208,"Đ":209,"đ":210,"Ē":211,"ē":212,"Ĕ":213,"ĕ":214,"Ė":215,"ė":216,"Ę":217,"ę":218,"Ě":219,"ě":220,"Ĝ":221,"ĝ":222,"Ğ":223,"ğ":224,"Ġ":225,"ġ":226,"Ģ":227,"ģ":228,"Ĥ":229,"ĥ":230,"Ħ":231,"ħ":232,"Ĩ":233,"ĩ":234,"Ī":235,"ī":236,"Ĭ":237,"ĭ":238,"Į":239,"į":240,"İ":241,"ı":242,"Ĳ":243,"ĳ":244,"Ĵ":245,"ĵ":246,"Ķ":247,"ķ":248,"ĸ":249,"Ĺ":250,"ĺ":251,"Ļ":252,"ļ":253,"Ľ":254,"ľ":255,"Ŀ":256,"ŀ":257,"Ł":258,"ł":259,"Ń":260,"la":261,"âĢ":262,"sh":263,"an":264,"in":265,"âĢĺ":266,"da":267,"li":268,"Ġb":269,"lar":270,"ar":271,"ch":272,"Ġk":273,"Ġt":274,"di":275,"at":276,"ga":277,"gan":278,"Ġo":279,"Ġq":280,"Ġm":281,"ir":282,"on":283,"il":284,"si":285,"ish":286,"or":287,"Ġy":288,"ing":289,"Ġv":290,"Ġh":291,"un":292,"Ġs":293,"am":294,"iy":295,"Ġbo":296,"ay":297,"Ġva":298,"ot":299,"er":300,"lan":301,"dan":302,"gi":303,"Ġe":304,"ni":305,"Ġu":306,"ida":307,"al":308,"as":309,"ur":310,"av":311,"ini":312,"chi":313,"ti":314,"lari":315,"ab":316,"lik":317,"âĢĻ":318,"ak":319,"de":320,"is":321,"ning":322,"iz":323,"ĠâĢ":324,"om":325,"um":326,"Ġta":327,"oy":328,"asi":329,"shi":330,"oq":331,"ol":332,"Ġx":333,"cha":334,"Ġko":335,"âĢĿ":336,"ta":337,"Ġn":338,"ov":339,"im":340,"Ġf":341,"Ġp":342,"ib":343,"ek":344,"ra":345,"Ġma":346,"siy":347,"Ġj":348,"Ġsh":349,"en":350,"ilgan":351,"Ġyo":352,"Ġbi":353,"Ġke":354,"aq":355,"lash":356,"us":357,"Ġbilan":358,"os":359,"ladi":360,"ĠâĢľ":361,"ka":362,"ili":363,"adi":364,"Ġqo":365,"Ġuch":366,"tir":367,"Ġda":368,"ul":369,"ki":370,"Ġham":371,"Ġr":372,"oto":373,"Ġ1":374,"uv":375,"Ġso":376,"ining":377,"Ġd":378,"Ġbir":379,"Ġber":380,"ĠA":381,"Ġto":382,"ati":383,"iq":384,"et":385,"ishi":386,"ist":387,"Ġ2":388,"it":389,"Sh":390,"ma":391,"ah":392,"Foto":393,"uz":394,"Ġuchun":395,"dagi":396,"ĠM":397,"lgan":398,"Ġde":399,"ob":400,"Ġish":401,"Ġbosh":402,"lab":403,"Ġi":404,"zi":405,"Ġqil":406,"af":407,"siya":408,"ĠT":409,"larni":410,"ligi":411,"sa":412,"iston":413,"qar":414,"lib":415,"Ġet":416,"iya":417,"ok":418,"Ġmu":419,"oz":420,"lat":421,"ri":422,"Ġch":423,"Ġkun":424,"ash":425,"ĠB":426,"ĠO":427,"ĠS":428,"re":429,"ĠâĢĶ":430,"ev":431,"ali":432,"Ġbu":433,"Ġay":434,"kin":435,"langan":436,"Ġdav":437,"oni":438,"moq":439,"st":440,"ud":441,"Ġtash":442,"oli":443,"Ġqili":444,"og":445,"Ġqar":446,"bek":447,"ax":448,"Ġhaq":449,"larga":450,"Ġol":451,"larning":452,"irus":453,"lum":454,"Ġun":455,"dir":456,"Ġchi":457,"ut":458,"ĠR":459,"osh":460,"zbek":461,"ari":462,"Ġor":463,"onav":464,"el":465,"yil":466,"lay":467,"Ġkor":468,"mas":469,"ent":470,"ng":471,"Ġg":472,"ĠI":473,"uq":474,"ada":475,"lish":476,"yi":477,"Ġtar":478,"Ġtu":479,"onavirus":480,"Ġhar":481,"Ġdo":482,"zbekiston":483,"ĠK":484,"larini":485,"Ġ(":486,"moqda":487,"ik":488,"ĠP":489,"od":490,"Ġmum":491,"tib":492,"Ġmumkin":493,"az":494,"Ġbor":495,"Ġnaf":496,"Ġin":497,"Ġkoronavirus":498,"iga":499,"kaz":500,"otgan":501,"Ġ20":502,"âĢľ":503,"idagi":504,"bu":505,"Ġvaz":506,"den":507,"dam":508,"Ġz":509,"yo":510,"Ġyan":511,"es":512,"abar":513,"ub":514,"Ġa":515,"Ġtur":516,"ori":517,"Ġtom":518,"ingan":519,"lig":520,"mo":521,"Ġqilish":522,"Ġkuni":523,"lariga":524,"qa":525,"dek":526,"izm":527,"asida":528,"ĠN":529,"may":530,"kat":531,"Ġxabar":532,"ina":533,"ro":534,"larda":535,"lishi":536,"Ġte":537,"gar":538,"illi":539,"mi":540,"Ġan":541,"Ġra":542,"Bu":543,"Ġdoir":544,"day":545,"iloy":546,"siz":547,"Ġas":548,"Ġqay":549,"ani":550,"ya":551,"ona":552,"shir":553,"art":554,"oh":555,"uk":556,"ĠG":557,"Ġviloy":558,"ĠC":559,"Ġ3":560,"asal":561,"zu":562,"uning":563,"iyat":564,"uvchi":565,"ziden":566,"reziden":567,"osi":568,"erak":569,"yicha":570,"Ġav":571,"Ġyet":572,"avzu":573,"ĠD":574,"ĠY":575,"ram":576,"ĠJ":577,"ishga":578,"yor":579,"Ġho":580,"Ġchiq":581,"avzuga":582,"Mavzuga":583,"Ġkasal":584,"iladi":585,"Ġkerak":586,"liq":587,"Ġsab":588,"magan":589,"20":590,"Ġshah":591,"kil":592,"oj":593,"rin":594,"Ġesa":595,"ĠU":596,"Ġam":597,"biy":598,"Ġdeb":599,"âĢĿ,":600,"aning":601,"ĠX":602,"roq":603,"Ġhaqida":604,"ĠQ":605,"atida":606,"em":607,"lashtir":608,"lanish":609,"Ġmilli":610,"Ġvazir":611,"lardan":612,"ey":613,"sat":614,"Ġak":615,"lov":616,"amla":617,"Ġqilgan":618,"Ġvaq":619,"oyda":620,"dim":621,"man":622,"Ġolib":623,"kent":624,"Ġxizm":625,"amlakat":626,"Ġsabab":627,"Ġmah":628,"ort":629,"00":630,"Ġtan":631,"dor":632,"ĠSh":633,"shbu":634,"Ġhis":635,"Ġyor":636,"Ġyosh":637,"oshkent":638,"Ġbar":639,"Ġ5":640,"Ġyil":641,"Ġtay":642,"Ġqan":643,"Ġmar":644,"ligini":645,"Ġkir":646,"lim":647,"ush":648,"Ġik":649,"Ġnafar":650,"Ġvaqt":651,"qaro":652,"tgan":653,"Ġni":654,"ossiya":655,"ĠF":656,"eri":657,"Ġmamlakat":658,"Ġmas":659,"onidan":660,"lagan":661,"ildi":662,"Ġtashkil":663,"Ġfoyda":664,"diy":665,"tkaz":666,"inchi":667,"Ġqildi":668,"Ġyoki":669,"Ġdavom":670,"tr":671,"val":672,"Ġ4":673,"uningdek":674,"Ġyangi":675,"Ġek":676,"Ġqur":677,"Ġaniq":678,"Ġuy":679,"Ġqarshi":680,"bat":681,"Ġtomonidan":682,"Ġqilin":683,"Ġl":684,"Ġdavlat":685,"Ġyordam":686,"rsat":687,"alar":688,"Ġedi":689,"ad":690,"ap":691,"ayotgan":692,"mon":693,"ayd":694,"sul":695,"Ġeng":696,"Ġoy":697,"maydi":698,"abr":699,"of":700,"Ġboshqa":701,"lumot":702,"yin":703,"Ġjoy":704,"Ġal":705,"Ġqol":706,"lanadi":707,"Ġkam":708,"Ġholat":709,"Ġolish":710,"Ġkom":711,"Ġtum":712,"Ġetgan":713,"Ġhisob":714,"ja":715,"ĠE":716,"Ġyuz":717,"and":718,"asiga":719,"Ġim":720,"Ġming":721,"ĠToshkent":722,"Ġsur":723,"idan":724,"Ġyax":725,"miz":726,"ĠL":727,"uh":728,"Ġre":729,"rezident":730,"id":731,"asini":732,"Ġkel":733,"Ġsaq":734,"QSh":735,"larining":736,"Ġtaq":737,"19":738,"Ġega":739,"Ġhamda":740,"Ġer":741,"oiz":742,"tirish":743,"son":744,"ĠV":745,"Ġah":746,"larida":747,"ech":748,"Ġvak":749,"ran":750,"Ġku":751,"Ġchiqar":752,"Ġ6":753,"ila":754,"orat":755,"Ġfu":756,"ilm":757,"Ġuning":758,"Ġfoiz":759,"iv":760,"sp":761,"Ġikki":762,"kor":763,"Ġmuh":764,"Ġmat":765,"Ġyaxshi":766,"Ġqanday":767,"ĠRossiya":768,"rt":769,"Ġdol":770,"undan":771,"Ġoshir":772,"ishni":773,"Ġga":774,"Ġushbu":775,"Ġij":776,"Ġshu":777,"Ġkeyin":778,"Ġharak":779,"Ġyuq":780,"Ġtush":781,"Ġamal":782,"Ġshi":783,"layotgan":784,"Ġqiz":785,"Ġmash":786,"ilishi":787,"Ġsi":788,"bir":789,"sulot":790,"Ġhud":791,"Ġrah":792,"Ġjar":793,"Ġtayyor":794,"Ġxav":795,"Ġich":796,"qali":797,"tiq":798,"Ġberadi":799,"Ġmillion":800,"atsiya":801,"ide":802,"landi":803,"Ġxo":804,"aga":805,"Ġrahb":806,"ter":807,"uy":808,"Ġmahsulot":809,"Ġtop":810,"Ġzar":811,"Ġjam":812,"oliy":813,"Ġkishi":814,"Ġ7":815,"abi":816,"Ġyur":817,"Ġfuqaro":818,"atga":819,"Ġoq":820,"ara":821,"Ġkasallik":822,"Ġyoz":823,"ez":824,"min":825,"Ġqilingan":826,"Ġqat":827,"ĠH":828,"Ġfa":829,"qi":830,"pan":831,"laydi":832,"Ġog":833,"Ġqis":834,"ala":835,"Ġbog":836,"Ġolgan":837,"ant":838,"Ġemas":839,"kra":840,"Ġodam":841,"kid":842,"xon":843,"emor":844,"lanishi":845,"Ġxavf":846,"yilda":847,"Ġdara":848,"ĠâĢĵ":849,"sti":850,"Ġme":851,"ig":852,"qat":853,"ĠAQSh":854,"Ġhay":855,"Ġxizmati":856,"Ġtez":857,"laridan":858,"Ġhaqda":859,"unday":860,"tadi":861,"Ġsay":862,"Ġqiladi":863,"ora":864,"chilik":865,"Ġyar":866,"Dar":867,"Ġnar":868,"Ġis":869,"xona":870,"Ġberdi":871,"Ġharakat":872,"erg":873,"Ġist":874,"ishda":875,"Ġ10":876,"ingiz":877,"ang":878,"Av":879,"ozir":880,"buot":881,"Ġvaks":882,"liy":883,"aj":884,"miy":885,"Ġyash":886,"Daryo":887,"lon":888,"Ġsoni":889,"Ġqon":890,"siyasi":891,"Ġishlab":892,"Ġket":893,"Ġbemor":894,"Ġavt":895,"uj":896,"Ġbirinchi":897,"Ġtuman":898,"gacha":899,"Ġuz":900,"Shuningdek":901,"Ġkuch":902,"Ġ8":903,"rezidenti":904,"tar":905,"sida":906,"Ġmatbuot":907,"op":908,"Ġeti":909,"aqat":910,"Ġdavomida":911,"rat":912,"ih":913,"Ġayol":914,"Ġkoronavirusga":915,"Ġkar":916,"ovchi":917,"Ġsan":918,"ed":919,"oda":920,"amiz":921,"Ġmun":922,"Ġsaqlash":923,"asining":924,"Ġbuy":925,"eng":926,"ard":927,"xt":928,"ep":929,"zbekistonda":930,"Ġviloyat":931,"gani":932,"âĢĶ":933,"Ġosh":934,"lsa":935,"Ġju":936,"fot":937,"Ġold":938,"oya":939,"Ġur":940,"Ġxal":941,"adar":942,"Ġvazirligi":943,"Ġkuz":944,"atta":945,"kraina":946,"Ġnom":947,"nat":948,"ekt":949,"Ġvafot":950,"Ġhuk":951,"ilish":952,"Ġqayd":953,"Ġmav":954,"Ġsog":955,"Ġberilgan":956,"kon":957,"Ġorqali":958,"Ġshax":959,"arq":960,"aqin":961,"ĠIn":962,"Ġaj":963,"Ġinf":964,"Ġshahar":965,"Ġtad":966,"Ġbil":967,"Ġviloyati":968,"asidan":969,"okim":970,"Bir":971,"akt":972,"Ġ9":973,"Ġbarcha":974,"ux":975,"ldi":976,"Ġshif":977,"ibbiy":978,"Ġmaq":979,"mol":980,"Ġamalga":981,"Ġsuv":982,"jon":983,"var":984,"Ġkelgan":985,"angi":986,"Ġbel":987,"qiq":988,"Ġxizmat":989,"Ġetilgan":990,"tan":991,"ola":992,"sk":993,"gram":994,"arli":995,"Ġtashqar":996,"Ġtalab":997,"Ġhokim":998,"Ġsif":999,"Ġchal":1000,"ĠMir":1001,"esp":1002,"Ġtibbiy":1003,"ayon":1004,"oyev":1005,"Ġel":1006,"Ġkatta":1007,"urk":1008,"zgar":1009,"Ġyana":1010,"Ġnam":1011,"Ġov":1012,"Avval":1013,"Ġshahr":1014,"ekin":1015,"odda":1016,"Me":1017,"Ġbola":1018,"Ġtav":1019,"Ġ19":1020,"Ġdey":1021,"Ġular":1022,"Ġtas":1023,"Ġman":1024,"lashi":1025,"Ġekan":1026,"yan":1027,"ishicha":1028,"Ġbergan":1029,"osiy":1030,"Ġprezidenti":1031,"na":1032,"Ġyaqin":1033,"Ġkur":1034,"Ġfaoliy":1035,"Ġtiz":1036,"mat":1037,"udi":1038,"Ġharbiy":1039,"Ġqilib":1040,"Ġbelgi":1041,"mart":1042,"ron":1043,"Ġxodim":1044,"ayt":1045,"aviy":1046,"Ġuni":1047,"Ġsot":1048,"if":1049,"Ġne":1050,"Ġayt":1051,"Ġsoat":1052,"Ġkompan":1053,"Ġvosi":1054,"Ġishtir":1055,"Ġqab":1056,"Ġiste":1057,"Ġbirga":1058,"sir":1059,"Ġtak":1060,"ilmoqda":1061,"ublik":1062,"Ġhukum":1063,"Ġjuda":1064,"Ġar":1065,"itoy":1066,"Ġolingan":1067,"Am":1068,"Ġnaz":1069,"espublik":1070,"Ġboshqar":1071,"Ġtizim":1072,"kur":1073,"Ġtashqari":1074,"Ġavval":1075,"Ġyoshli":1076,"masi":1077,"Ġkech":1078,"Ġtuz":1079,"Ġdun":1080,"ĠMirz":1081,"Ġat":1082,"oyat":1083,"ID":1084,"antin":1085,"aro":1086,"Ġnati":1087,"ast":1088,"nali":1089,"Ġqabul":1090,"ozim":1091,"Ġishtirok":1092,"21":1093,"Ġhuj":1094,"Ġpar":1095,"Ġortiq":1096,"dat":1097,"Ġorgan":1098,"olog":1099,"omat":1100,"sus":1101,"ova":1102,"Ġdi":1103,"Ġsar":1104,"Ġsam":1105,"avo":1106,"ĠCh":1107,"Ġkiy":1108,"âĢĿ.":1109,"maslik":1110,"ich":1111,"Ġhol":1112,"mir":1113,"so":1114,"Ġyub":1115,"tirib":1116,"Ġaholi":1117,"Ġ15":1118,"Ġtavsiya":1119,"adigan":1120,"ĠZ":1121,"Ġshak":1122,"OV":1123,"liqni":1124,"Ġdaraj":1125,"iyasi":1126,"zo":1127,"Ġfilm":1128,"Ġras":1129,"Shu":1130,"rgan":1131,"Ġoqib":1132,"Ġsal":1133,"Ġbildir":1134,"bor":1135,"ag":1136,"Avvalroq":1137,"Ġqaror":1138,"lif":1139,"oti":1140,"ĠAd":1141,"Ġmur":1142,"Ġmiq":1143,"ishini":1144,"Ġoz":1145,"Ġdast":1146,"Ġro":1147,"OVID":1148,"do":1149,"Ġinfek":1150,"ladigan":1151,"obil":1152,"Ġ2020":1153,"ĠUkraina":1154,"osab":1155,"Ġhudud":1156,"Ġmaz":1157,"Ġvaziyat":1158,"Ġrahbari":1159,"Ġqiy":1160,"Ġpr":1161,"Ġmunosab":1162,"Ġil":1163,"Ġmuv":1164,"Ġshuningdek":1165,"Ġob":1166,"Ġularning":1167,"Ġchek":1168,"Ġfar":1169,"Ġyog":1170,"tris":1171,"ndi":1172,"Ġkuzat":1173,"Ġyer":1174,"Ġum":1175,"dar":1176,"Ġdollar":1177,"jud":1178,"likda":1179,"lga":1180,"Ġnafari":1181,"Ġsav":1182,"Ġviloyatida":1183,"Ġnis":1184,"eti":1185,"Ġjav":1186,"Ġmavjud":1187,"duz":1188,"Ma":1189,"iyoyev":1190,"sta":1191,"asidagi":1192,"ivoj":1193,"Ġmud":1194,"ust":1195,"rof":1196,"ĠMirziyoyev":1197,"Ġkarantin":1198,"Ġavtom":1199,"Ġbiz":1200,"gun":1201,"Ġoila":1202,"Ġqadar":1203,"Ġrivoj":1204,"Ġyetkaz":1205,"Bundan":1206,"avkat":1207,"Ġnisbat":1208,"yilning":1209,"Ġmuam":1210,"Ġjavob":1211,"imiz":1212,"ĠCOVID":1213,"per":1214,"Ġyubor":1215,"quv":1216,"Ġhech":1217,"Ġshaxs":1218,"oyih":1219,"rash":1220,"Ġkirit":1221,"Ġkon":1222,"Ġnisbatan":1223,"Ushbu":1224,"Ġasos":1225,"Ġqilishi":1226,"Ġyuqori":1227,"iyul":1228,"lati":1229,"ers":1230,"Ġdunyo":1231,"Ġpayt":1232,"va":1233,"Ġkabi":1234,"Ch":1235,"Ġbal":1236,"ĠII":1237,"liklar":1238,"ayli":1239,"lanib":1240,"Ġchalingan":1241,"shim":1242,"tyor":1243,"Ġsifatida":1244,"enga":1245,"oriy":1246,"lashgan":1247,"Ġkurash":1248,"Ġmax":1249,"Ġvosita":1250,"inoyat":1251,"lovchi":1252,"vat":1253,"Ġmo":1254,"ĠAdMe":1255,"Ġhozir":1256,"diq":1257,"Ġtuf":1258,"aktab":1259,"Ġyarat":1260,"Ġetdi":1261,"Ġla":1262,"Ġax":1263,"ug":1264,"Ġmasala":1265,"stagram":1266,"Ġinson":1267,"sport":1268,"ishiga":1269,"Ġetish":1270,"Ġsin":1271,"Ġtug":1272,"ĠPrezident":1273,"le":1274,"Ammo":1275,"Ġdar":1276,"Ġberish":1277,"okor":1278,"Ġqolgan":1279,"Ġshun":1280,"oat":1281,"evro":1282,"Ġdavo":1283,"kinchi":1284,"likni":1285,"Ġmaj":1286,"Ġst":1287,"Ġmarta":1288,"Ġtel":1289,"aydi":1290,"aat":1291,"yu":1292,"borot":1293,"Ġimkon":1294,"lam":1295,"Ġom":1296,"Ġprezident":1297,"Ġishlar":1298,"Ġnecha":1299,"Ġkelib":1300,"Ġtufayli":1301,"shib":1302,"lantir":1303,"Ġbiri":1304,"Ġloyih":1305,"tibor":1306,"Ġoldi":1307,"Ġmuz":1308,"Ġmus":1309,"Ġter":1310,"Ġhayot":1311,"bos":1312,"timo":1313,"ĠTurk":1314,"bur":1315,"Ġtaqdim":1316,"likka":1317,"aman":1318,"Ġbe":1319,"hur":1320,"Ġvaziri":1321,"alari":1322,"Ġmilliard":1323,"rel":1324,"rib":1325,"ahon":1326,"aydo":1327,"ziga":1328,"atini":1329,"Ġmuammo":1330,"timoiy":1331,"ass":1332,"Ġpaydo":1333,"Uning":1334,"Ġmaxsus":1335,"Ġsoh":1336,"ĠMar":1337,"Ġtark":1338,"Ay":1339,"Ġhim":1340,"sion":1341,"Ġtadbir":1342,"Ġholda":1343,"shimcha":1344,"za":1345,"Ġhal":1346,"anda":1347,"Ġmuhim":1348,"Ġtartib":1349,"rit":1350,"ulduz":1351,"Ġaniqlangan":1352,"kam":1353,"latib":1354,"Ġem":1355,"Ġumum":1356,"iyati":1357,"Ġgur":1358,"Ġ12":1359,"ĠInstagram":1360,"iyun":1361,"Ġaxborot":1362,"pa":1363,"Ġiq":1364,"port":1365,"masligi":1366,"ĠXitoy":1367,"Ġvaksin":1368,"foto":1369,"to":1370,"lashga":1371,"Ġbut":1372,"incha":1373,"Ġmeh":1374,"ino":1375,"ĠShavkat":1376,"atlar":1377,"Ġmaktab":1378,"Ġgap":1379,"Agar":1380,"Ġ11":1381,"Ġammo":1382,"sim":1383,"tiso":1384,"ral":1385,"uquq":1386,"Ġyig":1387,"Ġtaklif":1388,"rif":1389,"tisodiy":1390,"Ġshahrida":1391,"Ġchora":1392,"Ġasosiy":1393,"ande":1394,"tax":1395,"Ġ201":1396,"Ġdeya":1397,"Ġrahbar":1398,"Ġvide":1399,"Ġyetish":1400,"ba":1401,"Ġnima":1402,"yiladi":1403,"aytir":1404,"Ġaks":1405,"nom":1406,"Ġtumani":1407,"Ġgo":1408,"etr":1409,"lashtirish":1410,"Ġfik":1411,"Ġban":1412,"Ġorasida":1413,"Ġnarx":1414,"Ġmul":1415,"tamiz":1416,"indi":1417,"ilib":1418,"Ġqilindi":1419,"Ġxavfsiz":1420,"Ġoqibatida":1421,"yx":1422,"aff":1423,"slatib":1424,"aniya":1425,"Ġrav":1426,"llab":1427,"Ġfoydalan":1428,"Ġrasmiy":1429,"Ġxus":1430,"Ġcha":1431,"Ġaktris":1432,"Ġmux":1433,"Ġyak":1434,"Ġfaqat":1435,"Ġichida":1436,"arb":1437,"lantirish":1438,"Ġ14":1439,"Ġqayta":1440,"Ġhimoya":1441,"Ġturm":1442,"Ġguruh":1443,"Ġichi":1444,"Ġ30":1445,"lis":1446,"Ġunga":1447,"atlari":1448,"Ġdeydi":1449,"Ġmiqdor":1450,"Ġbutun":1451,"Ġdegan":1452,"qon":1453,"Ġtomon":1454,"egar":1455,"Ġoyida":1456,"Ġhisoblanadi":1457,"Ġzarur":1458,"Ġpul":1459,"Ġmashhur":1460,"Ġravishda":1461,"Ġag":1462,"ramp":1463,"qir":1464,"nik":1465,"Ġturli":1466,"Ġjarayon":1467,"Ġaktyor":1468,"Ġholati":1469,"risida":1470,"Ġvaksina":1471,"Ġiz":1472,"oro":1473,"Ġqonun":1474,"sit":1475,"Ġsuratga":1476,"Ġfoydalanish":1477,"ektr":1478,"Ġbalki":1479,"erial":1480,"Ġshifokor":1481,"xir":1482,"sadi":1483,"Ġqism":1484,"Ġhududi":1485,"inch":1486,"Eslatib":1487,"arqand":1488,"zal":1489,"Ġbun":1490,"Ġquy":1491,"Ġbuz":1492,"Ġyon":1493,"Ġkim":1494,"Ġpoy":1495,"Ġvirus":1496,"proq":1497,"Ġ18":1498,"sis":1499,"rim":1500,"Ġovqat":1501,"ton":1502,"siga":1503,"Ġ2021":1504,"Ġsov":1505,"Ġhaqidagi":1506,"poli":1507,"rinbos":1508,"res":1509,"Ġmahal":1510,"ojaat":1511,"ĠSam":1512,"ĠAf":1513,"mun":1514,"Ġbos":1515,"alan":1516,"tkazilgan":1517,"lmagan":1518,"Ġhuquq":1519,"ogi":1520,"Ġsht":1521,"loq":1522,"ologiya":1523,"rta":1524,"kak":1525,"Ġoldin":1526,"oniston":1527,"Ġchegar":1528,"Ġijtimoiy":1529,"Ġxalqaro":1530,"Ġbah":1531,"ama":1532,"To":1533,"Ġmazkur":1534,"Ġreja":1535,"Ġdedi":1536,"Ġtek":1537,"fon":1538,"gust":1539,"zor":1540,"shiq":1541,"Ġeh":1542,"Ġyuzasidan":1543,"Ġsababli":1544,"Ġsodir":1545,"Ġhaf":1546,"Ġ13":1547,"ĠRespublik":1548,"Ġorganizm":1549,"xtat":1550,"tiy":1551,"Ġtasdiq":1552,"mit":1553,"qan":1554,"Ġtopshir":1555,"Ġmarkaz":1556,"Ġavtomobil":1557,"chisi":1558,"lishicha":1559,"sha":1560,"Ġketgan":1561,"ĠKor":1562,"ĠAb":1563,"chilar":1564,"Ġnamoy":1565,"Ġraq":1566,"Ġjoriy":1567,"Ġsiy":1568,"lom":1569,"ru":1570,"zini":1571,"Ko":1572,"gina":1573,"lag":1574,"irg":1575,"ayev":1576,"Ġ16":1577,"Ġturmush":1578,"Ġetadi":1579,"qin":1580,"Ġuzoq":1581,"nggi":1582,"Ġtik":1583,"taxas":1584,"Toshkent":1585,"Ġshahri":1586,"Ġmaqsadi":1587,"Ġsaylov":1588,"lini":1589,"Ġyurak":1590,"lida":1591,"kazi":1592,"erika":1593,"ĠRe":1594,"Ġye":1595,"algan":1596,"Ġtibbiyot":1597,"otlar":1598,"Ġikkinchi":1599,"Ġvit":1600,"Ġhamkor":1601,"lashtirilgan":1602,"Ġlav":1603,"Ġteg":1604,"Ġdoim":1605,"Ġsud":1606,"Ġnatij":1607,"Ġdastur":1608,"ĠYevro":1609,"Ġelektr":1610,"daryo":1611,"aprel":1612,"Ġfarz":1613,"est":1614,"tik":1615,"oqe":1616,"ft":1617,"Ġkelish":1618,"ĠTramp":1619,"deks":1620,"pp":1621,"Ġtah":1622,"Ġpish":1623,"Ġyulduz":1624,"Ġkeladi":1625,"rish":1626,"Ġkut":1627,"qul":1628,"Ġrej":1629,"Ġmurojaat":1630,"olli":1631,"osmo":1632,"isi":1633,"entabr":1634,"politan":1635,"niy":1636,"Ġuchrash":1637,"osmopolitan":1638,"Ġtarmoq":1639,"oly":1640,"Ġust":1641,"Ġpande":1642,"tif":1643,"rinbosari":1644,"quvvat":1645,"Ġtarkib":1646,"uters":1647,"Ġshart":1648,"Ġvaqtida":1649,"zlariga":1650,"SS":1651,"ĠCosmopolitan":1652,"avlat":1653,"Ġiqtisodiy":1654,"ilmagan":1655,"Ġnav":1656,"ston":1657,"ekor":1658,"Ġtoza":1659,"ett":1660,"taxassis":1661,"Ġrol":1662,"Ġ/":1663,"Ġ25":1664,"chiq":1665,"Ġ17":1666,"uli":1667,"Ġbunday":1668,"unki":1669,"orij":1670,"Ġijro":1671,"Ġkenga":1672,"Ġqaram":1673,"atiga":1674,"Ġoch":1675,"Ġoxir":1676,"Ġerkak":1677,"ransport":1678,"ce":1679,"Ġdaqiq":1680,"evral":1681,"Ġyakun":1682,"Ġboy":1683,"Ġagent":1684,"Ġetiladi":1685,"Ġishon":1686,"ĠIIB":1687,"Hozir":1688,"ishli":1689,"Ġdavr":1690,"affaq":1691,"Ġmusta":1692,"Ġjinoyat":1693,"nash":1694,"Ġoladi":1695,"umla":1696,"siyaning":1697,"Ġon":1698,"Ġmin":1699,"Ġberilgandi":1700,"Ak":1701,"miya":1702,"Ġyop":1703,"osida":1704,"Ġtex":1705,"ilayotgan":1706,"Ġnarsa":1707,"Ġkiyim":1708,"Ġqancha":1709,"Ġkunda":1710,"ologi":1711,"Ġ100":1712,"Un":1713,"kich":1714,"ĠReuters":1715,"Ġdeyiladi":1716,"Ġtekshir":1717,"ofa":1718,"Ġmaqsadida":1719,"aroit":1720,"ĠAr":1721,"Ġvakil":1722,"Ġularni":1723,"Ġerish":1724,"),":1725,"arg":1726,"Ġmuvaffaq":1727,"ert":1728,"Ġhafta":1729,"Ġqah":1730,"Ġhayd":1731,"Ġsah":1732,"mag":1733,"Ġyuv":1734,"Ġzarar":1735,"Ġmajbur":1736,"Ġoldini":1737,"Ġsoch":1738,"ĠAbd":1739,"Ġvoqe":1740,"moqchi":1741,"Ġtax":1742,"don":1743,"arix":1744,"usiy":1745,"Ġtashqi":1746,"Ġ200":1747,"Rossiya":1748,"Ġkelishi":1749,"ĠSamarqand":1750,"tim":1751,"ĠAfg":1752,"Ġvitam":1753,"limi":1754,"Ġtegishli":1755,"otir":1756,"amangan":1757,"sidagi":1758,"Ġxalq":1759,"nalish":1760,"Ġlozim":1761,"rik":1762,"umladan":1763,"siq":1764,"ligiga":1765,"Ġtut":1766,"lak":1767,"he":1768,"ana":1769,"Ġyoq":1770,"Biroq":1771,"Ġboshlab":1772,"tk":1773,"radi":1774,"ersit":1775,"ĠBrit":1776,"Ġayni":1777,"Ġ24":1778,"qich":1779,"Ġishlari":1780,"jat":1781,"Ġchiqqan":1782,"Ġrux":1783,"Ġayb":1784,"zining":1785,"ologik":1786,"Ġqu":1787,"ligidan":1788,"Ġuniv":1789,"Ġxorij":1790,"Ġmahsulotlar":1791,"Ġaloq":1792,"Ġsharoit":1793,"plab":1794,"Biz":1795,"lo":1796,"Ġvaqtda":1797,"ĠImag":1798,"In":1799,"Ġlekin":1800,"ĠImages":1801,"iyaning":1802,"osk":1803,"Ġetildi":1804,"Ġmamlakatda":1805,"avgust":1806,"So":1807,"adr":1808,"mur":1809,"ress":1810,"ndijon":1811,"Ġqoida":1812,"Ular":1813,"Ġlavozim":1814,"Ġnazorat":1815,"Ġtashkilot":1816,"eta":1817,"Ġbaj":1818,"tsiya":1819,"Ġchiqish":1820,"Ġmunosabat":1821,"Ġara":1822,"omi":1823,"Ġdep":1824,"chon":1825,"chik":1826,"Ġmuddat":1827,"Ġbermoqda":1828,"stit":1829,"Ġfoydali":1830,"Ġumumiy":1831,"ly":1832,"Ġtashrif":1833,"Ġfoizga":1834,"mli":1835,"atto":1836,"tifoq":1837,"Ġxususiy":1838,"Ġaytgan":1839,"Ġhukumati":1840,"tish":1841,"omon":1842,"Ġnash":1843,"Ġdona":1844,"Ġ23":1845,"Ġchiqib":1846,"yap":1847,"otib":1848,"bo":1849,"Ġnafas":1850,"ldir":1851,"ohida":1852,"ddiy":1853,"ĠIs":1854,"Ġxodimlari":1855,"ilgani":1856,"Ġbuyon":1857,"Ġuniversit":1858,"ĠAl":1859,"ozog":1860,"ingi":1861,"ablag":1862,"Ġhukumat":1863,"Ġsut":1864,"zif":1865,"Ġqator":1866,"yanvar":1867,"Ġinter":1868,"Ġtaxmin":1869,"Ġmodda":1870,"Ġyuk":1871,"Ġtushun":1872,"Ġdan":1873,"Ġasosida":1874,"Ġdori":1875,"zda":1876,"madi":1877,"ayden":1878,"Ġxon":1879,"ylab":1880,"alb":1881,"Ġhaydovchi":1882,"eva":1883,"Ġjamoat":1884,"hon":1885,"Ġsotib":1886,"Ġtadqiq":1887,"tabr":1888,"Ġvazif":1889,"tasi":1890,"uch":1891,"Ġshunday":1892,"Ġmos":1893,"Ġmablag":1894,"Ġkompaniya":1895,"Ġruxsat":1896,"Ġshifo":1897,"agan":1898,"masa":1899,"Ġajrat":1900,"gach":1901,"lama":1902,"liya":1903,"ergov":1904,"Ġpas":1905,"Ġqoldir":1906,"Ġen":1907,"Ġoshirish":1908,"zida":1909,"Ġqarat":1910,"assas":1911,"Ġgaz":1912,"Ġbajar":1913,"tirgan":1914,"urat":1915,"Ġtayan":1916,"Ġkasallanish":1917,"Ġnatija":1918,"utin":1919,"Ġodamlar":1920,"etty":1921,"Ġqilinadi":1922,"ex":1923,"tdi":1924,"AQSh":1925,"din":1926,"Ġkasallangan":1927,"qob":1928,"chag":1929,"tkazish":1930,"itar":1931,"ĠGetty":1932,"Ġdarajada":1933,"Ġtumanida":1934,"Ġjoylashgan":1935,"Ġrang":1936,"Ġmuassas":1937,"sin":1938,"Ġfarzand":1939,"Ġsiz":1940,"ĠAn":1941,"maydigan":1942,"Ġtarix":1943,"Ġfaol":1944,"anub":1945,"Ġtabi":1946,"Ġavi":1947,"Ġchaqir":1948,"Ġ50":1949,"dosh":1950,"ĠSog":1951,"rnat":1952,"Ġkish":1953,"larimiz":1954,"Ġmuhok":1955,"oyabr":1956,"Ġtarqali":1957,"Ġqish":1958,"eh":1959,"Ġqismi":1960,"zav":1961,"ko":1962,"Ġichki":1963,"Ġsavdo":1964,"lin":1965,"ror":1966,"Ġbuyur":1967,"sini":1968,"Ġnafaqat":1969,"Ġaktrisa":1970,"ramm":1971,"Ġpaytda":1972,"qiz":1973,"Ta":1974,"Ġniqob":1975,"maniston":1976,"Key":1977,"Ġtort":1978,"Ġboshlangan":1979,"Ġtarq":1980,"Ġmutaxassis":1981,"zod":1982,"Ġul":1983,"Ġsport":1984,"lub":1985,"fevral":1986,"mal":1987,"Kor":1988,"eya":1989,"alp":1990,"Ġprok":1991,"oning":1992,"tkir":1993,"Ġbank":1994,"riq":1995,"Ġrey":1996,"chib":1997,"jal":1998,"ovning":1999,"angiz":2000,"Ġjami":2001,"ĠAm":2002,"lah":2003,"Ġchor":2004,"Ġolin":2005,"Ġba":2006,"usan":2007,"Ġtushgan":2008,"Ġyerda":2009,"Ġyetishm":2010,"Ġfikr":2011,"dik":2012,"Ġmuloq":2013,"biq":2014,"Bun":2015,"ĠNamangan":2016,"Ġnamoyish":2017,"Ġsinov":2018,"Ġ21":2019,"Ġqiziq":2020,"Ġatrof":2021,"Ġjumladan":2022,"Ġqilishga":2023,"atli":2024,"Ġyozadi":2025,"Ġkeng":2026,"aliy":2027,"iziston":2028,"22":2029,"Ġochag":2030,"nan":2031,"Ġsol":2032,"Ġkompaniyasi":2033,"ĠW":2034,"Ġodat":2035,"elar":2036,"Ġkes":2037,"Ġqilmoqda":2038,"iyada":2039,"ĠBritaniya":2040,"Ġjih":2041,"Ġyetishmovchi":2042,"Ġaf":2043,"Ġtanish":2044,"uvchilar":2045,"Ġmode":2046,"Ġhalok":2047,"Ġyanada":2048,"Ġkamay":2049,"Ġost":2050,"chasi":2051,"sentabr":2052,"Ġxat":2053,"Ġtayin":2054,"Ġxil":2055,"Ġtest":2056,"sep":2057,"Ġdaraja":2058,"ĠBayden":2059,"Ġhaqiq":2060,"atsion":2061,"Ġtayanib":2062,"Ġilm":2063,"eg":2064,"Ġboshqarmasi":2065,"ĠQor":2066,"par":2067,"Ġboshlagan":2068,"lardagi":2069,"Ġqaramay":2070,"qu":2071,"zg":2072,"Ġalohida":2073,"Ġep":2074,"Ġkre":2075,"201":2076,"Ġib":2077,"Ġmen":2078,"Ġfuqarolar":2079,"Ġ22":2080,"ektori":2081,"Ġhujum":2082,"Ġmuloqot":2083,"Ġberi":2084,"ren":2085,"tirilgan":2086,"lil":2087,"ong":2088,"Ġusti":2089,"Ġyetak":2090,"Ġhavo":2091,"lgani":2092,"elarus":2093,"Ġtov":2094,"Ġota":2095,"ima":2096,"oviy":2097,"Ġsev":2098,"Ġbozor":2099,"Ġetib":2100,"Ġmayd":2101,"Har":2102,"Qayd":2103,"Ġqilishicha":2104,"Ġyetkazib":2105,"Maz":2106,"Ġkan":2107,"ashq":2108,"Ġnavbat":2109,"Ġbez":2110,"atdan":2111,"Ġqam":2112,"Ġbayon":2113,"Ġmaslah":2114,"Ġdaqiqa":2115,"com":2116,"kaziy":2117,"Ġenerg":2118,"Ġhatto":2119,"Ġchiqarish":2120,"Ġshug":2121,"Ġishi":2122,"ĠAndijon":2123,"Ġetilishicha":2124,"rinish":2125,"Ġmilliy":2126,"Ġqor":2127,"30":2128,"oza":2129,"onal":2130,"ele":2131,"qit":2132,"kan":2133,"iyev":2134,"ofaa":2135,"sad":2136,"rtasida":2137,"Ġbesh":2138,"Ġchet":2139,"Ġboshlig":2140,"ektor":2141,"Ġinfeksiyasi":2142,"ĠYevropa":2143,"Ġki":2144,"Ġteri":2145,"Ġtinch":2146,"ĠPutin":2147,"Ġtaqiq":2148,"Ġzam":2149,"Ġbelgilangan":2150,"irin":2151,"sil":2152,"Ġyeng":2153,"ĠBux":2154,"Ġpast":2155,"raz":2156,"ĠFarg":2157,"Ġfaoliyat":2158,"qil":2159,"vud":2160,"Ġpart":2161,"Ġetmoqda":2162,"Ayni":2163,"Ġqila":2164,"ost":2165,"Ġoziq":2166,"Ġsahif":2167,"ĠSur":2168,"oniga":2169,"ashqadar":2170,"Ġtomir":2171,"ligining":2172,"Ġmay":2173,"lashicha":2174,"risidagi":2175,"Ġoyi":2176,"Ġomm":2177,"Ġcheklov":2178,"erman":2179,"Ġahv":2180,"akk":2181,"rni":2182,"Ġsobiq":2183,"Ġes":2184,"lanishicha":2185,"Ġjaroh":2186,"Ġtele":2187,"lanadigan":2188,"Ġmuxlis":2189,"for":2190,"Ġmet":2191,"ollivud":2192,"ashqadaryo":2193,"tika":2194,"lashni":2195,"ĠFoto":2196,"Ġkil":2197,"Ġgi":2198,"iddiy":2199,"Ġ0":2200,"Ġxari":2201,"lishiga":2202,"Ġyuzaga":2203,"Ġjaray":2204,"Ġyot":2205,"Ġyomon":2206,"Ġshakl":2207,"Mazkur":2208,"Ġ27":2209,"Ġbiroq":2210,"xan":2211,"Ġturgan":2212,"Ġrivojlantirish":2213,"ĠToshkentda":2214,"ojik":2215,"ovqat":2216,"Ġbolalar":2217,"Ġmuhokama":2218,"shin":2219,"lumotlariga":2220,"ia":2221,"aki":2222,"aza":2223,"Ġoddiy":2224,"ator":2225,"anubiy":2226,"Ġus":2227,"gungi":2228,"Ġsalomat":2229,"ĠKar":2230,"zam":2231,"skiy":2232,"Ġkeskin":2233,"Ġjaz":2234,"batta":2235,"Ġchunki":2236,"garlik":2237,"Ġmashin":2238,"ossiyaning":2239,"labki":2240,"Yangi":2241,"ĠQozog":2242,"rsatkich":2243,"irik":2244,"Ġkomis":2245,"Ġkal":2246,"obod":2247,"irib":2248,"urnali":2249,"qot":2250,"Ġuchrashuv":2251,"Ġtransport":2252,"rak":2253,"Ġtabiiy":2254,"Ġbildirgan":2255,"lanayotgan":2256,"Ġort":2257,"pir":2258,"Ġqahram":2259,"Ġdir":2260,"minlash":2261,"rab":2262,"alat":2263,"sm":2264,"Ġsaf":2265,"Ġinstit":2266,"Men":2267,"orti":2268,"ess":2269,"Ġbaho":2270,"pay":2271,"Ġurush":2272,"qo":2273,"modda":2274,"xsh":2275,"Ġhali":2276,"Ġ28":2277,"zon":2278,"Ġtushir":2279,"azm":2280,"Ġmarkazi":2281,"nov":2282,"Ġprof":2283,"oktabr":2284,"Ġbosqich":2285,"Ġml":2286,"atiladi":2287,"Ġturib":2288,"Ġommaviy":2289,"Ġjiddiy":2290,"ligida":2291,"kidlashicha":2292,"Ġhamma":2293,"ofiq":2294,"umli":2295,"Ġrespublik":2296,"Ġ26":2297,"ĠQo":2298,"Ġilk":2299,"likning":2300,"Ġserial":2301,"Ġ2019":2302,"Ġimzo":2303,"noma":2304,"araf":2305,"sht":2306,"Ġtil":2307,"Ġholatiga":2308,"ire":2309,"uman":2310,"Ġishga":2311,"Ġchoy":2312,"Ġdollarga":2313,"Ġovoz":2314,"Ġyordamida":2315,"idemi":2316,"ĠâĢĺ":2317,"Ġilmiy":2318,"Ġnazar":2319,"ksiya":2320,"eks":2321,"Ġjang":2322,"ĠEron":2323,"avoiy":2324,"Ġcho":2325,"Tolib":2326,"ojikiston":2327,"chilari":2328,"esti":2329,"yilgan":2330,"illiy":2331,"ilma":2332,"ideo":2333,"oliya":2334,"Ġinfeksiy":2335,"Ġoper":2336,"ĠNur":2337,"Ġbekor":2338,"Ġundan":2339,"Ġvoqea":2340,"Ġret":2341,"dekabr":2342,"Ġnatijasida":2343,"sib":2344,"omash":2345,"Ġkishida":2346,"Ġmuzok":2347,"Tolibon":2348,"bon":2349,"ver":2350,"Ġberadigan":2351,"Ġmuvofiq":2352,"ĠMa":2353,"Ġmuvaffaqiyat":2354,"Ġmaslahat":2355,"ij":2356,"Yan":2357,"orati":2358,"Ġsir":2359,"Ġkotib":2360,"chalik":2361,"ladimir":2362,"ĠJo":2363,"Ġichim":2364,"miyasi":2365,"Ġmahalliy":2366,"Prezident":2367,"onaviy":2368,"Ġagentligi":2369,"dori":2370,"Ġkirish":2371,"Ġkuchli":2372,"vor":2373,"Ġaniqlandi":2374,"Shuning":2375,"Ġraqam":2376,"Ġyetdi":2377,"Ġqir":2378,"Ġshakar":2379,"olat":2380,"Ġayrim":2381,"bol":2382,"Ġqilishni":2383,"ishlar":2384,"uhbat":2385,"Ġquv":2386,"Ġ40":2387,"Ġnafarga":2388,"ĠMosk":2389,"Ġekanini":2390,"Ġsiyos":2391,"Ġsho":2392,"Ġmashina":2393,"Shundan":2394,"mitasi":2395,"azir":2396,"osti":2397,"Ġunda":2398,"anba":2399,"oyib":2400,"Ġtomosh":2401,"Ġfaoliyatini":2402,"yur":2403,"Ġvitamin":2404,"Ġvideo":2405,"Ġqoshiq":2406,"Ġqiyin":2407,"Ġkey":2408,"zbekistonga":2409,"Ġmustah":2410,"Ġmak":2411,"Ġpoli":2412,"Ġit":2413,"Ġholatlari":2414,"Ġehtiy":2415,"elegram":2416,"Ġyili":2417,"Ġidor":2418,"Ġbemorlar":2419,"Ġtaom":2420,"ilishini":2421,"Ġqaytar":2422,"Ġboshladi":2423,"elen":2424,"iladigan":2425,"Qo":2426,"fer":2427,"kidlanishicha":2428,"Ġvakillari":2429,"Ġno":2430,"Ġvakili":2431,"Ik":2432,"Ġfoizi":2433,"Ġmuk":2434,"Ġmaqsad":2435,"amol":2436,"Ġozod":2437,"sum":2438,").":2439,"noyabr":2440,"Ġaytdi":2441,"onun":2442,"dit":2443,"ĠQirg":2444,"Ġjarayoni":2445,"Ġush":2446,"Ġmehnat":2447,"Ġlib":2448,"Al":2449,"rtasidagi":2450,"ĠTurkiya":2451,"Ġmustahkam":2452,"Ġxona":2453,"Ġxos":2454,"ĠSa":2455,"lishini":2456,"Ġdoirasida":2457,"ĠDavlat":2458,"Ġimkoniyat":2459,"ĠRespublikasi":2460,"Ġmodel":2461,"olyot":2462,"Ġtergov":2463,"ew":2464,"Ġvazn":2465,"Ġretsep":2466,"pi":2467,"ishdan":2468,"Ġraisi":2469,"Ġkol":2470,"Ġhokimi":2471,"shiga":2472,"igi":2473,"Ġaer":2474,"Ġayollar":2475,"Ġtadqiqot":2476,"Turk":2477,"achon":2478,"inib":2479,"Ġqurol":2480,"Ġteng":2481,"erik":2482,"isl":2483,"aqalp":2484,"Ġkomp":2485,"tin":2486,"Ġiborat":2487,"Buning":2488,"riy":2489,"rom":2490,"Ġnarxi":2491,"ĠBelarus":2492,"Ġsamar":2493,"laydigan":2494,"Ġmukof":2495,"Ġyetarli":2496,"enti":2497,"log":2498,"Ġpiy":2499,"indiston":2500,"likdan":2501,"ĠVladimir":2502,"Ġqilinishicha":2503,"itob":2504,"Ġnashri":2505,"Ġeksp":2506,"Ġkichik":2507,"Bunday":2508,"tom":2509,"Ġmetr":2510,"ĠMarkaziy":2511,"eni":2512,"kar":2513,"ompan":2514,"ĠPh":2515,"Ġostida":2516,"Ġolim":2517,"Ġyashovchi":2518,"Ġaloqa":2519,"50":2520,"Ġ29":2521,"Ġxavfsizlik":2522,"adagi":2523,"Lekin":2524,"eral":2525,"Ġbildirdi":2526,"von":2527,"ark":2528,"Ġjurnali":2529,"Ġdeyarli":2530,"ĠTelegram":2531,"ĠKoreya":2532,"net":2533,"Bosh":2534,"vir":2535,"Ġstan":2536,"Ġalma":2537,"Ġeshi":2538,"tazam":2539,"rg":2540,"Ġmingdan":2541,"Ġora":2542,"Ġvositalari":2543,"As":2544,"Ġsavol":2545,"Ġkeldi":2546,"Ġqachon":2547,"tiv":2548,"Ġyengil":2549,"Ġkosm":2550,"Ġtelefon":2551,"Ġissiq":2552,"aqalpog":2553,"giz":2554,"yekt":2555,"ganini":2556,"Ġjalb":2557,"Ġkirib":2558,"Ġklini":2559,"QS":2560,"Ġqilgandi":2561,"Ġshaxsiy":2562,"Ġasosan":2563,"atda":2564,"moniy":2565,"qsa":2566,"Ġhodi":2567,"2020":2568,"Ġimmun":2569,"Ġsarf":2570,"ĠMari":2571,"Ġqim":2572,"asb":2573,"Ġgramm":2574,"ĠJahon":2575,"Ġhokimligi":2576,"uvi":2577,"sining":2578,"Ġhujjat":2579,"yapti":2580,"Koronavirus":2581,"uham":2582,"atik":2583,"apon":2584,"Ġmahalla":2585,"ĠFran":2586,"Ġquyidagi":2587,"usi":2588,"nes":2589,"Ġtezkor":2590,"Ġtadbirkor":2591,"nal":2592,"Ġerta":2593,"Ġmaydon":2594,"Ġyum":2595,"Ġloyiha":2596,"uratur":2597,"ler":2598,"esh":2599,"Ġketdi":2600,"zen":2601,"Ġ@":2602,"Ġhududida":2603,"langani":2604,"Ġjamo":2605,"Ġizoh":2606,"Ġxarid":2607,"Ġichiga":2608,"âĢĿâĢľ":2609,"Ġpishir":2610,"omashniy":2611,"atsiyasi":2612,"Domashniy":2613,"Ġfon":2614,"ingizni":2615,"ĠNavoiy":2616,"ĠGerman":2617,"Ġaytib":2618,"Ġyuqtirib":2619,"dimi":2620,"Ġhav":2621,"Ġkamida":2622,"up":2623,"Ġof":2624,"Ġekani":2625,"krain":2626,"Ġaynan":2627,"Ġsuhbat":2628,"ĠRossiyaning":2629,"Ġyirik":2630,"pchilik":2631,"Ġqoldi":2632,"10":2633,"sizlik":2634,"Ġshahridagi":2635,"Ġkotibi":2636,"alq":2637,"Ġtaj":2638,"ĠBuy":2639,"martfon":2640,"qis":2641,"itariya":2642,"Ġqahramon":2643,"Ġahol":2644,"xo":2645,"Ġpandemiya":2646,"lang":2647,"lanmoqda":2648,"Ġkishiga":2649,"Ġmavsum":2650,"Ġbur":2651,"imli":2652,"Ġbit":2653,"Ġrak":2654,"Ġdoimiy":2655,"onald":2656,"lmaydi":2657,"yish":2658,"ĠThe":2659,"Ġkurashish":2660,"zarb":2661,"Ġprokuratur":2662,"sidan":2663,"ĠTojikiston":2664,"Ġziy":2665,"och":2666,"Ġochiq":2667,"all":2668,"Ġport":2669,"lumotlar":2670,"ljal":2671,"Ġok":2672,"Ġoson":2673,"Ġsing":2674,"lumotlarga":2675,"ayr":2676,"voz":2677,"Ġmush":2678,"Ġoyoq":2679,"Ġxoh":2680,"Ġqolish":2681,"ĠDzen":2682,"SST":2683,"Ġtarzda":2684,"mni":2685,"uti":2686,"Ġkodeks":2687,"una":2688,"dish":2689,"tad":2690,"Ġmuntazam":2691,"Ġfikri":2692,"Hozirda":2693,"Mas":2694,"Ġdam":2695,"mad":2696,"Ġkasalliklar":2697,"Ġsuy":2698,"Ġrejalashtir":2699,"Ġsanksiya":2700,"Ġchalinganlar":2701,"Ġdavolash":2702,"ĠAmerika":2703,"Ġkart":2704,"Ġqora":2705,"ĠBuxoro":2706,"ĠBuyuk":2707,"Ġikkita":2708,"uza":2709,"Shun":2710,"Ġgapir":2711,"Ġkeyingi":2712,"Ularning":2713,"masligini":2714,"Yandeks":2715,"Ġtemir":2716,"osim":2717,"ayotgani":2718,"izz":2719,"Ġbayonot":2720,"Mamlakat":2721,"irdaryo":2722,"Ġjahon":2723,"Ġtizimi":2724,"ĠQashqadaryo":2725,"ĠSan":2726,"wit":2727,"Ġturk":2728,"Ġdirektori":2729,"QSH":2730,"choq":2731,"Ġkisl":2732,"Ġkeltir":2733,"Ġson":2734,"kali":2735,"Ġaytishicha":2736,"Ġbundan":2737,"zbekistonning":2738,"Ġnech":2739,"ragan":2740,"ygan":2741,"Ġbino":2742,"Ġendi":2743,"Ġkoronavirusdan":2744,"urs":2745,"ekan":2746,"ĠCla":2747,"Ġlibos":2748,"Ġaerop":2749,"Ġularga":2750,"stra":2751,"Ġemlash":2752,"zoda":2753,"Ġishlash":2754,"Ġbirgalikda":2755,"Ġnoq":2756,"Ġxodimi":2757,"masdan":2758,"Ġ60":2759,"smon":2760,"Ġbuni":2761,"tidan":2762,"ĠClaire":2763,"xonasi":2764,"sangiz":2765,"kt":2766,"xondaryo":2767,"Ġhaj":2768,"Ġtexn":2769,"sish":2770,"ĠJanubiy":2771,"Ġdastlabki":2772,"ometr":2773,"Ġsurat":2774,"Ġajoyib":2775,"Ġrejim":2776,"Ġtaxminan":2777,"Ġvaqtincha":2778,"ingizga":2779,"kidlagan":2780,"Ġpasay":2781,"mang":2782,"moddasi":2783,"Ġfil":2784,"sen":2785,"igit":2786,"Ġkitob":2787,"ulos":2788,"tor":2789,"abin":2790,"hone":2791,"Ġkeltirib":2792,"Ġyarim":2793,"izzax":2794,"Ġmadan":2795,"Ġogoh":2796,"andi":2797,"iza":2798,"ĠNov":2799,"âĢĵ":2800,"Ġtayyorlash":2801,"Ġsalbiy":2802,"Ġfuqar":2803,"rtog":2804,"witter":2805,"Ġishonch":2806,"Af":2807,"axt":2808,"elenskiy":2809,"mak":2810,"Ġoliy":2811,"Ġanti":2812,"dj":2813,"Ġsamarali":2814,"Ġkoronavirusning":2815,"Ġkelayotgan":2816,"Ġfaoliyati":2817,"llan":2818,"asiz":2819,"str":2820,"Ġmunosabati":2821,"Ġqimmat":2822,"jak":2823,"raf":2824,"atan":2825,"Ġberildi":2826,"Ġtux":2827,"000":2828,"xonaga":2829,"ismoniy":2830,"Ġzamonaviy":2831,"sak":2832,"avqul":2833,"sga":2834,"quvchi":2835,"obal":2836,"Ġovqatlanish":2837,"Ġkamaytir":2838,"Ġxavfli":2839,"Ġsovuq":2840,"Ġqiluvchi":2841,"Ġ31":2842,"avqulodda":2843,"uzur":2844,"Ġekanligini":2845,"yer":2846,"Ġminta":2847,"Davlat":2848,"Ġmut":2849,"kalar":2850,"Ġkunlari":2851,"Ġqishloq":2852,"ljallangan":2853,"iss":2854,"zin":2855,"Ġchiqdi":2856,"Ġhuzur":2857,"Ġyuvish":2858,"Ġegal":2859,"Ġnon":2860,"Ġkunlik":2861,"Ġqov":2862,"Ġri":2863,"Ġvaqti":2864,"Ġchegara":2865,"Ukraina":2866,"Ġuyush":2867,"Ġtaqdir":2868,"Ġmehmon":2869,"Ġfarq":2870,"Ġrus":2871,"itet":2872,"Ġinv":2873,"Ġtozalash":2874,"kash":2875,"Ġtr":2876,"Ġmik":2877,"lanmagan":2878,"ting":2879,"inish":2880,"Ġqoladi":2881,"Ġetgani":2882,"Ġux":2883,"apti":2884,"Ġqop":2885,"Ġtarqalgan":2886,"Phone":2887,"Ġnechta":2888,"Ġrioya":2889,"Ġtuxum":2890,"qib":2891,"Ġancha":2892,"Ġsabzav":2893,"ck":2894,"Ġkechir":2895,"Ġvoz":2896,"Ġharakati":2897,"lanuvchi":2898,"Ġtosh":2899,"Ġaralashtir":2900,"Ġortiqcha":2901,"Ġdarom":2902,"Ġmukofot":2903,"dda":2904,"orozi":2905,"Ġmumkinligini":2906,"Ġborib":2907,"XB":2908,"lanishiga":2909,"rov":2910,"200":2911,"Ġuchinchi":2912,"Ġyol":2913,"quvvatlash":2914,"Ð°":2915,"Ġuniversiteti":2916,"obus":2917,"Ġyetishmovchiligidan":2918,"iliy":2919,"Ġusul":2920,"Ġborasida":2921,"Ġolindi":2922,"arak":2923,"Ġbart":2924,"ĠEr":2925,"Ġlab":2926,"Eng":2927,"otin":2928,"Ġsaqlab":2929,"Ġbartaraf":2930,"MT":2931,"qaror":2932,"ĠUkrainaga":2933,"fiq":2934,"ĠMarie":2935,"Ġagar":2936,"Ġhamkorlik":2937,"Ġxulos":2938,"ĠYo":2939,"eriali":2940,"Ġholatda":2941,"Ġqizi":2942,"loh":2943,"ĠNA":2944,"Ġsutka":2945,"Ġqiladigan":2946,"Ġya":2947,"Ġsoliq":2948,"mga":2949,"Ġtarqat":2950,"Ġ199":2951,"xta":2952,"chining":2953,"Ġidish":2954,"ĠTo":2955,"Ġshar":2956,"Ġkons":2957,"Ġbay":2958,"ayn":2959,"Ġklinik":2960,"aloq":2961,"diya":2962,"mini":2963,"Ġuyda":2964,"iroq":2965,"ota":2966,"ĠJinoyat":2967,"video":2968,"Ġkela":2969,"Ġqaysi":2970,"Ġobyekt":2971,"ĠMilliy":2972,"Ġli":2973,"Ġasorat":2974,"no":2975,"ros":2976,"Ġolishi":2977,"Ġshaxslar":2978,"Ġharorat":2979,"Ġyong":2980,"Ġshik":2981,"Ġtasvir":2982,"Ġdavrida":2983,"ĠOl":2984,"Ġoid":2985,"Ġmahsulotlari":2986,"Ġrafiq":2987,"Ġuyg":2988,"Ġsmartfon":2989,"Ġbiroz":2990,"Ġqilayotgan":2991,"ilsa":2992,"ĠQoraqalpog":2993,"Ġsiyosiy":2994,"Ġyaratish":2995,"Ġtajrib":2996,"uddi":2997,"ayotganini":2998,"lashib":2999,"ilishiga":3000,"vyu":3001,"Ġnorozi":3002,"Ġolishga":3003,"iti":3004,"amiyat":3005,"Ġyildan":3006,"ismli":3007,"Ġbunga":3008,"rtacha":3009,"Ġqut":3010,"Ġzo":3011,"12":3012,"IA":3013,"utbol":3014,"Ġnomzod":3015,"Tay":3016,"qiy":3017,"Ġkin":3018,"zbekistonlik":3019,"Ġberuvchi":3020,"Ġser":3021,"Ġsamolyot":3022,"Ġjuft":3023,"ĠTwitter":3024,"Ġalomat":3025,"Ġqatnash":3026,"Ġtomonlama":3027,"laridagi":3028,"Aktris":3029,"let":3030,"Ġamaliy":3031,"ĠSt":3032,"Ġxorijiy":3033,"tadbir":3034,"taxt":3035,"Ġxabarda":3036,"rniga":3037,"gir":3038,"kidladi":3039,"Ġrad":3040,"Ġuyqu":3041,"Ġettir":3042,"ĠBer":3043,"Ġiqtisodiyot":3044,"rsatish":3045,"RB":3046,"atr":3047,"Ġnuq":3048,"Mar":3049,"Ġuyi":3050,"shidan":3051,"ulla":3052,"Ġmiqdorda":3053,"Ġalmash":3054,"Ġbag":3055,"end":3056,"tez":3057,"uzar":3058,"Ġden":3059,"Ġtelekan":3060,"ork":3061,"zaro":3062,"Ġton":3063,"Ġse":3064,"Ġtuga":3065,"ĠDonald":3066,"Ġustidan":3067,"Ġbitta":3068,"anj":3069,"Ġtab":3070,"erlar":3071,"Kun":3072,"uf":3073,"Ġyigit":3074,"ĠJon":3075,"Ġhuzuridagi":3076,"Ġyetib":3077,"muriy":3078,"Uy":3079,"osil":3080,"Ġhozirda":3081,"ĠPhoto":3082,"ĠHindiston":3083,"Unga":3084,"Ġkuchay":3085,"siyo":3086,"Ġtahlil":3087,"Ġavvalgi":3088,"artam":3089,"Ġtekshiruv":3090,"Ġharakatlari":3091,"Ġmustaqil":3092,"Ġuniversitet":3093,"berg":3094,"Ġkorxona":3095,"shni":3096,"yildan":3097,"Ġmudda":3098,"bar":3099,"laymiz":3100,"ĠMak":3101,"ttifoq":3102,"ĠTash":3103,"ĠSirdaryo":3104,"Ġberiladi":3105,"RBK":3106,"ĠMah":3107,"Xitoy":3108,"obiy":3109,"Ġbarav":3110,"tkazi":3111,"mu":3112,"Ġbugungi":3113,"Ġyashash":3114,"ha":3115,"Ġbuning":3116,"Ġqisqar":3117,"Birinchi":3118,"Ġintervyu":3119,"oriya":3120,"ĠiPhone":3121,"Ġmuxbir":3122,"Ġkodeksining":3123,"Ġtili":3124,"Ġsharoitida":3125,"ĠZelenskiy":3126,"Ġtarmoqlarda":3127,"Ġxotir":3128,"kov":3129,"Ġseriali":3130,"Ġsamara":3131,"AV":3132,"lamoqda":3133,"roil":3134,"An":3135,"ĠAP":3136,"Ġishlat":3137,"ĠSurxondaryo":3138,"aralar":3139,"tis":3140,"mar":3141,"odi":3142,"ekord":3143,"Keyin":3144,"rem":3145,"omila":3146,"Ġberib":3147,"ĠHar":3148,"chan":3149,"Ġretsepti":3150,"ĠLu":3151,"Ġdunyoda":3152,"Ð¸":3153,"agona":3154,"Ġmiqdori":3155,"Ġmanz":3156,"Ġkelishuv":3157,"otor":3158,"Ġinsp":3159,"aliq":3160,"Ġqulay":3161,"Ġ500":3162,"ĠRossiyada":3163,"Ġqi":3164,"ĠBosh":3165,"roh":3166,"Ġqurilish":3167,"ĠUkrain":3168,"Ġtumanidagi":3169,"ĠAv":3170,"Ġtushib":3171,"Ġmazali":3172,"Ġbalan":3173,"imov":3174,"Ġyillik":3175,"Ġkaf":3176,"ĠMe":3177,"Ġchiqarilgan":3178,"ĠNovosti":3179,"zosi":3180,"idemiologik":3181,"15":3182,"Ġahvoli":3183,"ington":3184,"siyani":3185,"Ġtaraf":3186,"yib":3187,"Ġchar":3188,"RIA":3189,"Ġhosil":3190,"Ġtashkiloti":3191,"Ġurib":3192,"Ġshirin":3193,"rsatadi":3194,"Ġparlam":3195,"ĠOliy":3196,"ĠJizzax":3197,"Ġdeput":3198,"laning":3199,"Ġrejalashtirilgan":3200,"Ġnor":3201,"Ġuslub":3202,"biya":3203,"yn":3204,"ĠPrezidenti":3205,"25":3206,"chki":3207,"stik":3208,"ews":3209,"Ġturadi":3210,"TO":3211,"malar":3212,"lanishga":3213,"ĠIttifoq":3214,"Ġyurit":3215,"Ġborgan":3216,"Ġdepartam":3217,"Ġyumsh":3218,"Ġbin":3219,"Ġkerakligini":3220,"Ġtarkibida":3221,"Ġjismoniy":3222,"Ġbiror":3223,"Ġxonanda":3224,"Ġshunda":3225,"Ġmod":3226,"Ġalbatta":3227,"Ġaniqlash":3228,"xonada":3229,"ĠMas":3230,"Ġmuammolar":3231,"Ġqal":3232,"rav":3233,"vet":3234,"Masalan":3235,"Xus":3236,"buzar":3237,"Ġimmunitet":3238,"Ġturdagi":3239,"Ġborish":3240,"ridan":3241,"Ġinstituti":3242,"Ġraketa":3243,"Ġdoza":3244,"ĠFransiya":3245,"Ġ70":3246,"Ġpaytida":3247,"ĠMoskva":3248,"Ġqilinishi":3249,"Ġtarqalish":3250,"ris":3251,"sar":3252,"Ġkasallanganlar":3253,"Ġdaromad":3254,"put":3255,"Ġvaksinasi":3256,"Ġbudj":3257,"ilak":3258,"aklar":3259,"rig":3260,"Ġqarori":3261,"mdan":3262,"pincha":3263,"alab":3264,"Ġfutbol":3265,"udofaa":3266,"ĠAQSH":3267,"Ġoshgan":3268,"Ġobraz":3269,"Qiz":3270,"Ġhodisa":3271,"Ġberishi":3272,"ahar":3273,"Ġdavlatlar":3274,"aygan":3275,"erikalik":3276,"Ġaralash":3277,"gari":3278,"Ġyetgan":3279,"Ġbarchasi":3280,"aydigan":3281,"ĠGermaniya":3282,"ment":3283,"Ġtun":3284,"ovich":3285,"Ġqattiq":3286,"Ġbayram":3287,"Sam":3288,"Ġqarab":3289,"ĠGo":3290,"eli":3291,"ydi":3292,"Ġjo":3293,"Ġguruhi":3294,"bi":3295,"shma":3296,"chaki":3297,"alarida":3298,"Ġayniqsa":3299,"ĠQur":3300,"Ġparvoz":3301,"Mu":3302,"Ġhaqiqiy":3303,"Ol":3304,"ĠAir":3305,"Ġxususan":3306,"tishi":3307,"atish":3308,"Ġdarajasi":3309,"ĠAleks":3310,"ayjon":3311,"Ġbarqaror":3312,"ĠFa":3313,"Ġogohlantir":3314,"kl":3315,"Ġtam":3316,"Ġyal":3317,"Ġap":3318,"Ġaka":3319,"Ġsolish":3320,"itoyda":3321,"Ġxato":3322,"Ġjurnalist":3323,"Ġkengay":3324,"2021":3325,"iyb":3326,"Ġijobiy":3327,"putnik":3328,"Ġot":3329,"oji":3330,"Chunki":3331,"atilgan":3332,"Ġqilgani":3333,"liklari":3334,"ĠRossiyaga":3335,"Ġbosim":3336,"Ġbuyum":3337,"ashington":3338,"Ġyotqiz":3339,"kasi":3340,"qnash":3341,"Ġtran":3342,"Ġshifokorlar":3343,"Xususan":3344,"chir":3345,"Ġsez":3346,"Ġmeva":3347,"ilmaydi":3348,"Ġchiqishi":3349,"mid":3350,"zilar":3351,"zolari":3352,"estitsiya":3353,"Ġulardan":3354,"23":3355,"Ġaksar":3356,"Ġqiling":3357,"ĠShah":3358,"Ġtasi":3359,"Ġviloyatining":3360,"Ġichimlik":3361,"dorlik":3362,"Ġjan":3363,"simlik":3364,"ill":3365,"Ġnish":3366,"Ġolti":3367,"Ġmanf":3368,"Ġinfeksiya":3369,"Ġinternet":3370,"rnatilgan":3371,"qituvchi":3372,"Ġpich":3373,"rsatgan":3374,"Ġsarat":3375,"Ġkanali":3376,"Ġrespublika":3377,"ĠÐ":3378,"ĠKiyev":3379,"Ġsum":3380,"Ġshtam":3381,"Ġpech":3382,"bul":3383,"zbekistondagi":3384,"Ġkuchaytir":3385,"Ġbutunlay":3386,"qish":3387,"Ġtor":3388,"ozon":3389,"Ġyuqumli":3390,"Ġoperatsiya":3391,"Unda":3392,"Xon":3393,"orlar":3394,"uqur":3395,"Ġkadr":3396,"Ġsiyosat":3397,"ring":3398,"Ġang":3399,"ĠUz":3400,"Ġholatlar":3401,"Ġmasalalari":3402,"mati":3403,"Ġqamoq":3404,"zarbayjon":3405,"yoning":3406,"zim":3407,"Ġsim":3408,"mayotgan":3409,"ĠUsmon":3410,"Ġmis":3411,"imoliy":3412,"Ġshuning":3413,"Ġqurbon":3414,"TA":3415,"siyasini":3416,"ĠAQShda":3417,"Yo":3418,"Aktrisa":3419,"Ġyagona":3420,"Ġsun":3421,"Ġshamol":3422,"Tayyor":3423,"Ġdunyoga":3424,"ĠIta":3425,"ĠJSST":3426,"mog":3427,"Ġvitamini":3428,"Ġfavqulodda":3429,"Ġaylangan":3430,"Ġqariyb":3431,"Ġkilometr":3432,"yxatdan":3433,"eb":3434,"orazm":3435,"Ġmumkinligi":3436,"Ġmoliya":3437,"alqaro":3438,"Ġreys":3439,"Ġunut":3440,"ĠYer":3441,"istik":3442,"ĠMudofaa":3443,");":3444,"Ġband":3445,"Ġshim":3446,"Ġpoytaxt":3447,"Ġepide":3448,"noq":3449,"onuniy":3450,"Nati":3451,"gu":3452,"omil":3453,"Ġqaragan":3454,"Ġ35":3455,"Ġkuniga":3456,"HXB":3457,"yoq":3458,"ozi":3459,"ardi":3460,"amir":3461,"enko":3462,"Ġdip":3463,"Ġvaziyatni":3464,"book":3465,"24":3466,"lashadi":3467,"Ġmamlakatning":3468,"Ġmashg":3469,"Ġtizimini":3470,"cebook":3471,"ĠAQShning":3472,"Ġmanb":3473,"Ġuzun":3474,"pka":3475,"era":3476,"rinishi":3477,"Ġjamiyat":3478,"Ġyolg":3479,"ĠOAV":3480,"lisher":3481,"Ġnoma":3482,"hol":3483,"Ġhayvon":3484,"lobal":3485,"Ġturibdi":3486,"Tad":3487,"mayapti":3488,"Ġmuzokaralar":3489,"Uch":3490,"aks":3491,"Ġ2018":3492,"Ġkengashi":3493,"Ġorganlari":3494,"Ġrahbarlari":3495,"rn":3496,"Ġkuzatilgan":3497,"Kasal":3498,"qid":3499,"Ġtanlov":3500,"Ġtexnologiya":3501,"iqli":3502,"Ġhozirgi":3503,"rum":3504,"Ġboshlaydi":3505,"ega":3506,"Ġaylandi":3507,"Ġ80":3508,"ji":3509,"iyaga":3510,"Ġxavfi":3511,"Ġista":3512,"allif":3513,"Ġrivojlanish":3514,"Ġaholisi":3515,"Ġyanvar":3516,"lashtiradi":3517,"otos":3518,"Ġboshlandi":3519,"Ġichish":3520,"Ġyashir":3521,"Ġkarantinga":3522,"Ġpandemiyasi":3523,"Ġfor":3524,"ĠYangi":3525,"zgarish":3526,"Ġjarayonida":3527,"ayf":3528,"Ġchog":3529,"rey":3530,"Ġboshida":3531,"Ġahamiyat":3532,"Ġ90":3533,"Ġittifoq":3534,"Bar":3535,"Ġchir":3536,"layn":3537,"siyasining":3538,"gon":3539,"Ġerkin":3540,"Ġyozishicha":3541,"ind":3542,"Ġetishi":3543,"Ġmudofaa":3544,"Ham":3545,"yuk":3546,"Ġlim":3547,"Xabar":3548,"Ġ2022":3549,"udiya":3550,"axir":3551,"Ġmag":3552,"Ġborilmoqda":3553,"Ish":3554,"inga":3555,"ĠBMT":3556,"yillarda":3557,"Ġrekord":3558,"Ġbaland":3559,"Ġix":3560,"etik":3561,"Ġkredit":3562,"Ġavtobus":3563,"yut":3564,"ily":3565,"Ġjamoatchilik":3566,"Ġehtiyot":3567,"Ġmart":3568,"istonda":3569,"ohat":3570,"Ġzararli":3571,"Ġhujj":3572,"aldi":3573,"Ġpalat":3574,"Ġdoz":3575,"Ġnafardan":3576,"Ġmuzlat":3577,"Ġbl":3578,"Ġmig":3579,"Ġxuddi":3580,"Ġfan":3581,"Ġqurilma":3582,"lmasa":3583,"gich":3584,"Ġev":3585,"odiy":3586,"Ġchuqur":3587,"oliyaviy":3588,"Ġkiritilgan":3589,"qozon":3590,"Ġtayyorgarlik":3591,"bus":3592,"ĠOq":3593,"Ġtashx":3594,"ĠYapon":3595,"lumotlarni":3596,"Ġustida":3597,"mani":3598,"tab":3599,"liga":3600,"ĠYHXB":3601,"Ġxol":3602,"Ġnur":3603,"ĠTim":3604,"Ġbaz":3605,"Ġborada":3606,"Ġstat":3607,"Ġaeroport":3608,"Ġnoqonuniy":3609,"Ġaz":3610,"Ġsababi":3611,"Ġbiznes":3612,"Ġpishloq":3613,"Sog":3614,"aba":3615,"dash":3616,"Ġolmagan":3617,"Ġjoylashtir":3618,"Ġmuxbiri":3619,"ngil":3620,"ĠMad":3621,"Ġmarosim":3622,"Is":3623,"Shunday":3624,"Ġkiritish":3625,"Ġmayda":3626,"Ġrafiqasi":3627,"eksiya":3628,"Ġqaraganda":3629,"viy":3630,"Ġbaliq":3631,"Ġosti":3632,"Natij":3633,"riga":3634,"oshka":3635,"Ġpichoq":3636,"liz":3637,"osini":3638,"Ġmaterial":3639,"Ġshunchaki":3640,"Ġtasdiqlangan":3641,"Ġxonadon":3642,"Ġnorozilik":3643,"ĠOsiyo":3644,"ĠRespublika":3645,"inter":3646,"aho":3647,"Ġtariq":3648,"egi":3649,"Quy":3650,"ĠAk":3651,"Ġpolitsiya":3652,"abet":3653,"ĠArab":3654,"Ġboshqaruv":3655,"van":3656,"ziq":3657,"ayra":3658,"Ġbak":3659,"Ġxabarlar":3660,"ayni":3661,"ĠTurkmaniston":3662,"ĠNATO":3663,"ĠMed":3664,"Ġistiq":3665,"Ġtana":3666,"xshash":3667,"Ġdush":3668,"Ġishlagan":3669,"Ġsezilar":3670,"unyo":3671,"ullay":3672,"Ġmanba":3673,"Ġhomila":3674,"olib":3675,"ulay":3676,"Ġrolini":3677,"Ġmln":3678,"Ġyilning":3679,"Ġoldida":3680,"Ġchoralar":3681,"Ġkino":3682,"zgartirish":3683,"ziz":3684,"Ġtir":3685,"ĠMi":3686,"ĠIIV":3687,"aku":3688,"Ġishtirokida":3689,"Ġmintaq":3690,"Ġdepartamenti":3691,"80":3692,"las":3693,"Ġqav":3694,"Ġhik":3695,"fir":3696,"atni":3697,"Ġkuchlari":3698,"uda":3699,"Ġboj":3700,"Ġqarash":3701,"ĠPro":3702,"Ġnafarni":3703,"Ġyaratilgan":3704,"pple":3705,"Ġyetakchi":3706,"Ġyallig":3707,"Ġqoch":3708,"Ġtanqid":3709,"Ġmasof":3710,"trat":3711,"Ġsezilarli":3712,"Ġqanchalik":3713,"akkab":3714,"ec":3715,"Ġqob":3716,"40":3717,"Ġpre":3718,"Ġaksiya":3719,"Ġsafar":3720,"Ġnishon":3721,"pik":3722,"Ġoltin":3723,"PX":3724,"Ġqas":3725,"ĠMus":3726,"Ġ300":3727,"Ġekran":3728,"Ġisb":3729,"ĠIsroil":3730,"ims":3731,"TH":3732,"abzal":3733,"Ġetishga":3734,"ikatsiya":3735,"Ġkompaniy":3736,"vali":3737,"oyish":3738,"Ġyilda":3739,"Ġxavotir":3740,"ompaniya":3741,"udiy":3742,"Ġyoshda":3743,"Ġehtim":3744,"Ġberishni":3745,"Ġxara":3746,"Ġemlangan":3747,"Ġfikricha":3748,"Ġpay":3749,"Ġduch":3750,"Ġekanligi":3751,"Ġvari":3752,"stan":3753,"Ġsabzavot":3754,"masiga":3755,"Ġkelin":3756,"Ġilgari":3757,"qismi":3758,"Ġelchi":3759,"masini":3760,"Ġeksport":3761,"edov":3762,"Vazir":3763,"Ġolmaydi":3764,"Ġinvestitsiya":3765,"Ġmanfaat":3766,"Ġ000":3767,"Ġqisqa":3768,"harak":3769,"Ikkinchi":3770,"isha":3771,"uvoh":3772,"Ġhisobiga":3773,"Natijada":3774,"Ġzaxir":3775,"Ġrejiss":3776,"Ġijod":3777,"oman":3778,"Ġketadi":3779,"ashin":3780,"Ġrek":3781,"lanishini":3782,"Ġumuman":3783,"Ġparlament":3784,"Ġ-":3785,"Ġona":3786,"Ij":3787,"Ġdek":3788,"Ġmamlakatlar":3789,"Ġtakror":3790,"inoiy":3791,"Ġqaratilgan":3792,"ĠKan":3793,"ĠDi":3794,"Ġyozgan":3795,"ĠKoronavirus":3796,"Ġdengiz":3797,"Ġtish":3798,"Ġmoy":3799,"Ġhid":3800,"Ġfilmi":3801,"Ġmoliyaviy":3802,"rganish":3803,"nev":3804,"arov":3805,"Shavkat":3806,"ĠNav":3807,"Ġjon":3808,"ĠMaj":3809,"ell":3810,"gida":3811,"timol":3812,"Ġqog":3813,"Ġruh":3814,"ĠAh":3815,"Ġkasalligi":3816,"Ġsingari":3817,"ĠMotor":3818,"ogle":3819,"Ġmajburiy":3820,"Ġkecha":3821,"ĠAs":3822,"Ġqayt":3823,"Ġâ":3824,"Ġyoshdan":3825,"Ġchiqarib":3826,"Ġketish":3827,"Ġhokimiyat":3828,"Ġberishicha":3829,"jaligi":3830,"Ġsovg":3831,"ĠFacebook":3832,"malari":3833,"Ġvazirlik":3834,"Ġchoralari":3835,"Ġtomoshabin":3836,"Ġyillar":3837,"Ġmuloqotda":3838,"eyn":3839,"Ġkutilmoqda":3840,"Ġahvol":3841,"Ġgum":3842,"Ġdollarlik":3843,"Ġtomosha":3844,"ĠXorazm":3845,"Ġmuvaffaqiyatli":3846,"Ġzi":3847,"Ġmiya":3848,"Ġoshdi":3849,"Ġevaku":3850,"lashish":3851,"Ġjamg":3852,"ushi":3853,"Ġroli":3854,"Ġbormoqda":3855,"Ġmahrum":3856,"Ba":3857,"se":3858,"Ġoshiriladi":3859,"Ġjazo":3860,"sun":3861,"Ġfun":3862,"Ġkeladigan":3863,"Ġpoyez":3864,"Ġmev":3865,"ĠSher":3866,"Ġonasi":3867,"Ġuchta":3868,"Ġishchi":3869,"Ġketishi":3870,"Aktyor":3871,"Ġshundaki":3872,"Ġprofilak":3873,"Bola":3874,"Ġtarbiya":3875,"Ġyoshlar":3876,"ĠArmaniston":3877,"tkazgan":3878,"Ġjarohat":3879,"Noviy":3880,"Sputnik":3881,"ĠGollivud":3882,"lovchilar":3883,"sam":3884,"Ġkishini":3885,"Ġnoto":3886,"Shif":3887,"ĠKap":3888,"Ġasr":3889,"Ġchalinish":3890,"obar":3891,"2019":3892,"rsatilgan":3893,"ĠAlisher":3894,"qachon":3895,"etika":3896,"Ġjavobgar":3897,"Inter":3898,"Ġimkoniyati":3899,"Ġbirida":3900,"ushta":3901,"Ġsanoat":3902,"Ġhujayra":3903,"Ġtahdi":3904,"Ġtexnik":3905,"Ġbaxt":3906,"Ġterror":3907,"Kar":3908,"moni":3909,"Ġalla":3910,"nika":3911,"Ġhisobga":3912,"Ġoxiriga":3913,"sel":3914,"Ġyoshida":3915,"Ġolinadi":3916,"Ġnavbatdagi":3917,"amas":3918,"rip":3919,"Ġbek":3920,"Ġkechasi":3921,"Ġinfeksiyasiga":3922,"six":3923,"Ġsu":3924,"Ġsanitariya":3925,"yuta":3926,"Ġshub":3927,"ĠDon":3928,"Ġ45":3929,"Ġhayoti":3930,"Ġmans":3931,"Ġsanksiyalar":3932,"Ġshundan":3933,"Ġrais":3934,"Ġdin":3935,"Ġmoddalar":3936,"Uni":3937,"vit":3938,"ĠBaza":3939,"Ġtarmog":3940,"ĠXitoyda":3941,"Bunga":3942,"Ġpiyoz":3943,"Bo":3944,"met":3945,"ĠSerg":3946,"Ġoling":3947,"adam":3948,"Ġmajmu":3949,"Ġhozircha":3950,"omidor":3951,"Ġbaravar":3952,"Ġmashq":3953,"Ġtartibda":3954,"Xonanda":3955,"Ġbois":3956,"Ġguvoh":3957,"Ġsuyuq":3958,"ual":3959,"rsatdi":3960,"Jahon":3961,"Kerak":3962,"Ġtashab":3963,"ĠNor":3964,"PA":3965,"ĠBazaar":3966,"illion":3967,"Ġpun":3968,"Ġjinoiy":3969,"Ġmuallif":3970,"layotgani":3971,"obi":3972,"Ġtinchlik":3973,"tli":3974,"tal":3975,"Ġetilishi":3976,"Ġsohasida":3977,"vo":3978,"oyli":3979,"Ġquvvat":3980,"Ġqolishi":3981,"lganini":3982,"Ġtopilgan":3983,"Ġmutaxassislar":3984,"Ġkamaytirish":3985,"hez":3986,"uly":3987,"Ġallaqachon":3988,"Dast":3989,"Ġoshib":3990,"ĠFar":3991,"aladi":3992,"TASS":3993,"jayev":3994,"tak":3995,"Ġdog":3996,"Ġqizil":3997,"Ġkomissiyasi":3998,"Ġakade":3999,"Ġevakuatsiya":4000,"Ġsalat":4001,"Endi":4002,"Ġochi":4003,"uni":4004,"Ġrossiya":4005,"ĠEl":4006,"Ġxavfini":4007,"Ġoxirida":4008,"prik":4009,"Ġgor":4010,"ĠNex":4011,"Ġtelekanali":4012,"Ġqobiliy":4013,"Ġmuzokara":4014,"Ġlaborat":4015,"ĠSS":4016,"Ġqismini":4017,"Ġaholining":4018,"gini":4019,"Ġqul":4020,"siyasiga":4021,"atidan":4022,"Ġborligi":4023,"Ġkishidan":4024,"zgartir":4025,"esi":4026,"shanba":4027,"Ġmon":4028,"Ġmer":4029,"Ġkunlarda":4030,"Ġad":4031,"eyt":4032,"ĠEm":4033,"urak":4034,"Ġamerikalik":4035,"chasida":4036,"Ġbren":4037,"Ġinqir":4038,"ura":4039,"ank":4040,"lishni":4041,"Ġstress":4042,"Ġenergiya":4043,"ĠMask":4044,"Ġqurish":4045,"yxatga":4046,"Ġquyosh":4047,"yus":4048,"dart":4049,"rup":4050,"Albatta":4051,"lani":4052,"Ġzir":4053,"yoh":4054,"Ġturish":4055,"Ġdollarni":4056,"Ġtayyorlangan":4057,"Ġtopgan":4058,"ĠMuham":4059,"Ġisbot":4060,"Um":4061,"lastik":4062,"aqa":4063,"alam":4064,"Ġnars":4065,"onasi":4066,"Ġmasalan":4067,"Ġyuqor":4068,"Ġmahsulotlarni":4069,"Ġnashr":4070,"Qur":4071,"magani":4072,"Ġoshiradi":4073,"Ġpoyabzal":4074,"Ġtutilgan":4075,"Ġxabarida":4076,"Ġfuqarolari":4077,"Ġtahdid":4078,"Ġada":4079,"Ġotasi":4080,"Ġxayr":4081,"Ġtanlash":4082,"Ġkasb":4083,"18":4084,"Ġhukm":4085,"Ġyuborgan":4086,"tlar":4087,"ĠGoogle":4088,"Ġgen":4089,"Ġoshirilgan":4090,"Ġxizmatlari":4091,"SA":4092,"Ġos":4093,"ĠShimoliy":4094,"ĠHarper":4095,"ĠRah":4096,"ĠIchki":4097,"Ġtarqalishi":4098,"Ġinstitut":4099,"ef":4100,"ensiya":4101,"Ġoshqozon":4102,"Ġulg":4103,"okola":4104,"mok":4105,"Ġjihoz":4106,"Ġtonna":4107,"Ġqalb":4108,"Ġkirgan":4109,"Ġvakolat":4110,"Ġkuy":4111,"Ġdiz":4112,"ishtir":4113,"ĠOzarbayjon":4114,"Ġint":4115,"interest":4116,"razi":4117,"lishga":4118,"Ġcheklovlar":4119,"Ar":4120,"yoviy":4121,"Ġmil":4122,"tiga":4123,"Ġisloh":4124,"Ġquruq":4125,"Ġyashagan":4126,"ket":4127,"Ġatrofida":4128,"ĠKim":4129,"Ġshosh":4130,"16":4131,"ĠPinterest":4132,"Ġboradi":4133,"Ġparvar":4134,"ley":4135,"lashdi":4136,"Ġdarhol":4137,"rang":4138,"IV":4139,"ĪĴ":4140,"Bunda":4141,"Ġyetishmovchiligi":4142,"nevmon":4143,"chak":4144,"Ġchiqilgan":4145,"Ġaniqlik":4146,"ĠTashqi":4147,"Ġishdan":4148,"okolad":4149,"Ġaviak":4150,"Ġqirg":4151,"Ġyod":4152,"uvga":4153,"ilishda":4154,"versa":4155,"Kerakli":4156,"alariga":4157,"ks":4158,"rd":4159,"talik":4160,"Ġjabr":4161,"Ġ33":4162,"ĠYPX":4163,"ĠOlma":4164,"Ġhib":4165,"Ġasar":4166,"Ġchaqirdi":4167,"Ġpartiyasi":4168,"kun":4169,"liklarni":4170,"Ġrasman":4171,"14":4172,"ray":4173,"ved":4174,"aya":4175,"Ġmamlakatga":4176,"Ġkengash":4177,"Ġustiga":4178,"san":4179,"chim":4180,"Ġyorqin":4181,"lisi":4182,"urt":4183,"ĠSen":4184,"yilgi":4185,"maslikka":4186,"Ġqiziqarli":4187,"limiga":4188,"Ġtayyorlanadigan":4189,"Ġlimon":4190,"17":4191,"icha":4192,"asad":4193,"Ġgul":4194,"ariy":4195,"ĠDil":4196,"ĠYTH":4197,"ĠXon":4198,"ulmon":4199,"Ġkeyinchalik":4200,"Ġdiabet":4201,"Ġonlayn":4202,"batida":4203,"chiligi":4204,"ĠSo":4205,"Ġmurakkab":4206,"Ġhududiga":4207,"Ġarzon":4208,"lq":4209,"ula":4210,"ye":4211,"tash":4212,"istan":4213,"Ġing":4214,"Ġkayf":4215,"emir":4216,"Ġbarobar":4217,"Ġkamroq":4218,"Ġbojxona":4219,"iliq":4220,"Ġloyihasi":4221,"Ġboshidan":4222,"Ġjarima":4223,"Ġtezroq":4224,"Mah":4225,"Ġqarz":4226,"Ġoylik":4227,"Ġratsion":4228,"60":4229,"Ġsudi":4230,"Ġtoif":4231,"ĠMay":4232,"ĠPol":4233,"Ġtopish":4234,"enni":4235,"Ġsolib":4236,"Ġshuni":4237,"Ġqidir":4238,"tadigan":4239,"inchalik":4240,"Ð¾":4241,"Ġsekin":4242,"ĠRaj":4243,"Ġviloyatidagi":4244,"Ġinsonlar":4245,"ĠNexia":4246,"13":4247,"Sur":4248,"Ġumid":4249,"akan":4250,"Ġkoronavirusni":4251,"Ġxavfsizligi":4252,"Ġkislot":4253,"Viloy":4254,"igar":4255,"Ġberilishi":4256,"Ġjoylashtirilgan":4257,"Ġqonuniy":4258,"ĠLukash":4259,"ptom":4260,"zgarishlar":4261,"Ġprot":4262,"siyasida":4263,"siyaga":4264,"ĠMahkam":4265,"Ġqilingandi":4266,"kasb":4267,"ĠOlim":4268,"ĠUl":4269,"vaziga":4270,"Kom":4271,"llari":4272,"Ġjoyida":4273,"burg":4274,"rok":4275,"uliy":4276,"Ġoyining":4277,"ĠSSV":4278,"ela":4279,"goh":4280,"Ġstandart":4281,"imsoq":4282,"Ġkrem":4283,"Ġturizm":4284,"Ġ37":4285,"lagani":4286,"andr":4287,"ĠVashington":4288,"Ġdunyodagi":4289,"Ġyetishmasligi":4290,"Ġsevimli":4291,"Ġehtiyoj":4292,"Ġpo":4293,"Ġkesib":4294,"Ġtashlab":4295,"Ġmarot":4296,"ĠUkrainadagi":4297,"Ġoilasi":4298,"Ġqozon":4299,"Ġtaniqli":4300,"Ġelektron":4301,"ĠOr":4302,"Bugungi":4303,"Ġyurish":4304,"Ġ150":4305,"Ġolimlar":4306,"Ġhazm":4307,"orod":4308,"urmat":4309,"Ġmilliondan":4310,"Ġyurgan":4311,"Ġmetro":4312,"kani":4313,"erda":4314,"Ġoxirgi":4315,"Ġevaziga":4316,"Ġfoto":4317,"Ġtayyorlaymiz":4318,"Ġketayotgan":4319,"Ġkaryer":4320,"Ġneft":4321,"shanda":4322,"FY":4323,"otini":4324,"Ġtovuq":4325,"ĠArabiston":4326,"ber":4327,"Ġqismida":4328,"Ġgumon":4329,"Ġna":4330,"teriya":4331,"Ġchiroyli":4332,"Ġniyat":4333,"landiya":4334,"Ġfarzandi":4335,"ic":4336,"Ġsayyoh":4337,"Ġnazorati":4338,"Ġaholini":4339,"ling":4340,"Ġbep":4341,"Ġdollardan":4342,"Ġnomli":4343,"Ġkelmoqda":4344,"Ġprokur":4345,"Ġreyting":4346,"Ġkelajak":4347,"Tash":4348,"iyoh":4349,"rinishga":4350,"Ġsamarador":4351,"ulot":4352,"Ġtashlash":4353,"Ġfoydalanuvchi":4354,"York":4355,"Ġoqibat":4356,"Ġolam":4357,"Ġoqsil":4358,"Ġyaxshilab":4359,"Ġusuli":4360,"lda":4361,"rinda":4362,"Ġfilmida":4363,"Ġnavbatida":4364,"ĠSamarqandda":4365,"Ġiliq":4366,"onlik":4367,"Ġrest":4368,"Ġstrat":4369,"Ġsayohat":4370,"tabek":4371,"Ġmarotaba":4372,"Re":4373,"tf":4374,"Ġyotqizilgan":4375,"ovuq":4376,"Ġchiqadi":4377,"Ġkasallikdan":4378,"ĠQodir":4379,"ement":4380,"yon":4381,"oyaga":4382,"Ġ34":4383,"ozit":4384,"Ġqarin":4385,"ariga":4386,"men":4387,"uto":4388,"Ġshifoxona":4389,"Ġsentabr":4390,"zidan":4391,"llash":4392,"Ġola":4393,"zbekistan":4394,"mer":4395,"Ġ(âĢľ":4396,"Ġqurit":4397,"Ġdaraxt":4398,"Ġdunyoning":4399,"kit":4400,"ogramm":4401,"Ġyulduzlari":4402,"oga":4403,"ĠEPA":4404,"Ġtartibga":4405,"dia":4406,"oran":4407,"Ġerishgan":4408,"ĠMeduza":4409,"vand":4410,"Ġplat":4411,"Ġchaq":4412,"ĠMer":4413,"Keyinchalik":4414,"ldosh":4415,"alaba":4416,"po":4417,"Ġhamkasb":4418,"Ġvazirligining":4419,"Ġdasturi":4420,"Ġprokuratura":4421,"Ġqilishda":4422,"Ġbudjet":4423,"ham":4424,"erin":4425,"Ġstakan":4426,"ngra":4427,"ppar":4428,"Ġtabrik":4429,"Ġshikast":4430,"vlat":4431,"Ġvazifasini":4432,"Ġmadaniyat":4433,"qol":4434,"iliya":4435,"ĠNik":4436,"Ġkuzatiladi":4437,"illar":4438,"Ġetganlar":4439,"shid":4440,"ĠMFY":4441,"Ġehtimoli":4442,"ruz":4443,"Ġfoydalangan":4444,"Ġmarkaziy":4445,"Ġjanjal":4446,"Tayyorlanish":4447,"jid":4448,"Ġkul":4449,"Ġnut":4450,"Ġpnevmon":4451,"Ġqaytgan":4452,"Ġ32":4453,"Ġkiradi":4454,"qiqot":4455,"arter":4456,"Ġfaqatgina":4457,"Ġyulduzlar":4458,"Ġkap":4459,"ĠApple":4460,"Ġoilaviy":4461,"akkiz":4462,"Ġasoratlari":4463,"Ġberishga":4464,"Ġyuborilgan":4465,"Yosh":4466,"Ġoladigan":4467,"rid":4468,"ĠBo":4469,"Ġqiymati":4470,"leg":4471,"Ġimkonini":4472,"ovar":4473,"Ġrossiyalik":4474,"izer":4475,"ollik":4476,"Ġdevor":4477,"Ġtopshiriq":4478,"iaomi":4479,"zlari":4480,"Ġzav":4481,"Ġqiyinchi":4482,"Ġ2017":4483,"Ijtimoiy":4484,"Ġavtot":4485,"ĠXalq":4486,"ĠXitoyning":4487,"zan":4488,"Ġbilish":4489,"kala":4490,"Ġkunga":4491,"Ġyuri":4492,"Ġnamoyon":4493,"iyaj":4494,"ĠEn":4495,"Ġhollarda":4496,"arri":4497,"Ġmuola":4498,"utun":4499,"Ġharorati":4500,"Ġyozmoqda":4501,"ĠJahongir":4502,"Ġmingta":4503,"ĠLa":4504,"Ġshartnom":4505,"alniy":4506,"ĠBir":4507,"Ġafzal":4508,"Ġjarohati":4509,"shish":4510,"Ġxamir":4511,"aqqiy":4512,"Ġqovur":4513,"ĠMajlis":4514,"Ġanj":4515,"Ġismli":4516,"Ġqahva":4517,"Ġhaydovchisi":4518,"Ġintervyusida":4519,"Ġsimptom":4520,"Ġnarsani":4521,"axta":4522,"Ġdars":4523,"ĠâĪĴ":4524,"suski":4525,"Ġefir":4526,"Ġbarch":4527,"ĠVazir":4528,"obatga":4529,"Ġkasallikka":4530,"Ġnavbatda":4531,"ĠItaliya":4532,"Ġinqiroz":4533,"bosh":4534,"Ġbugun":4535,"aridan":4536,"Ġdarajasini":4537,"Ġqolib":4538,"Ġborasidagi":4539,"Ġyilga":4540,"Ġgazet":4541,"cham":4542,"gandi":4543,"Ġqadam":4544,"imizda":4545,"Ikki":4546,"Ġekspert":4547,"atning":4548,"Ġaslida":4549,"Ġkommun":4550,"Ġnomi":4551,"Ġhududlarda":4552,"Ġkartoshka":4553,"Ġqand":4554,"martdan":4555,"tur":4556,"Ġab":4557,"Ġkerakli":4558,"ĠXalqaro":4559,"Ġshartnoma":4560,"ishlangan":4561,"Ġdalil":4562,"Mutaxassis":4563,"lining":4564,"chin":4565,"ĠIIBB":4566,"lardi":4567,"Ġmini":4568,"likdagi":4569,"Ġbanki":4570,"Ġpartiya":4571,"loger":4572,"Ġsep":4573,"Ġhammasi":4574,"Ġkundan":4575,"ĠKon":4576,"sional":4577,"Ġmiqdorini":4578,"Ġushlab":4579,"Qar":4580,"shti":4581,"Ġmol":4582,"Ġgiyoh":4583,"Ġchiqaradi":4584,"stitut":4585,"Sab":4586,"Ġetishicha":4587,"Ġorzu":4588,"Ġasab":4589,"alarining":4590,"Ġsevgi":4591,"Shifokor":4592,"jam":4593,"unkali":4594,"Ġsuratlar":4595,"Ġosoyish":4596,"avv":4597,"Ġtrillion":4598,"ays":4599,"ens":4600,"Ġsuratini":4601,"mik":4602,"ĠBollivud":4603,"Ġayti":4604,"Ġsavd":4605,"Ġehtimol":4606,"Ġmoddiy":4607,"etti":4608,"Ġvositasi":4609,"Ġorada":4610,"Ġertalab":4611,"Ġborligini":4612,"Ġkundalik":4613,"Uz":4614,"iyani":4615,"ĠTur":4616,"Ġmato":4617,"Ġuzaytir":4618,"Ġsoha":4619,"Mamlakatda":4620,"layman":4621,"Ġqatnov":4622,"ullayev":4623,"stanbul":4624,"Ġif":4625,"Ġmiqdorida":4626,"Ġtayinlandi":4627,"ĠMoskv":4628,"Ġtemiryo":4629,"Ġsaraton":4630,"bin":4631,"Ġhisobot":4632,"Ġsalomatligi":4633,"Ġrejissor":4634,"ĠVazirlar":4635,"Siz":4636,"zga":4637,"shiroq":4638,"199":4639,"Ġkuzatib":4640,"Ġpalatasi":4641,"Ġhibsga":4642,"tma":4643,"ganda":4644,"ovga":4645,"Ġboshlanganidan":4646,"Ġfuqarosi":4647,"ĠIttifoqi":4648,"Ġbakteriya":4649,"Ġspir":4650,"esla":4651,"sonli":4652,"ĠTrampning":4653,"Ġvariant":4654,"Yevro":4655,"aif":4656,"hum":4657,"Ġfer":4658,"Ġparhez":4659,"Ġboshlanadi":4660,"Ġappar":4661,"qotish":4662,"Ġkayfiyat":4663,"diri":4664,"Ġmenga":4665,"lanishni":4666,"Ġyaxshiroq":4667,"iddin":4668,"Ġharakatlar":4669,"Ġnatijalari":4670,"Ġtaqdirda":4671,"rq":4672,"lika":4673,"Ġinobatga":4674,"ĠNyu":4675,"Ġyetti":4676,"Ġajra":4677,"Ġpoyezd":4678,"Ġurin":4679,"Ġjoylarda":4680,"Ġtalaba":4681,"Ġqutqar":4682,"rnini":4683,"Ġkamaytiradi":4684,"Ġblok":4685,"Buyuk":4686,"Ġprepar":4687,"11":4688,"gor":4689,"ganidan":4690,"Ġdemok":4691,"Ġqilmaydi":4692,"tkazdi":4693,"Ġmikr":4694,"Samarqand":4695,"Bugun":4696,"Yana":4697,"Ġtomoni":4698,"Ġdiq":4699,"Ġmob":4700,"Ġboz":4701,"Gaz":4702,"Ġshokolad":4703,"tkaziladi":4704,"Ġfoizni":4705,"imi":4706,"imni":4707,"Ġsherik":4708,"lashishi":4709,"ĠMat":4710,"Ġvazifa":4711,"Ġqadr":4712,"Ġolishni":4713,"Ġiloji":4714,"tiz":4715,"Zen":4716,"Ġ36":4717,"Ġvosit":4718,"mlik":4719,"Ġ39":4720,"Ġrozi":4721,"Ġminnat":4722,"Ġqilamiz":4723,"Ġmuddati":4724,"Ġulgur":4725,"Dunyo":4726,"Ġbul":4727,"irov":4728,"Ġmuhof":4729,"Tur":4730,"ĠOtabek":4731,"Ġ65":4732,"hqon":4733,"Ġjin":4734,"Ġprezidentlik":4735,"Ġkilogramm":4736,"Ġhavola":4737,"ishtiruv":4738,"Ġbozori":4739,"Ġtiklash":4740,"llar":4741,"Ġaylan":4742,"Ġimport":4743,"ratuz":4744,"ĠAleksandr":4745,"Ġmobayni":4746,"El":4747,"XX":4748,"Ġmoj":4749,"Ġsig":4750,"Ġbat":4751,"Ġetamiz":4752,"Ð°Ð":4753,"lqin":4754,"gidan":4755,"Ġjoyda":4756,"Ġdehqon":4757,"Ġborilgan":4758,"Ġtadqiqotlar":4759,"Ġnuqta":4760,"Ġjuftlik":4761,"chilarning":4762,"Ġmasofa":4763,"ĠNews":4764,"ilishida":4765,"Ġhajmi":4766,"ÑĢ":4767,"Ġmamlakatdagi":4768,"Ġtovar":4769,"Ġaprel":4770,"tfilm":4771,"ip":4772,"Ġshifoxon":4773,"tadbirlar":4774,"Ġhomilador":4775,"Ġ38":4776,"Mash":4777,"lni":4778,"eca":4779,"Ġyut":4780,"Ġishlarini":4781,"Ġyoshga":4782,"Ġrahbarining":4783,"Ġyetakchisi":4784,"kitob":4785,"Ġmobil":4786,"Ġborayotgan":4787,"Ġerishish":4788,"Ġnazarda":4789,"straZen":4790,"Ġparvarish":4791,"Ġmobaynida":4792,"dolat":4793,"Ġbuzilishi":4794,"straZeneca":4795,"Xalq":4796,"rir":4797,"toj":4798,"ĠMotors":4799,"II":4800,"Ġajrash":4801,"Ġaytilgan":4802,"Ġmavzu":4803,"ĠKo":4804,"Ġinfratuz":4805,"Film":4806,"Ġug":4807,"Ġchiqaruvchi":4808,"spaniya":4809,"Ġbemorlarning":4810,"Ġshtab":4811,"Ġqiroli":4812,"cker":4813,"lev":4814,"ilon":4815,"Ġmukam":4816,"DR":4817,"Ġrag":4818,"Ġorganizmda":4819,"Ġtaraqqiy":4820,"Ġkasallikning":4821,"Ġplatfor":4822,"Ġiyun":4823,"Ġsakkiz":4824,"Ġolgani":4825,"Ġshoshil":4826,"Ġgiyohvand":4827,"uT":4828,"Ġklub":4829,"imda":4830,"Ġshahzoda":4831,"Ġval":4832,"Ġmingga":4833,"Soch":4834,"Ġjihatdan":4835,"tisos":4836,"Keyinroq":4837,"qnashuv":4838,"oyi":4839,"ĠSaudiya":4840,"Qozog":4841,"ovuz":4842,"Ġ198":4843,"Ġmukammal":4844,"und":4845,"old":4846,"Ġpsix":4847,"Ġprov":4848,"ner":4849,"Ġpost":4850,"tkazildi":4851,"Ġshakli":4852,"Ġtartibi":4853,"Ġmashinasi":4854,"kada":4855,"lashuv":4856,"ojir":4857,"Ġ400":4858,"Ġkelingan":4859,"Ġobuna":4860,"Ġomma":4861,"Ġhamkorlikda":4862,"Tan":4863,"Ġkasalliklari":4864,"xtatish":4865,"parvar":4866,"Ġziyod":4867,"Ġop":4868,"Ġqalam":4869,"yilga":4870,"ĠFor":4871,"Ġsayt":4872,"Ġtuzalgan":4873,"Ġprog":4874,"Ġmuddatga":4875,"Turkiya":4876,"Shunga":4877,"yash":4878,"ĠUxan":4879,"epidemiologik":4880,"Ġbepul":4881,"Do":4882,"Qor":4883,"Ġver":4884,"ulton":4885,"Ġbirik":4886,"Ġtog":4887,"Ġmasjid":4888,"Ġchiqarishni":4889,"Ġyerga":4890,"Ġtarqalishining":4891,"Ġqilmaslik":4892,"dimuham":4893,"Ġtayinlangan":4894,"ĠTimes":4895,"ylak":4896,"Ġkat":4897,"ĠSar":4898,"ube":4899,"tkazib":4900,"Ġodamlarning":4901,"Ġtarixiy":4902,"dirish":4903,"Ġraz":4904,"Ġmuhtoj":4905,"Ġamaldagi":4906,"Ġfoydalanishga":4907,"Ġjamoasi":4908,"avvur":4909,"pol":4910,"ena":4911,"masining":4912,"Ġostiga":4913,"Auto":4914,"Ġsolin":4915,"Ġqarindosh":4916,"chat":4917,"mish":4918,"lip":4919,"vetsiya":4920,"fizer":4921,"mov":4922,"Ġfili":4923,"ĠTergov":4924,"Ġglobal":4925,"zallik":4926,"abog":4927,"Qirg":4928,"ĠPar":4929,"qligini":4930,"obul":4931,"Ġsahifasiga":4932,"Ġfed":4933,"Ġpomidor":4934,"ĠMin":4935,"Ġdavlatlari":4936,"Ġbelgilari":4937,"Boshqa":4938,"Ġdiplom":4939,"Ġvalyuta":4940,"27":4941,"avf":4942,"Ġkorrup":4943,"Ġdekabr":4944,"Far":4945,"Ġnik":4946,"Ġqismiga":4947,"Ġmushuk":4948,"struk":4949,"qos":4950,"Ġali":4951,"Ġboshlanishi":4952,"oksidan":4953,"lashtirib":4954,"olaversa":4955,"Ġavvalroq":4956,"Ġqilmagan":4957,"Ġegallab":4958,"Ġmarkazida":4959,"ĠAng":4960,"Ġboshlash":4961,"Ġkamer":4962,"rans":4963,"Ġsayyor":4964,"Ġoshkor":4965,"Ġoldindan":4966,"Kadr":4967,"Qolaversa":4968,"Ġchang":4969,"Ġhissa":4970,"Ġkanal":4971,"simon":4972,"Ġfuqarolarning":4973,"Ġmuzlatkich":4974,"Ġxayriya":4975,"Bemor":4976,"xa":4977,"onlar":4978,"Ġaq":4979,"osiga":4980,"Ġbizning":4981,"Ġlay":4982,"Ġkamchilik":4983,"Ġkutib":4984,"chiga":4985,"ĠTay":4986,"udlik":4987,"Ġatadi":4988,"Ġvaksinatsiya":4989,"Ġuyiga":4990,"lishdi":4991,"Ġdizayn":4992,"ĠLukashenko":4993,"XR":4994,"lmasligi":4995,"onada":4996,"Ġariza":4997,"Ġpandemiy":4998,"Ð¸Ð":4999,"pot":5000,"yum":5001,"ĠMur":5002,"ĠRa":5003,"istika":5004,"Ġjigar":5005,"Ġtashkilotlar":5006,"Ġbemorning":5007,"koni":5008,"ĠAy":5009,"Ġtashrifi":5010,"Ġmuxlislariga":5011,"ĠNavalniy":5012,"Ġgormon":5013,"uTube":5014,"AR":5015,"Muh":5016,"giga":5017,"azov":5018,"Ġarx":5019,"Ġterini":5020,"Ġvaksinaning":5021,"daning":5022,"oqda":5023,"mayman":5024,"ĠUm":5025,"Ġpnevmoniya":5026,"Ġxur":5027,"idemiologiya":5028,"Ġpiyoda":5029,"Ġixtisos":5030,"yna":5031,"Ġishlashi":5032,"Ġmeni":5033,"liyada":5034,"Ġsanaladi":5035,"Ġlavozimiga":5036,"ĠQorabog":5037,"Ġmansab":5038,"Ġhisoblangan":5039,"imizni":5040,"Ġkiritgan":5041,"Ġshahriga":5042,"Ġmadaniy":5043,"anim":5044,"digan":5045,"uma":5046,"Ġdezin":5047,"Ġhududiy":5048,"Ġmustahkamlash":5049,"Ġxizmatining":5050,"levod":5051,"28":5052,"hom":5053,"ĠTer":5054,"Ġshunga":5055,"loom":5056,"ĠIslom":5057,"Ġyetmagan":5058,"Ġmamlakatlari":5059,"siri":5060,"sov":5061,"adir":5062,"Ġmusi":5063,"rsatib":5064,"Ġmuhojir":5065,"ĠYevrop":5066,"Ġqola":5067,"ĠHam":5068,"Ġpunkt":5069,"loomberg":5070,"chalar":5071,"Ġboshqalar":5072,"Ġemasligini":5073,"ĠBerdimuham":5074,"26":5075,"havo":5076,"qur":5077,"ardob":5078,"bosqich":5079,"Ġqasd":5080,"dr":5081,"feksiya":5082,"lmas":5083,"rganib":5084,"Ġtarkibidagi":5085,"ĠErdo":5086,"Ġart":5087,"Ġbitim":5088,"elosi":5089,"Ġfoizdan":5090,"Ġurf":5091,"muriyati":5092,"Ġvaqtinchalik":5093,"Ġtong":5094,"Ġyevro":5095,"Ġzaif":5096,"Ġjarayonini":5097,"raziliya":5098,"ying":5099,"unus":5100,"Ġsub":5101,"chalari":5102,"ĠAstraZeneca":5103,"Ġtayyorlab":5104,"ingizda":5105,"Ġtekshirish":5106,"Ġqoidalarini":5107,"Ġqalin":5108,"Ġasoschisi":5109,"Ġrestoran":5110,"Ġchop":5111,"Ġshaklida":5112,"Ġyulduzi":5113,"Ġafg":5114,"Ġxotin":5115,"Ġshtat":5116,"Ġkompl":5117,"Ġkosmik":5118,"Ġyom":5119,"Ġhurmat":5120,"Ġsazov":5121,"osib":5122,"Ġholatlarining":5123,"Ġtasavvur":5124,"Ġqaroriga":5125,"yapmiz":5126,"Ġnutq":5127,"XDR":5128,"olif":5129,"ĠRam":5130,"yildi":5131,"epa":5132,"Ġadabiy":5133,"Ġqot":5134,"sishi":5135,"eksa":5136,"ograf":5137,"Oq":5138,"Sev":5139,"noz":5140,"eksi":5141,"Ġumr":5142,"Ġsazovor":5143,"tayotgan":5144,"ogir":5145,"Ġbosqichda":5146,"Ġhujjatlar":5147,"Il":5148,"Ġrangi":5149,"addan":5150,"Ġkiyish":5151,"Ġtadbirlar":5152,"til":5153,"Ġ64":5154,"ĠYaponiya":5155,"Ġuchr":5156,"Ġchin":5157,"matov":5158,"tgach":5159,"lashtirishga":5160,"Ġhududlarida":5161,"Ġqoidalariga":5162,"ĠRay":5163,"Ġorqa":5164,"Bux":5165,"Ġyuborish":5166,"Barcha":5167,"Ġres":5168,"Ġsarimsoq":5169,"Ġvaksinani":5170,"TM":5171,"its":5172,"Ġnamuna":5173,"Ġkaloriya":5174,"Ġnikoh":5175,"liklarga":5176,"Ġyoshi":5177,"lganlar":5178,"Ġavgust":5179,"rinni":5180,"Ġkeltirilgan":5181,"guncha":5182,"ĠMadina":5183,"ripp":5184,"rifing":5185,"ruq":5186,"ĠSal":5187,"fiy":5188,"inning":5189,"otsi":5190,"asdan":5191,"tihon":5192,"Ġ48":5193,"chini":5194,"Ġdon":5195,"Ġqurgan":5196,"ĠMuhammad":5197,"Ġavtotransport":5198,"Ġkorp":5199,"Ġqilingani":5200,"Ġmaqola":5201,"Ġcheklangan":5202,"zdan":5203,"ĠNamanganda":5204,"Ġtashxisi":5205,"Andijon":5206,"ons":5207,"ĠMam":5208,"Ġaylantir":5209,"osita":5210,"Ġosoyishtalik":5211,"joy":5212,"kaga":5213,"lit":5214,"isa":5215,"Ġyozib":5216,"nalishi":5217,"Ġmasalasi":5218,"kal":5219,"Ġpak":5220,"zila":5221,"aqatnov":5222,"Ġqishlog":5223,"Ġistiqomat":5224,"ondon":5225,"Ġpor":5226,"Ġmusulmon":5227,"Faqat":5228,"ldan":5229,"larim":5230,"oroda":5231,"Ġlin":5232,"sult":5233,"layotganini":5234,"Ġtexnika":5235,"Ġaralashtiriladi":5236,"urnal":5237,"Ġpat":5238,"rinadi":5239,"Ġsurunkali":5240,"Ġhududda":5241,"ĠYHXBB":5242,"Ġzirav":5243,"29":5244,"yori":5245,"Ġiyul":5246,"shan":5247,"Ġ(@":5248,"Ġaskar":5249,"Ġshahrining":5250,"Ġjavobgarlik":5251,"Ġshifoxonaga":5252,"pe":5253,"alla":5254,"Ġ75":5255,"ratik":5256,"uar":5257,"Ġbiladi":5258,"oliga":5259,"tran":5260,"Ġvositalar":5261,"shinlari":5262,"ĠYouTube":5263,"Ġrangli":5264,"Ġaviaqatnov":5265,"zlar":5266,"Ġnoyabr":5267,"Ġichimliklar":5268,"Yuq":5269,"Ġati":5270,"Ġtashv":5271,"Ġepidemiologik":5272,"ĠSanitariya":5273,"Ġmutla":5274,"Ġqovoq":5275,"ĠRajab":5276,"Ġkas":5277,"iqtisodiy":5278,"Ġdavolanayotgan":5279,"Ġtelev":5280,"Mosk":5281,"Par":5282,"chaga":5283,"Ġortidan":5284,"Ġyetkazish":5285,"tiyoz":5286,"Ġaksariyat":5287,"San":5288,"Ġchiz":5289,"Ġzudlik":5290,"Ġqolmoqda":5291,"Ġyaqinida":5292,"Ġmuhofaza":5293,"ĠUzbekistan":5294,"atsiyaga":5295,"ifeh":5296,"Ġmlrd":5297,"ĠSergey":5298,"razia":5299,"70":5300,"Gap":5301,"Olim":5302,"han":5303,"qligi":5304,"ĠYulduz":5305,"Ġkiriti":5306,"Ġ43":5307,"liyev":5308,"senariy":5309,"Ġyumshoq":5310,"Ter":5311,"tiradi":5312,"Ġaylanishi":5313,"Ġlavozimida":5314,"Ġantioksidan":5315,"gen":5316,"Ġorol":5317,"Ġodamlarni":5318,"ci":5319,"Ġthe":5320,"Ġsen":5321,"ĠPfizer":5322,"Ġfaoliyatiga":5323,"Ġsahifasida":5324,"Ġprofess":5325,"Ġportlash":5326,"Ġshikoyat":5327,"Ġstatistika":5328,"Ġuglevod":5329,"Ġlarda":5330,"Ġdeleg":5331,"ĠIb":5332,"ĠNaz":5333,"Ġqilinmoqda":5334,"uhrat":5335,"rant":5336,"Ġmusob":5337,"ES":5338,"Ulardan":5339,"acker":5340,"Ġnaq":5341,"Ġqochib":5342,"Ġterining":5343,"Aynan":5344,"Ġmultfilm":5345,"ĠNurman":5346,"Ġprokuraturasi":5347,"ways":5348,"yili":5349,"Ġhisobidan":5350,"Ġtushdi":5351,"Ġmahsulotlarini":5352,"Ġuringan":5353,"ayeva":5354,"Ġmeros":5355,"Ġvazirining":5356,"ĠSharq":5357,"tkazilishi":5358,"Ġkechki":5359,"Ġchoralarini":5360,"Ġtarqaldi":5361,"Ġnonushta":5362,"Ġshish":5363,"Ġhaftada":5364,"straliya":5365,"Ġtaraqqiyot":5366,"ifehacker":5367,"yul":5368,"inlar":5369,"ĠIstanbul":5370,"Ġreak":5371,"Ġsohasidagi":5372,"Ġqaramasdan":5373,"Tech":5374,"rug":5375,"Ġpir":5376,"Ġvaksinasini":5377,"Ġyopish":5378,"ĠAbdulla":5379,"Ġhikoya":5380,"Ġbrifing":5381,"Ġbiriga":5382,"iyalik":5383,"ngilli":5384,"Ġqaynat":5385,"Ġjangovar":5386,"krak":5387,"Ġyas":5388,"erga":5389,"ĠMo":5390,"Ġetayotgan":5391,"Ġimtihon":5392,"Ġsurishtiruv":5393,"Ġasoslangan":5394,"ĠAziz":5395,"Ġ46":5396,"skar":5397,"ĠKorey":5398,"Ġfonida":5399,"Ġrazved":5400,"Respublik":5401,"Ġsp":5402,"ĠxizmatiFoto":5403,"Ġhayotini":5404,"ayi":5405,"aqiq":5406,"Ġoylarida":5407,"Ġkishining":5408,"erikaning":5409,"biriga":5410,"Ayol":5411,"Ġustun":5412,"Ġishonchli":5413,"Ġrusumli":5414,"ilganini":5415,"Ġkerakligi":5416,"rsatki":5417,"Ġyaxshilaydi":5418,"Ġmexan":5419,"Ġmakiyaj":5420,"ĠXiaomi":5421,"Ġyubordi":5422,"Ġmulk":5423,"Ġkelishib":5424,"imiy":5425,"ensi":5426,"Ġkunduz":5427,"ĠBol":5428,"ĠBob":5429,"Ġnomidagi":5430,"Ġnamun":5431,"Ġfarmon":5432,"Ġmuassasalari":5433,"Ġeski":5434,"Ġinfeksiyasini":5435,"Ġaeroporti":5436,"Ġmuolaja":5437,"ika":5438,"essional":5439,"Ġqarshilik":5440,"Ġimtiyoz":5441,"Ġreklama":5442,"Muz":5443,"ÑĤ":5444,"Ġbev":5445,"Ġmakt":5446,"Ġsa":5447,"ĠKam":5448,"ĠQar":5449,"Ġxodimlarining":5450,"Ġketgani":5451,"zgarishi":5452,"Ġbosib":5453,"Ġdarak":5454,"Ġtajriba":5455,"baho":5456,"ĠĠ":5457,"erni":5458,"Ġmatbuoti":5459,"Ġshou":5460,"Ġchaqaloq":5461,"mos":5462,"2022":5463,"ĠLe":5464,"Ġxalos":5465,"Ġkurashda":5466,"onistondagi":5467,"Ġtasdiqladi":5468,"sasi":5469,"sev":5470,"lana":5471,"Ġkechik":5472,"ĠGrazia":5473,"eyk":5474,"Ġminglab":5475,"Ġsurati":5476,"Ġishni":5477,"adro":5478,"Ġfoizini":5479,"Ġtezda":5480,"Ġvaziyatda":5481,"Ġnoqulay":5482,"ĠAirways":5483,"ziya":5484,"Ġsinf":5485,"Ġsavolga":5486,"Ġresurs":5487,"taj":5488,"Ġboshdan":5489,"dent":5490,"Ġkasalxonaga":5491,"Ġ54":5492,"Ġ44":5493,"Ġmuhit":5494,"Ġsotish":5495,"lantiruvchi":5496,"ldirish":5497,"Ġoktabr":5498,"Ġkengaytirish":5499,"eda":5500,"Ġxab":5501,"Ġishlaydi":5502,"Ġchip":5503,"simal":5504,"Hay":5505,"Ġboshqarish":5506,"Ġaytgandi":5507,"Ġeksper":5508,"Fran":5509,"faks":5510,"tirdi":5511,"Ġ47":5512,"Ġaralashtiring":5513,"biz":5514,"iyasini":5515,"erv":5516,"odatiy":5517,"Ġkonsert":5518,"Odam":5519,"St":5520,"lor":5521,"Ġusk":5522,"ĠKong":5523,"Ġ49":5524,"Ġtakomil":5525,"imizga":5526,"Ġfevral":5527,"ĠTIV":5528,"rtta":5529,"Ġqatlam":5530,"Ġhuquqlari":5531,"Ġ250":5532,"Ġatigi":5533,"umanitar":5534,"Afg":5535,"Namangan":5536,"kum":5537,"shun":5538,"Ġxush":5539,"ĠMax":5540,"rsatkichi":5541,"Huj":5542,"Ġishlangan":5543,"Ġisit":5544,"iyatini":5545,"Ġreanim":5546,"Ġoshirishga":5547,"xonalar":5548,"Ġozodlikdan":5549,"Ġplastik":5550,"Ġgiper":5551,"Ġtarafdor":5552,"last":5553,"ohir":5554,"Ġgav":5555,"Ġkechish":5556,"Ġajratilgan":5557,"Ġyetarlicha":5558,"Ġepidemiya":5559,"Ġtariqasida":5560,"Ġtashabbus":5561,"fa":5562,"ix":5563,"ped":5564,"yun":5565,"âĢĿ)":5566,"eter":5567,"Ġ55":5568,"Ġuyga":5569,"Ġsuratlari":5570,"Ġkuzati":5571,"Kam":5572,"shilgan":5573,"Ġyara":5574,"alok":5575,"Ġviloyatda":5576,"Ġtortib":5577,"ne":5578,"ruh":5579,"anaviy":5580,"ovaning":5581,"Ġhaqiqatan":5582,"Ġkalsiy":5583,"qishga":5584,"ans":5585,"lgandi":5586,"Ġyaxshilash":5587,"Ġulkan":5588,"ilonzor":5589,"ĠBerdimuhamedov":5590,"AA":5591,"Ġlit":5592,"Ġyey":5593,"Ġvoyaga":5594,"Ġishla":5595,"rsatma":5596,"Ġharbiylari":5597,"ĠChen":5598,"Ġpoytax":5599,"Ġmineral":5600,"Ġvoqealar":5601,"Ġsalomatlik":5602,"Ġaziyat":5603,"Ġqilishini":5604,"Ġbarpo":5605,"rtinchi":5606,"Ġarti":5607,"Ġizoly":5608,"Ġkiyimlar":5609,"Ġxonim":5610,"JSST":5611,"rmon":5612,"iyog":5613,"Ġbosi":5614,"Ġurinish":5615,"Ġfilmidagi":5616,"Ġ2016":5617,"Ġcharchoq":5618,"Interfaks":5619,"Ġdiqqat":5620,"Jumladan":5621,"Ġkv":5622,"ĠTom":5623,"Ġturi":5624,"Ġishtirokidagi":5625,"ĠKanada":5626,"Say":5627,"Ġkeksa":5628,"Ġsaqlanib":5629,"xtiy":5630,"Ġsariyog":5631,"Ġbizga":5632,"Ġbuzgan":5633,"Ġaloqador":5634,"ĠTesla":5635,"Ġfakt":5636,"Ġbermagan":5637,"Ġcharter":5638,"Ġqurilgan":5639,"Ġegasi":5640,"pr":5641,"gaz":5642,"lansa":5643,"ĠFin":5644,"ĠLiv":5645,"darmon":5646,"Ġodatda":5647,"Ġmusiqa":5648,"ishidan":5649,"ĠRob":5650,"ĠShoh":5651,"Ġkasallikni":5652,"Ġtavsiyalar":5653,"Ðµ":5654,"Ġtal":5655,"ĠBar":5656,"stlik":5657,"Ġbuyrak":5658,"Ġaholiga":5659,"Ġmuammolarni":5660,"Ġfoydalanishni":5661,"Ġmuassasalarida":5662,"Ġtortish":5663,"strat":5664,"Ġtaqsim":5665,"Ġichak":5666,"Ġyozilgan":5667,"Ġbelgilandi":5668,"Ġxatti":5669,"Ġprots":5670,"IM":5671,"Tok":5672,"ĠSuriya":5673,"Ġkafolat":5674,"bag":5675,"lod":5676,"Ġharbiylar":5677,"Ġturmushga":5678,"elosiped":5679,"Tramp":5680,"Ġkif":5681,"rika":5682,"ĠToshkentdagi":5683,"Ġshifokorga":5684,"Eron":5685,"tepa":5686,"umiy":5687,"shig":5688,"illiq":5689,"Ġdastlab":5690,"Ġfondi":5691,"Ġprognoz":5692,"Ġuchib":5693,"aver":5694,"enta":5695,"Ġtarqa":5696,"Ġdolzarb":5697,"minlaydi":5698,"Ġdavolanish":5699,"sung":5700,"Ġkifoya":5701,"Ġssenariy":5702,"Ġbod":5703,"asul":5704,"riladi":5705,"Ġqaytib":5706,"Ġhamkorlikni":5707,"ph":5708,"lav":5709,"Ġuchir":5710,"Ġtayyorligini":5711,"qinlik":5712,"Ġshtamm":5713,"Go":5714,"Kim":5715,"lsangiz":5716,"okiston":5717,"ĠBr":5718,"ukum":5719,"ĠGul":5720,"ĠEs":5721,"ĠLo":5722,"Ġkutilmagan":5723,"Ġdarajadagi":5724,"shiladi":5725,"Ġfol":5726,"tirishga":5727,"oja":5728,"Ġmast":5729,"Ġjavoban":5730,"ChJ":5731,"lantiradi":5732,"Ġraqob":5733,"Ġmushak":5734,"Ġbrend":5735,"Or":5736,"land":5737,"ĠMon":5738,"Ġolganda":5739,"Ġaksincha":5740,"Ġmashhurlikka":5741,"Ġhududidan":5742,"qim":5743,"iyoz":5744,"tiboringizga":5745,"nalishida":5746,"NN":5747,"cetti":5748,"Ġgr":5749,"Ġsifatli":5750,"Afsuski":5751,"Kompaniya":5752,"jel":5753,"ilg":5754,"Ġyadro":5755,"ugur":5756,"Aslida":5757,"Ġkislorod":5758,"transport":5759,"giy":5760,"lmoqda":5761,"sho":5762,"del":5763,"ibir":5764,"Ġaylanadi":5765,"Ġtushadi":5766,"Ġmuxlislar":5767,"Ġprofilaktika":5768,"shing":5769,"Ġfotos":5770,"arif":5771,"tkazishga":5772,"ĠBuxoroda":5773,"The":5774,"tirof":5775,"Ġboricha":5776,"Hozirgi":5777,"ĠFer":5778,"Ġatrofidagi":5779,"ĠAndijonda":5780,"Ġmintaqa":5781,"qani":5782,"Ġmoda":5783,"Ġsektor":5784,"ashina":5785,"Ġhududlar":5786,"Ġavtomobillar":5787,"Ġqalampir":5788,"ektar":5789,"Ġder":5790,"Ġgripp":5791,"Ġgacha":5792,"Ġsayr":5793,"Ġtomondan":5794,"Ġoxirigacha":5795,"Belarus":5796,"rilgan":5797,"Ġtashuvchi":5798,"ĠGala":5799,"Ġuyida":5800,"Ġolingani":5801,"Ġiqlim":5802,"Ġshtabi":5803,"imaga":5804,"Ġsharq":5805,"Ġsoxta":5806,"Ġmunosabatlar":5807,"shunos":5808,"sik":5809,"Ġpozit":5810,"Ġmarhum":5811,"Ġayolning":5812,"Ġviloyatlarida":5813,"Ġyegu":5814,"Ġfarzandlari":5815,"Ġsinovdan":5816,"letchat":5817,"dod":5818,"ratsiya":5819,"Ġbila":5820,"Ġyillarda":5821,"skaya":5822,"Ġyopiq":5823,"Ġaksariyati":5824,"Ġspirtli":5825,"Ġeri":5826,"omobil":5827,"Ġfax":5828,"Ġolma":5829,"ĠIspaniya":5830,"Ġ59":5831,"Ġmunosabatlari":5832,"Ġavtomashina":5833,"Ġkiritdi":5834,"Ġenergiyasi":5835,"ĠUlug":5836,"Ġbevosita":5837,"io":5838,"ĠMChJ":5839,"Ġgektar":5840,"Ġqilishdan":5841,"mita":5842,"ĠLifehacker":5843,"egik":5844,"Ġyalp":5845,"Ġishini":5846,"Ġaylanib":5847,"rganizm":5848,"Ġmurab":5849,"Ġshuncha":5850,"Ġnimalar":5851,"irusi":5852,"Ġqilsa":5853,"Ġikkala":5854,"ĠToshkentga":5855,"uxum":5856,"Ġmana":5857,"ein":5858,"lomat":5859,"arbiy":5860,"asa":5861,"tali":5862,"Ġtizimiga":5863,"Ġmuxolif":5864,"Qashqadaryo":5865,"Ġsababchi":5866,"Ġ53":5867,"pace":5868,"rossov":5869,"Ġmintaqaviy":5870,"asaddi":5871,"bayev":5872,"kul":5873,"krin":5874,"ishning":5875,"Ġdaf":5876,"Ġ42":5877,"Ġingliz":5878,"Ġhaddan":5879,"Ġholatga":5880,"iyunda":5881,"Ġmunosabatda":5882,"Ġtarixi":5883,"der":5884,"chada":5885,"Ġkema":5886,"osan":5887,"ĠIk":5888,"Ġqurilishi":5889,"Ġtuzilgan":5890,"Ġvaziyatlar":5891,"Ġinspektori":5892,"Ġshoshilinch":5893,"Jo":5894,"fan":5895,"atining":5896,"osining":5897,"Ġdah":5898,"ĠToy":5899,"monov":5900,"Ġoldingi":5901,"Ġbahor":5902,"ĠUkrainaning":5903,"Ġqavatli":5904,"Ġfuqarolarni":5905,"arder":5906,"mirlash":5907,"ĠUsmonova":5908,"ĠLacetti":5909,"Ġyomg":5910,"Ġishlati":5911,"Ġfuqarolarga":5912,"Ġyonida":5913,"Ġbosimi":5914,"yod":5915,"Ġxizmatlar":5916,"esterin":5917,"Ġmaslahatchisi":5918,"Ġmevalar":5919,"Ġbuyurtma":5920,"vorog":5921,"Ġsabzavotlar":5922,"Ġdezinfeksiya":5923,"Mak":5924,"Odat":5925,"Ġsuvga":5926,"Ġaytish":5927,"Buxoro":5928,"ret":5929,"uriy":5930,"Ġpaxta":5931,"Ġmasalalar":5932,"Ġayblov":5933,"Tadqiqot":5934,"ennifer":5935,"pur":5936,"ua":5937,"Ġetishni":5938,"ĠYunus":5939,"Ġxulosa":5940,"ĠUkrainada":5941,"ĠUzAuto":5942,"nam":5943,"Ġir":5944,"Ġbet":5945,"Ġtarg":5946,"Ġmarosi":5947,"tiladi":5948,"ĠYe":5949,"ralgan":5950,"Ġxaraj":5951,"Ġxarajat":5952,"Ġprovin":5953,"Ġash":5954,"Ġqad":5955,"ilganda":5956,"ĠKXDR":5957,"ikTok":5958,"onalar":5959,"Ġjarroh":5960,"Ġkuzatildi":5961,"Ġtopshirgan":5962,"Ġahvolda":5963,"lyan":5964,"Ġbilim":5965,"Ġishlarni":5966,"ĠJam":5967,"Ġmarkazlari":5968,"ĠWday":5969,"tomir":5970,"xy":5971,"Ġuchragan":5972,"Ġ57":5973,"Ġostidagi":5974,"Ġaytilishicha":5975,"sqinlik":5976,"lidan":5977,"tiruvchi":5978,"uvchan":5979,"Ġhisoblash":5980,"iyuldan":5981,"Ġtushirilgan":5982,"Ġhajm":5983,"Ġsuyuqlik":5984,"ardoba":5985,"May":5986,"ach":5987,"los":5988,"rist":5989,"rux":5990,"ritaniya":5991,"qonsimon":5992,"Ġyondash":5993,"Ġpoytaxti":5994,"Suv":5995,"Ġhash":5996,"amin":5997,"Ġrub":5998,"ĠIl":5999,"ishloq":6000,"Ġsil":6001,"ayib":6002,"Ġresp":6003,"Ġbergani":6004,"Ġavlod":6005,"Ġoshishi":6006,"Ġmaqom":6007,"Ġsotuvga":6008,"Ġaktyorlar":6009,"Ġmansabdor":6010,"Farg":6011,"Ġben":6012,"Ġzarba":6013,"Ġstav":6014,"Ġvelosiped":6015,"ĠIlon":6016,"Ġrahbariyati":6017,"Ġkosmetik":6018,"lasa":6019,"Ġkof":6020,"Ġsharb":6021,"ĠBah":6022,"Ġfoydalanib":6023,"Ġqilinadigan":6024,"Amerika":6025,"Markaziy":6026,"Ġshirinlik":6027,"Butun":6028,"Yaqin":6029,"elektor":6030,"ĠUy":6031,"Ġyarash":6032,"Ġtalabalar":6033,"Ġfilmlar":6034,"Ġkimyoviy":6035,"Ġbajarish":6036,"Ek":6037,"Hatto":6038,"co":6039,"ĠAJ":6040,"Ġsamoly":6041,"Ġvaksinalar":6042,"Ġhaft":6043,"Ayniqsa":6044,"Ġamaliyot":6045,"Ġkuchaytirish":6046,"Quyida":6047,"Ġdiniy":6048,"Ġdiplomatik":6049,"FP":6050,"drom":6051,"Ġjoyladi":6052,"Ġdavrda":6053,"Ġsochlar":6054,"tka":6055,"iyasining":6056,"Ġtaf":6057,"Ġvositalarini":6058,"Qay":6059,"Sar":6060,"Ġvatan":6061,"oyasi":6062,"Ġxitoy":6063,"ĠDamas":6064,"Ġ63":6065,"Ġxodimlar":6066,"ursand":6067,"Ġanjuman":6068,"Tez":6069,"klar":6070,"tiriladi":6071,"ĠXo":6072,"empi":6073,"mand":6074,"jonov":6075,"Instagram":6076,"Ġmuddatli":6077,"Ġimkoniyatini":6078,"Ġsari":6079,"ote":6080,"Ġuchra":6081,"Ġ120":6082,"ĠNew":6083,"Ġodamlarga":6084,"Ġistalgan":6085,"2018":6086,"Ġimzoladi":6087,"Yuz":6088,"yog":6089,"zA":6090,"ativ":6091,"ĠOb":6092,"Ġkasalxona":6093,"Ġ197":6094,"Ġshahridan":6095,"Ġtarkibiga":6096,"Ġnarsalar":6097,"ĠQurolli":6098,"BC":6099,"Ġqosh":6100,"Ġ58":6101,"Ġmarka":6102,"Ġaniqlangani":6103,"Ġvitse":6104,"Ġraqamli":6105,"Ġoi":6106,"Ġerit":6107,"Ġbelgisi":6108,"Ġfilmda":6109,"ijoz":6110,"onunchilik":6111,"Ġsuper":6112,"Katta":6113,"toni":6114,"xat":6115,"lagi":6116,"larsiz":6117,"Ġborishi":6118,"Ġchiqishga":6119,"Ġamaldor":6120,"andemiya":6121,"Ġmuhokam":6122,"Ġsoling":6123,"Ġaviakompan":6124,"Ġmutlaqo":6125,"ddin":6126,"niya":6127,"yadi":6128,"atlarini":6129,"ekshir":6130,"radan":6131,"ital":6132,"maymiz":6133,"ĠJek":6134,"Ġ56":6135,"lantirishga":6136,"Ġorganizmga":6137,"Ġpasaytir":6138,"Ġzahar":6139,"Ġmaskan":6140,"Ġyangilik":6141,"Ġmunosib":6142,"Ġdaqiqaga":6143,"Ġyakuniga":6144,"Ġpechda":6145,"Ġjavobgarlikka":6146,"Hech":6147,"Ġhind":6148,"otik":6149,"Ġhamisha":6150,"Ġimp":6151,"Ġkeltirgan":6152,"Ġurug":6153,"Ġhayotda":6154,"Ġraqib":6155,"Ġoyidan":6156,"ĠQashqadaryoda":6157,"Ġijodkor":6158,"Ġmarosimi":6159,"Ġmala":6160,"Ġtushish":6161,"maslikni":6162,"Ġmashhurlar":6163,"xtatib":6164,"Ġqandli":6165,"45":6166,"yar":6167,"Ġbloger":6168,"Ġbera":6169,"Ġprezidentining":6170,"Inson":6171,"Ġtarqalishiga":6172,"Ġmuxlislari":6173,"Ġnoodatiy":6174,"Ġqimmatbaho":6175,"ĠQodirov":6176,"Er":6177,"Ġettirish":6178,"Ġjoyiga":6179,"Ġishtirokchi":6180,"payib":6181,"Ġbayonotida":6182,"Ġkompaniyasining":6183,"Ġmamlakatlarda":6184,"Ġbildirib":6185,"Ġlaboratoriya":6186,"moli":6187,"mers":6188,"Ġyaq":6189,"des":6190,"Ġjuma":6191,"Ġbirlash":6192,"Ġvaqtning":6193,"Ġyozuv":6194,"Ġorganizmni":6195,"ĠArabistoni":6196,"archilik":6197,"alol":6198,"ĠBloomberg":6199,"ĠSu":6200,"Ġdavri":6201,"ĠKobul":6202,"Ġshaxslarga":6203,"Ġshaklda":6204,"Ġziyorat":6205,"ĠOrtiq":6206,"Qora":6207,"Sud":6208,"lcham":6209,"zatsiya":6210,"lamagan":6211,"Ġuchast":6212,"Ġhisoblaydi":6213,"Ġbahs":6214,"Ġqoldirgan":6215,"Ġqirollik":6216,"mersant":6217,"Ab":6218,"Ñģ":6219,"ĠKomil":6220,"rop":6221,"Ġkirishi":6222,"ĠLondon":6223,"ĠVideo":6224,"Ġ600":6225,"Ġ73":6226,"Ġegallagan":6227,"Kommersant":6228,"Qan":6229,"orj":6230,"ĠRed":6231,"ĠPress":6232,"Ġ66":6233,"Ġomil":6234,"Ġaybdor":6235,"Ġkomissiyasining":6236,"Ya":6237,"lning":6238,"uqaro":6239,"Ġolayotgan":6240,"obili":6241,"avodi":6242,"Ġtirnoq":6243,"Va":6244,"amp":6245,"Ġxursand":6246,"ĠAsh":6247,"ĠBek":6248,"Ġyashaydi":6249,"Ġquti":6250,"Ġbudjeti":6251,"Ġtamom":6252,"Gazeta":6253,"eterburg":6254,"Ġteatr":6255,"Ġtopildi":6256,"Ġvideos":6257,"Ġchap":6258,"Ġsonini":6259,"Ġtelekanal":6260,"aniyaning":6261,"Ġularda":6262,"Ġdok":6263,"Ġoydan":6264,"Ġ77":6265,"Ġelektromobil":6266,"Ġkompyut":6267,"ashinyan":6268,"Ġziravorlar":6269,"Ġkungacha":6270,"Ġbug":6271,"Ġturar":6272,"Ġqurolli":6273,"Ġxodimlariga":6274,"Ġbinoan":6275,"Ġfarqli":6276,"Ġsolinadi":6277,"Ġpaket":6278,"gent":6279,"gandan":6280,"lashdan":6281,"Ġhamm":6282,"Ġdron":6283,"arij":6284,"Ġasal":6285,"ĠFed":6286,"Ġqolgani":6287,"rinbosar":6288,"Ġhamshir":6289,"ĠAt":6290,"Nash":6291,"ako":6292,"ukus":6293,"Ġrasmiylari":6294,"Ġbaxtli":6295,"Ġkelajakda":6296,"sning":6297,"Ġqodir":6298,"Ġjoyga":6299,"Ġjangari":6300,"Ġretsept":6301,"Ġtasvirlangan":6302,"armasi":6303,"ittifoq":6304,"Ġishlaydigan":6305,"olida":6306,"ĠKol":6307,"Ġmening":6308,"lyatsiya":6309,"Asosiy":6310,"Ġbolaning":6311,"Ġshov":6312,"Ġolganlar":6313,"Ġmega":6314,"tarilgan":6315,"ĠQurbon":6316,"ilit":6317,"lganligi":6318,"Ġkamera":6319,"Ġzarb":6320,"sirini":6321,"Ġtutish":6322,"Ġkompaniyalari":6323,"Ġmaksimal":6324,"Ġyuridik":6325,"Ġqilinib":6326,"ĠOTM":6327,"Ġ196":6328,"larimizni":6329,"Ġnormal":6330,"Em":6331,"plangan":6332,"smir":6333,"Ġkletchat":6334,"ondent":6335,"oris":6336,"oliq":6337,"ĠShvetsiya":6338,"Ġ72":6339,"Ġloyihasini":6340,"onistonda":6341,"Ġprofessional":6342,"Ġtransp":6343,"Ġdiplomat":6344,"qqiz":6345,"usn":6346,"Ġzavodi":6347,"ichkin":6348,"ĠMirziyoyevning":6349,"Ġmehn":6350,"Ġbuyurgan":6351,"Ġidorasi":6352,"Ġtariqa":6353,"ĠKenga":6354,"Ġradi":6355,"Ġqurb":6356,"Ġsinab":6357,"Ġvazifasi":6358,"bass":6359,"Ġgvar":6360,"Ġekst":6361,"korlik":6362,"Ġkechgan":6363,"ĠKarimov":6364,"novatsion":6365,"Ġshubh":6366,"ilmasa":6367,"Ġxiy":6368,"axshi":6369,"Ġzanj":6370,"Ġdarajaga":6371,"Tadbir":6372,"maga":6373,"Ġholatni":6374,"Ġkaltak":6375,"Ġuchrashuvda":6376,"qqa":6377,"ten":6378,"yini":6379,"Ġmijoz":6380,"ĠOy":6381,"Ġyoshgacha":6382,"Ġvaziyatga":6383,"Ġkont":6384,"Ġpasayishi":6385,"Yevropa":6386,"Ġqotil":6387,"Oskar":6388,"latadi":6389,"Ġbermaydi":6390,"Ġtob":6391,"Ġbaribir":6392,"Ġtadbirlari":6393,"Ġishlatish":6394,"arx":6395,"ira":6396,"adal":6397,"Ġbarmoq":6398,"ĠZo":6399,"Ġqiymat":6400,"yxatiga":6401,"AQShning":6402,"Moskva":6403,"Ġbrifingda":6404,"Yulduz":6405,"tov":6406,"ĠTog":6407,"Ġhayrat":6408,"Ġkuzatuv":6409,"lyuk":6410,"Ġyotoq":6411,"Ġburun":6412,"Ġquloq":6413,"Ġxabariga":6414,"Ġsharbati":6415,"zlarini":6416,"inni":6417,"aqti":6418,"ĠDmit":6419,"Ġmassa":6420,"Ġsizga":6421,"2017":6422,"Ġmetab":6423,"Ġrejimi":6424,"Ġinspektor":6425,"Ġruhiy":6426,"Yig":6427,"boyev":6428,"Ġavj":6429,"Ġchiqargan":6430,"kidlab":6431,"Ġxavfsizligini":6432,"Ġkimga":6433,"Ġdirektor":6434,"Ġsumka":6435,"Ġshtammi":6436,"Ġxolesterin":6437,"Ah":6438,"idi":6439,"eksiyasi":6440,"ĠBen":6441,"yildagi":6442,"ĠSht":6443,"Ġoshirilishi":6444,"Ġbemorlarni":6445,"Ġyechim":6446,"Ġmutaxassislari":6447,"Ġqilaman":6448,"Ġmagniy":6449,"Ġstrategik":6450,"ken":6451,"Ġaniqladi":6452,"Ġoshirgan":6453,"minot":6454,"Ġemasligi":6455,"Ġtalablariga":6456,"Ġvideoni":6457,"Ġtopshirish":6458,"ĠMegan":6459,"Ġtaga":6460,"Ġkambag":6461,"Ġ97":6462,"Ġtekis":6463,"Ġmutasaddi":6464,"Umuman":6465,"masida":6466,"nlab":6467,"lajak":6468,"onning":6469,"asmiy":6470,"uvor":6471,"okori":6472,"ĠGu":6473,"ĠRossiyadan":6474,"Ġkarantinda":6475,"Ġsudga":6476,"iyundan":6477,"Shah":6478,"Ġortib":6479,"Ġketma":6480,"Ġavtomobili":6481,"xshaydi":6482,"Ġtashxis":6483,"valiga":6484,"Ġshubha":6485,"Viloyat":6486,"German":6487,"dasi":6488,"mada":6489,"red":6490,"oliz":6491,"ĠDa":6492,"ider":6493,"Ġsaroy":6494,"Ġombor":6495,"ĠMakron":6496,"Qizil":6497,"Ġdozasi":6498,"Ke":6499,"Ġnus":6500,"Ġbilib":6501,"Ġkoronav":6502,"ĠQrim":6503,"satdan":6504,"Ġsabablari":6505,"ĠShar":6506,"Ġoyda":6507,"Ġunchalik":6508,"Ġ85":6509,"Ġurushi":6510,"Ġnega":6511,"Ġjazosi":6512,"ufuz":6513,"zlab":6514,"Ġvah":6515,"ĠAmir":6516,"Ġbuzish":6517,"Ġochish":6518,"Ġprokuror":6519,"Ġmexanizm":6520,"Ġmish":6521,"ĠTikTok":6522,"stlar":6523,"iktor":6524,"Ġaholisining":6525,"xtatilgan":6526,"Ġbosqichma":6527,"Ġoralig":6528,"Ġelchixonasi":6529,"ĠMaykl":6530,"ĠQarshi":6531,"Ġraqobat":6532,"med":6533,"uga":6534,"atilib":6535,"talar":6536,"yilgacha":6537,"echak":6538,"Ġqiyof":6539,"tifik":6540,"Ġmikro":6541,"Ġtrans":6542,"lqop":6543,"Ġvideoselektor":6544,"fx":6545,"Shahar":6546,"ĠMun":6547,"lganda":6548,"Ġetilmoqda":6549,"ogen":6550,"ĠDep":6551,"ĠJan":6552,"Ġshifokori":6553,"Ġshunchalik":6554,"Ġbandi":6555,"Ġustuvor":6556,"Ġtadbirkorlik":6557,"paceX":6558,"Nashr":6559,"Ġotish":6560,"Ġochib":6561,"daniyat":6562,"Ġqayn":6563,"Ġlitr":6564,"Hindiston":6565,"illa":6566,"Ġyurt":6567,"minoti":6568,"aytun":6569,"Ġvirusning":6570,"Ġetadigan":6571,"Ġustoz":6572,"Ġmojaro":6573,"avfsizlik":6574,"Ġmarkaziga":6575,"Jam":6576,"KA":6577,"Kon":6578,"Rossiyaning":6579,"bob":6580,"qotgan":6581,"ĠAx":6582,"tkazadi":6583,"Ġimkoni":6584,"Ġ61":6585,"Ġnomlangan":6586,"obalt":6587,"Ġasoratlaridan":6588,"Ġalomatlari":6589,"Mis":6590,"lerg":6591,"imga":6592,"Ġhaqorat":6593,"Ġqilinayotgan":6594,"Ġmuddatda":6595,"ĠBritaniyada":6596,"Ġzavod":6597,"Ġminimal":6598,"irchiq":6599,"dani":6600,"ĠAFP":6601,"elin":6602,"ĠGur":6603,"ĠQonunchilik":6604,"Ġkombin":6605,"Ð¾Ð":6606,"Peterburg":6607,"ilzila":6608,"Ġberishini":6609,"Ġhududidagi":6610,"Ġerkaklar":6611,"Ġrejalashtirmoqda":6612,"COVID":6613,"Sal":6614,"Virus":6615,"masidan":6616,"Ġtij":6617,"Ġajralib":6618,"Ġomad":6619,"Ġjanub":6620,"ĠMan":6621,"Ġtanqis":6622,"Ġkuti":6623,"Ġdeyish":6624,"imizning":6625,"Hukum":6626,"bes":6627,"Ġpol":6628,"evr":6629,"Ġgub":6630,"Ġkeyinroq":6631,"Ġavtomashin":6632,"ĠCosmopolitanFoto":6633,"Ġnuqt":6634,"ĠPolsha":6635,"Ġkommunikatsiya":6636,"kol":6637,"piya":6638,"qay":6639,"tilgan":6640,"Ġviz":6641,"siyada":6642,"kins":6643,"ĠPokiston":6644,"Ġqayerda":6645,"Ġdisp":6646,"ĠAbdur":6647,"ĠGalaxy":6648,"atsiyani":6649,"asta":6650,"Ġbelgilab":6651,"ĠChilonzor":6652,"Odatda":6653,"90":6654,"hod":6655,"qima":6656,"ariya":6657,"Ġnogir":6658,"Ġnufuz":6659,"Ġdegani":6660,"eys":6661,"Ġloyihalar":6662,"Ġlavozimidan":6663,"ĠAnd":6664,"Ġoyiga":6665,"Ġantitan":6666,"Ġxolos":6667,"rlik":6668,"aron":6669,"chil":6670,"afsil":6671,"ubay":6672,"Ġprofilaktik":6673,"Ġtizimida":6674,"ustam":6675,"yxati":6676,"Ġbostirib":6677,"Ġkomissiya":6678,"Ġdeputat":6679,"Ġqurbonlari":6680,"Ġlayfx":6681,"ĠBraziliya":6682,"ĠJey":6683,"Ġdollari":6684,"Ġsaloh":6685,"Ġtashkilotlari":6686,"Ġsolingan":6687,"Ġbinosi":6688,"ku":6689,"liklarning":6690,"Ġpora":6691,"oshlar":6692,"maganini":6693,"Ġchiqarishi":6694,"Ġ2014":6695,"Ġsahna":6696,"Co":6697,"Ġuchrat":6698,"Ġberilmagan":6699,"Ġyuqtirgan":6700,"Ġ2015":6701,"onistondan":6702,"ĠRespublikasida":6703,"ĠTayvan":6704,"Milliy":6705,"Ġketib":6706,"ĠMoliya":6707,"ligicha":6708,"Ġolmadi":6709,"Ġjoyi":6710,"kidlaydi":6711,"rashuv":6712,"Ġfoydalaning":6713,"Ġvakillarining":6714,"Ġqisqartirish":6715,"Ġniyatida":6716,"Pandemiya":6717,"tah":6718,"Ġpog":6719,"Ġhojat":6720,"Ġbergandi":6721,"matsev":6722,"Ġdoimo":6723,"ĠBaydenning":6724,"tadbirlari":6725,"ĠJonson":6726,"Oxir":6727,"Tom":6728,"Yapon":6729,"Ġadolat":6730,"ĠUch":6731,"Ġtanlagan":6732,"Ġboshqacha":6733,"zgarib":6734,"ologlar":6735,"ldirib":6736,"arderob":6737,"35":6738,"zoy":6739,"Ġsolig":6740,"ĠTurkiyaning":6741,"arbar":6742,"Ġtungi":6743,"Ġsavdosi":6744,"vok":6745,"Ġvan":6746,"erning":6747,"aka":6748,"Ġtok":6749,"Ġmamlakatni":6750,"Ġgapirib":6751,"Ġqaytarib":6752,"Ġkolle":6753,"Ġgapirdi":6754,"Ġahamiyatga":6755,"ziqor":6756,"Ġtransporti":6757,"Loyih":6758,"Nima":6759,"kaning":6760,"Ġbildi":6761,"Ġvat":6762,"obel":6763,"ĠTa":6764,"Ġoqim":6765,"Ġetilgani":6766,"Undan":6767,"Karantin":6768,"ynagan":6769,"Holat":6770,"Vaz":6771,"Ġmot":6772,"laricha":6773,"olgan":6774,"Ġjadal":6775,"kong":6776,"Ġ95":6777,"Ġatagan":6778,"Oliy":6779,"eop":6780,"lli":6781,"llagan":6782,"dil":6783,"ĠAli":6784,"ĠIroq":6785,"Ġholatini":6786,"Ġtikilgan":6787,"aliyev":6788,"lashgani":6789,"opkins":6790,"Ġnomin":6791,"Ġajratib":6792,"Ġtaqiqlangan":6793,"Respublika":6794,"ĠDmitriy":6795,"oki":6796,"Ġtat":6797,"ĠJap":6798,"Ġkerakki":6799,"Ġakt":6800,"Ġ41":6801,"ĠVen":6802,"Ġfoizgacha":6803,"Ġqandaydir":6804,"Meh":6805,"Ġasoslanib":6806,"Ġnatijasi":6807,"Ġinfeksiyasining":6808,"ĠSherzod":6809,"Ġfiliali":6810,"Dav":6811,"sekin":6812,"Ġqomat":6813,"asan":6814,"ĠNar":6815,"ĠCobalt":6816,"emb":6817,"Ġ67":6818,"ujet":6819,"Ġelement":6820,"Ġavvalo":6821,"Ġgavda":6822,"abbat":6823,"Ġaudi":6824,"Ġodamning":6825,"Ġtezlikda":6826,"Ayrim":6827,"xanov":6828,"Ġistagan":6829,"37":6830,"Im":6831,"Ġixtiy":6832,"ĠYork":6833,"Ġsaboq":6834,"ĠQosim":6835,"Ġyaqinidagi":6836,"ĠTurkiyada":6837,"Buni":6838,"essuar":6839,"Koronavirusga":6840,"Ġantioksidant":6841,"Ġmusobaq":6842,"Ġklas":6843,"ĠTi":6844,"Ġhaqi":6845,"Ġbordi":6846,"Ġchiqindi":6847,"Ġobra":6848,"Ġyakka":6849,"Ġalmashtirish":6850,"ziy":6851,"Ġtorti":6852,"ĠRiz":6853,"Ġukraina":6854,"Ġbirining":6855,"ĠTrav":6856,"Ġorasidagi":6857,"ĠLit":6858,"Ġtizimining":6859,"Ġkuzatilishi":6860,"Ġmasalasini":6861,"Rossiyada":6862,"Ġkompaniyalar":6863,"Ġbuyurdi":6864,"99":6865,"Ularni":6866,"imon":6867,"Ġmuqa":6868,"Ġjamiyati":6869,"Ġ700":6870,"Ġasossiz":6871,"Ġterisi":6872,"Ġc":6873,"Ġbaq":6874,"Ġkrossov":6875,"Ġyel":6876,"ĠBAA":6877,"ĠSamsung":6878,"rishga":6879,"zingiz":6880,"lararo":6881,"irator":6882,"unar":6883,"Ġturadigan":6884,"Ġqilganini":6885,"Ġyashil":6886,"Ġetiladigan":6887,"shiqchi":6888,"Ġsahn":6889,"Ġmajburiyat":6890,"llanilgan":6891,"Ġidishga":6892,"Ġmillat":6893,"Ġdahsh":6894,"Ġhamroh":6895,"Ġgumanitar":6896,"ĠIm":6897,"rsatishi":6898,"Ġaraf":6899,"apreldan":6900,"Ġyiliga":6901,"Ġdushman":6902,"jiz":6903,"kel":6904,"chasiga":6905,"chirib":6906,"lashda":6907,"Ġkuchga":6908,"ĠXitoydan":6909,"Ġmuassasa":6910,"ĠNASA":6911,"Uchrashuv":6912,"ĠMinsk":6913,"Ġjas":6914,"elsin":6915,"Ġetgandi":6916,"Ġreal":6917,"Ġqizar":6918,"Ġajr":6919,"Ġkechishi":6920,"Ġvert":6921,"oqlar":6922,"ĠUmar":6923,"Ġkampan":6924,"Ġetganini":6925,"Ġminnatdor":6926,"Ġxoli":6927,"ozlik":6928,"ĠBel":6929,"ĠGarri":6930,"rinishda":6931,"Ġqizning":6932,"Ġmiqdordagi":6933,"Ġajratish":6934,"Ġalmashin":6935,"Ġsharbat":6936,"ĠAvstraliya":6937,"Ġislohot":6938,"lqini":6939,"tasham":6940,"Ġbatafsil":6941,"Ġbilgan":6942,"omiy":6943,"Ġxala":6944,"Ġetilmagan":6945,"Ġkiri":6946,"xtab":6947,"Ġtugat":6948,"aksina":6949,"ĠKapur":6950,"Ġyutuq":6951,"Poy":6952,"fet":6953,"giya":6954,"jan":6955,"onkong":6956,"zik":6957,"Ġchempi":6958,"Ġchiqqani":6959,"gunga":6960,"Ġnatijada":6961,"Ġhavoda":6962,"Ġprotsess":6963,"ĠPashinyan":6964,"ĠJen":6965,"Ġ52":6966,"Ġmanzil":6967,"Dastlabki":6968,"Mashhur":6969,"NA":6970,"lami":6971,"Ġhov":6972,"âĢĿ/":6973,"ĠXol":6974,"Ġchiqarishga":6975,"abiiy":6976,"Ġhaydov":6977,"Ġxususiyatiga":6978,"Ġfikriga":6979,"abilit":6980,"Ġ1000":6981,"Ġyoqim":6982,"Ġliboslar":6983,"AQSH":6984,"nab":6985,"omiddin":6986,"ovon":6987,"Ġjad":6988,"ullanish":6989,"Ġtashish":6990,"ĠRo":6991,"Ġyilgacha":6992,"ĠChirchiq":6993,"Ġtartibini":6994,"Ġvirusni":6995,"yam":6996,"Ġkunida":6997,"Ġtaqish":6998,"Ġsuvda":6999,"Ġorganizmning":7000,"Ġyakuniy":7001,"park":7002,"Ġtakomillashtirish":7003,"Yog":7004,"ht":7005,"ms":7006,"Ġting":7007,"onov":7008,"akam":7009,"Ġroman":7010,"Ġyordami":7011,"ĠHay":7012,"Ġmuzey":7013,"sinf":7014,"Ġqaytarish":7015,"Ġprofessor":7016,"lashtirgan":7017,"Ġsifat":7018,"Ġagentlik":7019,"Ġeshik":7020,"Ġtomoshabinlar":7021,"Ita":7022,"ej":7023,"ĠSev":7024,"resp":7025,"Ġxabardor":7026,"Ġoshxona":7027,"Shunda":7028,"Ġw":7029,"Ġpesh":7030,"Ġoqsh":7031,"Ġchalingani":7032,"Ġsertifik":7033,"ĠYunusobod":7034,"Bel":7035,"Ġolinib":7036,"Ġsababdan":7037,"Ġelchisi":7038,"Ġshaxsan":7039,"Ġshaxsga":7040,"Ġsharoitda":7041,"Ġbeshta":7042,"Ġuxlash":7043,"ingarchilik":7044,"Ġtola":7045,"limga":7046,"Ġism":7047,"quire":7048,"Ġzid":7049,"Ġdemokrat":7050,"Ġrespirator":7051,"Organizm":7052,"ĠSer":7053,"odyus":7054,"ĠCNN":7055,"Ġuydan":7056,"Ġqilinmagan":7057,"Ġyarmi":7058,"Ġmuroja":7059,"Ġmazmun":7060,"nalishda":7061,"Ġkoll":7062,"Ġbuyumlar":7063,"Ġram":7064,"ĠRos":7065,"Ġyaqinda":7066,"Ġvaksinasining":7067,"Ġchaqirgan":7068,"Ġodatiy":7069,"Ġidoralari":7070,"Ġstansiya":7071,"alib":7072,"Ġbyur":7073,"Ġdram":7074,"ozan":7075,"alit":7076,"tkazilmoqda":7077,"Ġtushishi":7078,"Ġfuqarolik":7079,"Ġpishirib":7080,"Ġburchak":7081,"odisa":7082,"Ġdushanba":7083,"Ġhasham":7084,"Nav":7085,"Ġfas":7086,"ĠRasul":7087,"Ġtopdi":7088,"Ġyashirin":7089,"rganch":7090,"lamchi":7091,"ĠOtabekov":7092,"parvarlik":7093,"Ġuskun":7094,"muh":7095,"vey":7096,"zlarining":7097,"inot":7098,"Ġishlayotgan":7099,"Ġge":7100,"Ġtep":7101,"Ġqizlar":7102,"Ġkishilar":7103,"Ġ76":7104,"Ġbiridir":7105,"Ġbosqi":7106,"Ġxorijdan":7107,"Ġinfeksiyasidan":7108,"Ġmuddao":7109,"Ġkengashining":7110,"Ġsaytida":7111,"31":7112,"Oradan":7113,"qtisodiy":7114,"xabar":7115,"onda":7116,"Ġyotgan":7117,"timiz":7118,"istonning":7119,"Ġsano":7120,"odat":7121,"iyulda":7122,"Ġmajlis":7123,"Ġtahli":7124,"Ġmehmonxona":7125,"Ġborilayotgan":7126,"epidemiologiya":7127,"Ġyetkazilgan":7128,"Ġbanan":7129,"Ġmetall":7130,"elizav":7131,"ĠMoskvada":7132,"fi":7133,"lu":7134,"Ġhaz":7135,"Ġetil":7136,"ĠBax":7137,"Ġjarimaga":7138,"Ġaktrisasi":7139,"Ġtarqal":7140,"Ġqorin":7141,"ĠDonbass":7142,"Ġpolik":7143,"Ġlitsen":7144,"ĠLifehackerKerakli":7145,"zoyn":7146,"Janubiy":7147,"foga":7148,"Ġten":7149,"katlar":7150,"ĠJorj":7151,"Ġaktiv":7152,"lovlar":7153,"ĠHopkins":7154,"Ġsaylangan":7155,"Ġketmoqda":7156,"ldirilgan":7157,"Ġshifoxonada":7158,"Ġimzolangan":7159,"Ġidoralar":7160,"Ġmavsumda":7161,"Ġdalillar":7162,"ĠTermiz":7163,"Ġsug":7164,"ern":7165,"Ġxar":7166,"taqil":7167,"Ġsodda":7168,"ĠIr":7169,"ĠPekin":7170,"tkazishni":7171,"Ġ78":7172,"Ġayollarga":7173,"Ġaksessuar":7174,"ĠYevroittifoq":7175,"Ġhukumatining":7176,"Ġunutmaslik":7177,"Sababi":7178,"ĠFinlyan":7179,"Ġanjumanida":7180,"rdi":7181,"akar":7182,"dagilar":7183,"Ġ68":7184,"Ġoshirib":7185,"Ġegalladi":7186,"Maktab":7187,"Tosh":7188,"qor":7189,"som":7190,"ymaslik":7191,"utur":7192,"Ġtarzi":7193,"lishidan":7194,"Ġnih":7195,"Ġreabilit":7196,"Ġqisman":7197,"Ġaktyorlari":7198,"Ġodatdagi":7199,"Ġnozik":7200,"ĠEsquire":7201,"Ġmurabbiy":7202,"Ġkompyuter":7203,"Xo":7204,"ĠKeyt":7205,"Ġtasdiqlagan":7206,"Ġmavsumida":7207,"Kech":7208,"Nam":7209,"chilarni":7210,"ĠLi":7211,"Ġkelgani":7212,"Ġoldiga":7213,"Sa":7214,"Ñĥ":7215,"Ġsuyak":7216,"Ġuniversitetining":7217,"Ġstatistik":7218,"Qaror":7219,"rs":7220,"rot":7221,"Ġkuk":7222,"atkor":7223,"ollar":7224,"Ġishlariga":7225,"ĠBurak":7226,"Ġasta":7227,"kidlandi":7228,"Ġbunda":7229,"rtalarida":7230,"Ġsinovlari":7231,"Ġmaydoni":7232,"ferensiya":7233,"Ġserialida":7234,"Ġqidiruv":7235,"Oqib":7236,"ovna":7237,"imdan":7238,"Ġzon":7239,"Ġbuyuk":7240,"Ġfilmlarda":7241,"lantirgan":7242,"Ġmaktablar":7243,"Ġhuquqiy":7244,"Ġboyligi":7245,"Ġogohlantirdi":7246,"Ġquritilgan":7247,"entagon":7248,"oqli":7249,"oldi":7250,"obot":7251,"Ġishlashga":7252,"ĠParij":7253,"Ġjoylashtirish":7254,"ilmadi":7255,"Ġidora":7256,"Ġdengi":7257,"Ġshimoli":7258,"ĠAhmad":7259,"Muhtasham":7260,"Ġarafasida":7261,"edi":7262,"zand":7263,"ituriy":7264,"Ġichidagi":7265,"Ġharakatlanish":7266,"Ġshaxslarning":7267,"Ġguruch":7268,"SSV":7269,"ĠSurxondaryoda":7270,"Vazirlik":7271,"Ġkulgi":7272,"ichkina":7273,"mul":7274,"lisida":7275,"iyasiga":7276,"Ġjoiz":7277,"ullangan":7278,"Ġqilishning":7279,"ĠYus":7280,"Ġyorug":7281,"198":7282,"tartib":7283,"Ġsammit":7284,"Ġmuhimdir":7285,"lolat":7286,"rnatish":7287,"Ġqahramoni":7288,"Ġxuruj":7289,"For":7290,"Tojikiston":7291,"aqt":7292,"Ġolov":7293,"Ġkorxonasi":7294,"ohid":7295,"Ġnizo":7296,"Ġolishda":7297,"Ġqaratish":7298,"ĠAmerikaning":7299,"Ġshox":7300,"ituriyent":7301,"noda":7302,"Ġbada":7303,"Ġqilmoqchi":7304,"Ġturishi":7305,"ĠDubay":7306,"Ġqilinsa":7307,"ĠMark":7308,"avgustdan":7309,"Ġxususiyatlari":7310,"Ġtamoy":7311,"Ġanglatadi":7312,"Ġtashabbu":7313,"Ġaktyori":7314,"En":7315,"bay":7316,"ayron":7317,"Ġdalolat":7318,"alifor":7319,"ĠPit":7320,"ĠDev":7321,"Ġjoyidan":7322,"Ġayollarning":7323,"Korresp":7324,"Ġfunk":7325,"Ġraisligida":7326,"qurun":7327,"ĠDXX":7328,"Ġchiqildi":7329,"Ġsariq":7330,"Ġyetkazishi":7331,"Ġnarsalarni":7332,"xtalib":7333,"Ġbirorta":7334,"Ġqamoqqa":7335,"matsevtika":7336,"Putin":7337,"Zar":7338,"ian":7339,"Ġmudiri":7340,"oridan":7341,"ĠNukus":7342,"shinlarini":7343,"Ġimzolagan":7344,"Ġbrendi":7345,"eff":7346,"Sport":7347,"anka":7348,"Ġosmon":7349,"qarshi":7350,"Ġzim":7351,"Ġloy":7352,"ezos":7353,"xonasida":7354,"Ġkiyinish":7355,"Ġeslat":7356,"Ġortda":7357,"ĠAleksey":7358,"Ġgvardiya":7359,"CoV":7360,"Korrespondent":7361,"gusi":7362,"roni":7363,"Ġkaliy":7364,"tig":7365,"ĠRustam":7366,"Ġturlari":7367,"adda":7368,"Ġistam":7369,"Ġurg":7370,"radigan":7371,"Ġnatijalariga":7372,"Ġeshit":7373,"Ġjurnalistlar":7374,"ingapur":7375,"ARS":7376,"usnbuzar":7377,"Ġtvorog":7378,"atlarni":7379,"omur":7380,"Ġxotini":7381,"Ġnot":7382,"itor":7383,"Ġchiqishni":7384,"Ġyashab":7385,"Ġnarxlari":7386,"ayganlar":7387,"ulyator":7388,"Hukumat":7389,"Fa":7390,"Ġxay":7391,"Ġbularning":7392,"Ġbolalarni":7393,"Ġqonunchilik":7394,"uliston":7395,"Aks":7396,"Ġtushuntirish":7397,"Ġstandartlar":7398,":âĢľ":7399,"qini":7400,"Ġbax":7401,"Ġpuli":7402,"Ġshaf":7403,"Ġyordamga":7404,"Ġrez":7405,"Ġyozdi":7406,"Ġvirusga":7407,"Ġnazoratga":7408,"Ġkompleks":7409,"kom":7410,"naviy":7411,"vaqti":7412,"atlarga":7413,"oqov":7414,"Ġsoatga":7415,"ĠPot":7416,"yoki":7417,"Ġsifatini":7418,"Ġbajaruvchi":7419,"Ġkasallanganlarning":7420,"Ġenergetika":7421,"ĠNATOga":7422,"Ġifoda":7423,"OKA":7424,"Voqe":7425,"Xalqaro":7426,"oid":7427,"paydi":7428,"Ġqaz":7429,"ovul":7430,"Ġkemasi":7431,"langanlar":7432,"ĠKer":7433,"Ġjoylarida":7434,"tarilishi":7435,"Ġmuvozan":7436,"Ġkonstitut":7437,"Ġochilgan":7438,"Ġpolit":7439,"Ġofis":7440,"Ġdeputatlari":7441,"omiddinova":7442,"Dem":7443,"vin":7444,"ĠSob":7445,"esk":7446,"jalik":7447,"Ġtaqqos":7448,"Ġhayotdan":7449,"Ġdaqiqada":7450,"Ġerishdi":7451,"Ġendilikda":7452,"reml":7453,"ĠRahmon":7454,"Tuxum":7455,"qatga":7456,"onni":7457,"chilariga":7458,"âĢĻ,":7459,"Ġmalika":7460,"dirib":7461,"Ġatir":7462,"Ġbizni":7463,"Ġyetkazgan":7464,"Ġaxborotida":7465,"Ġhuquqi":7466,"piada":7467,"ĠPhotos":7468,"Mat":7469,"Qah":7470,"irma":7471,"Ġand":7472,"Ġsabzi":7473,"Ġsafarbar":7474,"rishi":7475,"eratsiyasi":7476,"ekund":7477,"oder":7478,"Ġkelmaydi":7479,"Ġ800":7480,"Ġarmiyasi":7481,"Ġaktrisaning":7482,"Ġtilida":7483,"Ġaviakompaniya":7484,"Ġadabiyot":7485,"Qolgan":7486,"ĠMeh":7487,"Ġinsult":7488,"ĠGlobal":7489,"Ġqondagi":7490,"Ġshaharda":7491,"Ġaytilmoqda":7492,"Ġteriga":7493,"Ġrahbarlik":7494,"Ġtanishgan":7495,"rgat":7496,"ĠRobert":7497,"Ġpoliklini":7498,"ood":7499,"ayyan":7500,"ĠTan":7501,"ĠSardoba":7502,"Ġboradagi":7503,"Ġkirdi":7504,"Ġyuzlab":7505,"Ġamalda":7506,"Ġsifati":7507,"Ġmiqdorining":7508,"Ġorganizmdagi":7509,"Ġbezov":7510,"Ġsutkada":7511,"Ġuzunligi":7512,"Ġrazvedka":7513,"Ro":7514,"jo":7515,"mgacha":7516,"rog":7517,"chilarga":7518,"Ġprin":7519,"Ġkesish":7520,"ĠTransport":7521,"ĠStar":7522,"Ġaylanish":7523,"Ġqarama":7524,"Ġ2000":7525,"Ġyarm":7526,"Ġchoralarni":7527,"Ġkelishuvga":7528,"Ġfaxriy":7529,"shadi":7530,"adiiy":7531,"Ġhamon":7532,"itan":7533,"bekov":7534,"liyaning":7535,"Ġvazirligiga":7536,"Ġdavolanmoqda":7537,"Ġserv":7538,"Ġadvok":7539,"Ġprokurori":7540,"Ġmegapik":7541,"bang":7542,"onent":7543,"ĠNet":7544,"Ġchiqiladi":7545,"Ġoshirilayotgan":7546,"Ġxizmatiga":7547,"lamli":7548,"Ġterma":7549,"Ġ180":7550,"ampun":7551,"Ġtuy":7552,"Ġinsho":7553,"Ġegalari":7554,"Ġmillionlab":7555,"Ġishtirokchilari":7556,"Ġyuvib":7557,"Ġushlangan":7558,"Ġmahallasida":7559,"ĠTixanov":7560,"MA":7561,"uel":7562,"Ġdum":7563,"Ġdavlati":7564,"eskov":7565,"Mening":7566,"Ġmuammoni":7567,"Ġkonsul":7568,"Ġsahifasi":7569,"Ġstrateg":7570,"Ġnufuzli":7571,"tartibot":7572,"boy":7573,"ff":7574,"ynash":7575,"ava":7576,"ult":7577,"Ġkunini":7578,"Ġmuhandi":7579,"Ġmeda":7580,"Ġariz":7581,"Ġcheklash":7582,"Ġtiklanish":7583,"Ġaloqalar":7584,"Ġqamrab":7585,"Ġjarohatlari":7586,"Ġaliment":7587,"Ġmetaboliz":7588,"Ġtashabbusi":7589,"qoq":7590,"ras":7591,"shon":7592,"inal":7593,"Ġyugur":7594,"Ġnoy":7595,"Ġgarderob":7596,"Ġtub":7597,"Ġqaytish":7598,"Ġmahbus":7599,"Ġdarajali":7600,"Ġprodyus":7601,"Ġshakllantirish":7602,"Ġinvest":7603,"tkaziladigan":7604,"Ġqalqonsimon":7605,"Ġmoyil":7606,"Ġkoronavirusi":7607,"HT":7608,"Kal":7609,"jahon":7610,"mcha":7611,"Ð»":7612,"lamaydi":7613,"ĠNobel":7614,"Ġhisobi":7615,"Ġyashar":7616,"Ġnamoz":7617,"Ġbozorida":7618,"Ġkans":7619,"ĠNurmat":7620,"Ġsamolyoti":7621,"Oqibatda":7622,"banguli":7623,"Yaxshi":7624,"ger":7625,"minlangan":7626,"Ġyashaydigan":7627,"vartir":7628,"ldirgan":7629,"Ġqoldirdi":7630,"qizlar":7631,"eshanba":7632,"Ġfond":7633,"Ġmanzar":7634,"Ġsaratoni":7635,"Ġyuqoridagi":7636,"Ġizolyatsiya":7637,"gul":7638,"onga":7639,"ĠArip":7640,"Ġzilzila":7641,"ĠVol":7642,"Ġuzat":7643,"Ġkuzatish":7644,"Ġtomonga":7645,"Ġtashkilotining":7646,"Ġqutu":7647,"Anjel":7648,"Ġinvestitsiyalar":7649,"Ġbarobarga":7650,"Ġkunduzi":7651,"Ani":7652,"sekund":7653,"Ġqadi":7654,"ild":7655,"omala":7656,"Ġbirini":7657,"Ġchida":7658,"Ġgraf":7659,"Ġistis":7660,"Ġviloyatiga":7661,"Ġhuquqbuzar":7662,"Ġrejalashtirilmoqda":7663,"Shifokorlar":7664,"yashil":7665,"Mur":7666,"har":7667,"âĢĭ":7668,"gim":7669,"Ġtopib":7670,"Ġxodimlarini":7671,"ĠMarkl":7672,"Ġyetadi":7673,"Ġtushirish":7674,"Ġhodisasi":7675,"ender":7676,"struksiya":7677,"Ġtashvish":7678,"Ġmam":7679,"ond":7680,"alliy":7681,"Ġishlay":7682,"ĠSk":7683,"ĠPost":7684,"Ġ62":7685,"Ġyozuvchi":7686,"ĠAfrika":7687,"Xabarga":7688,"Ġjarrohlik":7689,"Jan":7690,"Jinoyat":7691,"veg":7692,"lajon":7693,"organ":7694,"Ġfirib":7695,"iber":7696,"ets":7697,"Ġkaram":7698,"Ġqarorni":7699,"Ġlaborator":7700,"Ġyodgor":7701,"movchilik":7702,"Ġtafsil":7703,"Ġnusx":7704,"ZR":7705,"maning":7706,"quvchilar":7707,"Ġpod":7708,"uvchining":7709,"afsha":7710,"Ġtuzilma":7711,"ĠZangi":7712,"affus":7713,"Ġtortgan":7714,"ĠKiyevga":7715,"Ġunutmang":7716,"Viloyatda":7717,"ĠJaparov":7718,"Ġyoqimsiz":7719,"elizaveta":7720,"laroq":7721,"Ġpush":7722,"ĠMeksi":7723,"ĠSpark":7724,"Ġhisobda":7725,"Ġfuqarolarini":7726,"Ġsoatdan":7727,"Ġnamoyishlari":7728,"Ġraket":7729,"Ġimmunitetni":7730,"ĠMahkamasi":7731,"Ġtarafdorlari":7732,"ĠToyyib":7733,"Ġistisno":7734,"65":7735,"Max":7736,"rishni":7737,"zchi":7738,"oniy":7739,"Ġetishini":7740,"Ġzaytun":7741,"sizmi":7742,"Ġdaryo":7743,"ĠMars":7744,"Ġyetakchilik":7745,"Ġfuqaroning":7746,"Bayden":7747,"ox":7748,"Ġtren":7749,"ĠShuhrat":7750,"Ġchiqariladi":7751,"Ġaktyorning":7752,"Ġodatlar":7753,"Ġtunda":7754,"Ġgeneral":7755,"zchivit":7756,"Skrin":7757,"Ġkab":7758,"ektiv":7759,"kalari":7760,"yillar":7761,"Ġallerg":7762,"Ġqolmaydi":7763,"Ġbolalarga":7764,"Ġchorak":7765,"Ġortishi":7766,"Ġfederal":7767,"ziqorin":7768,"Ġmegapiksel":7769,"Ros":7770,"Serial":7771,"VA":7772,"ps":7773,"vid":7774,"Ġinti":7775,"ushnik":7776,"Ġnomini":7777,"Ġpasport":7778,"Ġgigiy":7779,"Ġushlandi":7780,"Ġalomatlar":7781,"ulaziz":7782,"Qoraqalpog":7783,"erson":7784,"ahor":7785,"ĠDen":7786,"Ġ51":7787,"Ġsamimiy":7788,"Ġdarajasiga":7789,"Ġilhom":7790,"Ġyonib":7791,"Ġyopilgan":7792,"Ġkiyimlarni":7793,"Ġsizni":7794,"Turkmaniston":7795,"Ġtadbirkorlar":7796,"Oltin":7797,"Ġabituriyent":7798,"ioN":7799,"Ġsem":7800,"Ġseshanba":7801,"gib":7802,"Ġegalik":7803,"Ġijar":7804,"Ġfilmining":7805,"Ġmurch":7806,"Ġyuboradi":7807,"Ġnatijalarini":7808,"sentabrdan":7809,"ĠSankt":7810,"Ġkamaytirishga":7811,"Ġqatnashgan":7812,"Xabarda":7813,"ĠNikol":7814,"uft":7815,"umi":7816,"Ġfit":7817,"Ġmalik":7818,"ulotlar":7819,"ĠKal":7820,"ringa":7821,"lashtiruvchi":7822,"Ġniz":7823,"lumotga":7824,"Ġqonunga":7825,"ehqon":7826,"Ġolimlari":7827,"Ġxotira":7828,"Ġpichoqlab":7829,"Ġdemokratik":7830,"lqinli":7831,"Ġbenzin":7832,"nesi":7833,"pak":7834,"tmay":7835,"Ġvayron":7836,"ozor":7837,"kidlangan":7838,"Ġsavollarga":7839,"Ġqalbaki":7840,"dab":7841,"Ġtoj":7842,"ĠTosh":7843,"Ġdavriga":7844,"Ġqurib":7845,"ĠViktor":7846,"kidlash":7847,"ĠAQShga":7848,"toniya":7849,"Ġfarzandli":7850,"qizil":7851,"Ġolinishi":7852,"Ġsiyosati":7853,"ĠNavoiyda":7854,"Ġoke":7855,"Ġnuqtayi":7856,"Ġkollej":7857,"39":7858,"Tah":7859,"bga":7860,"eor":7861,"prezidenti":7862,"te":7863,"Ġkash":7864,"isini":7865,"lganida":7866,"ĠSi":7867,"ĠNig":7868,"ĠDo":7869,"adrat":7870,"Ġboshqalarga":7871,"mizni":7872,"Ġvositalarining":7873,"Ġmilliarder":7874,"Ġsochlarni":7875,"ĠAbdul":7876,"Ġmukofoti":7877,"Ġixtisoslashtirilgan":7878,"Ġteleviz":7879,"Ġmuxolifat":7880,"Ġbadavlat":7881,"Ġ+":7882,"ramov":7883,"lover":7884,"Ġtanaffus":7885,"ĠShay":7886,"Ġoshirishi":7887,"Ġviloyatlar":7888,"Ġboshqaruvi":7889,"Ġzarurligini":7890,"yanvardan":7891,"veysar":7892,"yni":7893,"zingizni":7894,"Ġsuz":7895,"rigan":7896,"ĠInter":7897,"Ġbeg":7898,"Ġbuzib":7899,"Ġqoidabuzar":7900,"Ġvositasini":7901,"Ġqasddan":7902,"Ġtijorat":7903,"Ġbezovta":7904,"ioNTech":7905,"atar":7906,"onom":7907,"illari":7908,"amxo":7909,"Ġpan":7910,"Ġsous":7911,"Ġbering":7912,"Ġvaqtini":7913,"Ġaniqlanib":7914,"doshi":7915,"ĠPutinning":7916,"Ġmuallifi":7917,"ransuz":7918,"Yil":7919,"Ġklip":7920,"Ġkunning":7921,"Ġtantan":7922,"rsatmoqda":7923,"Ġodamlarda":7924,"miyasining":7925,"Ġyaratgan":7926,"Ġdorilar":7927,"egion":7928,"Mun":7929,"Yash":7930,"Ġsel":7931,"asangiz":7932,"Ġboshlang":7933,"ĠBezos":7934,"Ġyangiliklar":7935,"Ġsaqlashga":7936,"Ġkuzatilmoqda":7937,"Ġsohasi":7938,"Ġtopshirilgan":7939,"Ġrangdagi":7940,"Ġhujjatlarni":7941,"Ġkadrlar":7942,"ilyam":7943,"ĠOrtiqxo":7944,"ĠDaily":7945,"ĠGurbanguli":7946,"Fuqaro":7947,"Zam":7948,"mud":7949,"rilmoqda":7950,"zali":7951,"iller":7952,"asd":7953,"Ġuchuvchi":7954,"ĠBur":7955,"Ġ88":7956,"Ġkiritildi":7957,"Ġmaktabga":7958,"Ġmuddatini":7959,"AQShda":7960,"sentabrda":7961,"Ġuxlab":7962,"chiligidagi":7963,"Ġefirga":7964,"osanoat":7965,"Kan":7966,"bola":7967,"rva":7968,"âĢ¦":7969,"gab":7970,"ĠAlim":7971,"etsk":7972,"ste":7973,"ĠIXB":7974,"zbekistonliklar":7975,"Ġhuquqini":7976,"Ġbosimini":7977,"oderna":7978,"Tuz":7979,"Xuddi":7980,"chog":7981,"Ġtiy":7982,"Ġputur":7983,"itish":7984,"Ġetilmaydi":7985,"udo":7986,"ĠPer":7987,"ĠRossiyadagi":7988,"Ġmahsulotlardan":7989,"opoliya":7990,"Ġkurs":7991,"Ġrivojlanishiga":7992,"Ġmasalasida":7993,"Ġtasdiqlandi":7994,"Bizning":7995,"Ġqiziqish":7996,"Ġqolishga":7997,"Kol":7998,"ita":7999,"ĠDav":8000,"Ġaniqlanmagan":8001,"Ġqoldiq":8002,"Ġchiqaradigan":8003,"stika":8004,"Ġviloyatidan":8005,"Ġdarajasida":8006,"yxatini":8007,"Ġiqtisodiyoti":8008,"Ġmashqlar":8009,"Ġsamaradorligi":8010,"xail":8011,"Ġyalpi":8012,"Abd":8013,"55":8014,"Eh":8015,"Erta":8016,"Navoiy":8017,"Taq":8018,"pen":8019,"tuvchi":8020,"tekshir":8021,"ĠSpaceX":8022,"Ġ69":8023,"Ġnomidan":8024,"Ġtahrir":8025,"timos":8026,"Ġaytganda":8027,"Ġulushi":8028,"ministrat":8029,"Ġsamaradorligini":8030,"Odamlar":8031,"Ġtalon":8032,"Ġvertolyot":8033,"Juft":8034,"abil":8035,"Ġdemak":8036,"Ġtartibsiz":8037,"Ġhuquqni":8038,"2016":8039,"Ġtarqalishini":8040,"Ġmoliyalashtirish":8041,"Kasallik":8042,"Ġbazaviy":8043,"zoynak":8044,"ĠAripov":8045,"Pol":8046,"ancha":8047,"Ġsochiq":8048,"Ġishsiz":8049,"ĠBill":8050,"Ġinfark":8051,"Ġchalinganlarning":8052,"Ġfoydalanilgan":8053,"Ġqoidalari":8054,"ĠSaid":8055,"Ġoradan":8056,"Ġquyidagicha":8057,"ĠTravel":8058,"Og":8059,"ovat":8060,"kip":8061,"ĠPeskov":8062,"Ġach":8063,"Ġekaniga":8064,"Ġparcha":8065,"guniga":8066,"Ġdasturxon":8067,"ĠMadaniyat":8068,"ĠJizzaxda":8069,"Ġmarosimida":8070,"Ġsayyohlar":8071,"Ġfermer":8072,"Ġmaktabi":8073,"Ġkvadrat":8074,"medova":8075,"Misol":8076,"Ġbildiradi":8077,"fo":8078,"archi":8079,"Ġsonidan":8080,"qaruv":8081,"rinishiga":8082,"alati":8083,"Ġchalin":8084,"amagan":8085,"Ġhashamatli":8086,"Kart":8087,"Qir":8088,"omati":8089,"ovoq":8090,"ullo":8091,"ĠXur":8092,"Ġ74":8093,"Ġinsonning":8094,"Ġgaplash":8095,"Ġtahsil":8096,"Ġtarkibi":8097,"Ġkonsent":8098,"Birinchidan":8099,"Olma":8100,"ĠKomilov":8101,"ĠPotter":8102,"Ġnoyob":8103,"hor":8104,"iden":8105,"nay":8106,"shlig":8107,"Ġmuayyan":8108,"Ġana":8109,"Ġissiqlik":8110,"Ġloyihalarni":8111,"Ġparlamenti":8112,"Ġ#":8113,"Ġyadr":8114,"Ġsm":8115,"Ġhamj":8116,"Ġboshchiligidagi":8117,"ĠPZR":8118,"tgani":8119,"Ġoshirilmoqda":8120,"Ġismi":8121,"Ġozuq":8122,"Ġmartalik":8123,"Ġxaridor":8124,"Uyda":8125,"Dastlab":8126,"Ġtabrikladi":8127,"Ġklassik":8128,"Aniq":8129,"mark":8130,"lashuvi":8131,"ĠMash":8132,"Ġchiqardi":8133,"Ġharakatlanib":8134,"ilishlar":8135,"Ġhokimining":8136,"Ġball":8137,"Ġterap":8138,"Ġmuammolarga":8139,"paytirish":8140,"Ġsubyekt":8141,"ĠKoreyada":8142,"Ichki":8143,"dlar":8144,"yuz":8145,"ulov":8146,"Ġetuvchi":8147,"Ġodamga":8148,"ĠAbdulaziz":8149,"Ġyoqtir":8150,"Ġchorasi":8151,"Ġmasofaviy":8152,"Ġalif":8153,"tex":8154,"ilov":8155,"Ġboshiga":8156,"Ġesk":8157,"kiga":8158,"Ġqildim":8159,"ĠSin":8160,"Ġtarj":8161,"ĠGar":8162,"Ġvaqtdan":8163,"taroq":8164,"Ġ99":8165,"Ġoldidan":8166,"Ġmuvaffaqiyatga":8167,"ferend":8168,"ĠFarhod":8169,"Ad":8170,"Ġmust":8171,"Ġxak":8172,"Ġjoniga":8173,"Ġfoydalanadi":8174,"lumotni":8175,"ĠLegion":8176,"uquqiy":8177,"affof":8178,"Ġyakshanba":8179,"Ġdasturini":8180,"enit":8181,"ochar":8182,"Ġyumshat":8183,"qituvchisi":8184,"Ġminnatdorlik":8185,"ĠUmra":8186,"Tarix":8187,"Yurak":8188,"toh":8189,"Ġtirik":8190,"Ġtadan":8191,"Ġrul":8192,"ĠSulton":8193,"Ġuyq":8194,"rsatuvchi":8195,"Ġishtiroki":8196,"Ġsarg":8197,"ĠIIO":8198,"ĠPrezidentining":8199,"Ġarxiv":8200,"ĠNazar":8201,"ĠIXBT":8202,"Kel":8203,"Oddiy":8204,"jen":8205,"alk":8206,"Ġfiz":8207,"Ġmamlakatdan":8208,"Ġtezligi":8209,"Ġkelishini":8210,"laklarga":8211,"Ġyoqimli":8212,"Ġuyushtirilgan":8213,"Ġzaxira":8214,"Fransiya":8215,"Ġtobora":8216,"ferendum":8217,"bod":8218,"tinchi":8219,"atri":8220,"Ġqabr":8221,"Ġnos":8222,"Ġfron":8223,"echeni":8224,"Ġmaktabgacha":8225,"Ġ2001":8226,"Ġsharoitlar":8227,"Ġkamayadi":8228,"yurak":8229,"Ġtarqatish":8230,"Ġyuritgan":8231,"Ġsiyosatchi":8232,"mayotganini":8233,"samb":8234,"ĠMahkamasining":8235,"Mutaxassislar":8236,"Yuqor":8237,"yarog":8238,"echeniston":8239,"lus":8240,"Ġmaosh":8241,"ĠSARS":8242,"Ġtashlangan":8243,"ĠQiz":8244,"Ġdavlatlarda":8245,"Ġholatlarda":8246,"Ġfuqarolariga":8247,"Ġmaxfiy":8248,"Toshkentda":8249,"ĠBritaniyaning":8250,"Ġkorxonalar":8251,"Ov":8252,"riya":8253,"yuy":8254,"dalik":8255,"ilmasligi":8256,"Ġbolani":8257,"oddiy":8258,"Ġrivojlanishi":8259,"Ġsaylovlar":8260,"ynaydi":8261,"Ġtexnologiyalar":8262,"Hamma":8263,"Ġfollover":8264,"Ġmalakali":8265,"Ġnihoyat":8266,"Sirdaryo":8267,"bel":8268,"lmaydigan":8269,"sing":8270,"anch":8271,"Ġyu":8272,"Ġsk":8273,"ĠBu":8274,"Ġortig":8275,"odov":8276,"Ġkiygan":8277,"ĠHindistonda":8278,"Ġfunksiya":8279,"Ġbakteriyalar":8280,"Ġkutilayotgan":8281,"muhit":8282,"Liv":8283,"ashi":8284,"Ġbem":8285,"tion":8286,"ity":8287,"mazon":8288,"ĠMis":8289,"lganidan":8290,"Ġqaymoq":8291,"Ġchiqishiga":8292,"Ġkechqurun":8293,"Ġkimdir":8294,"onistonning":8295,"Uyqu":8296,"Ġakademiyasi":8297,"Kiyev":8298,"Vak":8299,"kib":8300,"lanmaydi":8301,"azo":8302,"esli":8303,"rsatadigan":8304,"Ġijodiy":8305,"birini":8306,"Ġbelgilar":8307,"Ġtadbirda":8308,"Ġmarkazining":8309,"ehron":8310,"Ġxulosaga":8311,"Uchinchi":8312,"ĠKoronavirusga":8313,"Hujjat":8314,"Ġxitoylik":8315,"tekshirish":8316,"kipaj":8317,"Aj":8318,"Ġtini":8319,"Ġedim":8320,"alin":8321,"Ġpal":8322,"iligi":8323,"lishining":8324,"Ġhaykal":8325,"Ġaybladi":8326,"qitish":8327,"Ġkuchayishi":8328,"Ġbayrami":8329,"Ġeksperti":8330,"Br":8331,"Hud":8332,"ue":8333,"Ġkg":8334,"olet":8335,"Ġney":8336,"Ġmuq":8337,"Ġtej":8338,"kilot":8339,"lumotiga":8340,"Ġmillionga":8341,"Ġmajlisida":8342,"Ġomillar":8343,"tiborini":8344,"Ġhimoy":8345,"SSR":8346,"veradi":8347,"Ġjamoa":8348,"ahodir":8349,"Ġmasofani":8350,"Ġmonitor":8351,"Ġnaqd":8352,"Ġxalaqit":8353,"Vaksina":8354,"raph":8355,"siyaviy":8356,"stin":8357,"ĠKir":8358,"ikki":8359,"ĠEk":8360,"ĠEv":8361,"Ġyozish":8362,"ratsiyasi":8363,"Ġnazaridan":8364,"Ġsalon":8365,"kovnik":8366,"dashyan":8367,"Ġziddiy":8368,"Ġkislotasi":8369,"Ġdafn":8370,"zov":8371,"langach":8372,"Ġdaz":8373,"Ġzal":8374,"batlantirish":8375,"Ġmuhabbat":8376,"Ġbemorlarga":8377,"Ġtakliflar":8378,"Ġmoddasi":8379,"Keyingi":8380,"Ġchorshanba":8381,"Ġpastki":8382,"Xitoyning":8383,"Mahalliy":8384,"Ġdahshatli":8385,"Ġoldim":8386,"Ġass":8387,"ĠDeni":8388,"Ġtanilgan":8389,"Ġtushkun":8390,"Ġ83":8391,"Ġkompaniyaning":8392,"Ġtuzalib":8393,"Ġ2012":8394,"arkib":8395,"Ġmetropoli":8396,"Rej":8397,"Mad":8398,"fli":8399,"lidagi":8400,"Ġhusnbuzar":8401,"Ġkost":8402,"ilipp":8403,"alida":8404,"ĠShodiy":8405,"Ġvaqtlarda":8406,"tarib":8407,"Ġbolalarning":8408,"Ġmavjudligi":8409,"Ġsevib":8410,"Ġdavolashda":8411,"remyer":8412,"ravon":8413,"Ġratsionga":8414,"Ġsenator":8415,"Poli":8416,"magi":8417,"ĠSulay":8418,"evich":8419,"ĠYelizaveta":8420,"minlashga":8421,"ichdan":8422,"Ġomb":8423,"Ġhuquqlarini":8424,"larimizga":8425,"izistonda":8426,"Ġsahifalariga":8427,"Ġquvv":8428,"Ġmaqsadga":8429,"ĠShahzoda":8430,"Ġittifoqi":8431,"Ġterrorchilik":8432,"ĠYevropada":8433,"Ġbodring":8434,"Mana":8435,"qayev":8436,"rayev":8437,"laringiz":8438,"Ġmit":8439,"endan":8440,"ĠSadir":8441,"ĠKub":8442,"Ġqayg":8443,"Ġaktrisalar":8444,"Ġtarmoqlari":8445,"Ġyoqib":8446,"Ġtortdi":8447,"tomobil":8448,"Ġtajovuz":8449,"metana":8450,"Ġyegulik":8451,"Ġajratiladi":8452,"Yoz":8453,"ca":8454,"voni":8455,"xotin":8456,"Ġmuomala":8457,"azon":8458,"Ġbort":8459,"limida":8460,"Ġolishini":8461,"Ġyuqtirish":8462,"Ġtizimlari":8463,"Ġtarixidagi":8464,"Ġbaholash":8465,"ursun":8466,"Ġmukofotiga":8467,"Ġusullari":8468,"Ġbaravari":8469,"ĠMedia":8470,"Ġqarzdor":8471,"Ġtamomlagan":8472,"Ġloyiq":8473,"Ġkostyum":8474,"BMT":8475,"UZ":8476,"ney":8477,"viya":8478,"xush":8479,"lamaslik":8480,"Ġboks":8481,"trabin":8482,"Ġodamni":8483,"Ġyaqinlari":8484,"Ġhayotida":8485,"Ġraqami":8486,"Ġqarashli":8487,"Ġnaushnik":8488,"edag":8489,"Hayot":8490,"Ġbosqichi":8491,"Ġmuhandis":8492,"trabinafsha":8493,"Garri":8494,"nav":8495,"atori":8496,"ilin":8497,"kalarni":8498,"Ġdu":8499,"itilgan":8500,"Ġchay":8501,"Ġinkor":8502,"izmat":8503,"ĠUilyam":8504,"xonasining":8505,"Ġobro":8506,"lovchilarning":8507,"Ġinsoniyat":8508,"ĠXitoyga":8509,"Ġ2013":8510,"ĠRayhon":8511,"ĠIbroh":8512,"Yong":8513,"test":8514,"oqib":8515,"Ġmagi":8516,"Ġoydin":8517,"Ġolganini":8518,"Ġharakatlarini":8519,"odavlat":8520,"Ġoqibatlari":8521,"Ġdeputati":8522,"Ġtanqisligi":8523,"Oxirgi":8524,"be":8525,"onor":8526,"alog":8527,"Ġxasta":8528,"ello":8529,"Ġ79":8530,"Ġkursi":8531,"Ġiltimos":8532,"Ġinsonparvarlik":8533,"Ġjarayonlari":8534,"lmaganda":8535,"Ġraqs":8536,"aprelda":8537,"Ġijrosi":8538,"Ġtilini":8539,"Ġvitaminlari":8540,"Shuni":8541,"MB":8542,"Ota":8543,"nun":8544,"ĠKos":8545,"maydan":8546,"uksion":8547,"ĠXavfsizlik":8548,"Ġchiqarilishi":8549,"Ġ96":8550,"Ġsotilgan":8551,"Ġsalfet":8552,"Ġkuzatuvchi":8553,"lagen":8554,"quvvatlaydi":8555,"donez":8556,"Ġnatijaga":8557,"ĠElle":8558,"Ap":8559,"llarni":8560,"rar":8561,"rgaz":8562,"Ġbadiiy":8563,"atildi":8564,"lanma":8565,"Ġetmagan":8566,"rsatuv":8567,"lumotlari":8568,"Ġoshadi":8569,"Ġqarorini":8570,"Ġyerdan":8571,"Aksar":8572,"Ġyoqilg":8573,"quvchisi":8574,"Ġinspeksiyasi":8575,"ĠSergeli":8576,"Ġiflos":8577,"Tar":8578,"erli":8579,"nit":8580,"umda":8581,"ĠBoris":8582,"Ġzah":8583,"ĠYa":8584,"Ġmahorat":8585,"Ġharakatlarni":8586,"Ġajin":8587,"ĠAdliya":8588,"Ġyogurt":8589,"Ġyerdagi":8590,"Ġgazeta":8591,"Ġkodeksning":8592,"Ġfanlari":8593,"ullayeva":8594,"Ġmajmuasi":8595,"ritaniyalik":8596,"Tibbiy":8597,"ei":8598,"iki":8599,"sal":8600,"Ġmeri":8601,"Ġveb":8602,"Ġsharaf":8603,"Shamol":8604,"Ġmumkinmi":8605,"ĠNider":8606,"yinchoq":8607,"Ġbef":8608,"Ġtomonlar":8609,"larimizning":8610,"Ġklinikasida":8611,"Ġshamollash":8612,"Ġtexnologiyalari":8613,"ngilochar":8614,"Ġoqibatlarini":8615,"ldoshev":8616,"Ġgazetasi":8617,"Ġyadroviy":8618,"Ukrain":8619,"shot":8620,"ragon":8621,"ĠYu":8622,"Ġketishga":8623,"Ġkattalar":8624,"Ġkiyib":8625,"Ġdepres":8626,"Ġmodeli":8627,"Ġmuvaffaqiyatsiz":8628,"Ġsonining":8629,"mayotgani":8630,"ĠMixail":8631,"Ġhukmron":8632,"ĠForbes":8633,"Ġaviakompaniyasi":8634,"Voqea":8635,"Ġdazmol":8636,"Ozarbayjon":8637,"ysun":8638,"ĠSay":8639,"ĠUrganch":8640,"Ġkelgusi":8641,"Ġtaqib":8642,"Ġnarxlar":8643,"Ġuchrashdi":8644,"Ġtarmoqlar":8645,"rnida":8646,"Ġinfratuzilma":8647,"Germaniya":8648,"nad":8649,"tra":8650,"sharq":8651,"anlar":8652,"Ġster":8653,"landiy":8654,"Ġtala":8655,"Ġayn":8656,"Ġoluvchi":8657,"ĠKalifor":8658,"Ġvaqtgacha":8659,"ĠFavqulodda":8660,"Ġrep":8661,"Ġketilgan":8662,"Ġrasm":8663,"tiyor":8664,"atrul":8665,"Armaniston":8666,"Ġekspertlar":8667,"Ġyaqqol":8668,"medov":8669,"sFoto":8670,"ygani":8671,"Ġmg":8672,"kaun":8673,"ullanadi":8674,"Ġberiladigan":8675,"rech":8676,"ĠKuch":8677,"ĠDem":8678,"Ġ194":8679,"Ġrassom":8680,"yxat":8681,"Ġkolon":8682,"Ġkanalida":8683,"Ġmigrant":8684,"Olimlar":8685,"IB":8686,"Kuz":8687,"Mir":8688,"lya":8689,"ry":8690,"sgan":8691,"ylagan":8692,"Ġeslatib":8693,"Ġpensiya":8694,"Ġshampun":8695,"Ġyoshdagi":8696,"Ġkuchi":8697,"Ġyurib":8698,"Ġnark":8699,"Ġtuzish":8700,"Ġmansub":8701,"Ġqiyinchilik":8702,"Ġuchraydi":8703,"Ġlayfxak":8704,"atsiyasini":8705,"ilgach":8706,"ovv":8707,"Ġchiziq":8708,"ĠKen":8709,"odon":8710,"Ġshtati":8711,"Ġsaylovi":8712,"Ġsaylovlari":8713,"Ġhaftadan":8714,"Ġortida":8715,"ufar":8716,"ĠUkrainani":8717,"Ġreyslar":8718,"Ġgipertoniya":8719,"Ġartisti":8720,"Ġrubl":8721,"TB":8722,"ser":8723,"vig":8724,"Ġomon":8725,"Ġchiroq":8726,"ĠYash":8727,"ĠAQShdagi":8728,"Ġ84":8729,"Ġnomzo":8730,"Ġochishni":8731,"Ġlavozimini":8732,"Ġkislota":8733,"ĠKongress":8734,"ĠRossiyani":8735,"Bollivud":8736,"Mus":8737,"ema":8738,"ld":8739,"shgan":8740,"Ġekipaj":8741,"Ġbitiruvchi":8742,"ĠBoy":8743,"xonasiga":8744,"Ġ98":8745,"ayonez":8746,"Ġartib":8747,"Ġfarmatsevtika":8748,"tiborsiz":8749,"xtatishga":8750,"Ġniqoblar":8751,"Ġzanjir":8752,"Mari":8753,"Oyoq":8754,"Tabiiy":8755,"lsin":8756,"Ġildi":8757,"sisi":8758,"Ġberayotgan":8759,"ĠModerna":8760,"ĠBotir":8761,"Ġorasidan":8762,"ĠCo":8763,"Ġ195":8764,"Ġaxloq":8765,"Ġemlandi":8766,"Ġkeltiradi":8767,"Isroil":8768,"Ġguvohnom":8769,"opoliyaga":8770,"Agent":8771,"Jizzax":8772,"Oila":8773,"Ġmez":8774,"Ġyen":8775,"lanarli":8776,"Ġsoati":8777,"Ġbirdan":8778,"afa":8779,"Ġ2023":8780,"Ġkiruvchi":8781,"koning":8782,"Ġmaktabda":8783,"ĠAbdullayev":8784,"Ġaloqasi":8785,"ĠAnqar":8786,"Ġraisining":8787,"Ġpunk":8788,"ĠIkkinchi":8789,"Ġmegapikselli":8790,"market":8791,"DH":8792,"Osh":8793,"Sin":8794,"Surat":8795,"Xitoyda":8796,"doni":8797,"olik":8798,"tlik":8799,"arl":8800,"atsiz":8801,"sif":8802,"shik":8803,"Ġdala":8804,"Ġtetik":8805,"ĠGeyt":8806,"Ġamin":8807,"Ġqurilm":8808,"Ġuylar":8809,"tarish":8810,"Ġviloyatlari":8811,"Ġetilgandi":8812,"Ġarab":8813,"Ġprezidentning":8814,"Ġrejasi":8815,"Ġagentligining":8816,"Ġvazifalar":8817,"fevralda":8818,"Ġsalomatligini":8819,"Ġpishirish":8820,"Ġokrug":8821,"Ġsuratlarda":8822,"quvchilari":8823,"Ġcharcha":8824,"Ġjihozlangan":8825,"Ġmusulmonlari":8826,"Ġxarajatlari":8827,"bati":8828,"qab":8829,"anti":8830,"olga":8831,"ĠMuq":8832,"Ġmusiq":8833,"ĠSSSR":8834,"Ġakkaun":8835,"Ġetilayotgan":8836,"Ġayolga":8837,"Ġnazor":8838,"Ġvaziyatning":8839,"Ġrivojlantirishga":8840,"Ġuzoqroq":8841,"Ġmunosabatlarini":8842,"Ġobyektlari":8843,"Ġixtisoslashgan":8844,"Ġchipta":8845,"Ġzimmasiga":8846,"68":8847,"Ġyasal":8848,"otlari":8849,"ĠTursun":8850,"Ġmuj":8851,"ĠBola":8852,"Ġqilinishini":8853,"ĠEng":8854,"Ġfarm":8855,"ĠAbduh":8856,"Ġaralashma":8857,"Ġkompaniyasiga":8858,"100":8859,"Sut":8860,"orning":8861,"Ġnodavlat":8862,"udrat":8863,"ĠDehqon":8864,"ĠJennifer":8865,"diyev":8866,"Ġmahsulotni":8867,"Ġtasodi":8868,"Ġsalkam":8869,"Ġmarkazidagi":8870,"Ġsaylovlarda":8871,"Ġcheklovlarni":8872,"ĠKarim":8873,"Ġmashinasini":8874,"Ġimkoniyatlar":8875,"Ġrejalashtirgan":8876,"Ġmateriallari":8877,"Ġgazetasining":8878,"75":8879,"Don":8880,"Qonun":8881,"iland":8882,"rquv":8883,"shini":8884,"Ġkvartir":8885,"Ġshaffof":8886,"siyalar":8887,"ligidagi":8888,"Ġetilib":8889,"Ġtashqarida":8890,"Ġtalablarini":8891,"Ġbelgilash":8892,"Ġqilishiga":8893,"Ġyaratishga":8894,"Ġsohada":8895,"Ġnarsaga":8896,"Ġsheriklik":8897,"Ġshubhasiz":8898,"eople":8899,"Ġchempion":8900,"Pod":8901,"ortaj":8902,"rah":8903,"rali":8904,"tiroz":8905,"ĠAz":8906,"itoliy":8907,"Shimoliy":8908,"ster":8909,"Ġyang":8910,"ĠDunyo":8911,"Ġchiqmoqda":8912,"mondon":8913,"Ġkeltirish":8914,"xontoh":8915,"Ġkuchlar":8916,"oper":8917,"Ġsuver":8918,"Ġmuammolari":8919,"Ġchegarasida":8920,"muriyat":8921,"Ġtushunish":8922,"Ġfarzandini":8923,"Issiq":8924,"Ġsimptomlar":8925,"Ġmehnatga":8926,"ĠZoir":8927,"Ġnogiron":8928,"xontohur":8929,"Ki":8930,"Ġkoni":8931,"Ġses":8932,"omali":8933,"ĠAOKA":8934,"ĠTem":8935,"Ġtashlashga":8936,"rinews":8937,"emik":8938,"Ġfoiziga":8939,"engrinews":8940,"Meni":8941,"Ġtaksi":8942,"Ġcheklovlari":8943,"Ġtaomlar":8944,"ravonlik":8945,"Ġislohotlar":8946,"Mo":8947,"usiga":8948,"yoni":8949,"ĠSingapur":8950,"onivor":8951,"Ġchiqishini":8952,"Ġislom":8953,"Ġistasangiz":8954,"Ġayolni":8955,"Ġ130":8956,"Ġyopib":8957,"yapman":8958,"qotadi":8959,"Ġmasofadan":8960,"Ġgiyohvandlik":8961,"ĠFinlyandiya":8962,"Ġmamnun":8963,"ideniy":8964,"foni":8965,"tishga":8966,"Ġhidi":8967,"Ġpedag":8968,"Ġjurnal":8969,"Ġkome":8970,"Ġyashayotgan":8971,"Ġoshishiga":8972,"Ġxalqi":8973,"lashiga":8974,"Ġmunosabatlarni":8975,"Ġatrofdagi":8976,"Ġrejimini":8977,"chirish":8978,"Quyosh":8979,"Ġmanbalariga":8980,"Ġmuqad":8981,"Ġnomzodi":8982,"Kiy":8983,"Naf":8984,"Tarkib":8985,"bank":8986,"leri":8987,"zni":8988,"Ġbron":8989,"Ġkrip":8990,"Ġkichkina":8991,"obiq":8992,"oliddin":8993,"Ġtutadi":8994,"Ġyetgani":8995,"ĠHi":8996,"Ġvideok":8997,"xtatdi":8998,"Ġlavha":8999,"Ġistiqbol":9000,"ĠOlimpiada":9001,"Tashqi":9002,"Ġmojar":9003,"dok":9004,"shoq":9005,"ins":9006,"Ġpoch":9007,"Ġdyuy":9008,"Ġglyuk":9009,"rinli":9010,"ĠLav":9011,"Ġoshirildi":9012,"alak":9013,"Ġsarm":9014,"nalishlari":9015,"oktabrda":9016,"Ġsinglisi":9017,"Ġmoyi":9018,"Ġasabiy":9019,"ĠAbdurah":9020,"ĠRizayeva":9021,"avdo":9022,"Ġbiron":9023,"ĠSe":9024,"Ġmamlakatlarga":9025,"Ġbemorga":9026,"Ġqatorida":9027,"Ġafs":9028,"Ġtaqiqlanadi":9029,"ĠKardashyan":9030,"Ġmakaron":9031,"Ġmavsumi":9032,"ĠSirdaryoda":9033,"Umumiy":9034,"Ġkorrupsiya":9035,"32":9036,"Xamir":9037,"lol":9038,"shoh":9039,"ayz":9040,"Ġfalok":9041,"uds":9042,"Ġolishdan":9043,"Ġreferendum":9044,"Ġsantim":9045,"Ġyetkazadi":9046,"Ġuchrashgan":9047,"Ġtanishib":9048,"Ġqobiliyatini":9049,"Ġshoxob":9050,"Ġtojik":9051,"vigat":9052,"Ġmuqaddam":9053,"Med":9054,"ylayman":9055,"illat":9056,"urov":9057,"atilayotgan":9058,"langanini":9059,"ojo":9060,"manuel":9061,"Ġhissi":9062,"Ġfuqarolarining":9063,"Ġnomiga":9064,"sirida":9065,"ĠMirzayev":9066,"ĠZF":9067,"Ġobrazi":9068,"Ġvositalardan":9069,"shimchalar":9070,"Ġulush":9071,"Ġtergovga":9072,"Ġogohlantirish":9073,"Ġqochqin":9074,"Ġulgurgan":9075,"IS":9076,"lardim":9077,"asib":9078,"Ġposh":9079,"Ġshilliq":9080,"Ġsoladi":9081,"Ġberilishini":9082,"Ġolmay":9083,"masin":9084,"Ġtomchi":9085,"laganda":9086,"Ġjoylar":9087,"Ġtushlik":9088,"Ġshaharlarida":9089,"Ġkiyin":9090,"fevraldan":9091,"Ġkamaygan":9092,"Ġkamayishi":9093,"Ġkiprik":9094,"Ġgigab":9095,"Ġbulg":9096,"Ġassotsi":9097,"Ġyasalgan":9098,"Gollivud":9099,"Rasmiy":9100,"Tax":9101,"llarini":9102,"pgina":9103,"Ð½":9104,"Ġyapon":9105,"Ġsara":9106,"Ġeta":9107,"Ġetishda":9108,"Ġsabablarga":9109,"Ġurgan":9110,"Ġboshqarma":9111,"Ġpaytgacha":9112,"sioner":9113,"Ġmuhimi":9114,"ilayotgani":9115,"Ġurushga":9116,"Ġquvon":9117,"ĠToki":9118,"Ġmanbai":9119,"Ġadministrat":9120,"Ġkofein":9121,"Ġukrainalik":9122,"Haqiq":9123,"Qon":9124,"bit":9125,"Ġtiq":9126,"irt":9127,"uqli":9128,"ĠGonkong":9129,"ĠFMB":9130,"Ġdavlatga":9131,"Ġ89":9132,"Ġhududga":9133,"ĠInstagramXonanda":9134,"ressi":9135,"Ġtarmoqli":9136,"Ġzararsiz":9137,"Ġmashinalar":9138,"Ġqobiliyati":9139,"ĠMerkel":9140,"Ġqarindoshlari":9141,"Ġminnatdorchilik":9142,"Ġhazil":9143,"Ġsantimetr":9144,"Ġgigabayt":9145,"Mart":9146,"oka":9147,"ven":9148,"xay":9149,"shab":9150,"ilyapti":9151,"liklarini":9152,"Ġpremyer":9153,"ikr":9154,"ĠGruz":9155,"Ġchiqing":9156,"Ġyubori":9157,"Ġhayotga":9158,"moqchiman":9159,"Ġqatorda":9160,"Ġnashriga":9161,"Ġdepartament":9162,"ĠItaliyada":9163,"Uzoq":9164,"Ġjinsi":9165,"mosfer":9166,"Ġoqshom":9167,"Mux":9168,"tori":9169,"atur":9170,"unda":9171,"urta":9172,"Ġfransuz":9173,"Ġjasad":9174,"Amerikalik":9175,"Ġaktrisalari":9176,"Ġhuquqiga":9177,"Ġqoldirilgan":9178,"Ġfikrlar":9179,"Ġsirka":9180,"ĠRashid":9181,"Saylov":9182,"me":9183,"prezident":9184,"izda":9185,"ĠYaqin":9186,"Ġalyan":9187,"Ġkasalliklarga":9188,"Ġ87":9189,"Ġboshqarib":9190,"Ġtizimli":9191,"Ġrespublikaning":9192,"Ġkeying":9193,"upol":9194,"zimni":9195,"Ġqurbonlar":9196,"Ikkinchidan":9197,"Ġakademik":9198,"Surxondaryo":9199,"Ep":9200,"Hodisa":9201,"basa":9202,"Ġ&":9203,"shat":9204,"ishk":9205,"Ġudda":9206,"Ġchan":9207,"Ġzab":9208,"Ġkunidan":9209,"Ġtaqinch":9210,"alav":9211,"Hozircha":9212,"Ġtushunib":9213,"Ġruxsatnoma":9214,"lanayotgani":9215,"Ġmuvofiqlashtirish":9216,"ĠSenat":9217,"Ġzavq":9218,"Ġinfratuzilm":9219,"Ovqat":9220,"34":9221,"Nur":9222,"hat":9223,"nel":9224,"ilufar":9225,"abib":9226,"ĠTehron":9227,"Ġ2011":9228,"Ġmoddalarni":9229,"ehr":9230,"Ġdaqiqadan":9231,"rinishida":9232,"Ġortga":9233,"Ġvitaminlar":9234,"Ġkonser":9235,"Ġmisol":9236,"ebrey":9237,"ĠAsal":9238,"Ġochilishi":9239,"Ġoqibatlarga":9240,"Ġshaklidagi":9241,"Ġuchrashib":9242,"ĠGuardi":9243,"Ġkommunikatsiyalar":9244,"ĠMisr":9245,"Bal":9246,"Sen":9247,"Ġkub":9248,"Ġtus":9249,"otex":9250,"ovet":9251,"lashishiga":9252,"ShID":9253,"ĠMish":9254,"esus":9255,"yad":9256,"Ġvaqtga":9257,"tarilib":9258,"Ġberilgani":9259,"Ġsuvi":9260,"Ġkelganini":9261,"Ġyubka":9262,"Ġshakllantir":9263,"Ġbosqichida":9264,"Ġmaydonchasida":9265,"ĠGermaniyada":9266,"ĠBirlashgan":9267,"ĠFeruza":9268,"Ġyondashuv":9269,"Aksariyat":9270,"Jurnali":9271,"meni":9272,"rush":9273,"gash":9274,"irligi":9275,"Ġsilliq":9276,"ayri":9277,"ĠOzod":9278,"ĠSzin":9279,"Ġtashlagan":9280,"Ġantib":9281,"atsiyalar":9282,"Ġbuyruq":9283,"Ġsuvni":9284,"Ġfilmlari":9285,"Ġsindrom":9286,"Ġsohalar":9287,"xtatildi":9288,"Ġquyiladi":9289,"Ġhukumatning":9290,"Ġstansiyasi":9291,"Ġmaktub":9292,"Ġhaftasiga":9293,"Qanday":9294,"Ben":9295,"Om":9296,"jet":9297,"Ġ00":9298,"lamo":9299,"Ġegiz":9300,"abir":9301,"taga":9302,"rad":9303,"Ġjis":9304,"adiy":9305,"Ġnafaq":9306,"Ġajab":9307,"Ġkontr":9308,"Harorat":9309,"tadqiqot":9310,"Ġgapirgan":9311,"qolgan":9312,"Rejiss":9313,"Ġzabt":9314,"ebreyesus":9315,"FA":9316,"Kir":9317,"arrir":9318,"Ġoshiq":9319,"alt":9320,"dev":9321,"rindi":9322,"Ġetilishini":9323,"Ġtalablari":9324,"Ġsohasiga":9325,"Ġtaklifini":9326,"Ġkelishmovchilik":9327,"Ġqoldirib":9328,"zgu":9329,"riye":9330,"Ġsoniya":9331,"Ġinternetda":9332,"ĠOlmazor":9333,"Ġingich":9334,"Ġtatbiq":9335,"Ġsanoati":9336,"ĠGuardian":9337,"Hayd":9338,"alarni":9339,"bop":9340,"Ġsus":9341,"Ġplan":9342,"ĠRav":9343,"Ġqonda":9344,"zgartirib":9345,"Ġavtomatik":9346,"assam":9347,"Ġmehrib":9348,"Ġkutmoqda":9349,"Ġjahonning":9350,"Ġkeltirdi":9351,"Ġapelsin":9352,"Bolalar":9353,"Ġoilani":9354,"ĠKengashi":9355,"jar":9356,"pin":9357,"Ġspik":9358,"erlik":9359,"chiligida":9360,"Ġboshpan":9361,"ĠSputnik":9362,"azar":9363,"ĠDe":9364,"Ġtizimidagi":9365,"Ġfarmoni":9366,"ĠMaryam":9367,"Ġvideomur":9368,"Ġqahv":9369,"Ġmashinasida":9370,"Ġkechirgan":9371,"Ġshifoxonasiga":9372,"Ġaviaqatnovlar":9373,"Ġpirog":9374,"36":9375,"Min":9376,"jin":9377,"kasiga":9378,"tok":9379,"andaning":9380,"Ġtrom":9381,"Ġishchilar":9382,"ĠTovuq":9383,"ĠPentagon":9384,"Ġborishni":9385,"lashtirishi":9386,"ĠEd":9387,"lyuz":9388,"Ġuchrashuvi":9389,"upqa":9390,"Ġxotirjam":9391,"Ġbaravarga":9392,"ĠOlmaliq":9393,"itssa":9394,"Ġmujassam":9395,"eyi":9396,"kasini":9397,"rining":9398,"ushiga":9399,"Ġsmetana":9400,"asar":9401,"azab":9402,"ĠJoli":9403,"ĠXar":9404,"apmiz":9405,"Ġqizni":9406,"Ġoqimi":9407,"Aytgan":9408,"Ġkutub":9409,"Ġrolni":9410,"Harbiy":9411,"Ġmustahkamlaydi":9412,"djet":9413,"Ġnomzodini":9414,"rsatdiki":9415,"Endilikda":9416,"ĠPitt":9417,"Ġijaraga":9418,"ishkek":9419,"Man":9420,"Nik":9421,"On":9422,"tmoqda":9423,"Ġkera":9424,"ordan":9425,"Ġtaall":9426,"Ġflag":9427,"Ġdetal":9428,"Ġundir":9429,"ĠFilipp":9430,"Ġdavomiy":9431,"Ġyaxshilashga":9432,"Ġshtatida":9433,"Ġxalqiga":9434,"Ġsanksiyalarni":9435,"Ġtelevideniy":9436,"Ġashyoviy":9437,"Ġdispley":9438,"ovvoyi":9439,"plagan":9440,"âĢĺ,":9441,"sia":9442,"ovni":9443,"raladi":9444,"ĠBe":9445,"Ġ350":9446,"ĠVirus":9447,"Ġqizaloq":9448,"ingizdan":9449,"Ġtumaniga":9450,"Ġqiyma":9451,"Ġdavolanishga":9452,"ford":9453,"Ġtarqatgan":9454,"Ġhamkasbi":9455,"Ġmikrobi":9456,"ĠShohrux":9457,"ĠLitva":9458,"//":9459,"://":9460,"Es":9461,"Hokim":9462,"paytir":9463,"tari":9464,"iyos":9465,"Ġfosh":9466,"Ġmutaxas":9467,"ojib":9468,"tiqcha":9469,"Ġkonsep":9470,"tiborga":9471,"masligiga":9472,"Ġyopiladi":9473,"Ġpishiring":9474,"Ġepidemiyasi":9475,"gusida":9476,"Ġmanbasi":9477,"ĠKonstitut":9478,"Oy":9479,"Usti":9480,"Yer":9481,"lsak":9482,"vest":9483,"Ġqush":9484,"Ġberishda":9485,"ĠTengrinews":9486,"ĠLat":9487,"uyg":9488,"Ġtumanlarida":9489,"Ġhokimlik":9490,"Ġbizda":9491,"Ġstol":9492,"ĠXitoydagi":9493,"Ġsizning":9494,"paygan":9495,"Ġvideolarni":9496,"Ġaloqalarni":9497,"Ġeshitish":9498,"Ġparvozlarni":9499,"Shahzoda":9500,"Ġotishma":9501,"VAC":9502,"Ġbemalol":9503,"Ġtaalluqli":9504,"Sovuq":9505,"qqi":9506,"onat":9507,"Ġvra":9508,"aqqat":9509,"Ġbirlamchi":9510,"Ġaytadi":9511,"Ġbora":9512,"essi":9513,"emat":9514,"Ġaniqlagan":9515,"Ġtashqariga":9516,"ĠChex":9517,"Ġloyihani":9518,"Ġmuammosi":9519,"yxatidan":9520,"Ġruxsatnom":9521,"Ġqoldirish":9522,"Ġtabiat":9523,"payishi":9524,"Ġkosmetika":9525,"Ġpishiriladi":9526,"Ġharoratda":9527,"Ġjabrlanuvchi":9528,"Ġmassaj":9529,"endantlik":9530,"Ġingichka":9531,"Yor":9532,"mush":9533,"tps":9534,"Ġti":9535,"Ġopa":9536,"ĠBahodir":9537,"roup":9538,"Ġoyn":9539,"Ġmuharrir":9540,"Ġgadjet":9541,"Ġharakatini":9542,"Ġovozi":9543,"yana":9544,"ĠZok":9545,"Ġvaziyatdan":9546,"ĠRespublikasining":9547,"Ġyakunida":9548,"Ġtarixida":9549,"Ġultrabinafsha":9550,"Ġsolgan":9551,"Ġbeshinchi":9552,"toroj":9553,"Ġhayvonlar":9554,"riddin":9555,"Yuqori":9556,"ensiv":9557,"oqibat":9558,"Teri":9559,"Xorij":9560,"yet":9561,"Ġbari":9562,"Ġboshi":9563,"ĠAsad":9564,"ĠAES":9565,"Shax":9566,"ozib":9567,"Ġtarbiy":9568,"ĠNiz":9569,"rsatmalar":9570,"ĠVal":9571,"Ġoshirdi":9572,"burug":9573,"Ġ110":9574,"Ġyuksak":9575,"septik":9576,"qituvchilar":9577,"Ġokru":9578,"Ġdaromadi":9579,"ĠAvstr":9580,"vetlana":9581,"jidi":9582,"ĠSenati":9583,"Ġsignal":9584,"biznes":9585,"kumulyator":9586,"Ġtuyg":9587,"ĠZangiota":9588,"Ġvodiy":9589,"iyasidan":9590,"Ġnojo":9591,"enj":9592,"lumki":9593,"Ġkasalliklarning":9594,"Ġ94":9595,"Ġrejasini":9596,"olyut":9597,"laklari":9598,"Ġmuassasalariga":9599,"dekabrdan":9600,"Ġkomponent":9601,"Ġhajmini":9602,"ĠUsmonov":9603,"uliyati":9604,"Ġpsixologik":9605,"Ġyeyish":9606,"Ġfotosurat":9607,"ĠIlhom":9608,"Ġqurboniga":9609,"eslihan":9610,"Ġbefarq":9611,"Nega":9612,"band":9613,"nos":9614,"xori":9615,"ariq":9616,"chani":9617,"ishining":9618,"oma":9619,"Ġfesti":9620,"Ġshanba":9621,"ational":9622,"ahriye":9623,"alim":9624,"ĠKrist":9625,"lashtirdi":9626,"Ġekologik":9627,"Ġtayyorlang":9628,"Ġxodimiga":9629,"Ġatmosfer":9630,"ichak":9631,"ĠZar":9632,"Ġilg":9633,"Ġsovun":9634,"Ġchegarasidagi":9635,"linken":9636,"rsatkichlari":9637,"Ġserialining":9638,"Ġqirol":9639,"Ġsmartfonlar":9640,"Ġkorxonalari":9641,"harakatlari":9642,"Sevgi":9643,"ĠShayxontohur":9644,"flix":9645,"Gul":9646,"Suhbat":9647,"Smartfon":9648,"Ġtani":9649,"ishgan":9650,"asur":9651,"Ġyos":9652,"Ġboshlarida":9653,"ĠOsiy":9654,"Ġolmoqda":9655,"ĠKris":9656,"Ġina":9657,"dayoq":9658,"rinishini":9659,"ĠShod":9660,"Ġqolsa":9661,"ĠMirzo":9662,"Ġhayotiga":9663,"ritancha":9664,"Ġmehr":9665,"Ġ2010":9666,"doshlari":9667,"Ġpayshanba":9668,"Ġfoydalanuvchilari":9669,"biznesi":9670,"ĠYusup":9671,"Ġservis":9672,"ĠTixanovskaya":9673,"Juftlik":9674,"Apple":9675,"go":9676,"Ġtonal":9677,"Ġqishda":9678,"Ġsul":9679,"tirishi":9680,"atiladigan":9681,"rix":9682,"ĠPop":9683,"Ġboriladi":9684,"Ġyuborishi":9685,"Ġmiqdoridagi":9686,"Ġnoxush":9687,"ĠBelarusda":9688,"2001":9689,"Ġaksiyalari":9690,"ĠĠĠĠ":9691,"ĠLook":9692,"Ġqalampiri":9693,"ĠMunisa":9694,"Taxmin":9695,"Zelenskiy":9696,"oi":9697,"qoli":9698,"rinib":9699,"Ġjozib":9700,"Ġauksion":9701,"emis":9702,"Ġkirishga":9703,"Ġqildik":9704,"Ġtopa":9705,"Ġ86":9706,"Ġyaratadi":9707,"Ġistagi":9708,"ĠAkramov":9709,"ĠMustaqil":9710,"Ġrekon":9711,"Ġmuzlatkichga":9712,"chel":9713,"diradi":9714,"Ġdvigat":9715,"Ġantir":9716,"ĠShveysar":9717,"mizga":9718,"biridan":9719,"ilishining":9720,"Ġsuvsiz":9721,"Ġsotuvchi":9722,"Ġaholisini":9723,"Ġmaktablarda":9724,"Ġturmak":9725,"lmagani":9726,"Ġsaylovlarida":9727,"Ġolinadigan":9728,"2015":9729,"Ġkartin":9730,"ĠOlmaota":9731,"Ġqirolicha":9732,"Ġtongda":9733,"Sevimli":9734,"Ġqadoq":9735,"Ġyengib":9736,"33":9737,"Kos":9738,"qishni":9739,"toy":9740,"wood":9741,"yom":9742,"orld":9743,"Ġyiq":9744,"Ġbom":9745,"tilishi":9746,"ome":9747,"ĠAmazon":9748,"Ġcher":9749,"Ġvaqtni":9750,"Ġmasjidi":9751,"Ġoyna":9752,"Ġoshgani":9753,"Ġshaharning":9754,"Ġfoydalaniladi":9755,"Ġtopshirig":9756,"Ġnamoyishi":9757,"Ġdollargacha":9758,"Ġmodellar":9759,"Ġkollagen":9760,"ĠKapitoliy":9761,"Ġuchraydigan":9762,"Aytgancha":9763,"ww":9764,"larmon":9765,"ath":9766,"ĠYev":9767,"lanishdan":9768,"Ġdavlatning":9769,"tarildi":9770,"Ġkarta":9771,"Ġkiritilmagan":9772,"Ġrasmiylashtir":9773,"Ġerishilgan":9774,"dikal":9775,"arkov":9776,"Ġaviaqatnovlarni":9777,"Ġreanimatsiya":9778,"Ġkletchatka":9779,"Ġachchiq":9780,"Jons":9781,"Mer":9782,"ward":9783,"âĢĿ:":9784,"istlar":9785,"ĠKush":9786,"Ġradikal":9787,"ĠYoshlar":9788,"Ġfoydasi":9789,"Ġchiqaruvchilar":9790,"Ġbuyrug":9791,"Ġhukmi":9792,"Ġinflyatsiya":9793,"Ġbilmaydi":9794,"Ġoilasiga":9795,"Ġpulni":9796,"Ġochlik":9797,"Ġboshlagani":9798,"Ġmodellari":9799,"Ġshirinliklar":9800,"Ġxavotirda":9801,"Ġkeyingina":9802,"Non":9803,"lingiz":9804,"Ġishlashni":9805,"Ġavariya":9806,"ĠYang":9807,"Ġtank":9808,"Avgust":9809,"Ġ900":9810,"Ġqarorga":9811,"Ġqaytadan":9812,"time":9813,"atsionar":9814,"Ġyetakchilari":9815,"Ġxohla":9816,"Ġmoderni":9817,"Ġhokimiyatni":9818,"Mahsulot":9819,"ĠAxborot":9820,"ĠMeksika":9821,"Sentabr":9822,"luk":9823,"lamoqchi":9824,"chmas":9825,"Ġkum":9826,"Ġklast":9827,"irlik":9828,"Ġtaass":9829,"Ġkesim":9830,"okrat":9831,"ĠGam":9832,"Ġjoylari":9833,"Ġshaxmat":9834,"ersal":9835,"iyatiga":9836,"linmasi":9837,"Ġsuhbatda":9838,"Ġogohlantirgan":9839,"Ġehtiyotkorlik":9840,"Ġshafqat":9841,"Ġhamjamiyat":9842,"Hudud":9843,"ĠGeyts":9844,"Ġmutaxassisi":9845,"tam":9846,"yishi":9847,"Ġolishiga":9848,"ernat":9849,"osfor":9850,"Ġberamiz":9851,"itsi":9852,"Ġaylantirish":9853,"stlari":9854,"Ġborishga":9855,"ukni":9856,"limlar":9857,"Ġ71":9858,"Ġuzr":9859,"Ġoby":9860,"Ġkuzatilsa":9861,"Ġhalqa":9862,"Ġvaksinadan":9863,"xtatgan":9864,"mitasining":9865,"Ġyulduzlarining":9866,"Ġaloqada":9867,"Ġtanishish":9868,"Ġkafe":9869,"sariq":9870,"Ġbakalav":9871,"ĠEmmanuel":9872,"ĠRamazon":9873,"Ang":9874,"Sulton":9875,"adan":9876,"qotib":9877,"shah":9878,"iyalar":9879,"ĠBioNTech":9880,"stana":9881,"ogar":9882,"ĠXerson":9883,"Ġuyni":9884,"Ġkomendantlik":9885,"Ġbemorlarda":9886,"Ġurilgan":9887,"Ġaholisiga":9888,"Ġpaytlarda":9889,"Ġ128":9890,"Ġhimoyalanish":9891,"quvvatlashga":9892,"Ġantiseptik":9893,"Ġahamiyatli":9894,"ĠAkmal":9895,"Ġhikoyasi":9896,"Ġjonli":9897,"Ġintensiv":9898,"lmasin":9899,"ĠKoreyaning":9900,"Poytaxt":9901,"Ġqutulish":9902,"Maxsus":9903,"His":9904,"loy":9905,"Ġkoinot":9906,"uter":9907,"Ġ(+":9908,"ĠJav":9909,"Ġmahkam":9910,"Ġmahkum":9911,"Ġvaqtlar":9912,"idd":9913,"Ġfuqaroga":9914,"Ġketishiga":9915,"Ġloyihalari":9916,"ĠAnvar":9917,"Ġqishki":9918,"Ġimkoniyatiga":9919,"Ġekstrem":9920,"Ġeskir":9921,"Ġmustas":9922,"Mul":9923,"kechak":9924,"otda":9925,"Ġbiologik":9926,"Shirin":9927,"axon":9928,"ĠPo":9929,"Ġbarg":9930,"ĠFV":9931,"Ġmamlakatlarning":9932,"yinlari":9933,"Avtomobil":9934,"Ġshaharlari":9935,"Ġbolalari":9936,"gunicha":9937,"Ġnarxining":9938,"Ġzarurligi":9939,"Ġ2008":9940,"ĠEronning":9941,"Ġhujjatlari":9942,"Ġaeroportida":9943,"Ġtovarlar":9944,"Ġfilial":9945,"Ġchindan":9946,"Ġmustasno":9947,"Donald":9948,"ringan":9949,"atsiyaning":9950,"unyoning":9951,"Ġdid":9952,"burchak":9953,"Ġfoydalanuvchilar":9954,"Ġxorijda":9955,"Ġbaholangan":9956,"qnashuvlar":9957,"qaymoq":9958,"ĠShodiyeva":9959,"Ġyostiq":9960,"Mav":9961,"zgi":9962,"Ġmi":9963,"ishiy":9964,"aytirish":9965,"niki":9966,"akimov":9967,"Ġfid":9968,"latish":9969,"latilgan":9970,"Ġ140":9971,"Ġsovrin":9972,"2014":9973,"Ġsarflangan":9974,"ĠFransiyada":9975,"Ġehtimoliy":9976,"boshqaruv":9977,"ĠMoskvaga":9978,"Ġtaqsimlash":9979,"Ġgavdalantirgan":9980,"Anjeles":9981,"Ġtaassur":9982,"Jon":9983,"MS":9984,"ulida":9985,"Ġnat":9986,"imning":9987,"dagidek":9988,"Ġishtah":9989,"Ġkunlar":9990,"ĠKom":9991,"Ġyetishi":9992,"197":9993,"Ġhamdard":9994,"Ġqizini":9995,"Ġyozgi":9996,"Ġqilinganidan":9997,"Ġ104":9998,"Ġbilmagan":9999,"ichment":10000,"Chek":10001,"Ġhozirga":10002,"ĠIsomiddinova":10003,"Ġavia":10004,"maloq":10005,"Ġzamburug":10006,"Ġfuqaroni":10007,"Ġxulosalar":10008,"Ġtabass":10009,"ĠMahmud":10010,"Ġqadriyat":10011,"dokrin":10012,"britancha":10013,"Ġshe":10014,"olim":10015,"Ġorq":10016,"zbekistondan":10017,"ĠPort":10018,"ubey":10019,"rtoq":10020,"Ġkuchlarining":10021,"Ġaktyorlik":10022,"Ġtekshiruvi":10023,"Ġxalqimiz":10024,"Ġayblagan":10025,"Ġmuassasasi":10026,"Ġjarayoniga":10027,"ĠDilruh":10028,"ĠSardor":10029,"luksiz":10030,"Jennifer":10031,"Mush":10032,"Vide":10033,"mor":10034,"uri":10035,"ĠMag":10036,"Ġturuvchi":10037,"ĠJeff":10038,"rindiq":10039,"Ġoyog":10040,"Ġkelmagan":10041,"Ġetilganlar":10042,"Ġyaratdi":10043,"Ġpullarni":10044,"Ġqonunni":10045,"Ġkutilgan":10046,"avgustda":10047,"Bungacha":10048,"llaniladi":10049,"Turli":10050,"Ġxiyob":10051,"Ġtahlili":10052,"plam":10053,"shak":10054,"Ġblog":10055,"gansk":10056,"Ġhomiy":10057,"Ġfak":10058,"eka":10059,"rax":10060,"uzu":10061,"istonlik":10062,"ĠPeople":10063,"Ġchiqadigan":10064,"Ġsababini":10065,"Ġmamlakatlarida":10066,"Ġrezav":10067,"Ġtopadi":10068,"rikdan":10069,"lywood":10070,"Ġfikrini":10071,"Ġsuratlarini":10072,"Ġobyektlar":10073,"bilarmon":10074,"Ġmanbalari":10075,"Yaqinda":10076,"Ġmonitoring":10077,"kasida":10078,"noza":10079,"Ġyoy":10080,"kaf":10081,"ĠTra":10082,"Ġolmasligini":10083,"ĠDaniya":10084,"ĠFre":10085,"Ġyordamchisi":10086,"ĠVan":10087,"ĠVeng":10088,"Ġtayyorladi":10089,"Ġsayoh":10090,"Ġxodimining":10091,"Ġsovet":10092,"rinishidagi":10093,"arakter":10094,"Ġ1992":10095,"Ġkuzatiladigan":10096,"Ġbodom":10097,"Italiya":10098,"Ehtimol":10099,"Ġantirekord":10100,"Dep":10101,"mishlar":10102,"ze":10103,"Ġfoji":10104,"aqlli":10105,"Ġboshlashi":10106,"dirgan":10107,"ĠKatta":10108,"satsiya":10109,"Ġqolmagan":10110,"ĠxizmatiMa":10111,"Ġbolaga":10112,"munitet":10113,"Ġdorixona":10114,"Ġhattoki":10115,"Ġserialda":10116,"Ġtilga":10117,"Ġkelaja":10118,"Ġamaliyoti":10119,"Ġnashrining":10120,"Ġkaryerasini":10121,"Ġehtimolini":10122,"ĠTurizm":10123,"Besh":10124,"koli":10125,"lch":10126,"tingi":10127,"ve":10128,"shilish":10129,"Ġjonivor":10130,"Ġqochoq":10131,"ation":10132,"afar":10133,"ozga":10134,"ella":10135,"Ġnafaqa":10136,"Ġtanlab":10137,"Ġqarshisida":10138,"Ġijara":10139,"matova":10140,"soat":10141,"Ġqolganini":10142,"Ġstatsionar":10143,"tiborli":10144,"Ġnarxini":10145,"Ġafsuski":10146,"shinlarining":10147,"Ġqahramonlar":10148,"Ġmuddatidan":10149,"Ġobrazni":10150,"dromet":10151,"Ġvatand":10152,"Limon":10153,"Ularga":10154,"Vaqt":10155,"agi":10156,"atal":10157,"Ġmayonez":10158,"Ġsak":10159,"erdan":10160,"Ġekin":10161,"Ġbilishi":10162,"Ġbirj":10163,"ĠMal":10164,"Ġchizi":10165,"Ġinqil":10166,"lashtirishni":10167,"Ġnimani":10168,"Ġfoydalanishi":10169,"Ġkamaydi":10170,"Ġhisoblab":10171,"Ġoshiriladigan":10172,"Ġtuzatish":10173,"Ġhududini":10174,"Ġumurt":10175,"lament":10176,"Ġbuzilgan":10177,"Ġvirusli":10178,"Ġlozimligini":10179,"Ġoperatsiyasi":10180,"Ġziyof":10181,"Ġparvozlar":10182,"Quyidagi":10183,"Ġreanimatsion":10184,"evrolet":10185,"ĠMashhur":10186,"Ġmodernizatsiya":10187,"38":10188,"huj":10189,"yos":10190,"Ġbis":10191,"amik":10192,"Ġfani":10193,"Ġuchish":10194,"Ġishlovchi":10195,"iyadan":10196,"ĠSoch":10197,"element":10198,"ĠIsh":10199,"Ġasl":10200,"Ġyuzini":10201,"Ġhududlari":10202,"Ġrivojlangan":10203,"Ġshaxslarni":10204,"Ġyakunlari":10205,"Ġreytingi":10206,"Ġquyidagilar":10207,"Ġserialidagi":10208,"ĠYaponiyada":10209,"Elektr":10210,"Ġpiyodalar":10211,"Ġmuhojirlar":10212,"Ġxushbo":10213,"Eksp":10214,"Ġalmashinuv":10215,"Meduza":10216,"rmagan":10217,"ance":10218,"Ġvok":10219,"iyo":10220,"akim":10221,"Ġuchdan":10222,"tirildi":10223,"Ġetsa":10224,"ĠBul":10225,"ĠOta":10226,"ĠOqil":10227,"Ġanim":10228,"ĠLos":10229,"Ġreper":10230,"Ġmuhr":10231,"Ġichk":10232,"Ġyurtimiz":10233,"rgangan":10234,"Ġyuborgani":10235,"Ġagentligiga":10236,"Ġtutgan":10237,"Ġmashinani":10238,"Ġtasvirga":10239,"Ġmanfaatdor":10240,"ĠDonetsk":10241,"nadzor":10242,"Haydovchi":10243,"67":10244,"Joriy":10245,"kiliy":10246,"vuz":10247,"xizmat":10248,"abz":10249,"Ġshisha":10250,"lashning":10251,"okar":10252,"okard":10253,"ĠBred":10254,"ĠIqtisodiy":10255,"Ġasir":10256,"Ġyilligi":10257,"Ġsurtish":10258,"Ġtushgani":10259,"Ġkasalliklarni":10260,"ĠInson":10261,"zolariga":10262,"Ġmiqyo":10263,"Ġhozirgacha":10264,"Ġxorijlik":10265,"yanvarda":10266,"raziliy":10267,"Prezidentning":10268,"ĠTurkiyaga":10269,"Ġoraliq":10270,"Ġettiradi":10271,"Ġaksiyadorlik":10272,"Ġpreparat":10273,"Ġkorporat":10274,"Ġkiritiladi":10275,"Ġdoktor":10276,"Ġkiritib":10277,"Ġyarmida":10278,"Politsiya":10279,"ĠTemur":10280,"OII":10281,"tuyg":10282,"uper":10283,"vili":10284,"umlar":10285,"ĠMor":10286,"Ġundagi":10287,"utm":10288,"Ġastr":10289,"ĠGebreyesus":10290,"yorda":10291,"Ġdavlatlarga":10292,"Ġmebel":10293,"Ġhokimlari":10294,"Ġtaklifi":10295,"Ġtiklanishi":10296,"Ġsudining":10297,"Ġtarkibiy":10298,"Ġtaqiqlandi":10299,"Ġsiri":10300,"Ġsavollar":10301,"Aktrisaning":10302,"Ġkuyov":10303,"Ġuglevodlar":10304,"Ġgubernat":10305,"Loyiha":10306,"Tel":10307,"zit":10308,"Ġbuv":10309,"Ġkm":10310,"Ġsotgan":10311,"enkoning":10312,"ĠSun":10313,"Ġqilganidan":10314,"Ġuyning":10315,"adol":10316,"Ġtaqdiri":10317,"Ġqoniq":10318,"Ġuzluksiz":10319,"Ġmavjudligini":10320,"Ġjarayonni":10321,"Ġchegarada":10322,"Ġuyidan":10323,"Ġcharm":10324,"Ortiqcha":10325,"Ġlitsenziya":10326,"Juda":10327,"TV":10328,"nobod":10329,"urce":10330,"abo":10331,"chadi":10332,"ĠMav":10333,"Ġolmaslik":10334,"ĠLXR":10335,"qigan":10336,"Ġolinganlar":10337,"Ġtadbirlarni":10338,"Ġkutish":10339,"zavot":10340,"Ġgid":10341,"Ġtekshiruvdan":10342,"valida":10343,"Ġyuqorida":10344,"Ġqozongan":10345,"ĠJeyms":10346,"addas":10347,"Ġpolitsiyasi":10348,"ĠQizil":10349,"Ġoydinlik":10350,"ĠNiderlandiya":10351,"Lu":10352,"zlarni":10353,"Ġiy":10354,"Ġyupqa":10355,"Ġxarakter":10356,"chalarida":10357,"ĠMDH":10358,"okda":10359,"Ġkungi":10360,"Ġzona":10361,"Ġzerik":10362,"Ġqizlari":10363,"biri":10364,"Ġtopishga":10365,"Ġjamlan":10366,"Ġviloyatdagi":10367,"Ġajral":10368,"Ġxizmatchi":10369,"Ġkiritishicha":10370,"Ġmasalalariga":10371,"Ġbutkul":10372,"Ġochildi":10373,"Ġnamoyishchilar":10374,"Ġtanishdi":10375,"Ġuniversitetida":10376,"tkazilayotgan":10377,"Ġjamoatchilikning":10378,"Farzand":10379,"Ġkansleri":10380,"Ġtelevizor":10381,"Ġekspertiza":10382,"Ġaynishi":10383,"ayrioddiy":10384,"ĠRavshan":10385,"Sobiq":10386,"doy":10387,"slar":10388,"tga":10389,"yishni":10390,"onin":10391,"Ġviza":10392,"Ġstr":10393,"lanuvchilar":10394,"Ġnev":10395,"Ġnasib":10396,"Ġqolip":10397,"Ġrost":10398,"ĠShan":10399,"ĠLola":10400,"rantlar":10401,"Ġqizga":10402,"Ġodamda":10403,"ergetika":10404,"ardo":10405,"Ġhokimiyati":10406,"ĠChan":10407,"Ġrivojlanayotgan":10408,"Ġomega":10409,"Ġdasturida":10410,"Ġyakunlangan":10411,"Ġfaollik":10412,"Ġtexnolog":10413,"Ġtoshqin":10414,"Ġmaydalangan":10415,"Ġemlanganlar":10416,"ĠUltra":10417,"ĠEntoni":10418,"Ġhayratda":10419,"Ġixtiyoriy":10420,"ĠYaIM":10421,"asaroy":10422,"Jar":10423,"Piyoz":10424,"metr":10425,"tqa":10426,"Ġoqar":10427,"Ġeg":10428,"Ġusta":10429,"Ġjumla":10430,"Ġsodiq":10431,"ĠAliyev":10432,"ĠMuz":10433,"ĠBi":10434,"Ġxabarlarni":10435,"ĠShri":10436,"Ġayollarda":10437,"ĠChiroq":10438,"zolarining":10439,"arboyev":10440,"Ġmaqsadda":10441,"ĠEmomali":10442,"Ġolamiz":10443,"Ġvazifalarni":10444,"Ġplatforma":10445,"Ġhamshira":10446,"Ġtoksin":10447,"Aprel":10448,"Ġkesimida":10449,"NK":10450,"Nor":10451,"sert":10452,"aniyev":10453,"ĠBlinken":10454,"Ġortadi":10455,"Bularning":10456,"batlantiradi":10457,"Ġqilinmaydi":10458,"Avvaliga":10459,"Ġbemorda":10460,"Ġayolda":10461,"Ġshaharlar":10462,"Ġfaoliyatida":10463,"Ġhududlarga":10464,"Ġvaksinasidan":10465,"Ġtopshirildi":10466,"Ġtekshirib":10467,"Ġboshlangani":10468,"Ġboshlanganini":10469,"Ġmahallasi":10470,"Ġxohlagan":10471,"Ġkartina":10472,"Ġyumshatish":10473,"Ġpoytaxtda":10474,"Ġazob":10475,"Ġhomiladorlik":10476,"Ġsohalarda":10477,"Ġdengizi":10478,"Ġquvvati":10479,"Ġtalafot":10480,"Oziq":10481,"Tinch":10482,"cal":10483,"dest":10484,"Ġshay":10485,"Ġsharo":10486,"Ġtashlanadi":10487,"Ġoldirish":10488,"masdi":10489,"ĠIz":10490,"ĠGuliston":10491,"Ġvazirning":10492,"Ġtanlangan":10493,"Ġhissiy":10494,"Ġyilgi":10495,"Ġqurishi":10496,"Ġyaxlit":10497,"Ġbemordan":10498,"Ġbelgilanadi":10499,"Ġsindr":10500,"Ġqamal":10501,"Ġmavsumiy":10502,"Ġoltita":10503,"Ġmasalani":10504,"ngillilar":10505,"Ġqadimiy":10506,"Ġombori":10507,"Ġegizak":10508,"Ġsindromi":10509,"Foyda":10510,"lmadi":10511,"qora":10512,"ratga":10513,"vi":10514,"deal":10515,"Ġdub":10516,"ĠTV":10517,"Ġgonor":10518,"Ġqilganda":10519,"ĠHasan":10520,"ĠCharl":10521,"Ġkong":10522,"Ġ160":10523,"ĠTrampga":10524,"Ġhaftalik":10525,"Ġaviatsiya":10526,"Ġepiz":10527,"Ġtovush":10528,"Ġesda":10529,"ayrog":10530,"Ġmanzili":10531,"Ġasrning":10532,"Ġtopshiriqlar":10533,"Ġshartnomasi":10534,"Yashil":10535,"Met":10536,"bom":10537,"ushidan":10538,"Ġlat":10539,"urgiya":10540,"lashini":10541,"Ġqilmay":10542,"ĠBab":10543,"Ġtarzini":10544,"tibos":10545,"Ġinsul":10546,"Ġqaytdi":10547,"ohn":10548,"ĠGen":10549,"ĠDXR":10550,"Ġkamdan":10551,"Ġyaratiladi":10552,"Amerikaning":10553,"ĠZe":10554,"Ġyaratib":10555,"Ġvaksinalarni":10556,"lyut":10557,"Ġnamoyishlar":10558,"form":10559,"Ġjazoni":10560,"Ġloyihalarini":10561,"Ġ1990":10562,"tisod":10563,"ĠShahlo":10564,"Ġqurilmalar":10565,"Ġyodga":10566,"Ð°Ð½":10567,"Ġkuzatilayotgan":10568,"ĠUmarov":10569,"69":10570,"say":10571,"tlari":10572,"vard":10573,"yilishi":10574,"Ġning":10575,"Ġlov":10576,"Ġkiber":10577,"Ġqisi":10578,"iniga":10579,"raj":10580,"Ġsodasi":10581,"evra":10582,"Ġboring":10583,"Ġindi":10584,"ĠGroup":10585,"ojdest":10586,"Ġtanovul":10587,"oft":10588,"Ġketishini":10589,"Ġhududdagi":10590,"Ġtaqdimot":10591,"ĠEronda":10592,"Ġeksporti":10593,"Ġsonli":10594,"Ġsuratlarni":10595,"ĠLugansk":10596,"Ġmigratsiyasi":10597,"Tashkilot":10598,"Yoshlar":10599,"Ber":10600,"Ġbayrog":10601,"Ġxomash":10602,"Shakar":10603,"ĠMum":10604,"Ġolmaydigan":10605,"ĠKreml":10606,"Ġtomoniga":10607,"apor":10608,"Ġoshirishni":10609,"arag":10610,"ĠHabib":10611,"sirga":10612,"Ġsalqin":10613,"Ġoilasida":10614,"Ġguruhining":10615,"Ġchegarasi":10616,"Ġraqsga":10617,"Ġshifoxonasi":10618,"Ġchetda":10619,"Ġmashinalari":10620,"Ġtelekanaliga":10621,"Ġprofilaktikasi":10622,"ĠSzinpin":10623,"Ġrekonstruksiya":10624,"Ð¼":10625,"Ġvasiy":10626,"chigi":10627,"Ġrom":10628,"ĠSpot":10629,"reet":10630,"tibbiy":10631,"Ġyormasi":10632,"apre":10633,"Ġalomati":10634,"chilikka":10635,"zgaradi":10636,"source":10637,"Ġpaytga":10638,"Ġquyida":10639,"Ġyulduzli":10640,"Ġrangda":10641,"Ġurushni":10642,"Ġtarafdori":10643,"Ġfakult":10644,"Ġchizig":10645,"85":10646,"Tergov":10647,"mning":10648,"Ð´":10649,"Ġbas":10650,"Ġukasi":10651,"akor":10652,"izatsiya":10653,"olmaydi":10654,"uzash":10655,"Ġbuk":10656,"lashtiriladi":10657,"Ġakasi":10658,"Ġholatlarning":10659,"Ġkelindi":10660,"Ġdiag":10661,"Ġmasalasiga":10662,"Ġdavolangan":10663,"Ġguruhlar":10664,"Ġpulini":10665,"Ġbozorda":10666,"Ġqochish":10667,"ĠOlimlar":10668,"Ġsayyora":10669,"ĠRedmi":10670,"zgidromet":10671,"Ġmiokard":10672,"aporoj":10673,"rmoqda":10674,"versit":10675,"shod":10676,"Ġyech":10677,"ingga":10678,"Ġsvit":10679,"erbayev":10680,"ĠAward":10681,"libu":10682,"ĠBeh":10683,"Ġtutib":10684,"mayda":10685,"Ġxabarlarga":10686,"ĠYaman":10687,"ĠIndonez":10688,"zgargan":10689,"Ġboshqargan":10690,"ĠChj":10691,"agner":10692,"Ġkonferensiya":10693,"Ġkurashishga":10694,"Ġtaqdimoti":10695,"Ġsaylovida":10696,"Ġxorijga":10697,"line":10698,"Ġbayonnoma":10699,"Ġortishiga":10700,"ĠMail":10701,"Ġvitaminining":10702,"elena":10703,"Ġeshitgan":10704,"Ġbinolar":10705,"Ġiqtisodiyotni":10706,"Ġolamdan":10707,"Ġbarchasini":10708,"akao":10709,"Ġbyurosi":10710,"ĠVirusologiya":10711,"PF":10712,"dob":10713,"mda":10714,"lilar":10715,"Ġqaf":10716,"Ġsehr":10717,"Ġelastik":10718,"tian":10719,"Ġpap":10720,"ullanuvchi":10721,"malarni":10722,"ĠMIB":10723,"iyadagi":10724,"ĠIShID":10725,"odrom":10726,"osit":10727,"Ġmillimetr":10728,"Ġsabablar":10729,"sonning":10730,"xonaning":10731,"Ġnamlik":10732,"Ġkondit":10733,"Ġrahbarlarining":10734,"munikatsiya":10735,"Ġquyi":10736,"Ġxususiyati":10737,"Ġqatoriga":10738,"Ġpechen":10739,"ĠKapri":10740,"Ġdelegatsiyasi":10741,"Ġsarig":10742,"Vaziyat":10743,"okado":10744,"Ġspikeri":10745,"Ob":10746,"Temir":10747,"Ul":10748,"xen":10749,"kadan":10750,"Ġhamyon":10751,"ĠMart":10752,"Ġqayna":10753,"uker":10754,"ĠXubey":10755,"adosh":10756,"Ġavtomat":10757,"Ġsanab":10758,"Ġshaharlarda":10759,"Ġchalg":10760,"Ġozgina":10761,"Ġvositalaridan":10762,"Ġberishdan":10763,"ĠTurkmeni":10764,"ĠNorveg":10765,"Ġkapital":10766,"Ġshifoxonasida":10767,"Ġmuolajalarga":10768,"Ġartist":10769,"Ġxarajatlar":10770,"Ġsupermarket":10771,"Davomi":10772,"ĠBaxtiyor":10773,"Qahva":10774,"Ġtubdan":10775,"Tahlil":10776,"Bit":10777,"haqiq":10778,"kog":10779,"sharoit":10780,"urd":10781,"lashmoqda":10782,"usini":10783,"ozdan":10784,"ĠButun":10785,"ĠPen":10786,"Ġqilishdi":10787,"ĠNote":10788,"Ġqaytishi":10789,"Ġholatida":10790,"Ġdavolashga":10791,"qulladi":10792,"Ġimkoniyatlarini":10793,"Ġqahramonlari":10794,"Ġsutkaga":10795,"Ġotasining":10796,"Ġyashirish":10797,"Ġpayp":10798,"ĠOlimpiya":10799,"Ġimpichment":10800,"Ġdoktori":10801,"Ġgigiyena":10802,"loyd":10803,"49":10804,"lton":10805,"Ðº":10806,"Ġmaf":10807,"max":10808,"ĠSto":10809,"Ġtashkiliy":10810,"kilometr":10811,"Ġhissini":10812,"Ġquri":10813,"zgardi":10814,"Ġ190":10815,"Ġtaslim":10816,"Ġaytildi":10817,"Ġoilalar":10818,"ĠPrezidentning":10819,"Ġoldidagi":10820,"ĠMariya":10821,"Ġtopshirdi":10822,"Ġhaydovchilari":10823,"Ġhaqiqatga":10824,"Ġbezatilgan":10825,"Ġmaydonida":10826,"Ġbayonotda":10827,"Ġrejimida":10828,"Ġtonn":10829,"ĠJons":10830,"Ġanglat":10831,"Mutaxassislarning":10832,"Ġdizayner":10833,"Ġshovqin":10834,"Aholi":10835,"Ġbegona":10836,"At":10837,"Tush":10838,"lot":10839,"rda":10840,"ĠÑ":10841,"Ġishiga":10842,"lasi":10843,"shahar":10844,"Ġbriga":10845,"irlab":10846,"Ġboshliq":10847,"Ġmusht":10848,"ĠSvetlana":10849,"redit":10850,"deksi":10851,"lashtiradigan":10852,"ushan":10853,"Ġdavlatlarning":10854,"Ġsanada":10855,"Ġsanitar":10856,"Ġqiynoq":10857,"Ġilova":10858,"Ġimkonsiz":10859,"yxatida":10860,"Ġdasturlari":10861,"limidan":10862,"Ġhaydovchilar":10863,"ĠXorazmda":10864,"ĠMaskning":10865,"Ġkattaroq":10866,"Ġinvestor":10867,"Ġsharafiga":10868,"AX":10869,"sv":10870,"Ġolmasligi":10871,"ĠPay":10872,"ĠXali":10873,"Ġkardi":10874,"Ġatom":10875,"Ġkarantindan":10876,"Ġbezi":10877,"Ġnimalarga":10878,"Ġbunyod":10879,"Ġavtomobillari":10880,"Ġhaligacha":10881,"Ġjurnalida":10882,"maklashish":10883,"Ġtanlashda":10884,"Ġobunachilariga":10885,"Ġisitma":10886,"Ġmaqomini":10887,"Ġreabilitatsiyaga":10888,"Saudiya":10889,"Ġlaboratoriyasi":10890,"Vaksin":10891,"Tibbiyot":10892,"Ġpochta":10893,"yetnam":10894,"chechak":10895,"atov":10896,"onish":10897,"Ġhush":10898,"Ġsti":10899,"isney":10900,"Ġnabir":10901,"Ġishlov":10902,"Ġishbilarmon":10903,"ĠPix":10904,"Ġyoshni":10905,"ushka":10906,"Ġsurish":10907,"Ġkelsa":10908,"Ġmahsuloti":10909,"Ġdist":10910,"etiga":10911,"Ġmasalalarni":10912,"Ġkimyo":10913,"Ġ2009":10914,"Ġbuyurt":10915,"Ġolinmagan":10916,"Ġbadan":10917,"Ġhujumi":10918,"Ġqamrov":10919,"Ġmanfaatlarini":10920,"Ġinteg":10921,"Reuters":10922,"Ġreaksiya":10923,"Ġnoqulaylik":10924,"ĠMonopoliyaga":10925,"Ġnizom":10926,"Ġbirdaniga":10927,"Uzbekistan":10928,"Vit":10929,"ding":10930,"tobus":10931,"vay":10932,"vestitsiya":10933,"yishga":10934,"Ġmal":10935,"sidiya":10936,"ung":10937,"Ġbermadi":10938,"ĠArt":10939,"Ġakkumulyator":10940,"ĠFahriye":10941,"Ġdavlatlardan":10942,"Ġsurting":10943,"Ġtayyorlanadi":10944,"Ġmahsulotlarning":10945,"Ġyozda":10946,"minlanadi":10947,"Ġ81":10948,"Ġhukumatga":10949,"ĠChecheniston":10950,"Ġbildirilgan":10951,"Ġhayotiy":10952,"Ġtasdiqlash":10953,"ftor":10954,"Ġbildirgandi":10955,"Ġhodis":10956,"Ġosongina":10957,"Ġistagini":10958,"Ġdozasini":10959,"Ġarxit":10960,"Ġchidamli":10961,"Ġtejash":10962,"Port":10963,"Qat":10964,"anning":10965,"int":10966,"Ġtarif":10967,"Ġyodda":10968,"ĠBay":10969,"reb":10970,"Ġharf":10971,"Ġinnovatsion":10972,"ĠShuk":10973,"Ġolishning":10974,"Ġkeluvchi":10975,"Ġxodimlarning":10976,"Ġprezidentlikka":10977,"Ġchegarasini":10978,"Ġnatijalar":10979,"Ġrollarni":10980,"Keyt":10981,"ĠSaida":10982,"Ġtexnologik":10983,"Ġtaqdirlash":10984,"rokkoli":10985,"Ġmikroto":10986,"kitoblariga":10987,"Ġjigarrang":10988,"Ġoilaning":10989,"Ġmikroelement":10990,"ĠTailand":10991,"Ġdumaloq":10992,"ĠDenov":10993,"ohnson":10994,"46":10995,"Di":10996,"Tovuq":10997,"Xroni":10998,"lardir":10999,"atch":11000,"atsiyasining":11001,"ors":11002,"ayhon":11003,"usni":11004,"Ġasbob":11005,"ĠQay":11006,"rsatishga":11007,"off":11008,"Ġsaqlanadi":11009,"Ġaham":11010,"Ġsiq":11011,"ĠHo":11012,"Ġkarra":11013,"Ġtalablar":11014,"Ġkuzatilmagan":11015,"Malika":11016,"Ġkimning":11017,"Ġsudya":11018,"ĠIsuzu":11019,"Ġniqobsiz":11020,"Ġmustahkamlashga":11021,"riyanka":11022,"Ġtoshqini":11023,"ĠDiana":11024,"ĠRahim":11025,"Ġbulut":11026,"ĠBahrom":11027,"Ġhammom":11028,"ĠKaliforniya":11029,"Ġyuboriladi":11030,"lywoodtime":11031,"fikatsiya":11032,"lladi":11033,"pligi":11034,"Ð³":11035,"Ġkanda":11036,"daniy":11037,"deni":11038,"ompe":11039,"Ġply":11040,"Ġshoh":11041,"ĠAg":11042,"Ġishemik":11043,"rij":11044,"ĠPa":11045,"Ġbormi":11046,"Ġichishni":11047,"Ġkishilik":11048,"Ġatab":11049,"ĠChevrolet":11050,"Ġoqibatda":11051,"Ġfarovon":11052,"Ġqilishimiz":11053,"exas":11054,"zavt":11055,"ĠWashington":11056,"moddasiga":11057,"Ġstressni":11058,"Ġklubi":11059,"Ġfarmonni":11060,"Ġaeroportiga":11061,"oteatr":11062,"Ġjasadi":11063,"Ġtartibsizliklar":11064,"Ġsarguzash":11065,"Ġflagman":11066,"ĠKusherbayev":11067,"Ġsharoiti":11068,"ĠTurkmenistana":11069,"Jismoniy":11070,"Nyu":11071,"Tish":11072,"far":11073,"uan":11074,"sili":11075,"oll":11076,"Ġuchradi":11077,"ĠAta":11078,"etch":11079,"Ġchast":11080,"ĠYoz":11081,"Ġimper":11082,"ĠHello":11083,"targan":11084,"Ġellik":11085,"otip":11086,"Ġmuzqaymoq":11087,"quvvatlagan":11088,"Ġxorijdagi":11089,"izistonning":11090,"Ġqamaldi":11091,"Ġtomirlari":11092,"Ġmushaklar":11093,"Ġtrakt":11094,"Ġboshqaruvidagi":11095,"ture":11096,"Ġdelegatsiya":11097,"Ġtortiladi":11098,"mulk":11099,"Ġmikrobiologiya":11100,"47":11101,"De":11102,"Iyul":11103,"Prof":11104,"Urush":11105,"odir":11106,"aloliddin":11107,"chip":11108,"ĠMillat":11109,"uduq":11110,"Ġqilishingiz":11111,"Ġqayerga":11112,"ĠUn":11113,"tkazilib":11114,"Ġkelgusida":11115,"Ġmatem":11116,"Ġuzaytirish":11117,"Ġ82":11118,"Ġviloyatning":11119,"Ġballi":11120,"Ġbuzilishiga":11121,"Ġketganini":11122,"ruf":11123,"Ġkelishilgan":11124,"Ġmashinada":11125,"ĠMalibu":11126,"Ġpishirilgan":11127,"ĠBerlin":11128,"Ġmateriallar":11129,"Ġzich":11130,"Ġplatformasi":11131,"ensial":11132,"Ġyalpiz":11133,"ĠEvjen":11134,"ĠShodmonov":11135,"Xiaomi":11136,"milliy":11137,"yasi":11138,"shundan":11139,"amaliy":11140,"alovchi":11141,"ladim":11142,"ultirilgan":11143,"ĠMyan":11144,"ĠTar":11145,"ĠBach":11146,"ĠKun":11147,"Ġtomoq":11148,"Ġchiqilmoqda":11149,"amlak":11150,"tkazishi":11151,"ĠLop":11152,"Ġzarra":11153,"lgach":11154,"Ġkonstruk":11155,"Ġguruhiga":11156,"Ġqismlari":11157,"Ġchegaradagi":11158,"Ġtasdiqlovchi":11159,"Ġjinoyatlar":11160,"Ġmoddalari":11161,"Ġhaqiqat":11162,"Ġibodat":11163,"Ġgilam":11164,"Ġpishiriladigan":11165,"Ġbayonotiga":11166,"Ġtenden":11167,"ĠAlimov":11168,"ĠYashnobod":11169,"Le":11170,"Ratsion":11171,"Yar":11172,"xud":11173,"zimiz":11174,"zlashtirish":11175,"inda":11176,"Ġbritaniyalik":11177,"Ġhan":11178,"Ġdug":11179,"Shoh":11180,"ĠBand":11181,"ĠBishkek":11182,"Ġunumli":11183,"iyatga":11184,"ĠJe":11185,"Ġchiqayotgan":11186,"ĠToshkentning":11187,"martda":11188,"ĠChop":11189,"Ġyuborildi":11190,"Ġshaxsning":11191,"Ġlak":11192,"Ġasosiysi":11193,"Ġzararlangan":11194,"Ġmuassasalar":11195,"Ġqorong":11196,"Ġzamon":11197,"Ġgormoni":11198,"Ġkattasi":11199,"Ġprofessori":11200,"Ġqaynatib":11201,"Ġimtiyozli":11202,"Ġxarit":11203,"Ġqazib":11204,"Ġinshoot":11205,"sambley":11206,"hunar":11207,"arma":11208,"chasini":11209,"onam":11210,"ildir":11211,"Ġsmart":11212,"Ġrobot":11213,"ĠAsk":11214,"uzi":11215,"aft":11216,"ĠBig":11217,"uqori":11218,"uvchisi":11219,"Ġmamlakatimiz":11220,"Ġfuqarolardan":11221,"ĠInnovatsion":11222,"ichard":11223,"Ġoilalarga":11224,"Ġlaqab":11225,"Ġavtomobilini":11226,"Ġ170":11227,"Ġtayinlangani":11228,"Ġmaydoniga":11229,"estit":11230,"naltirilgan":11231,"Ġsharti":11232,"rosoft":11233,"Ġforum":11234,"Ġzaxiralari":11235,"kunduz":11236,"ografiya":11237,"ĠNazarboyev":11238,"ĠBryus":11239,"ĠDepp":11240,"Ġuskunalar":11241,"Ġkukuni":11242,"vidual":11243,"Ġokean":11244,"Ġozuqa":11245,"texnik":11246,"Agentlik":11247,"Ġtromb":11248,"iddlton":11249,"Ġhamdardlik":11250,"CE":11251,"Den":11252,"kay":11253,"rasi":11254,"larFoto":11255,"sid":11256,"iyan":11257,"eratsiya":11258,"gik":11259,"oqsiz":11260,"mali":11261,"Ġunvon":11262,"Ġgrech":11263,"Ġmumkinki":11264,"orilik":11265,"ojia":11266,"rinishni":11267,"Ġjoylarga":11268,"Ġsuvdan":11269,"Ġsoatda":11270,"Ġterisini":11271,"Ġpoyga":11272,"Ġtozalashga":11273,"Ġsoluvchi":11274,"ĠEronga":11275,"Ġraqamlar":11276,"Ġsiyosatini":11277,"Ġhujjatlarini":11278,"Ġqimmatli":11279,"Ġuyushtirgan":11280,"Ġochilish":11281,"Trampning":11282,"Ġtarqalib":11283,"embed":11284,"ĠDevid":11285,"Ġkonsentrat":11286,"Ġmuqobil":11287,"Ġsarmoya":11288,"Ha":11289,"Maq":11290,"Suy":11291,"Tuman":11292,"graph":11293,"nish":11294,"zbo":11295,"Ġkot":11296,"Ġmamlak":11297,"unuk":11298,"amaydi":11299,"abop":11300,"Ġsoda":11301,"azasi":11302,"Ġborayotgani":11303,"ĠNa":11304,"ĠQah":11305,"Ġqolmasligi":11306,"Ġyuzni":11307,"Ġqizdir":11308,"Ġxizmatlarini":11309,"Ġmiqyos":11310,"Ġmaktabining":11311,"Ġkamayib":11312,"Ġpastasi":11313,"Ġseriallari":11314,"dekabrda":11315,"Ġabadiy":11316,"Ġqolaveradi":11317,"Ġyarasha":11318,"Ġyotoqxona":11319,"ĠAndrey":11320,"Ġpushti":11321,"ĠTokio":11322,"ojdestvo":11323,"HM":11324,"boq":11325,"uela":11326,"laz":11327,"Ġterak":11328,"ayman":11329,"isining":11330,"issiya":11331,"Ġpala":11332,"ibot":11333,"iqlar":11334,"Ġishlamoqda":11335,"ĠSpir":11336,"yiladigan":11337,"Ġasrab":11338,"ĠYan":11339,"Ġkasalligining":11340,"dora":11341,"Ġkirishini":11342,"limni":11343,"ĠFilm":11344,"Ġaniqlashga":11345,"Ġshaharga":11346,"Ġbolalarda":11347,"Ġdeyilgan":11348,"Ġloyihasida":11349,"Ġishonish":11350,"Ġyopildi":11351,"ĠReutersFoto":11352,"nalishlar":11353,"2013":11354,"Ġnavbatdan":11355,"qolib":11356,"upnay":11357,"Ġhayvonot":11358,"Ġkorrupsiyaga":11359,"Ġhaydovchining":11360,"Ġglyukoza":11361,"Xronika":11362,"58":11363,"Kuch":11364,"bog":11365,"ge":11366,"gin":11367,"yadigan":11368,"ata":11369,"omet":11370,"Ġjig":11371,"ĠAsak":11372,"ĠBBC":11373,"Ġqarzi":11374,"Ġboradigan":11375,"Ġintiz":11376,"Ġasari":11377,"Ġamerika":11378,"Ġtaqqan":11379,"Ġkelganidan":11380,"zgartirgan":11381,"Ġarziy":11382,"Ġfilmning":11383,"Ġdavolanib":11384,"Ġtartibiga":11385,"Ġhamkorligida":11386,"ĠIsmo":11387,"linmalari":11388,"Ġurushda":11389,"ĠJournal":11390,"Ġkompen":11391,"Ġsumkalar":11392,"Internet":11393,"Ġmuolaj":11394,"Ġartiller":11395,"ĠAshx":11396,"Ġprinsi":11397,"Ġfiribgarlik":11398,"Aniqlanishicha":11399,"Ġrulet":11400,"landiyada":11401,"Ġpunkti":11402,"Rejissor":11403,"Ustidan":11404,"Ġgonorar":11405,"zavtosanoat":11406,"Li":11407,"doq":11408,"pon":11409,"Ġboxabar":11410,"Ġvagon":11411,"Ġpress":11412,"tiro":11413,"istonga":11414,"Ġgarov":11415,"Ġzumda":11416,"Ġrash":11417,"iva":11418,"Ġayollarni":11419,"Ġxodimlarga":11420,"Ġoilasining":11421,"Ġxavfsizlikni":11422,"Ġyechi":11423,"Ġtortilgan":11424,"ĠGermaniyaning":11425,"Ġuyushmasi":11426,"Ġfutbolchi":11427,"Ġjurnalistlarga":11428,"Ġhamkasblari":11429,"Ġsubsidiya":11430,"ĠJamshid":11431,"Erkak":11432,"ĠUchtepa":11433,"Ġdyuymli":11434,"Ġadministratsiyasi":11435,"ĠCharlz":11436,"aporojye":11437,"Ġchastot":11438,"Iyun":11439,"Lav":11440,"lingan":11441,"lyapti":11442,"sur":11443,"iyasida":11444,"Ġqoz":11445,"Ġdaft":11446,"stona":11447,"Ġtarang":11448,"Ġtuyu":11449,"Ġturmagi":11450,"ĠQora":11451,"Ġkomil":11452,"Ġyuzga":11453,"ĠVer":11454,"Ġzargarlik":11455,"Ġharakatlanishi":11456,"Ġboshqarmasining":11457,"Ġatash":11458,"Ġbaholadi":11459,"Ġrejimiga":11460,"Ġaralashtirib":11461,"Ġmukofotini":11462,"Kuniga":11463,"Ġochiladi":11464,"uliyat":11465,"Ġsepiladi":11466,"Ġrozilik":11467,"Ġurfga":11468,"ĠShtatlar":11469,"Nashrning":11470,"asddan":11471,"ĠIbrohim":11472,"ĠAtagul":11473,"pchiligi":11474,"vari":11475,"chaning":11476,"Ġholi":11477,"Ġhakam":11478,"iydi":11479,"oter":11480,"Ġrukni":11481,"ĠMiddlton":11482,"evin":11483,"Ġorgani":11484,"Ġkasalliklarining":11485,"epik":11486,"Ġurushiga":11487,"Ġataladi":11488,"Ġorganlar":11489,"Ġorganlarining":11490,"Ġvositalarni":11491,"Ġlah":11492,"Ġinsonlarning":11493,"onistonga":11494,"Ġqismidan":11495,"Ġquvur":11496,"Ġsarflagan":11497,"Ġpasaytirish":11498,"Ġkinosi":11499,"risabz":11500,"ĠPolsh":11501,"Ġpunktlari":11502,"Ġekspertiz":11503,"Ġminerallar":11504,"ĠLive":11505,"Ġbaqlajon":11506,"ĠYuN":11507,"Kiyim":11508,"ĠOqilov":11509,"Bur":11510,"Gur":11511,"Homila":11512,"bahor":11513,"olay":11514,"yla":11515,"dida":11516,"Ġesadi":11517,"oyalar":11518,"Ġpitssa":11519,"iqob":11520,"malarini":11521,"ĠMet":11522,"ĠTalk":11523,"ĠSovet":11524,"Ġqarish":11525,"sizlar":11526,"Ġkasalxonada":11527,"Ġqurishga":11528,"Ġyordamchi":11529,"Ġharakatlanayotgan":11530,"Ġajinlar":11531,"Ġoilada":11532,"Ġmasalaga":11533,"Ġprezidentlari":11534,"Ġtartibsizlik":11535,"Ġaniqlangandi":11536,"Ġsaylovoldi":11537,"Ġtozalab":11538,"Ġminor":11539,"Ġkelishiga":11540,"2012":11541,"Ġbezak":11542,"Ġqilayotgani":11543,"Ġjabrlangan":11544,"Ġreytingida":11545,"Taniqli":11546,"Ġqolaversa":11547,"ĠWdayFoto":11548,"Ġuchratish":11549,"Ġsertifikat":11550,"Ġmusiqiy":11551,"Ġassotsiatsiyasi":11552,"Ok":11553,"maktab":11554,"yilgani":11555,"yimli":11556,"Ġdiy":11557,"ingni":11558,"akror":11559,"atit":11560,"Ġkunlarida":11561,"ĠOn":11562,"Ġteshik":11563,"Ġdoirasidagi":11564,"Ġumumta":11565,"Ġovqatlar":11566,"Ġustki":11567,"Ġ2004":11568,"xshab":11569,"Ġqirrali":11570,"Ġsuhbatlashgan":11571,"ĠTojikistonda":11572,"Ġqoplangan":11573,"Ġraketalar":11574,"bilan":11575,"Muam":11576,"Ġbandlik":11577,"Hammasi":11578,"Ġbiznesmen":11579,"ĠNavro":11580,"Ġurfda":11581,"Ġqurboni":11582,"ĠSharof":11583,"Vazn":11584,"Ġkulgili":11585,"Demak":11586,"ĠNetflix":11587,"Ġfolloverlariga":11588,"Jurnalist":11589,"52":11590,"nta":11591,"xit":11592,"lamiz":11593,"ildon":11594,"ilmasini":11595,"allikni":11596,"umumiy":11597,"ovaga":11598,"Ġjanubiy":11599,"oston":11600,"Ġqilmadi":11601,"Ġtashlang":11602,"ĠNeslihan":11603,"Ġkasalligiga":11604,"ĠyoshFoto":11605,"Ġyoshlarni":11606,"Ġyoshlarning":11607,"Ġedik":11608,"Ġtushayotgan":11609,"olav":11610,"Ġobodon":11611,"Ġichidan":11612,"Ġdarajagacha":11613,"Ġhammaga":11614,"Ġjoylashtiriladi":11615,"Vazirlar":11616,"Ġberilishicha":11617,"Ġkamchiliklar":11618,"Ġgormonlar":11619,"Ġisitish":11620,"ĠAtlan":11621,"Ġqotillik":11622,"qimachilik":11623,"Ġsemiz":11624,"Ġindividual":11625,"48":11626,"post":11627,"injon":11628,"inglar":11629,"avi":11630,"izga":11631,"Ġnemis":11632,"Ġfur":11633,"Ġpot":11634,"Ġsheri":11635,"Ġyoxud":11636,"Ġideal":11637,"ĠSp":11638,"Ġdebyut":11639,"lovga":11640,"Ġoyga":11641,"Ġoyidagi":11642,"Ġijodi":11643,"Ġtumanlari":11644,"opa":11645,"Ġtumanidan":11646,"Ġrasmiylashtirish":11647,"Ġrasmiylashtirib":11648,"Ġoxirlarida":11649,"Ġonk":11650,"Ġpastga":11651,"Ġmuxlislarini":11652,"rsatkichlar":11653,"Ġkolbasa":11654,"Ġpiyo":11655,"Ġsuhbatlashdi":11656,"Ġkartosh":11657,"ĠPhotograph":11658,"Ġxatolar":11659,"Yorkda":11660,"lastin":11661,"ĠVideodan":11662,"Ġalifb":11663,"lamour":11664,"urdona":11665,"66":11666,"Qovoq":11667,"nap":11668,"pov":11669,"chasidagi":11670,"Ġtag":11671,"Ġqolar":11672,"ĠKur":11673,"ĠKruz":11674,"ĠXX":11675,"ĠXud":11676,"lovlarni":11677,"ĠSho":11678,"ĠToshkentdan":11679,"Ġqilinganini":11680,"ĠxizmatiQayd":11681,"Ġyaqindan":11682,"Ġhukumatiga":11683,"Ġqarorgoh":11684,"Ġtiklashga":11685,"Ġdasturlar":11686,"Ġoxiri":11687,"ĠAbduv":11688,"riqish":11689,"Ġqoldiriladi":11690,"sishini":11691,"Ġtarqatib":11692,"ĠTashkent":11693,"Ġbuyumlari":11694,"ĠBMTning":11695,"Suratga":11696,"Ġishlashiga":11697,"Olimlarning":11698,"Ġishlatiladigan":11699,"Ġelektromobillar":11700,"Ġtabassum":11701,"Ġblogerlar":11702,"87":11703,"ED":11704,"TS":11705,"uka":11706,"arsiz":11707,"areya":11708,"Ġyeti":11709,"Ġsuli":11710,"izoda":11711,"chalarda":11712,"Sharq":11713,"Ġishqa":11714,"Ġturistik":11715,"ĠCity":11716,"ĠEp":11717,"Ġqizining":11718,"Ġberganini":11719,"Ġshaklini":11720,"Choy":11721,"Ġsohib":11722,"Ġtaklifiga":11723,"Ġaviar":11724,"Ġbanklar":11725,"Ġqoringa":11726,"Ġjazosini":11727,"Ġsharh":11728,"Ġqilayotganini":11729,"Ġjonlantirish":11730,"Ġoptim":11731,"ĠAngliya":11732,"Ġkorpus":11733,"rinbosarlari":11734,"Ġsalohiyatini":11735,"Ġmurojaatida":11736,"ĠAvstriya":11737,"Ġcherkov":11738,"ĠKaprio":11739,"Ġrashk":11740,"Ġdaftari":11741,"53":11742,"Mon":11743,"oin":11744,"shuv":11745,"atsiyasida":11746,"onardo":11747,"ayish":11748,"eron":11749,"oqqa":11750,"Ġhammasini":11751,"Sho":11752,"Ġqilmaydigan":11753,"ĠBey":11754,"ĠSlov":11755,"ĠRey":11756,"Ġgol":11757,"ĠPompe":11758,"ĠNe":11759,"ĠGlamour":11760,"Ġtanqi":11761,"Ġyillardan":11762,"Ġekologiya":11763,"Ġuylari":11764,"ĠLy":11765,"randa":11766,"korlar":11767,"Ġgal":11768,"ardoz":11769,"akterial":11770,"olati":11771,"Ġkurtka":11772,"astin":11773,"Ġsaroyi":11774,"Ġkurashishda":11775,"Ġlager":11776,"Ġmuammolarini":11777,"Ġquyish":11778,"Ġkelishgan":11779,"Ġochgan":11780,"Ġranglar":11781,"Ġsinovlar":11782,"oktabrdan":11783,"Ġmaslahatlashish":11784,"rgatish":11785,"Ġklinika":11786,"Ġusullar":11787,"Ġettirishga":11788,"Ġavvalgidek":11789,"Ġtanlovi":11790,"Ġqatnovi":11791,"Ġxurmo":11792,"Ġshtatidagi":11793,"ĠRayan":11794,"Ġmusobaqa":11795,"Ġuskuna":11796,"Ġdaftar":11797,"Ġpasaytiradi":11798,"ĠOzodbek":11799,"ĠBachchan":11800,"Garchi":11801,"Maj":11802,"press":11803,"rati":11804,"roz":11805,"Ġsujet":11806,"iyoda":11807,"lantirib":11808,"Ġezgu":11809,"ullar":11810,"obga":11811,"masangiz":11812,"onaga":11813,"artrans":11814,"Ġbarham":11815,"ĠFanlar":11816,"Ġfoydasiga":11817,"koronavirus":11818,"Ġhayratga":11819,"Ġbemorni":11820,"xtatiladi":11821,"Ġarmiya":11822,"Ġdisk":11823,"Ġqarorlar":11824,"Ġinsonga":11825,"Ġkichigi":11826,"Ġoliygoh":11827,"Kundalik":11828,"Ġoperatsiyalar":11829,"Ġfanlar":11830,"ĠMatiz":11831,"ĠMurod":11832,"Ġxotinini":11833,"Ġpatent":11834,"ĠSharqiy":11835,"Ġantitana":11836,"Ġkukun":11837,"Ġkabob":11838,"Ġallergiya":11839,"ĠNazarbekov":11840,"boshqaruvidagi":11841,"Ġnatriy":11842,"kilometrida":11843,"artransxizmat":11844,"Nov":11845,"Tir":11846,"toz":11847,"âĢĺ-":11848,"chilarining":11849,"Ġxunuk":11850,"Ġbirgina":11851,"Ġtashlandi":11852,"Ġtuproq":11853,"esuela":11854,"Ġasrash":11855,"yordan":11856,"Ġtanib":11857,"Ġuyini":11858,"apman":11859,"Ġsaqlanishi":11860,"antlar":11861,"Ġistamagan":11862,"Ġarmiy":11863,"ersog":11864,"ĠTurkiston":11865,"Ġyetishtirish":11866,"Ġnatijasiga":11867,"cedes":11868,"Ġyakunlandi":11869,"Ġyuviladi":11870,"Ġjihatidan":11871,"Ġvideoga":11872,"ĠErgash":11873,"Ġkuchaytirilgan":11874,"Ġmintaqada":11875,"Ġaql":11876,"Ġantioksidantlar":11877,"ĠFederal":11878,"Ġdrama":11879,"Ġpoliklinika":11880,"Ġtantanali":11881,"Ġbortida":11882,"lyaj":11883,"Ġakkaunt":11884,"Ġtaqinchoq":11885,"ĠFreepik":11886,"Ġumurtqa":11887,"rebnadzor":11888,"Bog":11889,"CF":11890,"Idish":11891,"QB":11892,"Raq":11893,"iotik":11894,"len":11895,"matga":11896,"ular":11897,"yida":11898,"chuk":11899,"Ġmaishiy":11900,"ĠBot":11901,"ĠStiv":11902,"ĠRus":11903,"ĠPat":11904,"ĠGre":11905,"Ġmasalada":11906,"ĠYevrosiyo":11907,"ĠKoreyaga":11908,"ĠMariupol":11909,"Ġofisi":11910,"Ġpandemiyaga":11911,"Ġkinof":11912,"ĠAvstra":11913,"Ġuslubdagi":11914,"Ġichimliklarni":11915,"Ġterrorizm":11916,"Stress":11917,"Toshshah":11918,"Zamonaviy":11919,"ĠVengriya":11920,"Ġloviya":11921,"ĠMillatlar":11922,"Toshshahartransxizmat":11923,"Ispaniya":11924,"qog":11925,"yev":11926,"zingizga":11927,"sher":11928,"Ġqum":11929,"Ġstadi":11930,"ami":11931,"umin":11932,"tada":11933,"ĠMaq":11934,"ĠTed":11935,"Ġkirishiga":11936,"Ġholatdan":11937,"Ġketishni":11938,"Ġsammi":11939,"Ġovqatdan":11940,"ĠTrampni":11941,"Ġendokrin":11942,"ĠAnjel":11943,"qism":11944,"Ġegallaydi":11945,"Ġqoplash":11946,"Ð°ÑĢ":11947,"Ġmanzara":11948,"Ġfunt":11949,"Ġvakolatli":11950,"ĠSodiq":11951,"Ġbirlashmasi":11952,"ĠSuper":11953,"boyeva":11954,"Ġantitanalar":11955,"Ġalmashinuvi":11956,"Ġjadval":11957,"oice":11958,"Ax":11959,"Bank":11960,"sayt":11961,"atsiyasiga":11962,"Ġyovvoyi":11963,"Ġsoya":11964,"Ġeff":11965,"Ġup":11966,"olov":11967,"Ġxafa":11968,"Ġfran":11969,"ashshoq":11970,"Ġtashlaydi":11971,"Ġxabarni":11972,"trus":11973,"Ġalkog":11974,"Ġtushum":11975,"omatlik":11976,"Ġiqtisod":11977,"Ġpullar":11978,"Ġtozalaydi":11979,"Ġtashkilotga":11980,"Ġhukumatni":11981,"Ġ09":11982,"Yanada":11983,"pchilikka":11984,"Ġnonush":11985,"Ġalmashtir":11986,"rnatiladi":11987,"Ġapparati":11988,"Ġmikrob":11989,"Mashina":11990,"Ġversiyasi":11991,"potrebnadzor":11992,"Ġaylanishining":11993,"Ġtarjima":11994,"Kichik":11995,"ojiboyev":11996,"ĠMustaqillik":11997,"44":11998,"Alisher":11999,"Kin":12000,"Tas":12001,"huquqiy":12002,"lok":12003,"sda":12004,"Ġbersa":12005,"Shvetsiya":12006,"ĠOks":12007,"eld":12008,"Ġvazni":12009,"asalliq":12010,"ĠXay":12011,"ĠShirin":12012,"Ġmass":12013,"Ġ450":12014,"ĠEston":12015,"Ġetik":12016,"Ġnamlantiruvchi":12017,"Ġorganlariga":12018,"Ġnimada":12019,"Ġmuloh":12020,"ĠAnna":12021,"linadi":12022,"elefon":12023,"Ġkalta":12024,"igitali":12025,"Ġkechirdi":12026,"Ġtajribasi":12027,"Ġjuftlikning":12028,"Ġuslubidagi":12029,"Ġbinosiga":12030,"Ġtranzit":12031,"Ġmevalarni":12032,"Ġxonadonida":12033,"ĠDilshod":12034,"Ġmatodan":12035,"ĠBollywoodtime":12036,"Ġprovinsiyasi":12037,"Ġprovinsiyasida":12038,"ĠDavron":12039,"lyuziv":12040,"okdaun":12041,"57":12042,"86":12043,"Britaniya":12044,"Xorazm":12045,"con":12046,"lmasligini":12047,"not":12048,"rlar":12049,"gal":12050,"onasini":12051,"orak":12052,"iyor":12053,"izni":12054,"Ġshkaf":12055,"ence":12056,"lasha":12057,"Ġchak":12058,"ĠBal":12059,"ĠBag":12060,"ĠOchag":12061,"Ġaylanishini":12062,"stat":12063,"lishgan":12064,"ropik":12065,"Bular":12066,"onalari":12067,"Ġsabablarini":12068,"Ġmahsulotlarining":12069,"nashib":12070,"Ġsotuv":12071,"Ġtizimlarini":12072,"Ġparda":12073,"OVAX":12074,"Ġinfeksion":12075,"ĠMirziyoyeva":12076,"Ġmuammoga":12077,"Ġgaplar":12078,"Ġoldinga":12079,"Ġkosmet":12080,"Ġusulda":12081,"xtash":12082,"Ġishlatilgan":12083,"Ġyaltir":12084,"Ġmigratsiya":12085,"Ġbudjetdan":12086,"ĠNavalniyning":12087,"Ġgormonal":12088,"ĠIbra":12089,"Ġfaktlar":12090,"ĠAshraf":12091,"oliqov":12092,"Yaponiya":12093,"Ġreabilitatsiya":12094,"Ġtamoyil":12095,"ĠMishel":12096,"CB":12097,"KS":12098,"Na":12099,"gey":12100,"qaz":12101,"qmi":12102,"rildi":12103,"ses":12104,"Ġsuh":12105,"Ġfen":12106,"Ġpen":12107,"ladimi":12108,"kajo":12109,"Ġtoz":12110,"ĠMen":12111,"Ġishora":12112,"Ġgel":12113,"Ġkasalliklardan":12114,"Ġrahbariga":12115,"Ġtelek":12116,"Ġloyihada":12117,"Ġmuzeyi":12118,"rifat":12119,"Ġturlicha":12120,"Ġyonilg":12121,"Ġ168":12122,"ĠAntoni":12123,"Ġjihatlari":12124,"ĠQorako":12125,"Ġrespublikada":12126,"Ġsirt":12127,"Ġmustaqilligini":12128,"markaz":12129,"Ġsabzavotlarni":12130,"ellekt":12131,"Ġmuzokaralarni":12132,"Ġferment":12133,"Ġyaralangan":12134,"Ġjanubi":12135,"Balki":12136,"Ġbakalavri":12137,"ĠFVV":12138,"Ġxomashyo":12139,"Ara":12140,"Pomidor":12141,"kot":12142,"ntar":12143,"ĠÂ":12144,"otaj":12145,"Ġposti":12146,"Ġqolishiga":12147,"Ġbirlashtirish":12148,"ĠSmit":12149,"aliz":12150,"ĠKuz":12151,"ĠJohnson":12152,"Ġyangiliklari":12153,"Ġsitrus":12154,"Ġisyon":12155,"Ġvafoti":12156,"Ġxodimlaridan":12157,"Ġolinganini":12158,"Amal":12159,"Ġemlashni":12160,"Ġquyuq":12161,"Ġhamkorlikning":12162,"qulov":12163,"uliya":12164,"Ġyopilishi":12165,"Ġayblangan":12166,"Ġqoidalarga":12167,"Ġbajarishga":12168,"Ġafsus":12169,"Shunchaki":12170,"rsatadiki":12171,"Ġboshqaruvni":12172,"Ġvarianti":12173,"Ġkechadi":12174,"Shifo":12175,"Dastur":12176,"Ġuzaytirildi":12177,"Ġbeton":12178,"Ġvahima":12179,"itanik":12180,"Kartoshka":12181,"Ġsalfetka":12182,"Ġdepressiya":12183,"Ġnogironligi":12184,"Ġjism":12185,"Ġmuharriri":12186,"43":12187,"Iste":12188,"planib":12189,"ardim":12190,"oyoz":12191,"shilishi":12192,"Ġqoladigan":12193,"Ġsoatiga":12194,"zilari":12195,"ĠTil":12196,"ogue":12197,"Ġordeni":12198,"Ġger":12199,"Ġtarmoqda":12200,"Ġtananing":12201,"adoq":12202,"Ġfoizida":12203,"Ġsaylovchilar":12204,"Ġmaqbul":12205,"lovchilarga":12206,"ĠAdMeMavzuga":12207,"Ġiqtibos":12208,"Ġchoragida":12209,"yxatda":12210,"Ġfoydalidir":12211,"2010":12212,"Ġjamoaviy":12213,"Ġofat":12214,"Ġfiltr":12215,"ĠErkin":12216,"Ġmualliflari":12217,"Ġkommunal":12218,"Ġshokoladli":12219,"ĠAngela":12220,"Ġtarqalgani":12221,"ĠSulaymoniy":12222,"Ġsuverenit":12223,"Ġtaassurot":12224,"raziliyada":12225,"Kela":12226,"cy":12227,"fek":12228,"qinchi":12229,"zgacha":12230,"Ġtesti":12231,"ayishi":12232,"Ġfosfor":12233,"Ġetmaydi":12234,"yillarning":12235,"diyasi":12236,"Ġyordamni":12237,"mondoni":12238,"Ġyuziga":12239,"mizda":12240,"Ġtuzat":12241,"imizdan":12242,"Ġtomonida":12243,"Ġmuassasalarining":12244,"Ġshoir":12245,"noyabrdan":12246,"Aleks":12247,"ĠMoskvadagi":12248,"ĠMusulmon":12249,"Ġakademiyasining":12250,"irovka":12251,"Ġboshlanishidan":12252,"Muzok":12253,"toval":12254,"Ġtiyilish":12255,"Ġterapiya":12256,"Ġkeragi":12257,"Ġdvigatel":12258,"Bi":12259,"Bod":12260,"Dev":12261,"Toza":12262,"xun":12263,"yda":12264,"che":12265,"Ġyotib":12266,"Ġhunar":12267,"ovsiz":12268,"Ġroz":12269,"Shar":12270,"Ġip":12271,"ozlar":12272,"ĠSir":12273,"Ġunday":12274,"Ġzali":12275,"Ġtepa":12276,"2000":12277,"ĠQatar":12278,"Ġoshirishda":12279,"konlar":12280,"Ġtavsif":12281,"Ġekanligiga":12282,"Ġyaratildi":12283,"Ġmasalalarini":12284,"Ġbeh":12285,"Ġtarmoqlardagi":12286,"Ġ2006":12287,"Bizda":12288,"Ġrangga":12289,"lines":12290,"Ġtaqiqlash":12291,"noyabrda":12292,"Ġkinoteatr":12293,"Ġuyqusizlik":12294,"Ġqilar":12295,"Ġmartab":12296,"Ġtirband":12297,"Ġekranga":12298,"harakat":12299,"ĠAhmedova":12300,"Yorkdagi":12301,"polkovnik":12302,"uaw":12303,"ĠKengash":12304,"Ġadolatli":12305,"Qarorga":12306,"Ġmetabolizmni":12307,"Tarkibida":12308,"Ġvrach":12309,"VI":12310,"vogar":12311,"zy":12312,"shet":12313,"Ġqit":12314,"Ġqich":12315,"Ġvirusi":12316,"chadan":12317,"Ġfir":12318,"ĠTun":12319,"Ġettirgan":12320,"okratik":12321,"rilik":12322,"Ġtashladi":12323,"ngli":12324,"Ġgran":12325,"ĠPav":12326,"Ġqilishlari":12327,"ukkak":12328,"ĠJalol":12329,"ĠXXR":12330,"ĠVak":12331,"Ġijros":12332,"Ġayollari":12333,"Ġinfly":12334,"Ġdunyoni":12335,"Ġyaratishda":12336,"Ġbeqaror":12337,"Ġmuammolardan":12338,"Ġsohasini":12339,"Ġkimni":12340,"Ġchegarani":12341,"Ġxususiyatga":12342,"Ġrangini":12343,"Ġjazosiga":12344,"Ġimzolandi":12345,"Turkiyaning":12346,"Ġmetrni":12347,"ĠSanjar":12348,"Ġmehmonlar":12349,"Ġepidemiy":12350,"Ġjamiyatda":12351,"ĠShermatov":12352,"Aktyorning":12353,"Ġisbotlovchi":12354,"Ġkaryerasi":12355,"Ġquritish":12356,"Ġishlatiladi":12357,"https":12358,"Ġzonasida":12359,"Ġmalikasi":12360,"tariladi":12361,"Ġkongress":12362,"ĠLopes":12363,"Ġkotlet":12364,"Jabr":12365,"KO":12366,"aladigan":12367,"ban":12368,"zning":12369,"zlagan":12370,"amoqda":12371,"umni":12372,"Ġkod":12373,"Ġmalak":12374,"Ġrit":12375,"Ġdor":12376,"ĠBor":12377,"Ġturishga":12378,"ĠGer":12379,"ĠYuz":12380,"ramoqda":12381,"ĠJaloliddin":12382,"Ġmamlakatlardan":12383,"Ġyangilangan":12384,"Ġaniqlab":12385,"idemiya":12386,"Ġajrim":12387,"Ġxizmatchilari":12388,"Ġtalabi":12389,"Ġlag":12390,"Ġrahbarlar":12391,"Ġvideoda":12392,"inchli":12393,"xtatadi":12394,"ĠIIBga":12395,"nalishidagi":12396,"Ġlozimligi":12397,"Ġtashkilotiga":12398,"Ġjihati":12399,"Ġesga":12400,"Ġbaholanmoqda":12401,"Asar":12402,"Ġqatnashish":12403,"Ġxonandasi":12404,"ĠAirlines":12405,"Ġshimoliy":12406,"Ġyashiringan":12407,"Ġqovurilgan":12408,"Ġbarchamiz":12409,"Farmon":12410,"Ġkiritilishi":12411,"Ġyopishib":12412,"ĠQurbonov":12413,"Ġyelka":12414,"Namoyish":12415,"Rospotrebnadzor":12416,"essika":12417,"qolishi":12418,"ĠMartin":12419,"ukerberg":12420,"Ġplyon":12421,"Bloomberg":12422,"Iqtisodiy":12423,"Menga":12424,"Qis":12425,"Ġlik":12426,"lagich":12427,"Ġyoniga":12428,"over":12429,"uzor":12430,"Ġipak":12431,"ĠPanj":12432,"Ġturing":12433,"Ġmahorati":12434,"lumotlarini":12435,"Ġyuzasiga":12436,"ĠVatan":12437,"Ġqatoridan":12438,"natilgan":12439,"akteri":12440,"Ġbarchaga":12441,"Ġovqatga":12442,"ersona":12443,"qonli":12444,"Ġshifokorlarning":12445,"Ġvakillariga":12446,"Ġqoldirildi":12447,"Ġbajaradi":12448,"Talab":12449,"atorlar":12450,"Ġbayroq":12451,"Ġqulaylik":12452,"Ġdeputatlar":12453,"Ġnoroz":12454,"ĠIttifoqining":12455,"Ġdeklar":12456,"Ġbekati":12457,"Ġtoifa":12458,"Ġtoifadagi":12459,"Ġtovuqli":12460,"ĠRamzan":12461,"Ġkutilmaganda":12462,"Ġtelekanalining":12463,"Ġtafsilot":12464,"Ertalab":12465,"ĠGruziya":12466,"otexnika":12467,"maxsus":12468,"Ġdistress":12469,"Ġpiyodani":12470,"Kitob":12471,"MK":12472,"Sir":12473,"Sov":12474,"Titanik":12475,"Vashington":12476,"Yet":12477,"ho":12478,"tildi":12479,"âĢĺ.":12480,"akov":12481,"omin":12482,"Ġtaxt":12483,"Ġfojia":12484,"Ġbichi":12485,"ukn":12486,"ĠQam":12487,"lanishning":12488,"Ġtanada":12489,"limning":12490,"Ġuydagi":12491,"andli":12492,"mizning":12493,"minlaydigan":12494,"ergovchi":12495,"eportaj":12496,"Ġatalgan":12497,"Ġqiyn":12498,"Ġkiritishni":12499,"Ġpullarini":12500,"Ġovqatni":12501,"Ġsudlangan":12502,"Ġsochlarga":12503,"ĠWorld":12504,"ĠKarantin":12505,"Ġbaholagan":12506,"Ġtilla":12507,"Ġnomzodlar":12508,"Ġuyquga":12509,"Ġmisolida":12510,"ĠYerga":12511,"Ġinstitutining":12512,"Ġqiyinchiliklar":12513,"Ġommaga":12514,"Ġpandemiyasiga":12515,"Uchrashuvda":12516,"Ġpeshob":12517,"Ġadvokat":12518,"Ġposhnali":12519,"versitet":12520,"Vladimir":12521,"raydi":12522,"xin":12523,"ãģ":12524,"anan":12525,"Ġpyur":12526,"Ġuchar":12527,"ĠGa":12528,"ĠJasur":12529,"2023":12530,"lovlari":12531,"Ġlotin":12532,"Ġsurtiladi":12533,"Ġfuqaroligi":12534,"Ġtalabalari":12535,"Ġfilmni":12536,"Ġrejalari":12537,"yanvarga":12538,"dinov":12539,"Ġulug":12540,"Ġsalomatlikka":12541,"Ġtushirib":12542,"Ġ266":12543,"Yanvar":12544,"naltiriladi":12545,"Ġqoldiradi":12546,"ĠTojikistonga":12547,"Ġpasayadi":12548,"Ġharoratining":12549,"Tashrif":12550,"Ġmuzlatkichda":12551,"Ġmanzarasiga":12552,"Ġdasturxonga":12553,"Ġkumush":12554,"ĠChiroqchi":12555,"Ġahamiyati":12556,"uawei":12557,"kos":12558,"lcha":12559,"rgani":12560,"Ġmem":12561,"ametr":12562,"Ġpanj":12563,"atika":12564,"Ġifor":12565,"tkazmoqda":12566,"Ġquroli":12567,"ĠVoice":12568,"Ġtayyorlagan":12569,"Ġholga":12570,"ĠZaporojye":12571,"Ġdarajasining":12572,"Ġbildirish":12573,"Ġmarkazlarida":12574,"Ġmaslahatlar":12575,"Ġmuhokamalarga":12576,"Ikkala":12577,"Ġuyushtir":12578,"Ġxulosasiga":12579,"Ġtugaydi":12580,"zgarishlarni":12581,"Ġzaxirasi":12582,"ĠNormatova":12583,"ĠMercedes":12584,"Ġnutqida":12585,"ĠSalmon":12586,"lorida":12587,"Ġpozitsiya":12588,"Ġobrazini":12589,"Ġxuruji":12590,"Ġxakerlar":12591,"Yuqoridagi":12592,"Dil":12593,"llangan":12594,"laqonli":12595,"chasidan":12596,"Ġkakao":12597,"Ġmasalliq":12598,"Ġholiga":12599,"Ġpop":12600,"Ġshishi":12601,"ziladi":12602,"ĠRoman":12603,"ĠKaz":12604,"Ġhisoblamoqda":12605,"Ġhaydab":12606,"Ġuzilishlar":12607,"onistonlik":12608,"ilmagani":12609,"Ġsochlarning":12610,"rnatildi":12611,"Ġbanklari":12612,"Ġmenej":12613,"Ġyengishga":12614,"qoladi":12615,"Ġseriallar":12616,"Ġkompozit":12617,"Ġfilesi":12618,"Ġavtobuslar":12619,"Ġxavotirga":12620,"Ġzanjabil":12621,"Ġkrossovka":12622,"Ġprodyuser":12623,"Ġmetropolit":12624,"77":12625,"Jig":12626,"Plus":12627,"Spir":12628,"Ularda":12629,"eing":12630,"kilishi":12631,"pri":12632,"shap":12633,"chida":12634,"ated":12635,"onasining":12636,"adim":12637,"kidan":12638,"Ġbirja":12639,"ĠTexas":12640,"utter":12641,"rinlarni":12642,"ayotganda":12643,"Ġkup":12644,"Ġchiqarilmasa":12645,"Ġqilinganda":12646,"Ġismini":12647,"Ġtumanining":12648,"Ġaytmoqda":12649,"Ġiztir":12650,"ogistika":12651,"Ġikkinchisi":12652,"ĠReutersMavzuga":12653,"Ġqoidalar":12654,"Ġtashkilotlarning":12655,"Ġhaydovchiga":12656,"Ġqurollar":12657,"Ġhavas":12658,"Ġqoplama":12659,"Ġkuchaytiradi":12660,"ĠYerniya":12661,"zgartirishlar":12662,"Ġolamida":12663,"ĠFord":12664,"ĠYevropaning":12665,"ĠKolum":12666,"Ġprotsessual":12667,"Ġolovda":12668,"ĠMehnat":12669,"Ġinfarkti":12670,"Ġtasodifan":12671,"Ġbisyor":12672,"Ġmetropoliteni":12673,"Tekshir":12674,"YT":12675,"tishni":12676,"usida":12677,"ðŁ":12678,"Ġbaza":12679,"Ġotib":12680,"irlashib":12681,"evan":12682,"lishingiz":12683,"Ġasosi":12684,"ĠDay":12685,"ĠVogue":12686,"Ġdollarini":12687,"Ġkurashayotgan":12688,"lovchilarni":12689,"Ġdarvoz":12690,"Ġsohil":12691,"Ġ115":12692,"Ġvideolav":12693,"Ġizchil":12694,"Ġvakilining":12695,"Ġsochni":12696,"Ġuniversal":12697,"Ġqarating":12698,"2011":12699,"Ġuchrashuvlar":12700,"Ġqaytardi":12701,"Ġimkoniyatlari":12702,"tadbirlarni":12703,"ĠUzerli":12704,"ĠTurkmanistonda":12705,"Ġpayq":12706,"Ġelchixona":12707,"Ġdinamik":12708,"Ġqovurib":12709,"Ġseping":12710,"Ġdekabrida":12711,"Live":12712,"Marie":12713,"ĠSeul":12714,"ĠZokirov":12715,"ĠTedros":12716,"Ġtozala":12717,"Ġmartabali":12718,"Ahol":12719,"Brit":12720,"Baliq":12721,"Vagner":12722,"aniq":12723,"diga":12724,"ayrat":12725,"abek":12726,"Ġfinal":12727,"ostan":12728,"Ġqolishini":12729,"Ġberil":12730,"Ġishlarida":12731,"ĠIT":12732,"Ġtarvuz":12733,"ĠNilufar":12734,"ĠXarkov":12735,"eylor":12736,"Ġyoshlarga":12737,"Ġboshqalarni":12738,"Ġmahsulotning":12739,"alastin":12740,"odar":12741,"Ġ93":12742,"Avvalo":12743,"Ġmantiq":12744,"Ġvositalarida":12745,"Ġinsonlarga":12746,"qullagan":12747,"Ġochdi":12748,"Ġ2002":12749,"Ġxususiyatlarga":12750,"Ġtortildi":12751,"Ġtestlar":12752,"Qoida":12753,"Ġnurlari":12754,"Ġqochishga":12755,"Ġshartnomalar":12756,"ĠBirinchi":12757,"rqinchli":12758,"Ġfederatsiyasi":12759,"Ġrazvedkasi":12760,"Ġuchastka":12761,"haqiqat":12762,"Ġlaqabli":12763,"Ġijrosini":12764,"Pech":12765,"Qal":12766,"graf":12767,"ldim":12768,"nar":12769,"naz":12770,"tani":12771,"ilos":12772,"abay":12773,"isk":12774,"olon":12775,"olmagan":12776,"Ġjangi":12777,"ĠAbu":12778,"obodda":12779,"ĠBHM":12780,"ĠOm":12781,"stligi":12782,"ĠRichard":12783,"ĠKeng":12784,"Ġturt":12785,"ĠCOVAX":12786,"ĠYar":12787,"Ġxizmatga":12788,"tral":12789,"Ġeksk":12790,"Ġyuzi":12791,"Ġtushadigan":12792,"Ġolgandi":12793,"Ġavtonom":12794,"Ġkuzda":12795,"Ġsotayotgan":12796,"Ġhududlardagi":12797,"Ġoldik":12798,"Ġsohalarida":12799,"Ġzarurat":12800,"Ġzaruriy":12801,"Toshkentdagi":12802,"Ġmurojaatlar":12803,"ego":12804,"Ġsalomatligiga":12805,"Ġmashinasiga":12806,"lereya":12807,"Ġdamda":12808,"ĠShahrisabz":12809,"Ġdaraxtlar":12810,"Ġhisobotida":12811,"mishlarga":12812,"Ġfaxr":12813,"Ġdronlar":12814,"Ġsaboqlardan":12815,"Ġaviareys":12816,"42":12817,"59":12818,"Kap":12819,"lmaslik":12820,"loro":12821,"rob":12822,"set":12823,"Ġkoy":12824,"ĠmA":12825,"irlagan":12826,"amni":12827,"ayotib":12828,"ĠMu":12829,"Ġqilishlaricha":12830,"ĠGuter":12831,"Ġavvaliga":12832,"ĠEx":12833,"Ġsaqlaydi":12834,"rtburchak":12835,"Ġsayti":12836,"Ġ92":12837,"Ġsotsi":12838,"Ġhukumatlar":12839,"ologga":12840,"ĠAdMeFoto":12841,"Ġishonchi":12842,"Ġonasining":12843,"Ġajratadi":12844,"Ġtovon":12845,"Ġurushning":12846,"Ġsirli":12847,"llanilishi":12848,"Ġkechirish":12849,"Ġharoratini":12850,"Ġtunnel":12851,"Ġpandemiyaning":12852,"Ġbilaman":12853,"atkorlar":12854,"Ġyanglish":12855,"Ġafsonaviy":12856,"Ġvideomurojaat":12857,"Ekspert":12858,"Ġpechenye":12859,"Ġhanuz":12860,"Ġkompensatsiya":12861,"Fevral":12862,"Iz":12863,"Ne":12864,"Ġkrax":12865,"ishlab":12866,"Ġsoq":12867,"chilaridan":12868,"ite":12869,"ĠMA":12870,"ĠMakk":12871,"udga":12872,"ikyur":12873,"Ġhiss":12874,"Ġqurdi":12875,"Ġmatn":12876,"Ġ105":12877,"Ġtumanda":12878,"ĠInning":12879,"Ġatay":12880,"Ġshaklga":12881,"Ġyuborishga":12882,"lovchisi":12883,"Ġtartibida":12884,"Ġumummilliy":12885,"Ġjarayonlarini":12886,"Ġqismidagi":12887,"Ġjinoyatni":12888,"Ġchiqqanini":12889,"Ġtashkilotning":12890,"Ġyotishdan":12891,"Ġayrimlari":12892,"rgut":12893,"ktam":12894,"Ġmuzlatilgan":12895,"Ġtakrorlardan":12896,"cial":12897,"Ġfolga":12898,"ĠObama":12899,"Ġustozligicha":12900,"Ġjadvali":12901,"qorg":12902,"ĠAbdurahmonov":12903,"vestitsiyalar":12904,"Ġpotensial":12905,"Ġturtki":12906,"41":12907,"76":12908,"DA":12909,"Tana":12910,"dragon":12911,"kning":12912,"rilishi":12913,"utib":12914,"yov":12915,"shiy":12916,"Ġxom":12917,"aqlajon":12918,"ĠSil":12919,"axovat":12920,"Ġchiqa":12921,"ĠPic":12922,"ĠNima":12923,"ĠYuqori":12924,"ĠQan":12925,"ivi":12926,"Ġshid":12927,"Ġmillionta":12928,"Ġhayda":12929,"Ġistamas":12930,"Ġsanasi":12931,"Ġshahardagi":12932,"qiqotlar":12933,"Ġchekadi":12934,"Ġmaktabni":12935,"zalligi":12936,"Ġbankning":12937,"Ġxatar":12938,"Ġterisiga":12939,"Ġmeteor":12940,"Ġtushirgan":12941,"Ġserialning":12942,"Ġmaydonda":12943,"Ġuslubi":12944,"Ġbuyumlarni":12945,"Ġsezgir":12946,"ĠMamaj":12947,"Faqatgina":12948,"Ġmintaqadagi":12949,"Ġstavka":12950,"Ġvizual":12951,"Ġislohotlarni":12952,"ĠSevara":12953,"Ġsammitida":12954,"Facebook":12955,"Ġpedagogi":12956,"zboshimcha":12957,"napdragon":12958,"Aer":12959,"Braziliya":12960,"Da":12961,"Mi":12962,"Mag":12963,"Noyabr":12964,"his":12965,"national":12966,"Ġsousi":12967,"Ġdov":12968,"ĠSuv":12969,"Ġkeraksiz":12970,"Ġsabablaridan":12971,"ĠSham":12972,"Ġtayoq":12973,"Ġqanot":12974,"rsatishni":12975,"Ġyuqishi":12976,"Ġyashashi":12977,"Ġbelgilarini":12978,"Ġhududni":12979,"Ġinsonni":12980,"Agarda":12981,"Ġfoydalaniladigan":12982,"Ġyechib":12983,"ĠImagesFoto":12984,"Ġpartiyasidan":12985,"Ġeslab":12986,"shtni":12987,"Ġsarflash":12988,"Ġqizigan":12989,"Ġkonserv":12990,"Ġqaysidir":12991,"Ġtablet":12992,"Ġratsiondan":12993,"Ġsayyohlik":12994,"tizol":12995,"Ġqaynatilgan":12996,"averadi":12997,"Ġfotosur":12998,"Kanada":12999,"Ġballistik":13000,"Ġtanqidiy":13001,"Ġshiddat":13002,"CD":13003,"Ert":13004,"Kompan":13005,"OAV":13006,"llarda":13007,"rshap":13008,"temir":13009,"lamasi":13010,"anna":13011,"Ġvar":13012,"Ġsy":13013,"gid":13014,"ship":13015,"shilib":13016,"âĢĿ;":13017,"Ġpardoz":13018,"Ġjah":13019,"atiq":13020,"Ġishtiy":13021,"ever":13022,"elli":13023,"ĠKum":13024,"Ġmumkinligidan":13025,"Ġaster":13026,"ĠGret":13027,"ramon":13028,"Ġyangilash":13029,"yinlar":13030,"Ġholatlardan":13031,"Ġtushishni":13032,"Ġsiqib":13033,"Ġtayyorgar":13034,"Ġyurishi":13035,"ĠHaj":13036,"Ġsoatlik":13037,"Ġkiyishni":13038,"ĠAdham":13039,"Ġtufli":13040,"Ġterida":13041,"Ġrahbariyat":13042,"Ġjarayonda":13043,"Ġbuzilish":13044,"Ġdasturiga":13045,"quvvatladi":13046,"Ġshartlari":13047,"Ġdavridagi":13048,"feren":13049,"Ġmaydonchasiga":13050,"Ġoyoqlar":13051,"Ġxohlaydi":13052,"Ġpechga":13053,"Ġvitaminiga":13054,"Ġintellekt":13055,"Kalmar":13056,"Polsha":13057,"Ġnihoyatda":13058,"ĠAbduhakimov":13059,"ĠOsiyoda":13060,"Ġvatandosh":13061,"Ġmiqyosida":13062,"Bitta":13063,"oyozuv":13064,"por":13065,"rut":13066,"ts":13067,"xil":13068,"ÑĪ":13069,"ĨĴ":13070,"Ġby":13071,"atsi":13072,"lashishga":13073,"ĠMuh":13074,"Ġdef":13075,"Ġcheg":13076,"Ġolsa":13077,"azz":13078,"Ġchiqmagan":13079,"Ġoqil":13080,"ldiradi":13081,"Ġkechdi":13082,"soci":13083,"Ġvideosi":13084,"Ġavtomobilni":13085,"Ġ2007":13086,"nalishini":13087,"nalishlarda":13088,"ldirdi":13089,"Ġfarzandlarini":13090,"ĠBaydenga":13091,"Ġtovada":13092,"Ġfaoliyatining":13093,"Ġushlangani":13094,"zbekistonliklarni":13095,"Ġjuftliklar":13096,"ĠStreet":13097,"Ġuslubda":13098,"Ġkanaliga":13099,"zgarishsiz":13100,"Ġbalandligi":13101,"Ġixcham":13102,"ĠâĨĴ":13103,"Ġsuya":13104,"Ġsevgilisi":13105,"Ġkamchiliklarni":13106,"photos":13107,"Ġqoshidagi":13108,"Ġixtiyor":13109,"Ġchiqqanidan":13110,"Ġbrigada":13111,"ĠChopra":13112,"62":13113,"Adolat":13114,"Dey":13115,"EF":13116,"Kino":13117,"Kreml":13118,"Rey":13119,"ening":13120,"hav":13121,"Ġvuj":13122,"iydigan":13123,"tic":13124,"imlar":13125,"osp":13126,"ullan":13127,"Ġsof":13128,"lganlarning":13129,"Ġishda":13130,"ĠTel":13131,"Ġkunni":13132,"ĠSaf":13133,"ĠSof":13134,"ĠSukerberg":13135,"sto":13136,"Ġborayotganini":13137,"garet":13138,"sizlikka":13139,"ĠGin":13140,"Ġkasallar":13141,"ĠQir":13142,"Ġvazirlari":13143,"Ġhisobida":13144,"Ġmahsulotlarga":13145,"araj":13146,"Ġharakatlangan":13147,"Ġtavall":13148,"lashimiz":13149,"Ġsotishga":13150,"Hozirgacha":13151,"Ġtutuvchi":13152,"Ġxonandaning":13153,"Ġqaratgan":13154,"Ġmaqsadli":13155,"Ġkitoblar":13156,"Ġkreditlar":13157,"Ġpalatasining":13158,"Mahalla":13159,"Turmush":13160,"Ġbiriktirilgan":13161,"ĠYevropaga":13162,"Ġxarajatlarini":13163,"Ġetilmaydigan":13164,"Ġfiribgar":13165,"Madina":13166,"ĠAnqara":13167,"Ġkriptoval":13168,"udsman":13169,"Ġboshpana":13170,"ĠYangiyo":13171,"Ġkonditsioner":13172,"xenyan":13173,"kunduzda":13174,"Ġkupyur":13175,"Lanka":13176,"Pul":13177,"Soh":13178,"Yuv":13179,"jum":13180,"rilmagan":13181,"ine":13182,"Ġmog":13183,"olg":13184,"Ġpuf":13185,"Ġuchrab":13186,"Ġdat":13187,"Ġolmaymiz":13188,"ĠRen":13189,"Ġorbi":13190,"ĠKab":13191,"odu":13192,"Ġanor":13193,"ĠDar":13194,"ĠDisney":13195,"Ġkasalligidan":13196,"lashtirilishi":13197,"ĠShax":13198,"Ġjoydan":13199,"Ġhisoblagan":13200,"Ġchiqarishda":13201,"ĠAQShdan":13202,"zgarishiga":13203,"Ġtavsiyasi":13204,"Ġilov":13205,"Ġshifokorlarga":13206,"Ġuchrashish":13207,"riqni":13208,"Ġreysi":13209,"Ġfikrda":13210,"ĠPutinga":13211,"akkasaroy":13212,"Asal":13213,"ĠOlot":13214,"Ġkafed":13215,"Ġqochgan":13216,"Qurilish":13217,"Ġvazifalarini":13218,"Ġmalaka":13219,"Ġsaroyida":13220,"Ġhojatxona":13221,"Ġkiritadi":13222,"Aralash":13223,"95":13224,"Ir":13225,"Istanbul":13226,"Rep":13227,"Umid":13228,"Yuk":13229,"ial":13230,"planishi":13231,"qasddan":13232,"Ġqashshoq":13233,"Ġsemir":13234,"aktiv":13235,"Ġnas":13236,"Ġbitk":13237,"Ġdel":13238,"Ġolmoqchi":13239,"Ġgrant":13240,"ĠCor":13241,"ramiz":13242,"sulton":13243,"Ġoshiradigan":13244,"chilikni":13245,"Ġyarmini":13246,"Ġurinib":13247,"Ġtalablarga":13248,"Ġchalinib":13249,"Ġboshqarmasiga":13250,"Ġloyihasiga":13251,"Ġvirusdan":13252,"Ġtarkibini":13253,"Ġqarata":13254,"Taom":13255,"Ġxilof":13256,"Ġ270":13257,"Ġvoqealarni":13258,"ĠBelarusga":13259,"Ġtugashi":13260,"Ġinfeksiyaga":13261,"Tadqiqotlar":13262,"Ġbaxtsiz":13263,"zgartirishga":13264,"ĠBollivudning":13265,"Ġdiqqatga":13266,"Ġpandemiyasining":13267,"Ġportali":13268,"Parhez":13269,"ĠLivan":13270,"Ġkonteyn":13271,"Ġkampaniyasi":13272,"NATO":13273,"Ġmagistrat":13274,"ĠMuqaddas":13275,"Ġantibiotik":13276,"ositphotos":13277,"Ġpaypoq":13278,"Ġsmartfoni":13279,"Ġyetim":13280,"ĠPompeo":13281,"ĠVakillar":13282,"CA":13283,"GA":13284,"TE":13285,"Video":13286,"Ye":13287,"iPhone":13288,"sot":13289,"Ġqoy":13290,"ista":13291,"chalarni":13292,"Ġshap":13293,"Ġbirdek":13294,"ĠTuxum":13295,"istondagi":13296,"Ġolmasa":13297,"Ġoltinchi":13298,"oshabin":13299,"ĠIvan":13300,"Ġtutash":13301,"ĠKamol":13302,"Ġqilishadi":13303,"artar":13304,"dorlar":13305,"Ġnafarida":13306,"darilib":13307,"Ġteles":13308,"ĠTurkiy":13309,"nomasida":13310,"Ġmarkazini":13311,"Ġnatijalarga":13312,"Ġsizda":13313,"Ġtarixda":13314,"Ġoperator":13315,"lergik":13316,"Ġpishiramiz":13317,"Ġishlashini":13318,"Ġinvestit":13319,"Yoki":13320,"Ishon":13321,"harakatlar":13322,"Qurilma":13323,"Ġqalbidan":13324,"Ġolaman":13325,"ĠNikolay":13326,"UzAuto":13327,"Ġapparat":13328,"Ġajrashgan":13329,"ografik":13330,"Ġfaslida":13331,"Ġtepasiga":13332,"Ġfront":13333,"Ġarxitekt":13334,"ĠAnjelina":13335,"Ġishtiyoq":13336,"paz":13337,"zib":13338,"ings":13339,"ols":13340,"oley":13341,"ench":13342,"enning":13343,"Ġsoladigan":13344,"ĠAsia":13345,"Ġboshlanishini":13346,"rilayotgan":13347,"Ġtuh":13348,"ĠKa":13349,"ĠPech":13350,"kazo":13351,"uba":13352,"roid":13353,"onalik":13354,"ĠDushan":13355,"Ġchiqilishi":13356,"rinlari":13357,"Ġ103":13358,"Ġmaqomi":13359,"Ġyerosti":13360,"Ġsten":13361,"Ġguruhlari":13362,"Ġdegandi":13363,"Ġuzoqlikda":13364,"Ġnatijani":13365,"Ġkutayotgan":13366,"Rossiyalik":13367,"Ġsportchi":13368,"Ġosonroq":13369,"Ġmushkul":13370,"Ġliboslarni":13371,"Ġtoshlar":13372,"Ġkelasi":13373,"Ġyuritayotgan":13374,"Ġmigrantlar":13375,"Ġyuritadi":13376,"Ġtuzalganlar":13377,"Bemorlarning":13378,"Ġderaza":13379,"Ġhaftaning":13380,"ĠDepositphotos":13381,"Ġromantik":13382,"adolu":13383,"Ġnevar":13384,"Ġoqilona":13385,"Qiy":13386,"Tomon":13387,"shvar":13388,"any":13389,"taha":13390,"ullanadigan":13391,"Ġboshq":13392,"Ġhaqli":13393,"ental":13394,"Ġins":13395,"Ġ2030":13396,"osidan":13397,"Ġqurilayotgan":13398,"ado":13399,"andra":13400,"Ġsurtib":13401,"Ġnamlikni":13402,"Ġxodimini":13403,"zolarini":13404,"Ġoilaga":13405,"Ġovqatlanishga":13406,"Ġchegaradosh":13407,"argoh":13408,"Ġsochlarini":13409,"ĠWall":13410,"Ġtayinlash":13411,"Ġkilo":13412,"Ġketadigan":13413,"ĠBazaarFoto":13414,"Ġkayfiyatni":13415,"dodli":13416,"ĠIkrom":13417,"Ġyangiliklaridan":13418,"Ġomadli":13419,"Ġrezolyut":13420,"Ġcharchagan":13421,"Ġokrugi":13422,"evralida":13423,"Ġartilleriya":13424,"ĠAshxobod":13425,"Ġalkogol":13426,"64":13427,"Niqob":13428,"Olib":13429,"Yur":13430,"muham":13431,"pul":13432,"ril":13433,"sdi":13434,"vada":13435,"xem":13436,"zak":13437,"Ġtram":13438,"atlarda":13439,"Ġhor":13440,"Ġsust":13441,"Ġpersona":13442,"Ġboshlanib":13443,"Ġboshchiligida":13444,"els":13445,"ĠUest":13446,"Ġyangilanish":13447,"Ġdavlatda":13448,"Ġyaxshisi":13449,"Ġhaykali":13450,"amizda":13451,"Ġishtirokchilar":13452,"Ġfilmini":13453,"Cho":13454,"Ġtasdiqlanmagan":13455,"ĠArgent":13456,"ĠAlloh":13457,"Ġxonada":13458,"link":13459,"Ġfikrlarini":13460,"ĠWe":13461,"Ġsafari":13462,"Ġvoqeadan":13463,"ĠErchel":13464,"Ġidishda":13465,"Ġsharf":13466,"qiyos":13467,"Ġanglab":13468,"zgarishlarga":13469,"Vazirning":13470,"ĠGollivudning":13471,"Universitet":13472,"Ġkislotalari":13473,"Ġbarchani":13474,"Ġadabiyoti":13475,"Ġxiyonat":13476,"Nonushta":13477,"Ġeskirgan":13478,"Ġinsulin":13479,"Ġsviter":13480,"Ġamerikaliklar":13481,"Ġqolarli":13482,"Kelajak":13483,"sociated":13484,"71":13485,"bet":13486,"Ġbol":13487,"ekti":13488,"oster":13489,"ĠSE":13490,"ĠSab":13491,"ĠSPF":13492,"onika":13493,"Ġgersog":13494,"ĠIj":13495,"adastr":13496,"zbekistonni":13497,"izmi":13498,"ĠJer":13499,"Ġkerakmi":13500,"Ġtanani":13501,"Ġyaxshilanadi":13502,"Ġtezlashtiradi":13503,"Ġismaloq":13504,"Ġuzatish":13505,"Ġkuchsiz":13506,"Ġsana":13507,"molchilar":13508,"Ġsuvosti":13509,"Ġvaziyatlarda":13510,"ugurat":13511,"Ġmajlisi":13512,"Ġbeqiyos":13513,"Ġavtomobillarni":13514,"Ġxalqning":13515,"Ġayblanib":13516,"Ġhujumga":13517,"ĠYevropadagi":13518,"Ġyengish":13519,"Ġmetal":13520,"ĠMalay":13521,"Ġkamaytirishi":13522,"ĠHindistonning":13523,"Ġbinosida":13524,"Ġmevali":13525,"Ġquvvatlantirish":13526,"Ġquyoshdan":13527,"rupsiyaga":13528,"Ġqovuriladi":13529,"Ġnuqtai":13530,"Ð¸Ð½":13531,"hangar":13532,"Ġsamolyotlar":13533,"Ġqomatni":13534,"Ġduo":13535,"Menimcha":13536,"Ġinaugurat":13537,"Ġklaster":13538,"Ġaviachip":13539,"Ġdiagnos":13540,"ĠAwards":13541,"Ġobodonlashtirish":13542,"78":13543,"Aq":13544,"Fin":13545,"Fer":13546,"ngida":13547,"vel":13548,"xus":13549,"zidagi":13550,"aton":13551,"uniy":13552,"Ġqilmasligi":13553,"Ġetayotgani":13554,"Ġqayerdan":13555,"liqqa":13556,"rsatayotgan":13557,"Ġtopishi":13558,"Ġqatori":13559,"konlari":13560,"Ġemlanishi":13561,"Ġ125":13562,"Ġjarayonlar":13563,"Ġtasdiqlangani":13564,"Ġxususiyatlarini":13565,"Ġvazifalari":13566,"riqlash":13567,"Ġkuchayadi":13568,"ynadi":13569,"ingalak":13570,"Ġnuri":13571,"Ġbazasi":13572,"ulotlari":13573,"Ġanjum":13574,"Ġekspertlari":13575,"Ġjinoy":13576,"Ġjinsiy":13577,"Doimiy":13578,"ĠBobur":13579,"prog":13580,"ĠJekson":13581,"NASA":13582,"Ġsafarbarlik":13583,"Ġkashf":13584,"Ġpalto":13585,"Ġkomediya":13586,"ĠLatviya":13587,"Ġtavallud":13588,"63":13589,"Hali":13590,"tm":13591,"Ġqoq":13592,"Ġsoy":13593,"Ġbosish":13594,"izayn":13595,"Ġshir":13596,"iligini":13597,"Ġberilmoqda":13598,"Sher":13599,"Ġoroli":13600,"Ġtarzida":13601,"Ġhokazo":13602,"Ġkasalligini":13603,"Ġsabr":13604,"Ġbardosh":13605,"Ġholatlarni":13606,"Ġrahmat":13607,"Ġ750":13608,"Ġyashay":13609,"Ġxizmatchilar":13610,"Ġsarlav":13611,"Ġkonsult":13612,"simliklar":13613,"Ġdeganda":13614,"linma":13615,"Ġfikrni":13616,"Ġshakldagi":13617,"Ġmaqsadlarda":13618,"Ġtadqiqotchilar":13619,"Ġeshitib":13620,"Ġmadaniyati":13621,"Ġamaliyotini":13622,"Ġsolishga":13623,"Ġdizayni":13624,"Ġchinakam":13625,"Qaysi":13626,"dessa":13627,"Ġnazoratiga":13628,"ĠTursunov":13629,"Ġshafqatsiz":13630,"Ġekstremistik":13631,"88":13632,"Bay":13633,"ct":13634,"juda":13635,"nas":13636,"xsha":13637,"ylaydi":13638,"one":13639,"iling":13640,"ots":13641,"olmay":13642,"mah":13643,"Ġboshlashga":13644,"Ġqilsangiz":13645,"ĠTat":13646,"olicha":13647,"Ġtomor":13648,"Ġqaynoq":13649,"liqlik":13650,"ĠLay":13651,"Ġertak":13652,"ilishicha":13653,"ektemir":13654,"Ġbolasi":13655,"Ġdis":13656,"Ġsohaga":13657,"ĠMarch":13658,"Ġraqqos":13659,"madir":13660,"Ġsinovi":13661,"Ġbozorlari":13662,"qotishga":13663,"ĠZelenskiyning":13664,"Ġxotirasi":13665,"Ġobrazga":13666,"Ġmanbayi":13667,"Ishlab":13668,"Ġixtiro":13669,"Ġmasofaga":13670,"ĠBoeing":13671,"Ġdarslar":13672,"ĠSuriyadagi":13673,"Ġbilamiz":13674,"Asosiysi":13675,"Ġmuomalaga":13676,"ĠLavrov":13677,"Tirnoq":13678,"ĠGuterrish":13679,"EI":13680,"Mish":13681,"Och":13682,"Test":13683,"bemor":13684,"mut":13685,"sey":13686,"Ġtergovchi":13687,"oltin":13688,"Ġxira":13689,"Ġqoplab":13690,"okisl":13691,"Ġunash":13692,"ĠDin":13693,"ĠQuy":13694,"Ġlokdaun":13695,"Ġdollariga":13696,"Ġkishilarning":13697,"xonani":13698,"Ġyaroqsiz":13699,"Ġtumandagi":13700,
[...]
