{"<s>":0,"<pad>":1,"</s>":2,"<unk>":3,"<mask>":4,"!":5,"\"":6,"#":7,"$":8,"%":9,"&":10,"'":11,"(":12,")":13,"*":14,"+":15,",":16,"-":17,".":18,"/":19,"0":20,"1":21,"2":22,"3":23,"4":24,"5":25,"6":26,"7":27,"8":28,"9":29,":":30,";":31,"<":32,"=":33,">":34,"?":35,"@":36,"A":37,"B":38,"C":39,"D":40,"E":41,"F":42,"G":43,"H":44,"I":45,"J":46,"K":47,"L":48,"M":49,"N":50,"O":51,"P":52,"Q":53,"R":54,"S":55,"T":56,"U":57,"V":58,"W":59,"X":60,"Y":61,"Z":62,"[":63,"\\":64,"]":65,"^":66,"_":67,"`":68,"a":69,"b":70,"c":71,"d":72,"e":73,"f":74,"g":75,"h":76,"i":77,"j":78,"k":79,"l":80,"m":81,"n":82,"o":83,"p":84,"q":85,"r":86,"s":87,"t":88,"u":89,"v":90,"w":91,"x":92,"y":93,"z":94,"{":95,"|":96,"}":97,"~":98,"¡":99,"¢":100,"£":101,"¤":102,"¥":103,"¦":104,"§":105,"¨":106,"©":107,"ª":108,"«":109,"¬":110,"®":111,"¯":112,"°":113,"±":114,"²":115,"³":116,"´":117,"µ":118,"¶":119,"·":120,"¸":121,"¹":122,"º":123,"»":124,"¼":125,"½":126,"¾":127,"¿":128,"À":129,"Á":130,"Â":131,"Ã":132,"Ä":133,"Å":134,"Æ":135,"Ç":136,"È":137,"É":138,"Ê":139,"Ë":140,"Ì":141,"Í":142,"Î":143,"Ï":144,"Ð":145,"Ñ":146,"Ò":147,"Ó":148,"Ô":149,"Õ":150,"Ö":151,"×":152,"Ø":153,"Ù":154,"Ú":155,"Û":156,"Ü":157,"Ý":158,"Þ":159,"ß":160,"à":161,"á":162,"â":163,"ã":164,"ä":165,"å":166,"æ":167,"ç":168,"è":169,"é":170,"ê":171,"ë":172,"ì":173,"í":174,"î":175,"ï":176,"ð":177,"ñ":178,"ò":179,"ó":180,"ô":181,"õ":182,"ö":183,"÷":184,"ø":185,"ù":186,"ú":187,"û":188,"ü":189,"ý":190,"þ":191,"ÿ":192,"Ā":193,"ā":194,"Ă":195,"ă":196,"Ą":197,"ą":198,"Ć":199,"ć":200,"Ĉ":201,"ĉ":202,"Ċ":203,"ċ":204,"Č":205,"č":206,"Ď":207,"ď":208,"Đ":209,"đ":210,"Ē":211,"ē":212,"Ĕ":213,"ĕ":214,"Ė":215,"ė":216,"Ę":217,"ę":218,"Ě":219,"ě":220,"Ĝ":221,"ĝ":222,"Ğ":223,"ğ":224,"Ġ":225,"ġ":226,"Ģ":227,"ģ":228,"Ĥ":229,"ĥ":230,"Ħ":231,"ħ":232,"Ĩ":233,"ĩ":234,"Ī":235,"ī":236,"Ĭ":237,"ĭ":238,"Į":239,"į":240,"İ":241,"ı":242,"Ĳ":243,"ĳ":244,"Ĵ":245,"ĵ":246,"Ķ":247,"ķ":248,"ĸ":249,"Ĺ":250,"ĺ":251,"Ļ":252,"ļ":253,"Ľ":254,"ľ":255,"Ŀ":256,"ŀ":257,"Ł":258,"ł":259,"Ń":260,"la":261,"âĢ":262,"sh":263,"da":264,"ni":265,"ga":266,"âĢĺ":267,"ri":268,"li":269,"Ġb":270,"ti":271,"ma":272,"di":273,"ch":274,"Ġt":275,"si":276,"Ġo":277,"Ġk":278,"ar":279,"lar":280,"Ġq":281,"ng":282,"ya":283,"gan":284,"ra":285,"on":286,"Ġh":287,"va":288,"Ġbo":289,"il":290,"Ġy":291,"ning":292,"lari":293,"shi":294,"Ġs":295,"gi":296,"Ġva":297,"ta":298,"Ġa":299,"Ġm":300,"Ġi":301,"Ġe":302,"Ġu":303,"Ġma":304,"or":305,"Ġta":306,"chi":307,"dan":308,"na":309,"zi":310,"ki":311,"ka":312,"mi":313,"mo":314,"un":315,"sa":316,"Ġbi":317,"lan":318,"Ġha":319,"cha":320,"lik":321,"ro":322,"de":323,"Ġko":324,"Ġx":325,"at":326,"er":327,"yo":328,"lo":329,"yi":330,"qi":331,"Ġj":332,"st":333,"Ġqi":334,"Ġf":335,"Ġmu":336,"lgan":337,"Ġke":338,"ĠâĢ":339,"Ġto":340,"Ġyo":341,"qa":342,"Ġsh":343,"dagi":344,"ur":345,"Ġso":346,"bi":347,"vo":348,"Ġp":349,"Ġqo":350,"ĠB":351,"rish":352,"Ġda":353,"ĠS":354,"lash":355,"do":356,"ay":357,"âĢĿ":358,"no":359,"ĠA":360,"ab":361,"en":362,"uv":363,"Ġbilan":364,"Ġham":365,"ĠM":366,"Ġya":367,"âĢĻ":368,"Ġish":369,"ladi":370,"siya":371,"ligi":372,"Ġ1":373,"Ġ2":374,"Ġtu":375,"an":376,"Ġuch":377,"re":378,"Ġqili":379,"Ġbe":380,"so":381,"Ġde":382,"al":383,"ĠO":384,"ĠâĢľ":385,"ston":386,"lab":387,"iz":388,"lib":389,"be":390,"ĠT":391,"ara":392,"ir":393,"qda":394,"to":395,"av":396,"Ġbosh":397,"larni":398,"Ġku":399,"gani":400,"Ġuchun":401,"tgan":402,"Ġbu":403,"ldi":404,"ah":405,"ja":406,"aro":407,"sida":408,"lat":409,"lu":410,"Ġna":411,"za":412,"zo":413,"bo":414,"yat":415,"ul":416,"uq":417,"zbe":418,"lishi":419,"Ġtash":420,"Ġra":421,"Ġho":422,"Ġyil":423,"kiston":424,"ĠR":425,"Ġte":426,"tish":427,"ba":428,"Ġbir":429,"Ġchi":430,"iy":431,"ud":432,"ĠK":433,"00":434,"et":435,"Ġki":436,"lish":437,"zbekiston":438,"ona":439,"moqda":440,"miz":441,"tib":442,"ĠU":443,"us":444,"larini":445,"Ġqil":446,"oy":447,"Ġ(":448,"ot":449,"larga":450,"kin":451,"larning":452,"Â»":453,"Â«":454,"Ġka":455,"fa":456,"sp":457,"Ġdo":458,"ha":459,"ko":460,"le":461,"uri":462,"kat":463,"Ġja":464,"oli":465,"Ġsa":466,"Ġay":467,"langan":468,"ĠI":469,"lani":470,"ĠBu":471,"rat":472,"Ġv":473,"yati":474,"Ġch":475,"lma":476,"Ġg":477,"ev":478,"ngi":479,"ent":480,"ilo":481,"Ġmi":482,"ĠSh":483,"Ġ20":484,"ydi":485,"rib":486,"Ġvazi":487,"tirish":488,"Ġtar":489,"man":490,"yicha":491,"uvchi":492,"bu":493,"Ġber":494,"rin":495,"mp":496,"ĠÂ«":497,"abar":498,"Ġyu":499,"sti":500,"larda":501,"ĠY":502,"Ġdav":503,"Ġhi":504,"Ġin":505,"lariga":506,"mat":507,"Ġn":508,"Ġsi":509,"Ġor":510,"kil":511,"Ġxo":512,"ĠP":513,"Sh":514,"kor":515,"niya":516,"Ġeti":517,"Ġxabar":518,"ĠQ":519,"ub":520,"ĠN":521,"kt":522,"moni":523,"lga":524,"um":525,"osh":526,"kazi":527,"Ġav":528,"Ġti":529,"roq":530,"Ġqilish":531,"Ġ3":532,"tida":533,"Ġre":534,"mon":535,"os":536,"rilgan":537,"ĠD":538,"den":539,"liy":540,"ĠH":541,"lov":542,"ĠâĢĶ":543,"Ġkuni":544,"yot":545,"Ġshu":546,"ĠJ":547,"yin":548,"in":549,"yotgan":550,"Ġhaqi":551,"dir":552,"siz":553,"Ġdavlat":554,"Ġshah":555,"Ġfa":556,"yil":557,"ĠX":558,"fi":559,"hi":560,"Ġmum":561,"ĠĠ":562,"Ġmumkin":563,"ov":564,"Ġtashkil":565,"radi":566,"Ġqa":567,"Ġhu":568,"Ġtomoni":569,"Ġno":570,"ort":571,"Ġqay":572,"liq":573,"ĠF":574,"sini":575,"ut":576,"Ġvilo":577,"Ġesa":578,"dek":579,"ĠG":580,"mas":581,"ziden":582,"Ġoshi":583,"Ġqar":584,"Ġama":585,"reziden":586,"dim":587,"Ġxiz":588,"Ġtomonidan":589,"rak":590,"Ġdeb":591,"ori":592,"siga":593,"unda":594,"xona":595,"miy":596,"lum":597,"Ġba":598,"Ġaso":599,"lika":600,"Ġmar":601,"Ġolib":602,"nadi":603,"mu":604,"ublika":605,"spublika":606,"biy":607,"Ġqilin":608,"sha":609,"bat":610,"Ġsha":611,"ku":612,"ĠâĢĵ":613,"Ġme":614,"lim":615,"Ġmil":616,"lardan":617,"gar":618,"mla":619,"ol":620,"20":621,"Ġhiso":622,"mida":623,"rsa":624,"qar":625,"Ġmah":626,"dam":627,"Ġdavo":628,"Ġ5":629,"mati":630,"kent":631,"larida":632,"Ġbor":633,"âĢľ":634,"ĠMa":635,"zar":636,"Ġtur":637,"Ġni":638,"lin":639,"ĠL":640,"Ġvaq":641,"dda":642,"Ġbar":643,"ĠRe":644,"Ġik":645,"tdi":646,"te":647,"ora":648,"Ġjoy":649,"oshkent":650,"tilgan":651,"Ġyangi":652,"zil":653,"Ġhar":654,"sta":655,"sining":656,"chilik":657,"Ġ4":658,"shbu":659,"Ġ201":660,"Ġhamda":661,"lumo":662,"Ġboshqa":663,"ĠV":664,"ĠE":665,"ligini":666,"ĠC":667,"Ġim":668,"mani":669,"Ġfo":670,"ru":671,"bir":672,"dor":673,"Ġkun":674,"shicha":675,"ran":676,"Ġhaqida":677,"Ġlo":678,"dar":679,"vi":680,"niq":681,"Ġmamla":682,"Ġji":683,"larining":684,"Ġmo":685,"Ġkor":686,"yu":687,"rida":688,"lumot":689,"su":690,"aniya":691,"ek":692,"Ġye":693,"tadi":694,"Ġvazir":695,"Ġyi":696,"Ġega":697,"Ġga":698,"tab":699,"tir":700,"diy":701,"Ġqu":702,"qat":703,"âĢĿ,":704,"ossiya":705,"nga":706,"Ġhaqda":707,"as":708,"zir":709,"ĠRespublika":710,"Ġming":711,"alq":712,"Ġsu":713,"ningdek":714,"Ġdara":715,"Ġqildi":716,"Ġberi":717,"yor":718,"Ġkerak":719,"Ġolish":720,"Ġhud":721,"siy":722,"fo":723,"du":724,"oyda":725,"qo":726,"uqaro":727,"Ġoldi":728,"dbir":729,"Ġ7":730,"Ġmamlakat":731,"Ġij":732,"rta":733,"Ġfoyda":734,"xs":735,"mmo":736,"mpaniya":737,"qin":738,"far":739,"Ġqilgan":740,"Ġamalga":741,"tsiya":742,"Ġrah":743,"Ġedi":744,"bor":745,"Ġtop":746,"Ġdaraja":747,"Ġishlab":748,"sidagi":749,"Ġsab":750,"Ġhisob":751,"lanadi":752,"Ġmilli":753,"Ġetish":754,"el":755,"Ġchiqa":756,"lanish":757,"Ġ6":758,"Ġfuqaro":759,"ji":760,"masi":761,"tan":762,"landi":763,"Ġyosh":764,"ĠToshkent":765,"Ġpreziden":766,"QSh":767,"Ġro":768,"Ġeng":769,"es":770,"Ġavto":771,"Ġikki":772,"Ġdol":773,"Ġviloyati":774,"Ġvo":775,"xi":776,"lay":777,"Ġyet":778,"lgani":779,"val":780,"Ġaniq":781,".âĢľ":782,"gacha":783,"Ġri":784,"lmoqda":785,"Ġchiqi":786,"eri":787,"Ġyoki":788,"Ġfaoli":789,"ĠRossiya":790,"giya":791,"ngiz":792,"Ġuning":793,"tka":794,"Ġholat":795,"lda":796,"Ġhara":797,"000":798,"Ġqat":799,"zim":800,"son":801,"ho":802,"tiro":803,"laridan":804,"Ġxizmat":805,"tin":806,"gu":807,"lagan":808,"yiha":809,"anda":810,"Ġdi":811,"unday":812,"ĠShu":813,"layotgan":814,"'m":815,"mar":816,"Ġushbu":817,"sidan":818,"Ġsabab":819,"Ġkiri":820,"moq":821,"viy":822,"Ġhuj":823,"undan":824,"Ġyana":825,"zu":826,"lsa":827,"Ma":828,"Ġyor":829,"Ġbarcha":830,"Ġah":831,"Ġbel":832,"lashti":833,"Ġchiq":834,"Ġjamo":835,"kid":836,"Ġkishi":837,"tda":838,"Ġnafar":839,"jat":840,"),":841,"Ġtumani":842,"tkazi":843,"Ġmav":844,"pi":845,"Ġkompaniya":846,"ĠRespublikasi":847,"Ġ8":848,"ĠSa":849,"Ġsay":850,"pa":851,"Ġqab":852,"og":853,"san":854,"Ġorqa":855,"lot":856,"Ġyer":857,"Ġrivo":858,"tini":859,"Ġqarshi":860,"Ġmaq":861,"Ġmasa":862,"Ġd":863,"Ġishtiro":864,"Ġloyiha":865,"rinchi":866,"Ġtaq":867,"Ġbelgi":868,"var":869,"Ġberdi":870,"Ġqis":871,"Ġfi":872,"Ġvazirligi":873,"Ġshahar":874,"ĠAQSh":875,"lashtirish":876,"tija":877,"Ġfoiz":878,"Ġnar":879,"Ġtalab":880,"irus":881,"Ġqon":882,"Ġuni":883,"Ġne":884,"Ġzar":885,"rash":886,"qti":887,"Ġxalq":888,"ktab":889,"kur":890,"Ġqabul":891,"Ġil":892,"ron":893,"Ġtez":894,"Ġpro":895,"Ġbil":896,"Ġemas":897,"rasida":898,"Ġqilingan":899,"Ġquri":900,"xshi":901,"riga":902,"Ġuy":903,"ter":904,"may":905,"niy":906,"Ġhoki":907,"Ġrivoj":908,"Ġmaqsa":909,"lantirish":910,"Ġtan":911,"Ġbiz":912,"Ġeka":913,"Ġshar":914,"magan":915,"lon":916,"Ġshi":917,"Ġorqali":918,"Ġpay":919,"ndi":920,"Ġberish":921,"Ġharakat":922,"nali":923,"ey":924,"Ġmasala":925,"Ġ-":926,"mol":927,"Ġtay":928,"oni":929,"Ġyaxshi":930,"korlik":931,"rini":932,"Ġhuq":933,"Ġpa":934,"Ġtayyor":935,"Ġtadbir":936,"sal":937,"Ġsoha":938,"vat":939,"Ġman":940,"Ġqara":941,"don":942,"atta":943,"Ġ10":944,"Ġxizmati":945,"Ġbog":946,"Ġban":947,"Ġalo":948,"ladigan":949,"Ġolgan":950,"Ġmillion":951,"Ġviloyat":952,"tiga":953,"Ġmun":954,"bil":955,"Ġ19":956,"Ġras":957,"Ġboshqar":958,"yev":959,"Ġtush":960,"shini":961,"Ġmay":962,"Ġdoir":963,"dida":964,"ĠĠĠĠ":965,"Ġxav":966,"erg":967,"Ġolin":968,"xta":969,"Ġdast":970,"ĠYa":971,"Ġaholi":972,"lekt":973,"yotgani":974,"kli":975,"Â»,":976,"Ġetgan":977,"bari":978,"port":979,"Ġnatija":980,"ĠNa":981,"bol":982,"oriy":983,"koni":984,"Ġdavomida":985,"zkur":986,"Ġsaq":987,"qtiso":988,"uz":989,"timo":990,"Ġyuq":991,"qan":992,"loq":993,"jon":994,"Ġet":995,"Ġdoi":996,"Ġxodim":997,"Ġ9":998,"Ġbirinchi":999,"ida":1000,"zimi":1001,"rim":1002,"Bu":1003,"Ġmahsu":1004,"onav":1005,"om":1006,"Ġis":1007,"Ġrahbari":1008,"nat":1009,"lmagan":1010,"chilar":1011,"ilgan":1012,"Ġyuza":1013,"ver":1014,"Ġkeyin":1015,"tasi":1016,"br":1017,"ĠCh":1018,"Ġkatta":1019,"onavirus":1020,"Ġoshirish":1021,"sport":1022,"Ġqanda":1023,"yap":1024,"yish":1025,"xbor":1026,"ĠQo":1027,"shish":1028,"zga":1029,"likda":1030,"Ġsifa":1031,"Ġfaoliyati":1032,"Ġza":1033,"evro":1034,"tax":1035,"Ġtex":1036,"Ġshaxs":1037,"Ġoi":1038,"ve":1039,"Ġyilda":1040,"Ġqilib":1041,"Ġcha":1042,"Ġetilgan":1043,"ram":1044,"Ġmaj":1045,"hat":1046,"Ġishlar":1047,"tiq":1048,"noyat":1049,"laydi":1050,"Ġimkoni":1051,"Ġtuman":1052,"nida":1053,"quv":1054,"rik":1055,"Ġxavf":1056,"zilgan":1057,"zuga":1058,"riya":1059,"Ġoy":1060,"mir":1061,"unyo":1062,"Ġche":1063,"Ġishtirok":1064,"Ġmuno":1065,"Mav":1066,"Ġyordam":1067,"Shu":1068,"Ġmahsulot":1069,"Ġtas":1070,"Ġak":1071,"Ġchora":1072,"Ġkasal":1073,"Ġyaqin":1074,"Ġqanday":1075,"lini":1076,"xborot":1077,"Ġmeh":1078,"âĢĶ":1079,"shim":1080,"bar":1081,"Ġprezidenti":1082,"uru":1083,"Ġbuy":1084,"it":1085,"ari":1086,"Mavzuga":1087,"Ġpar":1088,"Ġbola":1089,"Ġju":1090,"ech":1091,"Ġichi":1092,"siyasi":1093,"Ġrasmiy":1094,"Ġoyi":1095,"Ġhudud":1096,"usu":1097,"ish":1098,"Ġberadi":1099,"Ġbergan":1100,"Ġjavo":1101,"Ġqayta":1102,"Ġyara":1103,"chisi":1104,"Ġkoronavirus":1105,"utbol":1106,"dov":1107,"Ġkon":1108,"lanishi":1109,"Ġtashqa":1110,"Ġjamoa":1111,"Ġmarkazi":1112,"noma":1113,"liklar":1114,"Ġek":1115,"Ġml":1116,"Ġqayd":1117,"liya":1118,"Ġmas":1119,"Ġodam":1120,"Ġhujjat":1121,"maydi":1122,"Ġyuqori":1123,"Ġnis":1124,"Ġmahal":1125,"Ġkel":1126,"lashgan":1127,"Ġjavob":1128,"Ġhudu":1129,"Ġbah":1130,"Ġ15":1131,"avdo":1132,"logiya":1133,"Ġnisba":1134,"ito":1135,"kra":1136,"Ġun":1137,"lmaydi":1138,"timoiy":1139,"Ġmat":1140,"min":1141,"shli":1142,"Ġnisbatan":1143,"Ġshahri":1144,"Ġreja":1145,"Ġjoriy":1146,"Ġelekt":1147,"Ġshuningdek":1148,"risida":1149,"Ġholda":1150,"ĠZ":1151,"Ġharbiy":1152,"Ġularning":1153,"Ġaj":1154,"Ġtakli":1155,"ĠTa":1156,"Ġxalqaro":1157,"Ġqonun":1158,"Ġtashqari":1159,"Ġmunosa":1160,"ĠMu":1161,"ziyo":1162,"rishi":1163,"Ġqiladi":1164,"etr":1165,"Ġaxborot":1166,".Â«":1167,"sita":1168,"moya":1169,"Ġbirga":1170,"Ġkam":1171,"lanib":1172,"mobil":1173,"am":1174,"Ġguru":1175,"Ġhuku":1176,"Ġmiq":1177,"Ġfar":1178,"Ġkelgan":1179,"Ġsuv":1180,"izi":1181,"Ġdeya":1182,"zm":1183,"Ġshart":1184,"Ġkuch":1185,"Ġular":1186,"shda":1187,"roja":1188,"Ġkelib":1189,"nal":1190,"Ġpul":1191,"oro":1192,"buot":1193,"Ġtele":1194,"Ġog":1195,"rsat":1196,"sari":1197,"Ġfutbol":1198,"Ġsavdo":1199,"itoy":1200,"Ġqaror":1201,"Ġbermoqda":1202,"Ġmudda":1203,"Ġsoni":1204,"Ġsifatida":1205,"diq":1206,"Ġhamkorlik":1207,"shina":1208,"Ġmuho":1209,"lida":1210,"Ġbiri":1211,"riladi":1212,"Ġyilning":1213,"Ġtashkilot":1214,"Ġtib":1215,"Ġdavom":1216,"Ġjo":1217,"Ġiqtiso":1218,"daryo":1219,"rgan":1220,"Ġsud":1221,"iston":1222,"Ġtizimi":1223,"Ġan":1224,"Ġse":1225,"Ġrivojlantirish":1226,"ammo":1227,"Ġjuda":1228,"Ġkabi":1229,"ĠTo":1230,"Ġla":1231,"bla":1232,"chki":1233,"rilishi":1234,"Ġqadar":1235,"yol":1236,"zbekistonda":1237,"ĠMir":1238,"ye":1239,"Ġhay":1240,"Ġekan":1241,"Ġmatbuot":1242,"limi":1243,"Ġtegi":1244,"nov":1245,"Ġvaqt":1246,"Ġhozir":1247,"Ġvaziri":1248,"ina":1249,"shimcha":1250,"Ġortiq":1251,"Ġoqi":1252,"Ġag":1253,"jud":1254,"Ġasosiy":1255,"Ġmuammo":1256,"19":1257,"xa":1258,"Ġar":1259,"ksi":1260,"Ġsoat":1261,"lovchi":1262,"Ġnafa":1263,"oliya":1264,"Ġyuzasidan":1265,"Ġberilgan":1266,"Ġmuroja":1267,"ĠPreziden":1268,"avlat":1269,"ĠMar":1270,"Ġijtimoiy":1271,"rashuv":1272,"tori":1273,"Ġetdi":1274,"Ġsport":1275,"Dar":1276,"lam":1277,"Ġyig":1278,"Ġjami":1279,"Ġmuhi":1280,"Ġchiqarish":1281,"lashi":1282,"liga":1283,"xsus":1284,"mpi":1285,"ganini":1286,"Ġtaklif":1287,"Ġyuri":1288,"Ġavval":1289,"Ġtaqdim":1290,"Ġdunyo":1291,"is":1292,"po":1293,"Ġtegishli":1294,"Ġtushi":1295,"Ġas":1296,"mma":1297,"yapti":1298,"uriy":1299,"gram":1300,"Ġhech":1301,"rildi":1302,"zod":1303,"Ġvosita":1304,"Ġasosida":1305,"Ġkar":1306,"Ġgaz":1307,"ayon":1308,"ide":1309,"Ġxavfsiz":1310,"larimiz":1311,"rov":1312,"kama":1313,"Ġolingan":1314,"tar":1315,"Ġavtomobil":1316,"Ya":1317,"21":1318,"ĠTur":1319,"Ġmavjud":1320,"chasi":1321,"Ġjinoyat":1322,"Ġhimoya":1323,"mov":1324,"ĠTe":1325,"Ġdollar":1326,"Ġkenga":1327,"Ġqilindi":1328,"zor":1329,"pe":1330,"Ġfik":1331,"qiq":1332,"Ġoila":1333,"Daryo":1334,"kinchi":1335,"mini":1336,"Ġtari":1337,"Ġmaktab":1338,"qon":1339,"shga":1340,"Ġtopshi":1341,"tishi":1342,"rinbo":1343,"yan":1344,"Ġkorxona":1345,"Ta":1346,"Ġvaziyat":1347,"demi":1348,"ral":1349,"ddiy":1350,"ĠII":1351,"likka":1352,"tining":1353,"ĠVa":1354,"niga":1355,"Ġtran":1356,"blag":1357,"Ġmablag":1358,"Ġochi":1359,"Ġmurojaat":1360,"Ġmaxsus":1361,"lama":1362,"ura":1363,"Ġnazo":1364,"assa":1365,"Ġ12":1366,"Ġmaqsadida":1367,"kraina":1368,"Ġishlari":1369,"nan":1370,"Ġhuquq":1371,"uqi":1372,"ĠAb":1373,"ĠKo":1374,"Ġdedi":1375,"im":1376,"llab":1377,"ĠBi":1378,"assi":1379,"Ġqaro":1380,"Ġqoldi":1381,"ĠIn":1382,"lashtirilgan":1383,"tibi":1384,"Ġbora":1385,"Ġprezident":1386,"rij":1387,"Ġtasdiq":1388,"lig":1389,"Ġqilini":1390,"Ġtomon":1391,"umla":1392,"ahon":1393,"tamiz":1394,"assasa":1395,"ste":1396,"lishicha":1397,"stit":1398,"Ġfoydalanish":1399,"rol":1400,"unga":1401,"Ġayol":1402,"Ġmazkur":1403,"adi":1404,"sla":1405,"Av":1406,"ziga":1407,"Ġtah":1408,"Ġmuassasa":1409,"erma":1410,"Ġsaqlash":1411,"rgani":1412,"sion":1413,"marqan":1414,"tlar":1415,"yilda":1416,"Ġshahrida":1417,"zda":1418,"Ġqolgan":1419,"Ġturli":1420,"kon":1421,"lanuvchi":1422,"rab":1423,"likni":1424,"taxassi":1425,"Ġorgan":1426,"Ġdegan":1427,"ĠHa":1428,"Ġmarta":1429,"nini":1430,"Ġtarmoq":1431,"Ġvakil":1432,"Ġvazifa":1433,"Ġxorij":1434,"ea":1435,"Ġyak":1436,"Ġhokimi":1437,"Ġ11":1438,"Ġumu":1439,"uvi":1440,"xon":1441,"Ġaloqa":1442,"dik":1443,"Ġkim":1444,"Ġyog":1445,"Ġtug":1446,"umladan":1447,"rna":1448,"Ġhokim":1449,"Ġhavo":1450,"fot":1451,"Ġagent":1452,"ard":1453,"Ch":1454,"ĠXitoy":1455,"Ġtartib":1456,"sat":1457,"Ġkelish":1458,"pre":1459,"arli":1460,"batida":1461,"Ġsiyo":1462,"Ġayti":1463,"Ġajra":1464,"Ġetadi":1465,"rinbosari":1466,"Ġbal":1467,"oh":1468,"Ġqish":1469,"ĠYevro":1470,"zgar":1471,"proq":1472,"zbek":1473,"Ġdeydi":1474,"ĠHo":1475,"tak":1476,"timiz":1477,"lishini":1478,"Ġchek":1479,"Ġmusta":1480,"Ġsodir":1481,"Ġdar":1482,"Ġbank":1483,"mor":1484,"yiladi":1485,"Ġshifo":1486,"Ġyetkazi":1487,"Ġmunosabat":1488,"Ġbildir":1489,"Ġmux":1490,"shni":1491,"ft":1492,"sqi":1493,"se":1494,"eya":1495,"Ġtarqa":1496,"taxassis":1497,"Ġmashina":1498,"Ġnom":1499,"ĠBo":1500,"Ġyash":1501,"Ġnecha":1502,"Ġasos":1503,"Ġbino":1504,"Ġfaqat":1505,"yabr":1506,"par":1507,"Ġmuhim":1508,"Ġmilliy":1509,"eta":1510,"lashga":1511,"nik":1512,"Ġsog":1513,"hida":1514,"oq":1515,"versi":1516,"ĠKor":1517,"Ġrahbar":1518,"marqand":1519,"rif":1520,"Ġuchrashuv":1521,"Ġnav":1522,"Ġ16":1523,"tirib":1524,"Ġ30":1525,"fon":1526,"zat":1527,"Ġosh":1528,"Ġlavo":1529,"shiga":1530,"Ġol":1531,"Ġunga":1532,"Ġyuk":1533,"Ġyoshli":1534,"riy":1535,"avkat":1536,"Ġxusu":1537,"voz":1538,"Ġista":1539,"Ġtexno":1540,"Ġshunday":1541,"âĢĿ.":1542,"Ġbelgilangan":1543,"ĠKa":1544,"Ġmuvo":1545,"Ġinson":1546,"anba":1547,"aviy":1548,"lom":1549,"tidan":1550,"kiya":1551,"ĠMirziyo":1552,"Ġmoliya":1553,"Ġmajb":1554,"201":1555,"Ġer":1556,"Ġ14":1557,"ss":1558,"ks":1559,"Ġat":1560,"Ġ18":1561,"ner":1562,"Toshkent":1563,"Ġiy":1564,"xo":1565,"Ġhisoblanadi":1566,"Ġyuz":1567,"tildi":1568,"Ġru":1569,"yib":1570,"Ġkuza":1571,"Ġmln":1572,"fiq":1573,"Ġpo":1574,"Ġ200":1575,"rilmoqda":1576,"Ġvide":1577,"slatib":1578,"Ġ25":1579,"tkazilgan":1580,"tuvchi":1581,"Ġtani":1582,"kaz":1583,"vishda":1584,"'t":1585,"Ġchiqish":1586,"mara":1587,"ĠMirziyoyev":1588,"Ġmen":1589,"Ġsar":1590,"Ġz":1591,"ulo":1592,"Ġravishda":1593,"Ġ13":1594,"Ġmetr":1595,"nggi":1596,"Ġyoz":1597,"quvvat":1598,"ergov":1599,"Ġyanada":1600,"ratsiya":1601,"biq":1602,"tun":1603,"meri":1604,"Ġfaoliyat":1605,"kam":1606,"Ġeh":1607,"zon":1608,"Ġxodimlari":1609,"Ġyubo":1610,"ĠDavlat":1611,"Ġhuquqi":1612,"tirgan":1613,"Ġkuti":1614,"Ġbunday":1615,"yasi":1616,"ton":1617,"Ġmuvofiq":1618,"Ġoyida":1619,"Ġdoirasida":1620,"ĠUkraina":1621,"Ġvaqtida":1622,"Ġ2020":1623,"risidagi":1624,"Ġjoylashgan":1625,"Ġsov":1626,"Ġichida":1627,"Ġsaylov":1628,"yidagi":1629,"nalish":1630,"gust":1631,"tkazish":1632,"bek":1633,"gik":1634,"ayli":1635,"tirilgan":1636,"ligiga":1637,"ddi":1638,"Ġdeyiladi":1639,"zini":1640,"Ġ\"":1641,"Ġnamo":1642,"Ġal":1643,"lok":1644,"Ġpoy":1645,"Ġhaqidagi":1646,"jo":1647,"Ġmutaxassis":1648,"Ġetildi":1649,"Ġ17":1650,"Ġyerda":1651,"Ġijro":1652,"moqchi":1653,"Ġnima":1654,"Ġzarur":1655,"Ġkompaniyasi":1656,"entab":1657,"zog":1658,"Shuningdek":1659,"Ġtek":1660,"Ġiste":1661,"merika":1662,"Ġtuf":1663,"Ġetib":1664,"valroq":1665,"Ġgap":1666,"Ġxona":1667,"zoq":1668,"Ġ0":1669,"Ġmin":1670,"Ġqizi":1671,"ĠShuningdek":1672,"Ġklu":1673,"ĠKe":1674,"Ġsamara":1675,"Ġikkinchi":1676,"Ġtufayli":1677,").":1678,"fta":1679,"zan":1680,"tiyo":1681,"me":1682,"riq":1683,"ĠRa":1684,"mart":1685,"biyot":1686,"Ġuniversi":1687,"ksiya":1688,"siyo":1689,"Ġmiqdo":1690,"anu":1691,"ĠIs":1692,"Ġbosqi":1693,"arg":1694,"Ġinf":1695,"Ġsoliq":1696,"22":1697,"ĠYevropa":1698,"Ġhisobi":1699,"dora":1700,"Ġboshqarmasi":1701,"Ġshak":1702,"mis":1703,"dosh":1704,"siq":1705,"rtasida":1706,"Ġxari":1707,"Ġimzo":1708,"Ġmash":1709,"zadi":1710,"Ġmilliard":1711,"12":1712,"Ġnazorat":1713,"Ġelektr":1714,"Ġhola":1715,"bod":1716,"Ġbaho":1717,"Ġkunda":1718,"Ġqator":1719,"Ġrai":1720,"Ġsharo":1721,"qil":1722,"Ġosti":1723,"Ġinter":1724,"ĠShavkat":1725,"ĠAf":1726,"Ġmehnat":1727,"Ġmuhokama":1728,"lis":1729,"tga":1730,"Ġturadi":1731,"tam":1732,"Ġinve":1733,"Ġumumiy":1734,"ĠMah":1735,"Ġchiqib":1736,"Ġjara":1737,"Ġrespublika":1738,"Ġtekshi":1739,"sin":1740,"Ġtexnologiya":1741,"Ġqiy":1742,"entabr":1743,"chalik":1744,"Eslatib":1745,"mil":1746,"Ġsan":1747,"Ġnash":1748,"Ġjarayo":1749,"gara":1750,"ifa":1751,"loh":1752,"Ġlozim":1753,"mni":1754,"ĠUning":1755,"Ġguruh":1756,"Ġ2019":1757,"ĠLe":1758,"Ġbemor":1759,"Ġoch":1760,"ĠAmmo":1761,"Ġmaydon":1762,"Ġtizim":1763,"..":1764,"iga":1765,"ĠYo":1766,"Ġichki":1767,"Ġoqibatida":1768,"ĠSo":1769,"kaziy":1770,"xat":1771,"miga":1772,"Ġyur":1773,"Ġsababli":1774,"tiladi":1775,"rd":1776,"uniy":1777,"lmas":1778,"Ġalohida":1779,"zlar":1780,"Ġmahalliy":1781,"Ġel":1782,"Ġularni":1783,"zlariga":1784,"ĠTra":1785,"Ġfoizi":1786,"Ġvoq":1787,"Ġoldin":1788,"ĠBa":1789,"Ġishi":1790,"Ġnarsa":1791,"mg":1792,"Ġidora":1793,"Ġishga":1794,"tkaz":1795,"Ġyetak":1796,"dro":1797,"Ġtarki":1798,"gun":1799,"Ġvaqtda":1800,"Ġusti":1801,"Ġjumladan":1802,"ildi":1803,"Ġcho":1804,"Ġtashqi":1805,"ĠSamarqand":1806,"sul":1807,"Ġtayin":1808,"Ġsurat":1809,"mlik":1810,"layotgani":1811,"liqni":1812,"disa":1813,"tika":1814,"log":1815,"Ġishon":1816,"Ġagentligi":1817,"sil":1818,"Ġbutun":1819,"Ġraqa":1820,"Ġsavo":1821,"Ġjamoat":1822,"chilari":1823,"aba":1824,"Ġmahalla":1825,"jal":1826,"gina":1827,"Ġvoqea":1828,"plab":1829,"prel":1830,"Ġhal":1831,"Ġdire":1832,"Ġfoizga":1833,"Ġboshlab":1834,"Ġvafot":1835,"nash":1836,"net":1837,"Ġvideo":1838,"Ġquyidagi":1839,"Ġammo":1840,"Ġayb":1841,"kabr":1842,"araf":1843,"mga":1844,"Ġqilinadi":1845,"Ġhukumat":1846,"Ġsotib":1847,"alb":1848,"lardagi":1849,"Ġhafta":1850,"unki":1851,"Ġ2018":1852,"ĠKoreya":1853,"Ġatro":1854,"Avvalroq":1855,"noat":1856,"Ġyili":1857,"ski":1858,"ĠIIB":1859,"dr":1860,"zida":1861,"ridan":1862,"âĢĵ":1863,"zining":1864,"tiv":1865,"Ġr":1866,"tayotgan":1867,"lishiga":1868,"zaro":1869,"bus":1870,"Ġkeng":1871,"mad":1872,"Ġvakillari":1873,"sib":1874,"rsatish":1875,"von":1876,"ktor":1877,"Ġetiladi":1878,"rishga":1879,"mitasi":1880,"Ġtumanida":1881,"urnali":1882,"Ġfil":1883,"Ġfaoliyatini":1884,"ĠAy":1885,"Ho":1886,"gungi":1887,"ĠJa":1888,"ĠAl":1889,"kan":1890,"ayd":1891,"Ġtibbiy":1892,"Ġchegara":1893,"modda":1894,"rsatki":1895,"Ġoliy":1896,"lana":1897,"Ġmaqsad":1898,"ce":1899,"Ġzamon":1900,"Ġsho":1901,"Ġinstit":1902,"rga":1903,"Ġamal":1904,"rita":1905,"ĠBosh":1906,"ndijon":1907,"Ġyakun":1908,"Ġhukumati":1909,"To":1910,"Ġ24":1911,"Ġbildi":1912,"Ġproku":1913,"ĠBiz":1914,"Ġqishloq":1915,"Ġnarxi":1916,"ero":1917,"Ġoladi":1918,"Ġyildan":1919,"Ġaytgan":1920,"Ġchiqar":1921,"ati":1922,"Ġhaydov":1923,"Ġhaj":1924,"Ġtor":1925,"Ġibo":1926,"Ġyan":1927,"Ġomma":1928,"ĠBe":1929,"ktori":1930,"Ġqoida":1931,"Ġeksp":1932,"Ġqur":1933,"chik":1934,"bot":1935,"Ġkundu":1936,"Ġjalb":1937,"uli":1938,"Ġilmiy":1939,"Ġnatijasida":1940,"Ġketgan":1941,"ts":1942,"Ġjaro":1943,"Ġjoyi":1944,"yxat":1945,"Ġraisi":1946,"yoti":1947,"dqiq":1948,"legram":1949,"madi":1950,"Ġiqtisodiy":1951,"ini":1952,"shanba":1953,"quvchi":1954,"sk":1955,"ĠMe":1956,"Ġxat":1957,"tik":1958,"der":1959,"Ġyasha":1960,"ĠAn":1961,"laba":1962,"ritaniya":1963,"Ġorasida":1964,"rg":1965,"Ġpi":1966,"Ġuz":1967,"Ġdu":1968,"ratura":1969,"Ġhujum":1970,"xoro":1971,"rdi":1972,"Ġli":1973,"Na":1974,"Ġnarx":1975,"Ġtergov":1976,"roz":1977,"tli":1978,"ktabr":1979,"Re":1980,"Ġturib":1981,"ffa":1982,"Ġpaydo":1983,"yilning":1984,"garlik":1985,"ĠTramp":1986,"fat":1987,"diya":1988,"lil":1989,"Ġ100":1990,"Ġbalki":1991,"Ġmuva":1992,"ĠUshbu":1993,"zib":1994,"Ġuchi":1995,"Ġkanali":1996,"ĠTurkiya":1997,"Ġbozor":1998,"Ġtaj":1999,"ĠUlar":2000,"Ġ23":2001,"Ġyetkazib":2002,"Ġfikr":2003,"Ġjar":2004,"langani":2005,"Ġqurilish":2006,"Ġnavbat":2007,"10":2008,"rt":2009,"Ġqarori":2010,"Ġtadbirkor":2011,"ling":2012,"Ġuzoq":2013,"tadbir":2014,"Ġyirik":2015,"tal":2016,"Ġsobiq":2017,"Ġchiqqan":2018,"Ġishla":2019,"yilgan":2020,"Ġshax":2021,"ĠMi":2022,"Ġdastur":2023,"jaligi":2024,"od":2025,"Ġhalok":2026,"Ġfaol":2027,"dqiqot":2028,"bon":2029,"Ġquv":2030,"Ġhududi":2031,"stitsiya":2032,"Ġxorijiy":2033,"Ġ2017":2034,"Ġmuvaffa":2035,"Ġtibbiyot":2036,"oniston":2037,"shma":2038,"tti":2039,"Ġzarar":2040,"Ġkucha":2041,"Ġ2021":2042,"Ġqilmoqda":2043,"pp":2044,"Ġ22":2045,"Ġbozo":2046,"kov":2047,"Ġjoylarda":2048,"tishga":2049,"Ġtik":2050,"Ġkir":2051,"ne":2052,"Ġkomp":2053,"Ġdasturi":2054,"Ġqismi":2055,"Ġasosan":2056,"Ġpoli":2057,"qiqa":2058,"shadi":2059,"tat":2060,"Ġqila":2061,"Ġtartibi":2062,"nib":2063,"Ġchaqi":2064,"Ġturi":2065,"Ġshartnoma":2066,"onal":2067,"tov":2068,"yingi":2069,"bay":2070,"Ġfarzan":2071,"ĠBiroq":2072,"pu":2073,"shida":2074,"logik":2075,"Ġpaytda":2076,"ĠMarkaziy":2077,"hbat":2078,"ziya":2079,"Ġzamonaviy":2080,"Ġimkoniyat":2081,"ĠQozog":2082,"ĠAv":2083,"Ġqan":2084,"nika":2085,"Ġmada":2086,"ngil":2087,"riba":2088,"Sa":2089,"Ġtabi":2090,"Bundan":2091,"Ġ50":2092,"Ġkeladi":2093,"Ġope":2094,"Ġboshlig":2095,"Ġisti":2096,"ĠXalq":2097,"lg":2098,"ylab":2099,"nergiya":2100,"Ġmlrd":2101,"nes":2102,"yuk":2103,"Ġnamoyish":2104,"Ġnomi":2105,"Ġkunduzi":2106,"Ġbayon":2107,"Ġxa":2108,"Ġtax":2109,"Ġayrim":2110,"Ġora":2111,"Ġjazo":2112,"Ġqilishi":2113,"Ġket":2114,"nchi":2115,"qiy":2116,"mangan":2117,"Ġviloyatida":2118,"zg":2119,"Ġchet":2120,"Qo":2121,"lak":2122,"ror":2123,"ĠOsiyo":2124,"Ġbiroq":2125,"he":2126,"Rossiya":2127,"ush":2128,"Ġrux":2129,"ssa":2130,"Ġvaki":2131,"Ġilk":2132,"Ġjurnali":2133,"Ġenergiya":2134,"for":2135,"ĠBundan":2136,"Ġerish":2137,"enti":2138,"Ġle":2139,"xir":2140,"inlash":2141,"Ġtalaba":2142,"Ġmaro":2143,"Ġob":2144,"Ġtransport":2145,"ĠDe":2146,"Ġtashrif":2147,"ĠTelegram":2148,"gona":2149,"Ġbaja":2150,"Ġyanvar":2151,"Ġ21":2152,"mda":2153,"alaba":2154,"Ġkelishi":2155,"Ġkomis":2156,"mli":2157,"tkazil":2158,"Ġsah":2159,"Ġkechasi":2160,"Ġshakl":2161,"Ġiqtisodi":2162,"nda":2163,"rsatkich":2164,"Ġiborat":2165,"Ġjahon":2166,"Ġqurol":2167,"Ġsamol":2168,"Ġchempi":2169,"Ġkirish":2170,"mer":2171,"Ġmehmon":2172,"Ġtajriba":2173,"Ġuniversite":2174,"Ġakt":2175,"kilo":2176,"redi":2177,"Ko":2178,"Ġmanba":2179,"taqa":2180,"Ġota":2181,"rtasidagi":2182,"ljal":2183,"30":2184,"kati":2185,"yti":2186,"ster":2187,"ĠDa":2188,"Ġetilishicha":2189,"mak":2190,"Ġhududida":2191,"Ġavi":2192,"Ġnazar":2193,"zirlar":2194,"Ġkasallik":2195,"qish":2196,"Ġmos":2197,"Ġqilishicha":2198,"ĠPrezident":2199,"biri":2200,"Ġhodisa":2201,"irg":2202,"ke":2203,"Ġshug":2204,"In":2205,"yatini":2206,"ĠHozir":2207,"Ġorganlari":2208,"Ġtushun":2209,"lanishicha":2210,"Ġdan":2211,"biya":2212,"evral":2213,"ĠAbdu":2214,"Ġiliq":2215,"Ġishtiroki":2216,"anubiy":2217,"ermaniya":2218,"ĠSu":2219,"ksina":2220,"Ġyozadi":2221,"ĠSha":2222,"Ġuyi":2223,"qal":2224,"Ġishlash":2225,"Ġgo":2226,"ĠFa":2227,"Ġozod":2228,"shqa":2229,"Ġqilishga":2230,"Mu":2231,"lingan":2232,"Ġbolalar":2233,"Ġust":2234,"mal":2235,"Ġissiq":2236,"Ġuru":2237,"Ġstan":2238,"Ġguruhi":2239,"stik":2240,"ĠNe":2241,"Ġprokuratura":2242,"Qayd":2243,"garchilik":2244,"ĠOliy":2245,"Ġtav":2246,"Ġteng":2247,"Ġruxsat":2248,"Ġvakili":2249,"iziston":2250,"malar":2251,"ovchi":2252,"Ġturgan":2253,"Biz":2254,"Ġbuyon":2255,"tira":2256,"lganini":2257,"Ġboj":2258,"mdan":2259,"Ġ27":2260,"AQSh":2261,"qituvchi":2262,"Ġgol":2263,"tob":2264,"Ġxaba":2265,"ĠNo":2266,"pog":2267,"demiya":2268,"Ġdirektori":2269,"nada":2270,"oya":2271,"labki":2272,"ĠBritaniya":2273,"laja":2274,"ttifo":2275,"Ġkodek":2276,"Ġtezlikda":2277,"faa":2278,"Ġyaratish":2279,"tilishi":2280,"ID":2281,"illiy":2282,"zgarib":2283,"Ġmuh":2284,"ĠFarg":2285,"Ġtarkibi":2286,"Ġkeldi":2287,"Ġolma":2288,"Ġsalo":2289,"kva":2290,"čĊ":2291,"qib":2292,"Ġqiluvchi":2293,"Ġaniqlangan":2294,"ib":2295,"katsiya":2296,"Ġbuyur":2297,"ĠAfg":2298,"Ġinvestitsiya":2299,"Ġmul":2300,"Ġge":2301,"Ġalma":2302,"kara":2303,"chiligi":2304,"ytirish":2305,"lumotlar":2306,"van":2307,"fer":2308,"Ġjarayon":2309,"yishi":2310,"Ġkilo":2311,"Ġmintaqa":2312,"Ġgi":2313,"arorat":2314,"ziq":2315,"era":2316,"Ġsuhbat":2317,"Ġizo":2318,"Ġfuqarolar":2319,"Ġnafari":2320,"Ġhuz":2321,"Ġparti":2322,"Ġdaro":2323,"Ġuyu":2324,"Ġqurilma":2325,"Ġona":2326,"kidla":2327,"Ġyashovchi":2328,"SS":2329,"hon":2330,"Ġfutbolchi":2331,"Ġovoz":2332,"ĠĠĠĠĠĠ":2333,"Ġbesh":2334,"ali":2335,"Ġaka":2336,"Ġvaksina":2337,"Ġhuzuri":2338,"dofaa":2339,"ĠQora":2340,"Ġdarajada":2341,"ingarchilik":2342,"Ġmustah":2343,"ich":2344,"chon":2345,"Ġularga":2346,"Ġmarkaz":2347,"Ġeshi":2348,"zokara":2349,"ert":2350,"ok":2351,"Ġtushgan":2352,"Ġix":2353,"Ġmaydo":2354,"Ġ28":2355,"Ġter":2356,"Ġpan":2357,"Ushbu":2358,"zbekistonning":2359,"'s":2360,"voiy":2361,"Ġpoytax":2362,"kki":2363,"dj":2364,"Ġst":2365,"Ġkur":2366,"mog":2367,"Ġuchra":2368,"Ġkuchli":2369,"Ġsta":2370,"Ġaytishicha":2371,"ĠKu":2372,"stan":2373,"maslik":2374,"Ġsal":2375,"Ġmanfa":2376,"mush":2377,"Ġjang":2378,"Ġ26":2379,"ĠRo":2380,"Ġkechi":2381,"baqa":2382,"Ġyorda":2383,"Ġvositalari":2384,"Ġyangilik":2385,"Ġxavfsizlik":2386,"Ġkunlari":2387,"az":2388,"Ġyetish":2389,"oskva":2390,"Ġsiz":2391,"ĠLekin":2392,"qalpog":2393,"Ġtavsiya":2394,"ĠPu":2395,"24":2396,"Ġlekin":2397,"Ġaytib":2398,"Ġbekor":2399,"Ġton":2400,"ĠSe":2401,"Ġommaviy":2402,"lanmoqda":2403,"Ġ000":2404,"Ġochiq":2405,"muni":2406,"Ġkeyingi":2407,"ede":2408,"bati":2409,"Ġberildi":2410,"qqi":2411,"ibor":2412,"aho":2413,"rati":2414,"zlari":2415,"Ġmart":2416,"Ġyarim":2417,"metr":2418,"dul":2419,"Ġetmoqda":2420,"ĠMen":2421,"Ġmaqo":2422,"Ġdepu":2423,"go":2424,"Ġunda":2425,"Ġkura":2426,"Ġgu":2427,"Ġbosqich":2428,"Ġsavol":2429,"Ġtashkilo":2430,"hur":2431,"kak":2432,"Ġoxi":2433,"Ġbojxona":2434,"Ġjarohat":2435,"inoyat":2436,"Ġyaku":2437,"Ġtaqiq":2438,"Ġqiyin":2439,"Ġkengashi":2440,"Ġtonna":2441,"ino":2442,"Ġtin":2443,"per":2444,"Ġegal":2445,"Ġtabiiy":2446,"Ġxarid":2447,"Ġmanfaat":2448,"Ġhamma":2449,"Ġshaxslar":2450,"riza":2451,"sim":2452,"rilayotgan":2453,"Ġodamlar":2454,"Ġbildirdi":2455,"Ġtuga":2456,"Â·":2457,"ĠNamangan":2458,"Ġyillik":2459,"batta":2460,"Ġshahridagi":2461,"Ġhayot":2462,"Ġkaran":2463,"masdan":2464,"loqot":2465,"Ġmustahkam":2466,"Ġziyo":2467,"MT":2468,"Ġtayyorlash":2469,"jikiston":2470,"Ġkurash":2471,"Ġinstitu":2472,"moniy":2473,"sb":2474,"shib":2475,"Ġxara":2476,"yxa":2477,"50":2478,"Ġqulay":2479,"Ġmodda":2480,"ensiya":2481,"Ġbit":2482,"ransiya":2483,"ĠBir":2484,"Ġ199":2485,"Ġendi":2486,"ene":2487,"Ġsinov":2488,"Ġoldini":2489,"shqadaryo":2490,"Ġjamoasi":2491,"poniya":2492,"Ġesadi":2493,"Ġhokimligi":2494,"Ġpe":2495,"Ġloyihasi":2496,"ljallangan":2497,"Ġishonch":2498,"Ġush":2499,"kidlashicha":2500,"Ġmasalalari":2501,"kidlanishicha":2502,"sobaqa":2503,"ĠAndijon":2504,"Ġavgust":2505,"Ġijo":2506,"gari":2507,"Ġostida":2508,"Ġeva":2509,"Ġnashri":2510,"Ġkelishuv":2511,"niyat":2512,"ĠW":2513,"ĠTash":2514,"Ġshifokor":2515,"Ġyubor":2516,"Ġiyul":2517,"ĠVazirlar":2518,"ashqadaryo":2519,"uk":2520,"Ġus":2521,"Ġara":2522,"Ġbiznes":2523,"Ġshifoxona":2524,"Mazkur":2525,"Ġmuzokara":2526,"Ġtelefon":2527,"Ġyong":2528,"Ġkredi":2529,"Ġhali":2530,"masligi":2531,"Ġsharoit":2532,"Ġpolitsiya":2533,"rifi":2534,"ganidan":2535,"Ġmamlakatda":2536,"Ġyar":2537,"Ġmuxbiri":2538,"Ġdollarga":2539,"Bar":2540,"mmat":2541,"Va":2542,"ĠAgar":2543,"Ġhuzuridagi":2544,"Ġkiritish":2545,"Ġmiqdor":2546,"yekt":2547,"sab":2548,"Ġborish":2549,"laka":2550,"liklari":2551,"Ġvako":2552,"tirdi":2553,"ĠNi":2554,"Ġum":2555,"Ġtadqiqot":2556,"uvchilar":2557,"Ġoid":2558,"sangiz":2559,"Ġbirgalikda":2560,"Ġaynan":2561,"moddasi":2562,"ĠSi":2563,"Ġlavozimi":2564,"Ġatrofi":2565,"qonuniy":2566,"Ġmuvaffaqi":2567,"Ġundan":2568,"Ġ40":2569,"Ġyuzaga":2570,"miyat":2571,"Ġkichik":2572,"yna":2573,"Ġyevro":2574,"Ġoli":2575,"Ġkoronavirusga":2576,"Ġboy":2577,"erge":2578,"Ġkirib":2579,"Ġ2016":2580,"Ġsamarali":2581,"ju":2582,"ĠAmerika":2583,"Ġborasida":2584,"ĠBuxoro":2585,"Ġxususiy":2586,"Ġariza":2587,"yoh":2588,"zbekistonga":2589,"Ġaf":2590,"zish":2591,"Ġov":2592,"lumotlariga":2593,"zax":2594,"Ġsahifa":2595,"Ġqimmat":2596,"Ġtarzda":2597,"yoq":2598,"Ġneft":2599,"Ġdori":2600,"ĠGermaniya":2601,"che":2602,"ruv":2603,"ĠQirg":2604,"ban":2605,"ĠEron":2606,"land":2607,"Ġboshladi":2608,"laridagi":2609,"ĠPo":2610,"Ġtanish":2611,"Ġmiqdori":2612,"Ġsarf":2613,"ĠShi":2614,"Ġinternet":2615,"erti":2616,"ilish":2617,"Ġkes":2618,"Ġeksport":2619,"lahat":2620,"Ġpala":2621,"nalishi":2622,"Ġjiddiy":2623,"Ġbiroz":2624,"uriya":2625,"Ġayni":2626,"Te":2627,"ahar":2628,"Ġport":2629,"sum":2630,"Ġmaso":2631,"kasi":2632,"Ġizoh":2633,"Ġamali":2634,"Ġmuloqot":2635,"Ġsana":2636,"Ġelektron":2637,"Ġolishi":2638,"ĠPrezidenti":2639,"Ġsohasida":2640,"Ġtinch":2641,"ransport":2642,"Ġyillarda":2643,"qaror":2644,"rganish":2645,"orta":2646,"Ġkom":2647,"Ġmahsulotlari":2648,"eksiya":2649,"Ġchiqdi":2650,"Ġaero":2651,"Ġrus":2652,"Hozir":2653,"Ġjurnalist":2654,"Ay":2655,"Ġqiymati":2656,"Ġ29":2657,"mita":2658,"ĠYangi":2659,"sel":2660,"malari":2661,"ĠJo":2662,"zal":2663,"Ġsamolyot":2664,"Ġtezkor":2665,"Ġ@":2666,"Ġyetib":2667,"Ġdoimiy":2668,"ĠNavoiy":2669,"tet":2670,"ĠMilliy":2671,"izzax":2672,"Ġtutilgan":2673,"AV":2674,"Ġaksiya":2675,"urxon":2676,"ovqat":2677,"avq":2678,"ĠEr":2679,"ngli":2680,"id":2681,"sizlik":2682,"Ġdaromad":2683,"Ġklub":2684,"Ġmuvaffaqiyat":2685,"sga":2686,"Ġisloh":2687,"Ġbudj":2688,"Ġpast":2689,"voh":2690,"Ġtizimini":2691,"ĠJanubiy":2692,"buna":2693,"So":2694,"Ġreji":2695,"Ġiz":2696,"komil":2697,"rilib":2698,"pul":2699,"Ġbay":2700,"Ġmustaqil":2701,"Ġkeskin":2702,"Ġkotibi":2703,"Ġberiladi":2704,"Ġsiyosiy":2705,"Ġerkin":2706,"qu":2707,"ygan":2708,"Ġkamay":2709,"Ġmaslahat":2710,"ĠJinoyat":2711,"Ġikkita":2712,"tiradi":2713,"Ġdey":2714,"zgarish":2715,"ĠMo":2716,"Ġdekabr":2717,"Ġmate":2718,"shin":2719,"Ġqilinishicha":2720,"Ġuyush":2721,"ren":2722,"Ġqiz":2723,"ĠMoskva":2724,"lyu":2725,"Ġobuna":2726,"Ġtakomil":2727,"Ġklubi":2728,"Ġmalaka":2729,"kar":2730,"quvvatlash":2731,"Ġmode":2732,"Ġbag":2733,"Ġpasa":2734,"ulosa":2735,"lishni":2736,"yon":2737,"Ġtovar":2738,"Ġfor":2739,"Ġjari":2740,"Ġjamg":2741,"Ġdavlatlar":2742,"Ġerkak":2743,"Ġmurab":2744,"tibor":2745,"Ġmusobaqa":2746,"Ġmingdan":2747,"vor":2748,"Ġyoshlar":2749,"Ġxarajat":2750,"taraf":2751,"Ġharakatlari":2752,"Ġtomonlama":2753,"Ġborib":2754,"Ġhaydovchi":2755,"qdan":2756,"ĠKun":2757,"mlar":2758,"Ġtest":2759,"Ġqurish":2760,"kka":2761,"Ġsub":2762,"Ġshta":2763,"Bi":2764,"Ġxodi":2765,"Ġnoqonuniy":2766,"rial":2767,"Ġkelayotgan":2768,"Ġketdi":2769,"psiya":2770,"Ġimkoniyati":2771,"15":2772,"Ġbitta":2773,"ĠPutin":2774,"Ġerta":2775,"Ġbugungi":2776,"Ġxil":2777,"kro":2778,"Ġtashab":2779,"Ġaprel":2780,"tlari":2781,"Ġyagona":2782,"iyul":2783,"Ġbera":2784,"Ġnafaqat":2785,"Ġnoyabr":2786,"mua":2787,"indi":2788,"Ġvaqti":2789,"likdan":2790,"Ġqilinishi":2791,"lashdi":2792,"Ġekanini":2793,"Ġterma":2794,"Ġyordamida":2795,"tur":2796,"Ġjis":2797,"Ġmavsum":2798,"Ġdastlabki":2799,"Ġancha":2800,"Ġtadbirkorlik":2801,"fes":2802,"Ġfoydalanuvchi":2803,"mid":2804,"Ġchog":2805,"buzar":2806,"uter":2807,"ĠLi":2808,"Ġsentabr":2809,"Ġrejalashtirilgan":2810,"Ġaytdi":2811,"Ġfarzand":2812,"tadigan":2813,"Ġtaya":2814,"ratsiyasi":2815,"Ġahvo":2816,"uncha":2817,"Ġmuko":2818,"ĠAJ":2819,"Tur":2820,"alqi":2821,"mizda":2822,"ĠHu":2823,"Ġaha":2824,"Ġjihat":2825,"Ġdona":2826,"Ġsifat":2827,"Ġmag":2828,"kidladi":2829,"Ġbanki":2830,"ana":2831,"Ġbartaraf":2832,"Ġoziq":2833,"urg":2834,"ĠHarorat":2835,"Ġkurashish":2836,"Ġavia":2837,"Ġqancha":2838,"Ġmasofa":2839,"Ġdaqiqa":2840,"Bo":2841,"Ġmoliyaviy":2842,"ze":2843,"Ġtil":2844,"Ġharakati":2845,"Ġtexnika":2846,"enga":2847,"sho":2848,"Ġnazarda":2849,"Davlat":2850,"ĠAr":2851,"com":2852,"xirgi":2853,"maniston":2854,"ĠMaj":2855,"ligida":2856,"ususan":2857,"alli":2858,"Ġaks":2859,"rate":2860,"Ġparlam":2861,"sir":2862,"avqulo":2863,"Ġchiqarilgan":2864,"Ġkarantin":2865,"vir":2866,"Ġyopi":2867,"Yo":2868,"Ġmunosabati":2869,"Ġholati":2870,"ww":2871,"Ġtarmog":2872,"Ġbaza":2873,"lanma":2874,"avqulodda":2875,"Ġsanoat":2876,"moliy":2877,"partam":2878,"ĠTojikiston":2879,"Ġturmush":2880,"shon":2881,"Ġkamida":2882,"Ġzo":2883,"atsiya":2884,"Ġmashhur":2885,"Ġmajbur":2886,"pay":2887,"joy":2888,"Ġxizmatlari":2889,"smi":2890,"sak":2891,"qtisodiy":2892,"Ġbildirgan":2893,"Ġon":2894,"Ġbaj":2895,"Ġborilmoqda":2896,"indiston":2897,"Ġinsp":2898,"Ġolindi":2899,"Ġxulosa":2900,"tto":2901,"Ġtaqdir":2902,"Ġvazirlik":2903,"Ġtartibda":2904,"rezident":2905,"umli":2906,"tu":2907,"bili":2908,"ĠXo":2909,"Ġshaxsiy":2910,"orti":2911,"lumotlarga":2912,"Ġtexnik":2913,"Ġtahlil":2914,"Ġishchi":2915,"sentabr":2916,"Ġbundan":2917,"abr":2918,"Ġjiho":2919,"Ġsafar":2920,"Ġxonadon":2921,"Ġberilgandi":2922,"Ġyengil":2923,"Ġsuratga":2924,"tsi":2925,"faza":2926,"zolari":2927,"ekun":2928,"ttifoqi":2929,"Ġvaqtin":2930,"avgust":2931,"Ġuniversiteti":2932,"Ġyetakchi":2933,"Ġtayanib":2934,"Ġbozori":2935,"hamma":2936,"hqon":2937,"ĠSan":2938,"ĠChunki":2939,"Ġtarbiya":2940,"ĠâĢĺ":2941,"ĠChe":2942,"chta":2943,"Ġtemir":2944,"urxondaryo":2945,"ĠUnda":2946,"bekt":2947,"Ġjamiyat":2948,"Ġimp":2949,"ermer":2950,"onun":2951,"Ġhatto":2952,"Ġqisqa":2953,"Ġfan":2954,"Ġyozi":2955,"Ġmuhofaza":2956,"yotganini":2957,"Ġjarima":2958,"sur":2959,"25":2960,"zatsiya":2961,"Ġmajmua":2962,"Ġqaratilgan":2963,"Ġbuni":2964,"minlash":2965,"zimida":2966,"Ġturibdi":2967,"Ġrahbarlari":2968,"Ġband":2969,"zbekistonlik":2970,"Ġtanlov":2971,"Ġoshiriladi":2972,"Ġnuq":2973,"Ġtushib":2974,"Ġbarqaror":2975,"Ġtariqa":2976,"Ġkech":2977,"Ġhajmi":2978,"Ġ60":2979,"ĠYe":2980,"taliya":2981,"salan":2982,"Ġhujjatlar":2983,"Ġvakolat":2984,"ddin":2985,"Ġoq":2986,"Ġvirus":2987,"udiya":2988,"Ġ31":2989,"Uning":2990,"xt":2991,"ĠHar":2992,"Ġxalqi":2993,"Ġboshlagan":2994,"ĠOAV":2995,"Ġxabarda":2996,"Ġtoza":2997,"bul":2998,"zgartirish":2999,"...":3000,"stika":3001,"ĠShar":3002,"rtacha":3003,"llari":3004,"dri":3005,"\",":3006,"lub":3007,"Ġqaramay":3008,"Ġteleka":3009,"Ġobekt":3010,"Ġberuvchi":3011,"Ġyetarli":3012,"klar":3013,"Ġqut":3014,"Ġsmart":3015,"kkinchi":3016,"Ġjan":3017,"mosha":3018,"Ġtarix":3019,"Ġbahs":3020,"tiruvchi":3021,"lanmagan":3022,"ĠKon":3023,"diga":3024,"dorlik":3025,"Ġbunga":3026,"ayev":3027,"ĠĠĠĠĠĠĠĠ":3028,"ĠFransiya":3029,"Ġyechi":3030,"Ġ_":3031,"Ġbormoqda":3032,"Ġholatda":3033,"Ġkiritilgan":3034,"Ġtara":3035,"Ġiqtisodiyot":3036,"Ġdeyarli":3037,"Ġkomissiya":3038,"Ġpartiya":3039,"ĠAh":3040,"ĠLiga":3041,"layn":3042,"eva":3043,"lanadigan":3044,"Ġalmash":3045,"Ġviloyatining":3046,"ĠAbdul":3047,"rsatilgan":3048,"ĠBMT":3049,"ler":3050,"Ġtog":3051,"katimiz":3052,"Ġqilishni":3053,"Ġjismoniy":3054,"ĠQoraqalpog":3055,"Ġ500":3056,"gach":3057,"Hu":3058,"Ġtakomillashtirish":3059,"Ġmavzu":3060,"Ġiyun":3061,"OV":3062,"ĠVladi":3063,"Ġdavr":3064,"Ġqilgandi":3065,"ĠSuriya":3066,"Ġulu":3067,"Ġfon":3068,"lega":3069,"Ġhisobga":3070,"shidan":3071,"Ġborada":3072,"ĠLo":3073,"sos":3074,"Ke":3075,"risa":3076,"Ġyomon":3077,"Ġoperatsiya":3078,"Ġzavo":3079,"Kor":3080,"Ġguvoh":3081,"rto":3082,"Ġjamoatchilik":3083,"ĠJizzax":3084,"ĠYaponiya":3085,"Ġkiyi":3086,"Ġolishga":3087,"orlar":3088,"uqur":3089,"Ġkodeksining":3090,"lanayotgan":3091,"ĠUlarning":3092,"Ġkitob":3093,"lashish":3094,"til":3095,"Ġqop":3096,"Ġnomzod":3097,"rnatilgan":3098,"Ġberib":3099,"Ġtekshiruv":3100,"Ġjino":3101,"Ġislohot":3102,"23":3103,"Ġqora":3104,"keta":3105,"ĠHavo":3106,"ĠShamol":3107,"Ġtanqi":3108,"tex":3109,"olib":3110,"tkazildi":3111,"Ġkilometr":3112,"Ġxodimi":3113,"Ġilo":3114,"mizni":3115,"lajak":3116,"Ġqachon":3117,"vich":3118,"Ġetilishi":3119,"fe":3120,"digan":3121,"Ġevaziga":3122,"ssiya":3123,"Ġnor":3124,"xabar":3125,"ĠShundan":3126,"Ġ2015":3127,"enko":3128,"Ġlavozim":3129,"xira":3130,"Ġtashkiloti":3131,"Ġstrate":3132,"mizga":3133,"ChJ":3134,"Ġtashkilotlar":3135,"Prezident":3136,"Ġkino":3137,"Ġtumanidagi":3138,"stagram":3139,"Ġhamkor":3140,"Ġyilga":3141,"niqsa":3142,"Ġsharoi":3143,"Ġdip":3144,"yanvar":3145,"book":3146,"onald":3147,"Ġehtiyo":3148,"dini":3149,"bal":3150,"Ġchor":3151,"larus":3152,"Ġchunki":3153,"orazm":3154,"Ba":3155,"tatsiya":3156,"Ġdepartam":3157,"uddi":3158,"qli":3159,"ress":3160,"Ġtarixi":3161,"Ġfikri":3162,"skiy":3163,"Ġfermer":3164,"Ġprofes":3165,"ĠMChJ":3166,"Ġsovuq":3167,"Ġovqat":3168,"Da":3169,"irdaryo":3170,"Ġqatnash":3171,"ting":3172,"Ġqaysi":3173,"Ġoktabr":3174,"boyev":3175,"Ġolim":3176,"Ġshamol":3177,"Ġtili":3178,"landiya":3179,"Ġekanligini":3180,"transport":3181,"Ġyigi":3182,"Mar":3183,"Ġyuridik":3184,"Ġucha":3185,"Ġboshqaruvi":3186,"cebook":3187,"tilmoqda":3188,"Ġzi":3189,"Ġtoifa":3190,"Ġbara":3191,"Ġtomosha":3192,"choq":3193,"oktabr":3194,"Ġ2022":3195,"Ġekani":3196,"Ġdeputat":3197,"masiga":3198,"qqat":3199,"Ġchuqur":3200,"ĠPa":3201,"minan":3202,"Ġqolish":3203,"Ġyon":3204,"laydigan":3205,"legatsiya":3206,"Ġmuammolar":3207,"Ġmaterial":3208,"dlar":3209,"ĠIslom":3210,"Ġreyti":3211,"rupsiya":3212,"ĠMazkur":3213,"Ġuchinchi":3214,"ardi":3215,"ĠQu":3216,"2020":3217,"Ġsheri":3218,"munikatsiya":3219,"ĠVladimir":3220,"lek":3221,"hammad":3222,"Man":3223,"arakat":3224,"kuna":3225,"Ġishtirokida":3226,"rum":3227,"Ġaniqlash":3228,"Ġsaqlab":3229,"Ġhozirgi":3230,"ment":3231,"zbekistondagi":3232,"Ġkasb":3233,"ys":3234,"Ġsur":3235,"Ġhozirda":3236,"lashib":3237,"lli":3238,"Yangi":3239,"TA":3240,"stra":3241,"Ġmulk":3242,"Ġmualli":3243,"Ġorgani":3244,"llar":3245,"ber":3246,"iyun":3247,"Ġem":3248,"ĠLa":3249,"ĠMahkama":3250,"Ġ(âĢľ":3251,"sonli":3252,"Ġzaxira":3253,"ĠSho":3254,"orozi":3255,"shyo":3256,"pchilik":3257,"uni":3258,"ĠGa":3259,"Ġkutilmoqda":3260,"Ġbosqichi":3261,"Ġboradi":3262,"stitut":3263,"Ġmoddiy":3264,"vyu":3265,"bit":3266,"Ġhuk":3267,"Ġkol":3268,"Ġkredit":3269,"Ġmuddat":3270,"selona":3271,"Ġboshqarish":3272,"Ġmarosi":3273,"rilgani":3274,"ishi":3275,"ngizni":3276,"Ġmuz":3277,"qul":3278,"Ġmajburiy":3279,"los":3280,"Me":3281,"ĠBuyuk":3282,"Ġsin":3283,"Ġqarz":3284,"xonasi":3285,"Ġogoh":3286,"Ġjabr":3287,"._":3288,"ilov":3289,"Ġdehqon":3290,"Ġmudofaa":3291,"Ġtark":3292,"Ġ70":3293,"Ġsiyosa":3294,"lashni":3295,"Ġholatlari":3296,"ĠXalqaro":3297,"Ġzarba":3298,"Ġsanksiya":3299,"Ġqavat":3300,"Ġberishi":3301,"Ġxos":3302,"zin":3303,"Ġkm":3304,"Ġimkonini":3305,"Ġborgan":3306,"Ġtrans":3307,"kab":3308,"tishni":3309,"ĠBuning":3310,"arb":3311,"Ġfoto":3312,"Ġinstituti":3313,"tirmoqda":3314,"Ġcheklov":3315,"Ġdavrida":3316,"Ġjarayoni":3317,"Ġetishi":3318,"tma":3319,"chrashuv":3320,"Ġkadr":3321,"Ġsudi":3322,"Ġyashi":3323,"uldu":3324,"Ġnavbatdagi":3325,"noyabr":3326,"ig":3327,"ket":3328,"spaniya":3329,"ulot":3330,"Ġbuzi":3331,"dliya":3332,"Ġnorozi":3333,"Ġboshlangan":3334,"99":3335,"Ġulardan":3336,"rniga":3337,"ĠRossiyaning":3338,"Ġturdagi":3339,"Ġtashrifi":3340,"Ġehti":3341,"ĠSurxondaryo":3342,"aprel":3343,"Ġkutilmaydi":3344,"Â».":3345,"ĠAra":3346,"kompaniya":3347,"Ġau":3348,"Ġkengaytirish":3349,"stru":3350,"Ġsiyosat":3351,"Ġfevral":3352,"Ġoddiy":3353,"Ġdelegatsiya":3354,"Ġmashg":3355,"Ġhududiy":3356,"Ġberishicha":3357,"Ġustidan":3358,"stoni":3359,"Ġkuzat":3360,"lumotlarni":3361,"Men":3362,"Ġimkon":3363,"zilma":3364,"ĠQashqadaryo":3365,"rinda":3366,"ĠLu":3367,"Ġata":3368,"Ġnoma":3369,"OVID":3370,"Ġbois":3371,"Real":3372,"toriya":3373,"Ġ35":3374,"Ġboshqaruv":3375,"Ġimtiyo":3376,"qobat":3377,"Ġraketa":3378,"Ġmahsulotlar":3379,"monov":3380,"ĠSog":3381,"mlakat":3382,"Ġjarayonida":3383,"dekabr":3384,"Ġbuning":3385,"Ġhis":3386,"Ġvalyu":3387,"ĠYu":3388,"Ġxabariga":3389,"Ġqisqar":3390,"Ġfoydalani":3391,"Ġagar":3392,"rinni":3393,"18":3394,"Ġaktyor":3395,"pov":3396,"Ġyaqi":3397,"yapmiz":3398,"17":3399,"ĠBar":3400,"lararo":3401,"matik":3402,"yxatdan":3403,"Ġjavobgar":3404,"Ġetishga":3405,"Ġjinoiy":3406,"ĠBunday":3407,"Ka":3408,"zam":3409,"Ġavtobus":3410,"roil":3411,"Ġrad":3412,"ez":3413,"ĠHindiston":3414,"layev":3415,"Ġaniqlandi":3416,"Ġanju":3417,"lining":3418,"dal":3419,"alla":3420,"Ġyashash":3421,"Ġsohasidagi":3422,"Ġxavfsizligi":3423,"tkazib":3424,"ilishi":3425,"Ġahamiyat":3426,"ĠHam":3427,"Ġavtoma":3428,"Ġnamu":3429,"ziz":3430,"Ġishlarini":3431,"sam":3432,"ĠKari":3433,"Ġdam":3434,"Ġyetka":3435,"Ġfili":3436,"kamasi":3437,"Ġ80":3438,"Ġkons":3439,"Ġhamkorlikni":3440,"Ġoda":3441,"tijada":3442,"Ġelchi":3443,"Ġnuqta":3444,"tadbirlar":3445,"gor":3446,"Ġxoh":3447,"Ġ90":3448,"ĠKeyin":3449,"Xalq":3450,"tel":3451,"Ġen":3452,"ff":3453,"Ġdars":3454,"'d":3455,"Ha":3456,"Ġqilayotgan":3457,"gandi":3458,"Ġijobiy":3459,"ĠJahon":3460,"Ġavvalroq":3461,"Ġbaro":3462,"Ġstandar":3463,"onlar":3464,"Ġixti":3465,"Ġmahrum":3466,"Ġtarmoqlarda":3467,"ĠRespublikasining":3468,"Barselona":3469,"ĠRah":3470,"sish":3471,"Ġchiqaruvchi":3472,"Ġamaliy":3473,"Ġola":3474,"IA":3475,"Ġrioya":3476,"ganda":3477,"ĠDonald":3478,"Ġboshla":3479,"Ġtaxminan":3480,"Ġmarkaziy":3481,"surs":3482,"llani":3483,"Ġpun":3484,"iro":3485,"Ġoylik":3486,"Ġseri":3487,"Ġketishi":3488,"tni":3489,"Ġmuassasalari":3490,"Ġmamlakatimiz":3491,"Ġsolish":3492,"Ġonlayn":3493,"Ġvalyuta":3494,"likning":3495,"Ġgapi":3496,"Ġeri":3497,"2019":3498,"Ġbugun":3499,"Ġpaxta":3500,"Ġtopish":3501,"Ġqurilishi":3502,"Ġintervyu":3503,"chiq":3504,"rishni":3505,"ktar":3506,"Li":3507,"ĠBer":3508,"Ġoxirgi":3509,"Ġtasvir":3510,"Ġkecha":3511,"ĠAs":3512,"Ġilgari":3513,"iza":3514,"ĠSirdaryo":3515,"Al":3516,"Ġjihoz":3517,"Ġsharqdan":3518,"gida":3519,"Ġang":3520,"mino":3521,"Ġalbatta":3522,"lashuv":3523,"ĠXorazm":3524,"ĠDi":3525,"onanda":3526,"ĠMuhammad":3527,"Ġchalingan":3528,"Bir":3529,"jorat":3530,"Ġfilm":3531,"shiq":3532,"AT":3533,"Ġqonuniy":3534,"Ġraqobat":3535,"ĠCOVID":3536,"Ġatrofida":3537,"Ġdarajasi":3538,"riladigan":3539,"ĠPe":3540,"qnash":3541,"Ġmaqola":3542,"Ġayollar":3543,"Ġshuncha":3544,"Ġtelekanali":3545,"Ġhayo":3546,"11":3547,"Ġnizo":3548,"Ġatrof":3549,"ĠZa":3550,"lardi":3551,"Ġishlagan":3552,"Ġxizmatlar":3553,"maydigan":3554,"Ġmobil":3555,"Ġfun":3556,"Ġmiqdorida":3557,"Ġhuquqiy":3558,"jalik":3559,"Ġyetdi":3560,"mizning":3561,"zA":3562,"ĠToshkentda":3563,"Gaz":3564,"ergetika":3565,"ĠEndi":3566,"dav":3567,"ĠTashqi":3568,"shing":3569,"Ġhamkorlikda":3570,"goh":3571,"ĠQonun":3572,"Ġchoralar":3573,"Ġyomg":3574,"ahra":3575,"Ġgektar":3576,"Ġqoladi":3577,"demiyasi":3578,"Ġparlament":3579,"Ġuchast":3580,"Ġmuxlis":3581,"iqtisodiy":3582,"Ġtamo":3583,"rgaz":3584,"hati":3585,"ĠIIV":3586,"Ġmobay":3587,"Ġoltin":3588,"tkaziladi":3589,"Ġavtomashina":3590,"ĠIchki":3591,"Ġqilgani":3592,"Ġqatna":3593,"Ġsmartfon":3594,"dio":3595,"lubi":3596,"Ġdiplo":3597,"kash":3598,"nati":3599,"Ġrozi":3600,"IV":3601,"lmasligi":3602,"umon":3603,"Ġziyod":3604,"40":3605,"ĠMasalan":3606,"Ġresurs":3607,"Ġoldida":3608,"Ġholatlar":3609,"Ġistiq":3610,"rinish":3611,"Ġpandemiya":3612,"tmoqda":3613,"tra":3614,"jjat":3615,"ĠKim":3616,"lug":3617,"Ġmasalalar":3618,"2018":3619,"Ġarzon":3620,"lyat":3621,"Ġxato":3622,"Ġturizm":3623,"Ġpayt":3624,"Ġmobaynida":3625,"etro":3626,"Ġboxabar":3627,"tqi":3628,"Ġmexa":3629,"Ġtayyorgarlik":3630,"qismi":3631,"Ġmiqdorda":3632,"Ġijara":3633,"Sport":3634,"Ġochko":3635,"ska":3636,"Ġmaydoni":3637,"Ġistasangiz":3638,"Pa":3639,"Ġkelmoqda":3640,"Be":3641,"pol":3642,"Ġyillar":3643,"iyo":3644,"Ġbiti":3645,"Ġsurish":3646,"Ġbilim":3647,"Ġtana":3648,"Ġmuta":3649,"Ġhissa":3650,"Ġoshirilgan":3651,"Ġlits":3652,"AR":3653,"leks":3654,"chib":3655,"Ġtaqdi":3656,"ĠArabi":3657,"Ġchempiona":3658,"Ġjamiyati":3659,"ratu":3660,"chester":3661,"Ġmamlakatning":3662,"Ġsug":3663,"ĠKenga":3664,"Ġtopilgan":3665,"ĠChi":3666,"Lo":3667,"ĠNur":3668,"yinda":3669,"Ġavvalgi":3670,"Ġfikricha":3671,"Ġhozircha":3672,"Ġqarab":3673,"Ġsalohi":3674,"ĠFar":3675,"met":3676,"Ġnamuna":3677,"Ġbaland":3678,"Ġmuzokaralar":3679,"Ġamaliyot":3680,"vosti":3681,"tor":3682,"ĠAQShning":3683,"wit":3684,"Ġolini":3685,"Ġbizning":3686,"Ġehtiyoj":3687,"Ġada":3688,"Ġixtisos":3689,"Xitoy":3690,"16":3691,"ĠUnga":3692,"Ġbajar":3693,"Ġhayoti":3694,"Ġolti":3695,"Ġqamoq":3696,"layman":3697,"Ġsut":3698,"ligidan":3699,"Ġmurabbiy":3700,"Ġbiror":3701,"boy":3702,"saddi":3703,"Inter":3704,"gich":3705,"ĠNor":3706,"yadi":3707,"Ġtartibga":3708,"rma":3709,"Ġshakli":3710,"ĠAng":3711,"lmadi":3712,"ĠKar":3713,"Ġmijo":3714,".âĢĶ":3715,"Ġviloyatlarida":3716,"tihon":3717,"Ġkiriti":3718,"Ġaksari":3719,"Ġuskuna":3720,"Ġrahbariyati":3721,"ĠBay":3722,"Ġyangiliklaridan":3723,"Ġxay":3724,"nayotgan":3725,"Kun":3726,"Ġxususan":3727,"ĠMahkamasining":3728,"Ġhaq":3729,"ngizga":3730,"yida":3731,"bini":3732,"Ġqilingandi":3733,"ĠShimoliy":3734,"Ġ300":3735,"riyb":3736,"Ġchiqishi":3737,"ĠUni":3738,"filak":3739,"Ġ198":3740,"Ġhisobiga":3741,"Ġkolle":3742,"xsha":3743,"Ġraqam":3744,"Ġaholining":3745,"ĠThe":3746,"ĠBelarus":3747,"Ġtaraqqi":3748,"tosh":3749,"ĠDo":3750,"Ġhosil":3751,"Ġsayyoh":3752,"tazam":3753,"Ġve":3754,"ĠArabistoni":3755,"2021":3756,"Ġrivojlanish":3757,"shanda":3758,"vatsion":3759,"Ġtasdiqlangan":3760,"Yanada":3761,"Ġsotish":3762,"lanishiga":3763,"harakat":3764,"ker":3765,"kta":3766,"Ġul":3767,"lmasa":3768,"tadbirlari":3769,"Ġhisobidan":3770,"Ġjon":3771,"Ayni":3772,"fevral":3773,"Ġmajburi":3774,"Ġqavatli":3775,"muro":3776,"Ġaktrisa":3777,"Ġholatiga":3778,"ĠItaliya":3779,"Ġqariyb":3780,"lisher":3781,"tiruv":3782,"Ġinno":3783,"Ġmutaxassislar":3784,"Ġumuman":3785,"Ġketish":3786,"Bosh":3787,"sanoat":3788,"Ġrekor":3789,"Ġ+":3790,"Ġbarpo":3791,"Ġxabarida":3792,"Ġbudjet":3793,"Ġver":3794,"Ġsherik":3795,"mish":3796,"jonov":3797,"Ġsalbiy":3798,"Ġaholisi":3799,"zosi":3800,"ĠAyni":3801,"kom":3802,"ekund":3803,"davlat":3804,"lol":3805,"Ġurush":3806,"Ġyadro":3807,"Ġyut":3808,"Ġvaz":3809,"oz":3810,"Ġyilgi":3811,"Ġhol":3812,"rafi":3813,"usta":3814,"lati":3815,"gaz":3816,"13":3817,"Ġmadaniyat":3818,"eksiyasi":3819,"witter":3820,"Ġkamera":3821,"Ġustida":3822,"Bugun":3823,"Ġqiladigan":3824,"Ġkorrupsiya":3825,"lashadi":3826,"Ġoshirilishi":3827,"Ġtopshiriq":3828,"Ġshahrining":3829,"sekund":3830,"Ġnechta":3831,"Ġdoim":3832,"Ġkafo":3833,"ray":3834,"batga":3835,"Ġturar":3836,"ws":3837,"Ġinfratu":3838,"Ġsot":3839,"Ġmadaniy":3840,"Ġkelgu":3841,"lidan":3842,"Ġmuntazam":3843,"Ġusta":3844,"ĠShuning":3845,"rni":3846,"Ġino":3847,"tiriladi":3848,"Ġekanligi":3849,"200":3850,".\"":3851,"60":3852,"chilarning":3853,"Ġterror":3854,"Ġolmaydi":3855,"Ġchiqilgan":3856,"ova":3857,"Ġinfeksiya":3858,"Ġusul":3859,"Ro":3860,"Ġamerika":3861,"Ġkeltirib":3862,"ĠXususan":3863,"lisi":3864,"Ġ33":3865,"Ġfavqulodda":3866,"De":3867,"monlar":3868,"Ġrossiya":3869,"Ġmehmonxona":3870,"Ġaytish":3871,"lav":3872,"Ġbuyum":3873,"ishlangan":3874,"zlarini":3875,"Ġolinadi":3876,"Ġtosh":3877,"jtimoiy":3878,"Ġsovg":3879,"rsatgan":3880,"yer":3881,"ĠSaudiya":3882,"Ġhuquqlari":3883,"14":3884,"ten":3885,"Ġmuvaffaqiyatli":3886,"mand":3887,"Ġelektro":3888,"Ġumum":3889,"Ġes":3890,"Ġkunlik":3891,"umi":3892,"Ġdollarni":3893,"Ġinobatga":3894,"ologiya":3895,"bin":3896,"ĠKi":3897,"Ġbarchasi":3898,"Ġgapir":3899,"layotganini":3900,"urmat":3901,"Agar":3902,"Ġtahdi":3903,"Tadbir":3904,"otor":3905,"ĠEl":3906,"Ġoson":3907,"unar":3908,"Ġgumon":3909,"kmaniston":3910,"Ġkuchlari":3911,"Ġhaqiqiy":3912,"Ġqaroriga":3913,"Ġpalatasi":3914,"Ġbirida":3915,"Ġsifatli":3916,"lni":3917,"Ġuchastka":3918,"Ġboshida":3919,"uquqi":3920,"sional":3921,"Ġmumkinligini":3922,"Ġeko":3923,"Ġmustahkamlash":3924,"atr":3925,"ologik":3926,"ps":3927,"Ġkuchi":3928,"uvor":3929,"Ġuniversitet":3930,"27":3931,"vka":3932,"Ġavva":3933,"Ġsum":3934,"Ġmasji":3935,"âĢ¢":3936,"Ġimport":3937,"Ġmana":3938,"ada":3939,"Ġaylandi":3940,"Ġparvoz":3941,"Ġsamarador":3942,"mokra":3943,"Ġurib":3944,"Ġimtihon":3945,"rori":3946,"Ġoshirishga":3947,"ubha":3948,"zbeki":3949,"nim":3950,"Ġmig":3951,"Ġvazirligining":3952,"Ġchiqarib":3953,"Ġmukofot":3954,"Ġshundan":3955,"variya":3956,"Ġustuvor":3957,"ĠBirinchi":3958,"figa":3959,"Tu":3960,"Ġmavsu":3961,"ddan":3962,"ĠFede":3963,"lobal":3964,"Ġqor":3965,"Ġyaratilgan":3966,"Ġtaraf":3967,"Ġ2014":3968,"Ġbulu":3969,"muriy":3970,"Ġmamlakatlar":3971,"Ja":3972,"Manchester":3973,"Ġmol":3974,"Ġaylan":3975,"Ġmexani":3976,"uquqiy":3977,"stitutsiya":3978,"Ġbarobar":3979,"Ġmasalasi":3980,"Ġoqibat":3981,"Ġmuddati":3982,"Ġmeva":3983,"Ġhududlarda":3984,"Ġpre":3985,"dlik":3986,"Ġboshqarma":3987,"Ġtashkilotlari":3988,"TASS":3989,"ros":3990,"Ġser":3991,"ining":3992,"Ġnavbatida":3993,"ĠMajlis":3994,"Ġmutasaddi":3995,"Ġrejalash":3996,"ĠHozirda":3997,"esti":3998,"Ġuyg":3999,"qqa":4000,"men":4001,"Ġkasalxona":4002,"liyev":4003,"Ġamaldagi":4004,"Ġuchta":4005,"dori":4006,"Ġboshlandi":4007,"Ġhududlarida":4008,"Ġarmi":4009,"Ġborayotgan":4010,"Ġxuddi":4011,"lokat":4012,"Ġdollari":4013,"Ġmarkazida":4014,"Andijon":4015,"Ġberishni":4016,"Ġok":4017,"Ġumid":4018,"idan":4019,"yaga":4020,"berg":4021,"Ġayniqsa":4022,"Ġrejalashti":4023,"ngda":4024,"Ġichiga":4025,"tidagi":4026,"2017":4027,"Ġxavfi":4028,"ganida":4029,"diruv":4030,"Ġdoira":4031,"Ar":4032,"Mi":4033,"Ġfuqarolari":4034,"Ġsaba":4035,"zlik":4036,"Ġinstitut":4037,"lanishini":4038,"oyib":4039,"Ġbayonot":4040,"chasida":4041,"ĠSar":4042,"sus":4043,"Ġjoyida":4044,"nita":4045,"Ġtaxmin":4046,"daqiqa":4047,"ge":4048,"Ġaytilgan":4049,"ĠJon":4050,"Ġmansab":4051,"Ġnishon":4052,"Ġyotqi":4053,"Ġfuqarolarning":4054,"28":4055,"lgandi":4056,"nomasi":4057,"Ġsun":4058,"taf":4059,"kidlab":4060,"Ġkomissiyasi":4061,"Ġmakta":4062,"Ġgacha":4063,"ĠQar":4064,"qomat":4065,"Ġkamchilik":4066,"ĠIsroil":4067,"pro":4068,"An":4069,"Ġtushishi":4070,"Ġhokimiyat":4071,"Ġbelgilab":4072,"zoda":4073,"sht":4074,"pple":4075,";_":4076,"Ġfoydalanishga":4077,"Ġdunyoning":4078,"Su":4079,"ĠYer":4080,"Ġdiz":4081,"ĠBunda":4082,"Ġvaziyatni":4083,"Ġqam":4084,"Buxoro":4085,"sor":4086,"Ġprofilak":4087,"yxatga":4088,"ring":4089,"Ġfede":4090,"Ġshiko":4091,"Ġqilamiz":4092,"Ġchiqadi":4093,"dolat":4094,"razi":4095,"ĠKarimov":4096,"ork":4097,"tirildi":4098,"lsak":4099,"Ġnatijalari":4100,"Ġqism":4101,"lyatsiya":4102,"QS":4103,"tkazgan":4104,"limpi":4105,"ĠPro":4106,"Qora":4107,"ragan":4108,"Ġqurbon":4109,"Ġnashr":4110,"Ġolmagan":4111,"ĠFacebook":4112,"Ġ46":4113,"Ġaloqalar":4114,"havo":4115,"unyod":4116,"yildi":4117,"Ġ45":4118,"Ġstati":4119,"Ġmuo":4120,"Ġsalomat":4121,"ĠIspaniya":4122,"Ġtayinlandi":4123,"Ġhib":4124,"nitariya":4125,"Ġmenga":4126,"Ġyozishicha":4127,"ertifi":4128,"Ġeski":4129,"Ġyilgacha":4130,"Ġishlarni":4131,"ĠChempi":4132,"qishga":4133,"llash":4134,"Ġehtimo":4135,"tirishga":4136,"Ġilova":4137,"Ġistiqomat":4138,"vosita":4139,"Ġyuldu":4140,"Ġpiyo":4141,"Ġmuddatli":4142,"rtog":4143,"bituriy":4144,"rey":4145,"Xabar":4146,"Ġmuddatga":4147,"ota":4148,"Ġdavolash":4149,"Ġquvvat":4150,"Ġbizga":4151,"bituriyent":4152,"ĠNatijada":4153,"Ġkunlarda":4154,"shington":4155,"Ġrek":4156,"Ġstansiya":4157,"nish":4158,"Ġichimlik":4159,"Ġqayer":4160,"uso":4161,"vay":4162,"Ġistiqbol":4163,"Ġsaytida":4164,"Ġjihatdan":4165,"Ġavlo":4166,"Ġtashabbus":4167,"mit":4168,"las":4169,"rsatib":4170,"ilishda":4171,"ĠSiz":4172,"Ġtopgan":4173,"aradi":4174,"Ġbepul":4175,"Ġkafolat":4176,"Fa":4177,"ĠGo":4178,"gon":4179,"Ġboshchiligi":4180,"Ġbur":4181,"Ġviloyatlari":4182,"Ġporta":4183,"Ġ34":4184,"ĠOq":4185,"Ġdepartamenti":4186,"DR":4187,"Ġkarta":4188,"Ġvazifasini":4189,"tafsil":4190,"Ġvaqtincha":4191,"uriyati":4192,"lovchilar":4193,"tinchi":4194,"Ġxavfli":4195,"Ġtayinlangan":4196,"Ġ32":4197,"Ġavtomo":4198,"armasi":4199,"Ġkama":4200,"tr":4201,"mayapti":4202,"Ġxabarlar":4203,"enziya":4204,"Ġulg":4205,"lamoqda":4206,"Ġyetkaz":4207,"chan":4208,"voza":4209,"Ġrusumli":4210,"Ġtak":4211,"gno":4212,"Ġyerga":4213,"Tolib":4214,"Ġbulutli":4215,"Ġpoyez":4216,"ES":4217,"Ġyashay":4218,"Ġlab":4219,"Hozirda":4220,"tkazdi":4221,"ĠRossiyada":4222,"Ġhukm":4223,"zilar":4224,"kidlagan":4225,"Ġepi":4226,"Ġqiziq":4227,"Ġnomidagi":4228,"âĢĿ.âĢľ":4229,"Ġtadbirlar":4230,"tt":4231,"Ġzona":4232,"ĠAlisher":4233,"Ġdavlatlari":4234,"ldan":4235,"ĠAir":4236,"Ġrea":4237,"uf":4238,"sol":4239,"bida":4240,"matov":4241,"Ġtuza":4242,"Ġayt":4243,"Ġbuz":4244,"Ġaviakompaniya":4245,"TM":4246,"ĠPar":4247,"Ġkapi":4248,"FA":4249,"Ġtala":4250,"Ġdunyoda":4251,"Ġkiradi":4252,"Ġqishlog":4253,"iroq":4254,"Ġshubha":4255,"andi":4256,"Ġvoz":4257,"Ġqozon":4258,"Ġqilinmoqda":4259,"90":4260,"Ġtanqid":4261,"sning":4262,"Ġyetakchisi":4263,"nay":4264,"Ġjoylashti":4265,"Ġmumkinligi":4266,"viga":4267,"zarb":4268,"tilayotgan":4269,"giron":4270,"Ġberishga":4271,"Ġjoiz":4272,"Ġrossiyalik":4273,"ĠIsh":4274,"Gazeta":4275,"ĠRossiyaga":4276,"Ġtinchlik":4277,"iloyat":4278,"Ġkiritgan":4279,"Ġsertifi":4280,"rakkab":4281,"tash":4282,"Ġtuzi":4283,"zbekistan":4284,"Ġdollardan":4285,"Ġharo":4286,"80":4287,"Ġorada":4288,"ndan":4289,"rigacha":4290,"zidan":4291,"Ġtarg":4292,"uy":4293,"Ġenergiyasi":4294,"yosh":4295,"Ġ37":4296,"Ġduch":4297,"Ġtijorat":4298,"chka":4299,"ĠJamo":4300,"ĠQur":4301,"Ġomil":4302,"ĠZo":4303,"Ġklini":4304,"jayev":4305,"oda":4306,"Ġsara":4307,"Ġmahsulotlarini":4308,"Ġmusi":4309,"rganib":4310,"Is":4311,"rika":4312,"Ġchempion":4313,"ĠMat":4314,"Ġyuborgan":4315,"iyev":4316,"Ġaerop":4317,"Ġniqo":4318,"Ġpoytaxt":4319,"Ġyetgan":4320,"rayotgan":4321,"Ġqatori":4322,"Ġajratilgan":4323,"Ġishdan":4324,"Ġbelgilandi":4325,"Ġsano":4326,"say":4327,"26":4328,"ĠUs":4329,"Uchrashuv":4330,"Ġogohlan":4331,"Ġehtiyot":4332,"yeva":4333,"nidan":4334,"ĠUlug":4335,"yur":4336,"Ġittifoqi":4337,"rsatadi":4338,"Ġ36":4339,"hone":4340,"Ġshunda":4341,"Ġfoydali":4342,"Joriy":4343,"Ġyuborilgan":4344,"ĠMoliya":4345,"ĠShah":4346,"Ġkeltirilgan":4347,"uqori":4348,"tiladigan":4349,"urta":4350,"biga":4351,"Ġqadam":4352,"Ġmoliyalashtirish":4353,"burg":4354,"jaro":4355,"Ġtexnologiyalari":4356,"Ġkishiga":4357,"Ġoshgan":4358,"Ġkg":4359,"Ġboshlanadi":4360,"leksan":4361,"Ġyurgan":4362,"Ġoxirida":4363,"Ġberilishi":4364,"Ġqonunchilik":4365,"laver":4366,"Ġrag":4367,"Ġyolg":4368,"Ġqattiq":4369,"Ġfuqarolik":4370,"Ġyaxshilash":4371,"Ġmetro":4372,"Ġfarq":4373,"Ġerishish":4374,"Ġdollarlik":4375,"lidagi":4376,"ley":4377,"Ġhududda":4378,"Ġana":4379,"Ġtaraqqiyot":4380,"tirishi":4381,"Ġtab":4382,"Ġkelajak":4383,"Ġmuvaffaq":4384,"Ġchop":4385,"Ġnomli":4386,"Ġhayvon":4387,"Ġajoyib":4388,"Ġjavobgarlik":4389,"kul":4390,"Ġloyihalar":4391,"Ġprokuraturasi":4392,"Ġtuzilgan":4393,"Ġpalata":4394,"Samarqand":4395,"Ġlavozimiga":4396,"medov":4397,"Tolibon":4398,"Ġxonanda":4399,"Ġanjumani":4400,"eni":4401,"Ġdolzarb":4402,"vet":4403,"tkazilishi":4404,"kumat":4405,"ĠOta":4406,"lmay":4407,"Ġishtirokchi":4408,"Ġmurakkab":4409,"ĠTi":4410,"Ġbayram":4411,"tilgani":4412,"Ġofi":4413,"Ukraina":4414,"Ġbayono":4415,"Ġad":4416,"chak":4417,"qindi":4418,"ĠMudofaa":4419,"ĠBayden":4420,"ngliz":4421,"Ġnaq":4422,"yildan":4423,"Ġpla":4424,"ishloq":4425,"Ġyigit":4426,"ĠNovosti":4427,"Ġamerikalik":4428,"mning":4429,"Ġtahri":4430,"Ġkiritdi":4431,"ĠCo":4432,"Ne":4433,"prik":4434,"Ġtarixiy":4435,"taba":4436,"arbiy":4437,"oratoriya":4438,"sno":4439,"rug":4440,"Ġkasallanish":4441,"Ġkuchayishi":4442,"ondon":4443,"Ġxotira":4444,"ĠTu":4445,"Ġdunyodagi":4446,"chining":4447,"tki":4448,"yuter":4449,"Ġtizimida":4450,"www":4451,"op":4452,"ĠIkkinchi":4453,"ĠMan":4454,"udj":4455,"ilon":4456,"Ġkutib":4457,"Ġkorxonasi":4458,"struksiya":4459,"Ġtahdid":4460,"oshlar":4461,"ĠBan":4462,"Ġborligi":4463,"Ġtaqdirda":4464,"Le":4465,"Ġbevosita":4466,"Ġminnat":4467,"Ġkunga":4468,"langanlar":4469,"Ġinsho":4470,"Ġyuborish":4471,"Ġoshib":4472,"Ġkerakligini":4473,"bank":4474,"Ġshakllantirish":4475,"Ġtadbirkorlar":4476,"//":4477,"Respublika":4478,"kitob":4479,"Ġdalil":4480,"toj":4481,"Ġuzun":4482,"Ġom":4483,"Ġyurak":4484,"Ġby":4485,"raziliya":4486,"Ġrais":4487,"yini":4488,"Ġtashabbu":4489,"://":4490,"zli":4491,"zov":4492,"ĠTer":4493,"Phone":4494,"rgazma":4495,"dra":4496,"ham":4497,"Ġmanzil":4498,"Ġviza":4499,"Ġkiyim":4500,"rnini":4501,"yilgi":4502,"Ġhisobida":4503,"ĠMahkamasi":4504,"Af":4505,"Ġqismida":4506,"stlar":4507,"Ġrub":4508,"35":4509,"Ġustun":4510,"Ġshikoyat":4511,"roh":4512,"Ġqolib":4513,"Ġkishini":4514,"Ġulkan":4515,"irlash":4516,"Ġkirgan":4517,"limiga":4518,"Ġxodimlar":4519,"Ġkelgani":4520,"Ġfuqarosi":4521,"Ġqismini":4522,"Ġinvest":4523,"Ġtushadi":4524,"ĠAk":4525,"Ġturish":4526,"Ġaholiga":4527,"Ġundi":4528,"Ġkundan":4529,"XDR":4530,"Ġhuquqbuzar":4531,"Ġjarohati":4532,"Ġyarat":4533,"Ġbajarish":4534,"mokratik":4535,"Ġdarvoza":4536,"Ġxususiya":4537,"Ġqilishda":4538,"vati":4539,"Ġabituriyent":4540,"Ġkuniga":4541,"Ġmarotaba":4542,"Ġfoizni":4543,"ĠSay":4544,"chalari":4545,"rator":4546,"masligini":4547,"ĠKengashi":4548,"gini":4549,"Ġkimyo":4550,"Ġmusul":4551,"zitsiya":4552,"arov":4553,"ĠFo":4554,"Ġinqi":4555,"zavo":4556,"yillarda":4557,"Ġmintaqaviy":4558,"Ġasr":4559,"Ġqahra":4560,"Ġvi":4561,"Ġoladigan":4562,"Ġbren":4563,"Ġyal":4564,"Ġcheklangan":4565,"Ġhujjatlarni":4566,"nidagi":4567,"Ġboshlaydi":4568,"straliya":4569,"lamiz":4570,"Ġborilgan":4571,"ĠPol":4572,"ĠTurkmaniston":4573,"Ġurin":4574,"Ġavtomobillar":4575,"Ġqal":4576,"ShID":4577,"Ġtarkibida":4578,"45":4579,"Ġyum":4580,"Ġmon":4581,"Ġloyihasini":4582,"Ġmuddatda":4583,"Ġbirlash":4584,"Ġhisobot":4585,"Ġfaqatgina":4586,"ĠIl":4587,"let":4588,"FY":4589,"Ġmuhtoj":4590,"ĠBunga":4591,"Ġmodel":4592,"Ġeki":4593,"Ġreklama":4594,"Ġolgani":4595,"evra":4596,"Ġniqob":4597,"Ġ197":4598,"zgarishlar":4599,"dga":4600,"avf":4601,"Ġsurishtiruv":4602,"essi":4603,"Ġismli":4604,"lasi":4605,"Ġqog":4606,"Ġqarin":4607,"dil":4608,"yab":4609,"Ġchiqqa":4610,"Ġ400":4611,"Ġeta":4612,"qasi":4613,"eriya":4614,"Ġdiqqat":4615,"vide":4616,"Ġenergetika":4617,"Ġlitsenziya":4618,"Ġbuyurtma":4619,"Ġchiqindi":4620,"rian":4621,"Ġishni":4622,"lashtirib":4623,"arma":4624,"ĠOlma":4625,"Ġnazorati":4626,"rnatish":4627,"Ġmunosib":4628,"Ġketadi":4629,"mova":4630,"shar":4631,"likdagi":4632,"bosqi":4633,"ĠDil":4634,"Ġkelin":4635,"ĠXu":4636,"Ġqolmoqda":4637,"Ġnoto":4638,"ĠRus":4639,"ĠQonunchilik":4640,"xti":4641,"Ġsahifasida":4642,"ĠMay":4643,"ĠAleksan":4644,"Ġsababi":4645,"Ġchiqildi":4646,"ĠInter":4647,"ferensiya":4648,"tari":4649,"Ġrasman":4650,"Ġchoralari":4651,"Yevro":4652,"Ġdengiz":4653,"atar":4654,"latfor":4655,"dning":4656,"Ġmaydonga":4657,"Ġtasi":4658,"Ġnafarga":4659,"zila":4660,"Ġmuallif":4661,"Ġnega":4662,"Ġberadigan":4663,"laymiz":4664,"Ġsev":4665,"Ġ150":4666,"Ġoilaviy":4667,"Ġstrategiya":4668,"Ġkuchaytirish":4669,"ATO":4670,"lcha":4671,"magani":4672,"Ra":4673,"ĠJumladan":4674,"pta":4675,"Ġdiniy":4676,"Ġmingta":4677,"Ġborasidagi":4678,"Ġeksperti":4679,"Ġuyda":4680,"xshash":4681,"Ġishonchli":4682,"ldosh":4683,"usxa":4684,"Ġmikro":4685,"mur":4686,"rem":4687,"HT":4688,"Ġshaxslarga":4689,"Ġuza":4690,"vey":4691,"Ġnogiron":4692,"mos":4693,"masa":4694,"ĠKom":4695,"Ġortiqcha":4696,"Ġsezilar":4697,"Ġxavo":4698,"kum":4699,"Ġsir":4700,"ĠIIBB":4701,"Ġhurmat":4702,"Ġpartiyasi":4703,"Ġborishi":4704,"Ġqazib":4705,"Ġ75":4706,"Ġ38":4707,"lovlar":4708,"Ġmansabdor":4709,"Ġqurilgan":4710,"Eng":4711,"ĠMeh":4712,"Ġtalabalar":4713,"ĠVi":4714,"ĠTergov":4715,"ĠDast":4716,"str":4717,"huquqiy":4718,"Ġobyekt":4719,"Ġrekord":4720,"Ġhibsga":4721,"Ġraqib":4722,"No":4723,"Ġboshidan":4724,"vin":4725,"Ġuchrash":4726,"Ġaylangan":4727,"Ġijod":4728,"Turkiya":4729,"Ġinnovatsion":4730,"rig":4731,"Ġmeni":4732,"lganlar":4733,"Ġgazeta":4734,"tol":4735,"Ġfoizdan":4736,"loger":4737,"ttps":4738,"Ġsezilarli":4739,"Di":4740,"Qar":4741,"Ġmajburiyat":4742,"Ġlavozimida":4743,"yus":4744,"Ġaeroport":4745,"Ġkeyinchalik":4746,"37":4747,"Ġsig":4748,"ĠIttifoqi":4749,"Ġetgani":4750,"Ġoshirilayotgan":4751,"larimizni":4752,"Ġpiyoda":4753,"niqli":4754,"Ġyetkazish":4755,"Ġbudje":4756,"Ġtushdi":4757,"tiy":4758,"Ġvazn":4759,"Ġsafi":4760,"ela":4761,"Ġmamlakatlari":4762,"Ġxaridor":4763,"urilish":4764,"ramiz":4765,"Ġfarmoni":4766,"Ġnusxa":4767,"mayman":4768,"dash":4769,"Ġkommunikatsiya":4770,"Ġchiqarishni":4771,"Ġhududiga":4772,"Ġulgur":4773,"Ġboks":4774,"Ġlaboratoriya":4775,"Ġlib":4776,"Ġbaholash":4777,"Ġhammasi":4778,"Ġtuzil":4779,"shid":4780,"ĠTim":4781,"Ġmut":4782,"Ġprofilaktika":4783,"Ġkorxonalar":4784,"jab":4785,"yiq":4786,"Ġten":4787,"Ġyiliga":4788,"Ġdarajadagi":4789,"Ġtashish":4790,"ngida":4791,"jir":4792,"rmon":4793,"des":4794,"yut":4795,"Ġraqamli":4796,"Ġkema":4797,"Ġolishni":4798,"Ġfoydalangan":4799,"fir":4800,"tirilishi":4801,"ĠOzar":4802,"chilarga":4803,"Ġvaziyatlar":4804,"oliq":4805,"radigan":4806,"pin":4807,"Ġvazirining":4808,"ĠAdliya":4809,"zgi":4810,"Ġjoyda":4811,"Ġoshdi":4812,"tepa":4813,"Ġchar":4814,"Ġaniqlik":4815,"ovar":4816,"ca":4817,"Hujjat":4818,"Ġharakatlar":4819,"qligi":4820,"Ġqaraganda":4821,"Ġfax":4822,"zdan":4823,"Ġsam":4824,"Ġdeputa":4825,"larim":4826,"ĠAli":4827,"pur":4828,"mom":4829,"Ġnaza":4830,"Ġreys":4831,"ug":4832,"lagani":4833,"Ġbori":4834,"ĠEng":4835,"ĠiPhone":4836,"Ġketayotgan":4837,"Ġsayo":4838,"Ġsutka":4839,"ĠOlimpi":4840,"Mah":4841,"qara":4842,"sar":4843,"Ġqolishi":4844,"Ġmingga":4845,"ĠAQShda":4846,"Ġfaoliyatiga":4847,"Qozog":4848,"Ġdizay":4849,"ĠYun":4850,"Ġfilmi":4851,"ibo":4852,"Ġtri":4853,"Ġhaqiqat":4854,"Ġkelishib":4855,"nab":4856,"korlar":4857,"ĠKechasi":4858,"ligining":4859,"ningiz":4860,"Ġshuni":4861,"ved":4862,"ted":4863,"ĠEn":4864,"Ġegasi":4865,"fiy":4866,"tiri":4867,"unos":4868,"Qu":4869,"yob":4870,"Ġhujjatlari":4871,"kidlash":4872,"yuro":4873,"Ġjoyiga":4874,"Ġpu":4875,"ĠKompaniya":4876,"RIA":4877,"Ġmuammolarni":4878,"Ġhisobo":4879,"chil":4880,"Ġyozgan":4881,"Ġkerakli":4882,"Ġfondi":4883,"lya":4884,"laversa":4885,"Ġxavotir":4886,"sav":4887,"Ġuzay":4888,"Ġpeda":4889,"Ġtransp":4890,"998":4891,"Ġshaf":4892,"end":4893,"ĠShunday":4894,"ĠPrezidentining":4895,"Ġbos":4896,"lishga":4897,"lgach":4898,"ĠMak":4899,"Ġloyihalarni":4900,"yohvan":4901,"atilgan":4902,"Ġkesi":4903,"stin":4904,"Ġkompaniyalari":4905,"Ġtexnologiyalar":4906,"Se":4907,"Ġyetmagan":4908,"Ġkompyuter":4909,"Ġtarqalgan":4910,"Ġpunkt":4911,"ĠFor":4912,"Ġyori":4913,"bosqich":4914,"Ġishlaydi":4915,"Ġkurs":4916,"Ġyakuniga":4917,"dirov":4918,"Ġbirja":4919,"dent":4920,"Ġingliz":4921,"Ġzim":4922,"qibat":4923,"2022":4924,"Ġtekshirish":4925,"Ġkut":4926,"Ġshifokorlar":4927,"Ġmoni":4928,"Ġozodlikdan":4929,"omi":4930,"ĠBel":4931,"ĠFi":4932,"Ġdavri":4933,"Ġplatfor":4934,"Ġoylarida":4935,"ĠFer":4936,"ttifoq":4937,"ĠTIV":4938,"stora":4939,"ĠMFY":4940,"Ġrang":4941,"Ġtarmoqlari":4942,"Ġsent":4943,"Ġonasi":4944,"rant":4945,"Ġbosi":4946,"naviy":4947,"lyapti":4948,"Ġxayriya":4949,"ci":4950,"stlik":4951,"Ġ65":4952,"kim":4953,"Paxta":4954,"Ġfinal":4955,"Ġolmay":4956,"ĠIb":4957,"Ġyetti":4958,"Ġketa":4959,"naqa":4960,"Ġegallab":4961,"sung":4962,"II":4963,"Ġnafardan":4964,"Ġvaqtinchalik":4965,"Ġasoslangan":4966,"Ġyutuq":4967,"Ġkuchga":4968,"Ġglobal":4969,"Ġportlash":4970,"Ġkompleks":4971,"ĠVashington":4972,"ksion":4973,"Ġidoralar":4974,"Ġsanksiyalar":4975,"Ġxur":4976,"ektori":4977,"Ġkompaniyasining":4978,"Ġxavfsizligini":4979,"Ġmojaro":4980,"turi":4981,"Ġtaklifi":4982,"Qashqadaryo":4983,"Ġmukofo":4984,"Ġxotin":4985,"29":4986,"ĠNyu":4987,"Ġmutaxassislari":4988,"XX":4989,"poli":4990,"Ġvarian":4991,"Ġmini":4992,"Ġtaqdimo":4993,"hrat":4994,"Ġinfratuzilma":4995,"Ġqirg":4996,"Ġstavka":4997,"hu":4998,"Mo":4999,"Ġstandart":5000,"Ġishini":5001,"Ġjadal":5002,"Ġaloqador":5003,"AA":5004,"ĠTadbir":5005,"eng":5006,"Ġtayyorlangan":5007,"Ġjoylashtirish":5008,"Ġbaliq":5009,"uvga":5010,"Ġyetkazilgan":5011,"Ġshunchaki":5012,"Tash":5013,"Amerika":5014,"Ġshaxslarning":5015,"Ġmarosimi":5016,"Ġfarzandi":5017,"Ġinsonlar":5018,"Ġboshchiligidagi":5019,"Ġmiqyo":5020,"ergey":5021,"ringa":5022,"Ġtomondan":5023,"Ġhokimining":5024,"Ġinti":5025,"ĠChempionlar":5026,"ĠApple":5027,"Ġrahbarining":5028,"Ġekspertiza":5029,"Ġqolgani":5030,"Ġislohotlar":5031,"ĠYaqin":5032,"Ġinshoot":5033,"Ġimzoladi":5034,"Ġxodimlarining":5035,"Ġtopshirish":5036,"Ġushlab":5037,"Ġpensiya":5038,"Ġtalablariga":5039,"viya":5040,"Ġstatistika":5041,"Ġbutunlay":5042,"yet":5043,"Ġniyati":5044,"ratini":5045,"Ġqurolli":5046,"lning":5047,"Ġbemorlar":5048,"Ġprofessional":5049,"shr":5050,"Ġnut":5051,"rang":5052,"Ġteri":5053,"Ġshunga":5054,"Ġmetal":5055,"Ġashyo":5056,"Ġegallagan":5057,"tishini":5058,"Ġ55":5059,"lashuvi":5060,"Ġmaktabgacha":5061,"yun":5062,"roy":5063,"Ġyurt":5064,"nalishida":5065,"Ġekspert":5066,"Ġapre":5067,"Ġetishicha":5068,"sand":5069,"Ġbirik":5070,"gen":5071,"Ġyoq":5072,"fikatsiya":5073,"ĠAngliya":5074,"lmagani":5075,"Ġkeladigan":5076,"Ġshimo":5077,"verpul":5078,"Ġkonsul":5079,"Ġruh":5080,"shunos":5081,"ĠMamlakat":5082,"chini":5083,"elen":5084,"Ġbatafsil":5085,"ĠSer":5086,"liklarni":5087,"Ġyozmoqda":5088,"Ġaytilishicha":5089,"Ġmalakali":5090,"Ġsinf":5091,"Ġahvoli":5092,"Rek":5093,"Ġqidiruv":5094,"Ġtiklash":5095,"Ġqas":5096,"ĠLondon":5097,"Ġaholini":5098,"Shi":5099,"ei":5100,"Ġtashabbusi":5101,"Ġyurtimiz":5102,"Ġyozib":5103,"Ġyaqinida":5104,"Ġot":5105,"spon":5106,"mul":5107,"Ġintervyusida":5108,"yul":5109,"Ġortidan":5110,"Ġnavbatda":5111,"tez":5112,"Ġdunyoga":5113,"rtinchi":5114,"dia":5115,"Ġxabardor":5116,"mila":5117,"Ġyop":5118,"Ġqanchalik":5119,"ĠSuper":5120,"Ġxizmatining":5121,"Ġulushi":5122,"XB":5123,"Ġbarava":5124,"qarli":5125,"ĠAbdura":5126,"Ġmutla":5127,"Ġpaytida":5128,"Ġarafa":5129,"Ġtarqalishi":5130,"Ġsp":5131,"Ġrol":5132,"fan":5133,"Ġsaro":5134,"Ġjoylashtirilgan":5135,"shahar":5136,"shidagi":5137,"aroq":5138,"Bugungi":5139,"Ġnuf":5140,"Ġvazifasi":5141,"rlandiya":5142,"Ġpoytaxti":5143,"Ġkadrlar":5144,"qot":5145,"ĠKXDR":5146,"hum":5147,"Ġstrategik":5148,"suski":5149,"Ġbiriga":5150,"Ġkuzatilgan":5151,"Ġqilinib":5152,"Ġsakki":5153,"Reklama":5154,"ĠRonal":5155,"Ġhuquqni":5156,"Ġuchrashuvda":5157,"Ġmarkazlari":5158,"Ġkal":5159,"ĠOl":5160,"Ġimkoniyatini":5161,"hol":5162,"Ġnaqd":5163,"Gol":5164,"Ġidoralari":5165,"ĠErdo":5166,"Ġfoizini":5167,"Ġkompaniyalar":5168,"nalishlari":5169,"Ġtakliflar":5170,".âĢĵ":5171,"Ġqilingani":5172,"Har":5173,"ĠDav":5174,"ĠInstagram":5175,"Ġqiling":5176,"Ġkasalliklar":5177,"ome":5178,"IM":5179,"tibo":5180,"ĠMer":5181,"bur":5182,"ripov":5183,"essiya":5184,"Ġetilmoqda":5185,"lang":5186,"Ġoro":5187,"Ġisi":5188,"ĠNATO":5189,"mativ":5190,"Ġmuqa":5191,"ksimal":5192,"Ġmaktabi":5193,"andis":5194,"ĠAleksandr":5195,"Ġtarkib":5196,"xe":5197,"Ġbosib":5198,"Qoraqalpog":5199,"RB":5200,"rinishda":5201,"Ġstadi":5202,"dova":5203,"Ġsifatini":5204,"Ġjad":5205,"Ġyakshanba":5206,"Birinchi":5207,"Ġanti":5208,"Ġuyida":5209,"DH":5210,"lumotiga":5211,"Ġsektor":5212,"gent":5213,"laricha":5214,"ĠBugungi":5215,"Ġmaqsadi":5216,"Ġmusulmon":5217,"Ġaybdor":5218,"sda":5219,"Ġnorozilik":5220,"uquq":5221,"Ġtera":5222,"sov":5223,"ĠSher":5224,"Ġtaom":5225,"Ġtartibini":5226,"Ġhollarda":5227,"Ġtat":5228,"uvlar":5229,"ĠSergey":5230,"Ġsolig":5231,"Ġharorati":5232,"Ġpozitsiya":5233,"Ġfoydalanib":5234,"Ġmurabbi":5235,"Ġmajli":5236,"up":5237,"Shavkat":5238,"Ġdarajasini":5239,"Ġ57":5240,"Ġmusiqa":5241,"shil":5242,"parvar":5243,"Ġimzolangan":5244,"Dast":5245,"Ġmamlakatga":5246,"Ġtarqat":5247,"TH":5248,"tgani":5249,"gist":5250,"ukus":5251,"Ġqaytarib":5252,"Ġavlod":5253,"mazon":5254,"Ġtaf":5255,"Ġqilishdi":5256,"Ġadolat":5257,"Ġtatbiq":5258,"ĠSin":5259,"Ġholatga":5260,"Ġprogno":5261,"Ġshakllan":5262,"Ġhisoblangan":5263,"sozlik":5264,"sep":5265,"Liverpul":5266,"Ġsoch":5267,"Ġ48":5268,"Ġetishni":5269,"Ġsharoitida":5270,"rsatdi":5271,"ĠRi":5272,"Ġjangari":5273,"Ġqiziqish":5274,"tsa":5275,"parat":5276,"ruvchi":5277,"Ġoldindan":5278,"Ġtasdiqlandi":5279,"tilib":5280,"Ġshanba":5281,"Biroq":5282,"Ġbyudj":5283,"Ġdeputatlari":5284,"Ġotasi":5285,"Ġrestora":5286,"ĠJu":5287,"texnika":5288,"kommunikatsiya":5289,"rmoqda":5290,"ĠQarshi":5291,"Ġmurabbiyi":5292,"bosh":5293,"Ġtaniqli":5294,"Ġblok":5295,"Ġprezidentining":5296,"Ġbinoan":5297,"Ġtabrik":5298,"Ġoshiradi":5299,"Ġqiymat":5300,"Ġgiyohvan":5301,"Ġmening":5302,"Ġqiyinchilik":5303,"tom":5304,"Ġborligini":5305,"Ikkinchi":5306,"sev":5307,"Ġsohada":5308,"mato":5309,"mada":5310,"Ġpuli":5311,"Ġmuassasalarida":5312,"chiga":5313,"Ġtub":5314,"Ġarafasida":5315,"Ġmashinasi":5316,"Ġkursi":5317,"bekov":5318,"tkazadi":5319,"Ġbyuro":5320,"York":5321,"atsiyasi":5322,"âĢĿ)":5323,"diyev":5324,"ĠUch":5325,"rilishini":5326,"ĠSam":5327,"Ġraqami":5328,"Ġhududidan":5329,"chirish":5330,"sad":5331,"Ġhamka":5332,"ĠOr":5333,"Ġsertifikat":5334,"Ġtuz":5335,"baho":5336,"ktura":5337,"Ġbordi":5338,"Ġsudga":5339,"Ġiqti":5340,"qizlar":5341,"Ġchorak":5342,"obod":5343,"lubiyat":5344,"mala":5345,"daqiqada":5346,"manitar":5347,"Tosh":5348,"yam":5349,"ĠTwitter":5350,"Ġkamaytirish":5351,"Ġharorat":5352,"ĠGu":5353,"Ġkiritildi":5354,"yov":5355,"Ġyoqil":5356,"Ġboshqalar":5357,"yxati":5358,"Ġqarindosh":5359,"Ġtakror":5360,"ĠMin":5361,"Ijtimoiy":5362,"lashda":5363,"Ġetilgani":5364,"Ġfirib":5365,"Ġahamiyatga":5366,"Ġqadr":5367,"tilmagan":5368,"istonda":5369,"yapman":5370,"Ġbaravar":5371,"Ġorzu":5372,"Ġshahriga":5373,"Ġnarsani":5374,"Do":5375,"Ġbozorida":5376,"neft":5377,"Ġsayohat":5378,"Ġvatan":5379,"Ġkuzatib":5380,"Ġbilish":5381,"Ġmonitori":5382,"Ġrafi":5383,"âĢĿ:":5384,"Ġraz":5385,"Shundan":5386,"elekt":5387,"Ġshifoxonaga":5388,"Ġiq":5389,"Ġviloyatidagi":5390,"Ġsaqlanib":5391,"Ġkengash":5392,"Ġvoyaga":5393,"derni":5394,"Ġdirektor":5395,"ĠXitoyning":5396,"shan":5397,"Ġtizimiga":5398,"luta":5399,"Ġshundaki":5400,"noq":5401,"res":5402,"Ġhokimiyati":5403,"ĠGul":5404,"Sud":5405,"ĠHi":5406,"Ġkla":5407,"Ġyakka":5408,"Ġmaydonida":5409,"Ġoyda":5410,"sharo":5411,"ydir":5412,"ĠMusta":5413,"Ġelchisi":5414,"Ġqamrab":5415,"ishiy":5416,"Ġxursand":5417,"Ġtov":5418,"ĠYana":5419,"Ġrivojlantirishga":5420,"Ġmahsulo":5421,"Yuv":5422,"Ġaslida":5423,"demik":5424,"ĠAxborot":5425,"kidlandi":5426,"elenskiy":5427,"Xususan":5428,"Ġdaraxt":5429,"ogle":5430,"Ġjoni":5431,"Ġhavola":5432,"Ġmunosabatlari":5433,"2016":5434,"atilib":5435,"Paxtakor":5436,"uliyat":5437,"Ġqilaman":5438,"ĠPokiston":5439,"Ġ44":5440,"Ġalla":5441,"Ġajratish":5442,"yili":5443,"elsi":5444,"uga":5445,"ĠXa":5446,"langanidan":5447,"chmas":5448,"Ġ39":5449,"Ġtortib":5450,"Ġarxi":5451,"Ġolimlar":5452,"ldirish":5453,"Ġyildagi":5454,"Ġqud":5455,"fil":5456,"Ġtashxi":5457,"ĠUzbekistan":5458,"Ġ77":5459,"bos":5460,"sotsi":5461,"Ġamalda":5462,"Ġmamlakatdagi":5463,"xsh":5464,"Ġyoqilg":5465,"maga":5466,"bogi":5467,"Ġqarat":5468,"lganda":5469,"Ġustiga":5470,"yog":5471,"Markaziy":5472,"nalishda":5473,"ĠTrampning":5474,"Ġoshirilmoqda":5475,"spondent":5476,"Ġxatti":5477,"qachon":5478,"Ġoshirgan":5479,"Ġolimpi":5480,"ĠIShID":5481,"urnal":5482,"tgach":5483,"ĠRespublikasida":5484,"Endi":5485,"Ġshuning":5486,"Ġ64":5487,"Ġtashlab":5488,"mun":5489,"Ġyuritish":5490,"Ġilg":5491,"uters":5492,"Ġqobili":5493,"Ġdeyish":5494,"qol":5495,"Ġbloger":5496,"qitish":5497,"Ġisbot":5498,"sto":5499,"ruq":5500,"cho":5501,"entus":5502,"QSH":5503,"linadi":5504,"vis":5505,"ragi":5506,"Ġayblov":5507,"Ġloyihalari":5508,"Ġ2013":5509,"Ġkorxonalari":5510,"Ġaeropor":5511,"Ġviloyatlar":5512,"Ġxoli":5513,"uro":5514,"Ġmavsumda":5515,"ksa":5516,"ĠRonaldu":5517,"ĠQa":5518,"laman":5519,"Ġplastik":5520,"Ġnafaqa":5521,"eneral":5522,"Ġyashirin":5523,"Ġegalari":5524,"mashyo":5525,"lanishga":5526,"Ġdoza":5527,"quvchilar":5528,"Ġertalab":5529,"Ġyotqizilgan":5530,"ĠMotor":5531,"nayted":5532,"vur":5533,"Ġyakuniy":5534,"Ġgul":5535,"Ġtariqasida":5536,"Ġekst":5537,"Ġyuv":5538,"dromet":5539,"ĠSenat":5540,"etti":5541,"ertlar":5542,"anaviy":5543,"Ġhov":5544,"Ġsifati":5545,"inoti":5546,"Unga":5547,"Ġaylanib":5548,"konstruksiya":5549,"Ġittifoq":5550,"Ġtanta":5551,"hunar":5552,"Ġliga":5553,"rasi":5554,"liklarning":5555,"bel":5556,"Ġ47":5557,"Ġetayotgan":5558,"eys":5559,"vali":5560,"Ġsarmoya":5561,"Ġaktiv":5562,"Ġvosi":5563,"larimizning":5564,"ĠAbdulla":5565,"ravon":5566,"Ġdavrda":5567,"ĠSiti":5568,"enta":5569,"rsatma":5570,"tkazilmoqda":5571,"Ġjavobgarlikka":5572,"Ġhuquqini":5573,"Ġtilida":5574,"Ġoyoq":5575,"Ġmahsulotlarni":5576,"Ġekran":5577,"kl":5578,"Ġvositasi":5579,"Ġfunksiya":5580,"bodon":5581,"Ġ43":5582,"Ġixtiyo":5583,"Xo":5584,"Ġinfeksiyasi":5585,"Ġjanjal":5586,"Ġtopshirildi":5587,"Ġmexanizm":5588,"gir":5589,"Yuventus":5590,"Ġallaqachon":5591,"Ġmaosh":5592,"ĠMana":5593,"vatsiya":5594,"Ġturni":5595,"Ġqaytib":5596,"Ġoyna":5597,"kali":5598,"bob":5599,"Fi":5600,"Ġminglab":5601,"Ġqilinayotgan":5602,"Ammo":5603,"Ġboshlanishi":5604,"Ġjoylarga":5605,"Ġkilogram":5606,"ĠYunuso":5607,"Ġjuma":5608,"uch":5609,"loniya":5610,"AS":5611,"Ġishtirokchilari":5612,"llion":5613,"sun":5614,"yinlari":5615,"Ġsamaradorligini":5616,"Ġinte":5617,"Ġfutbolchilar":5618,"ziyat":5619,"liklarini":5620,"Ġuzat":5621,"https":5622,"tomobil":5623,"ĠUy":5624,"duza":5625,"Ġtopildi":5626,"ens":5627,"Ġinvestitsiyalar":5628,"Ġyurish":5629,"Ġuyiga":5630,"ĠYH":5631,"entina":5632,"tigi":5633,"ĠIkki":5634,"Ġoilasi":5635,"Ġsanitariya":5636,"Ġdavla":5637,"Ġochish":5638,"Ab":5639,"Ġnomiga":5640,"bog":5641,"Ġdaryo":5642,"Ġqonunga":5643,"ĠBuni":5644,"Ġnafas":5645,"qima":5646,"oqea":5647,"Ġolmas":5648,"Ġyoshida":5649,"Ġmoderni":5650,"tkaziladigan":5651,"udlik":5652,"vokat":5653,"ĠIroq":5654,"Ġavvalo":5655,"orij":5656,"Ġvositalarini":5657,"Ġsovrin":5658,"Chelsi":5659,"Ġuchrashuvi":5660,"Ġfuqarolarga":5661,"Ġnomzo":5662,"murodov":5663,"xan":5664,"ĠAmir":5665,"muman":5666,"Ġtrillion":5667,"sishi":5668,"rog":5669,"ruziya":5670,"Ġjazosi":5671,"Ġokt":5672,"ily":5673,"Ġetuvchi":5674,"Ġasar":5675,"rigi":5676,"Ġerishgan":5677,"chilarni":5678,"Ġsavolga":5679,"bilar":5680,"ĠUkrainaga":5681,"chalar":5682,"ila":5683,"taj":5684,"Ġ85":5685,"Ġmillat":5686,"Ġzahar":5687,"rda":5688,"Ġmunosabatlar":5689,"Ġfiliali":5690,"Ġbosqichda":5691,"Ġboshlang":5692,"shishi":5693,"Ġnatijalariga":5694,"lashtirishga":5695,"Ġrejiss":5696,"ĠTay":5697,"Ġbitim":5698,"ote":5699,"Ġbari":5700,"Ye":5701,"arbdan":5702,"Ġbayra":5703,"Ġoz":5704,"Ġavtotransport":5705,"Ġben":5706,"tani":5707,"batlantirish":5708,"Ġ600":5709,"Ġhuquqlarini":5710,"Ġvazifalar":5711,"Ġhisobda":5712,"Ġtarif":5713,"miyati":5714,"ĠMis":5715,"ĠMirziyoyevning":5716,"alliy":5717,"Ġqisqartirish":5718,"Oliy":5719,"langanini":5720,"Ġhaydovchisi":5721,"Ġmijoz":5722,"Ġfevra":5723,"xob":5724,"ĠOTM":5725,"Ġxolos":5726,"Ġmuhandis":5727,"Ġrazved":5728,"Farg":5729,"Ġmajlis":5730,"eter":5731,"ĠNazar":5732,"Ish":5733,"Ġbildirib":5734,"Ġushlangan":5735,"ĠHay":5736,"Za":5737,"ĠAzi":5738,"Ġpasport":5739,"Ġtort":5740,"ĠĠĠĠĠĠĠĠĠĠĠĠĠĠĠĠ":5741,"ngra":5742,"Ġtadqiqotlar":5743,"Ġdegani":5744,"Ġekin":5745,"onalar":5746,"Ġovo":5747,"Ġiqtisodiyo":5748,"ĠOy":5749,"Ġsammi":5750,"ĠMDH":5751,"Ġishlashi":5752,"Ġegalladi":5753,"Ġchaqirdi":5754,"Ġjangovar":5755,"avfsizlik":5756,"Ġistalgan":5757,"Ġsonini":5758,"Ġtarkibiga":5759,"toq":5760,"zavot":5761,"Ġfesti":5762,"Ġqoidalarini":5763,"eral":5764,"ĠTan":5765,"Ġhaftada":5766,"Ġyechim":5767,"Jahon":5768,"?âĢĶ":5769,"kini":5770,"Ġsoxta":5771,"Ġsuvi":5772,"nar":5773,"ĠAlbatta":5774,"orda":5775,"ilishida":5776,"Ġsafida":5777,"Yu":5778,"UZ":5779,"lolat":5780,"Ġborilayotgan":5781,"Ġpora":5782,"Ġkva":5783,"Vazir":5784,"tses":5785,"Ġularda":5786,"Ġbizni":5787,"tion":5788,"Ġrekonstruksiya":5789,"Ġhiko":5790,"Ġqilinadigan":5791,"ĠAvstraliya":5792,"Ġdiplomatik":5793,"mang":5794,"Ġbergani":5795,"vetsiya":5796,"onasi":5797,"Ġsharoitlar":5798,"BC":5799,"Ġkay":5800,"mb":5801,"Ġtasdiqlash":5802,"Ġ196":5803,"Ġkuzatuv":5804,"rining":5805,"Ġuzi":5806,"doshi":5807,"muhi":5808,"Ġqoidalariga":5809,"Ġmadani":5810,"Ġziyorat":5811,"Ġsizga":5812,"kuror":5813,"Ġovqatlanish":5814,"ĠSp":5815,"chaga":5816,"Ġprofessor":5817,"tkir":5818,"Ġorganizm":5819,"Say":5820,"Ġcheklovlar":5821,"Ġdviga":5822,"Ġsayti":5823,"larimizga":5824,"Ġaq":5825,"ĠToshkentdagi":5826,"Ġkelishuvga":5827,"Ġsakkiz":5828,"At":5829,"Ġchoralarini":5830,"chin":5831,"Ġbelgilash":5832,"Ġniko":5833,"Ġ78":5834,"Ġevaku":5835,"Ġzimmasiga":5836,"ydigan":5837,"ĠKatta":5838,"Ġoxirigacha":5839,"Ġmodernizatsiya":5840,"ĠZelenskiy":5841,"ĠKanada":5842,"Ġtozalash":5843,"ĠFaqat":5844,"Ġharbiylar":5845,"ĠBola":5846,"jum":5847,"ĠAfrika":5848,"Ġmoddalar":5849,"Ġhududidagi":5850,"Ġyetishtirish":5851,"Ġsekun":5852,"Ġmahallasida":5853,"Ġjihozlangan":5854,"tkazishga":5855,"PS":5856,"Ġsiyosati":5857,"Ġyalpi":5858,"Ġoshkor":5859,"izmat":5860,"simlik":5861,"Ġatigi":5862,"bag":5863,"Ġmeros":5864,"shimchalar":5865,"Ġqaytarish":5866,"Ġqaytar":5867,"liklarga":5868,"arovon":5869,"savvur":5870,"mgacha":5871,"Ġixtisoslashtirilgan":5872,"ĠJamoat":5873,"Ġchipta":5874,"Dunyo":5875,"Ġvir":5876,"urizm":5877,"Ġemasligi":5878,"Ġvaluta":5879,"Ġmaslahatchisi":5880,"Jo":5881,"Ġap":5882,"Ġqarashli":5883,"novi":5884,"Ġkishining":5885,"Sha":5886,"Ġolayotgan":5887,"yoki":5888,"ĠMessi":5889,"co":5890,"kast":5891,"Ġpsi":5892,"Ġtushu":5893,"rtoq":5894,"atiga":5895,"Ġbuzish":5896,"Ġusu":5897,"rans":5898,"Ġrivoji":5899,"Ġfarmon":5900,"ilonzor":5901,"ĠPolsha":5902,"Ġdalolat":5903,"rtta":5904,"Ġuyushmasi":5905,"Ġjarayonini":5906,"lqin":5907,"zav":5908,"ĠMada":5909,"Ġkeltirgan":5910,"uzli":5911,"pen":5912,"Qirg":5913,"Ġuylar":5914,"Ġkollej":5915,"Ni":5916,"Ġ58":5917,"Ġquyosh":5918,"Ġjurnalistlar":5919,"kun":5920,"Ġkishida":5921,"rojaat":5922,"Ġyozilgan":5923,"Ġshoxob":5924,"nining":5925,"Ġtomonlar":5926,"ĠChen":5927,"ĠAlloh":5928,"39":5929,"iri":5930,"Mamlakat":5931,"Buyuk":5932,"Ġof":5933,"udud":5934,"Ġdelegatsiyasi":5935,"ektor":5936,"ĠYunayted":5937,"Ġ66":5938,"Ġtadbirda":5939,"Ġsekundiga":5940,"xtatib":5941,"Ġzudlik":5942,"Ġdushanba":5943,"Ġharaka":5944,"lamli":5945,"Ġsohasi":5946,"Ġbirining":5947,"Ġsuper":5948,"Ġodamlarni":5949,"Ġchempioni":5950,"ĠYTH":5951,"Ġyoshda":5952,"xia":5953,"Fo":5954,"luvchi":5955,"Ġmaishiy":5956,"Ġetiladigan":5957,"Ġprezidentlik":5958,"Ġilm":5959,"maklashish":5960,"Ġpara":5961,"Ġkanal":5962,"Ġiltimo":5963,"Ġetamiz":5964,"ĠQodirov":5965,"SST":5966,"gro":5967,"Ġyonida":5968,"TB":5969,"ĠMirzo":5970,"Ġfir":5971,"ON":5972,"stanbul":5973,"pon":5974,"ĠLoyiha":5975,"zgarishi":5976,"Ġqiyo":5977,"Ġolmadi":5978,"Ġturlari":5979,"texnik":5980,"Loyiha":5981,"xtiyor":5982,"ms":5983,"tning":5984,"Ġehtimoli":5985,"tibot":5986,"rilmagan":5987,"Ġprokurori":5988,"lami":5989,"ĠKiyev":5990,"Ġtuzish":5991,"Ġ54":5992,"izil":5993,"Ġqismiga":5994,"Ġkayfi":5995,"zgartirib":5996,"ans":5997,"Ġdastlab":5998,"Ġniho":5999,"Kon":6000,"Ġketgani":6001,"Ġtasdiqladi":6002,"qituvchilar":6003,"ĠJam":6004,"Ġting":6005,"ĠGro":6006,"Ah":6007,"Ġguvohnoma":6008,"drat":6009,"nator":6010,"idagi":6011,"Ġhakam":6012,"Ġostiga":6013,"ĠBr":6014,"Ġijaraga":6015,"qligini":6016,"Ġqaramasdan":6017,"kiliy":6018,"Ġsinga":6019,"Ġyasa":6020,"Ġoldingi":6021,"Ġaksiyadorlik":6022,"Ġurinish":6023,"Ġekologik":6024,"Ġsil":6025,"Ġodamlarning":6026,"ĠLigasi":6027,"ensa":6028,"ill":6029,"Ġoshirildi":6030,"Ġnarxlari":6031,"Ġvazirligiga":6032,"Ġimkoniyatlar":6033,"ed":6034,"Ġoshishi":6035,"Ġqilishgan":6036,"fof":6037,"Ġyoshga":6038,"Ġshikast":6039,"day":6040,"llanma":6041,"Ġhisoblash":6042,"ck":6043,"Ġmuhojir":6044,"Ġavtomobili":6045,"qtisodi":6046,"Ġbunda":6047,"ĠGar":6048,"Ġ67":6049,"ĠNiko":6050,"Ġbinosi":6051,"Vazirlar":6052,"tali":6053,"Ġbosqichma":6054,"Ġarmiya":6055,"qaruv":6056,"Ġtr":6057,"Ġnon":6058,"ĠYHXB":6059,"tinga":6060,"Ġbug":6061,"Ġdavriga":6062,"Ġtomoshabin":6063,"Ogoh":6064,"itse":6065,"Ġtexnologik":6066,"ĠArmaniston":6067,"Ġaksariyati":6068,"Ġqidi":6069,"Ġqoch":6070,"lax":6071,"Ġmazm":6072,"Ġkamroq":6073,"Ġevakuatsiya":6074,"Ġjuft":6075,"Ġobodon":6076,"Ġasoschisi":6077,"Ġochilgan":6078,"Ġtalon":6079,"bayev":6080,"Ġfarovon":6081,"Ġelchixona":6082,"Ġshtat":6083,"Ġ56":6084,"lishdi":6085,"ĠShay":6086,"Ġxomashyo":6087,"ĠMeduza":6088,"Ġtushuntirish":6089,"Ġbildirish":6090,"Ġqildik":6091,"mirlash":6092,"Ġtubdan":6093,"Ġqarzdor":6094,"Ġqiziqarli":6095,"Ġpunk":6096,"Xalqaro":6097,"shgan":6098,"Ġyakunida":6099,"Ġstar":6100,"Ġtezroq":6101,"Ġmajmuasi":6102,"Ġortda":6103,"Ġchiqishga":6104,"Ġball":6105,"biriga":6106,"ĠSt":6107,"Ġjoyga":6108,"Ġasoslanib":6109,"sharoit":6110,"Ġkafe":6111,"Ġyondash":6112,"Ġsoniya":6113,"ĠRajab":6114,"Ġassotsi":6115,"38":6116,"lasha":6117,"Ġmaksimal":6118,"ĠBoshqa":6119,"ĠDon":6120,"Ġemasligini":6121,"ĠYusu":6122,"Ġkonferensiya":6123,"Ġminnatdor":6124,"Ġjavoban":6125,"Ol":6126,"Ġetilayotgan":6127,"Ġgoli":6128,"Ġreytingi":6129,"Ġchiqil":6130,"Ġreyting":6131,"PX":6132,"ĠBraziliya":6133,"rinbosar":6134,"Ġtad":6135,"mizdan":6136,"Ġuchib":6137,"Ġakademiyasi":6138,"Ġalomat":6139,"Ġyozdi":6140,"Ġsohi":6141,"em":6142,"Ġmuxoli":6143,"Ġkvadrat":6144,"Yevropa":6145,"neftgaz":6146,"Milliy":6147,"Ġoluvchi":6148,"Ġaksariyat":6149,"Ġmajlisida":6150,"Ġanjumanida":6151,"urib":6152,"RBK":6153,"Ġemlash":6154,"Ġpandemiyasi":6155,"Ġâ":6156,"roli":6157,"toni":6158,"UN":6159,"Ġkas":6160,"ĠXitoyda":6161,"Ġnodavlat":6162,"Ġolganda":6163,"Ġlavozimidan":6164,"Ġqilmagan":6165,"arij":6166,"Ġmilliondan":6167,"manda":6168,"Ġreal":6169,"paytirish":6170,"Ġdaf":6171,"ususiy":6172,"Ġ(Â«":6173,"demiologik":6174,"Ġbuzgan":6175,"ĠSud":6176,"Ġoyining":6177,"Ġnufuzli":6178,"Ġ2012":6179,"ĠXi":6180,"Ġkompaniyaning":6181,"bop":6182,"Ġmulo":6183,"Ġrahbarlik":6184,"tiya":6185,"ĠAvvalroq":6186,"Ġkengashining":6187,"Ġettirish":6188,"Ġtizimli":6189,"Ġijodiy":6190,"Ġishbilar":6191,"Germaniya":6192,"les":6193,"Ġmuallifi":6194,"Far":6195,"Ġquruq":6196,"Ġsingari":6197,"iya":6198,"qtisodiyot":6199,"ĠUz":6200,"ĠTosh":6201,"Ġoshirib":6202,"eksi":6203,"Ġochib":6204,"âĢĭ":6205,"Ġhududlar":6206,"Ġchiqiladi":6207,"Ġoyidan":6208,"ruza":6209,"chada":6210,"Ġop":6211,"chirib":6212,"Ġtopi":6213,"Ġsentyabr":6214,"Ġmutlaqo":6215,"Namangan":6216,"Ġrejalashtirmoqda":6217,"Futbol":6218,"atto":6219,"ĠBugun":6220,"ulton":6221,"Ġmaydonda":6222,"âĢĿ),":6223,"ĠReuters":6224,"zara":6225,"Ġyoshdan":6226,"Ġhamon":6227,"nta":6228,"Ġyuqoridagi":6229,"Ġ800":6230,"Ġtayan":6231,"Ġsodda":6232,"ayyan":6233,"linch":6234,"je":6235,"Ġqayerda":6236,"Ġtashvi":6237,"Ġbelgilanadi":6238,"Ġmuassasasi":6239,"Ġkelajakda":6240,"FC":6241,"Ġsamolyoti":6242,"qulov":6243,"ln":6244,"2015":6245,"olitsiya":6246,"trakt":6247,"lashishi":6248,"Ġinqiroz":6249,"kal":6250,"Ġxodimlariga":6251,"ĠFavqulodda":6252,"xtatish":6253,"Ġzid":6254,"ĠKri":6255,"ydin":6256,"Ġprokuror":6257,"Ġquvur":6258,"Ġaloqalarni":6259,"boyjon":6260,"Ġquyidagicha":6261,"Ġkonsert":6262,"Ġurgan":6263,"Ġ86":6264,"mali":6265,"Ġkesib":6266,"ĠAnd":6267,"Ġqilishini":6268,"Ġmanzi":6269,"Ġshoshi":6270,"Ġpichoq":6271,"31":6272,"ĠBen":6273,"Ġzavod":6274,"kalar":6275,"Ġdarajaga":6276,"Ġbuyurgan":6277,"Ġqochib":6278,"qotish":6279,"marqandda":6280,"Ġkishilar":6281,"rganch":6282,"Ġhujumchisi":6283,"royli":6284,"Ġqimmatbaho":6285,"ĠNar":6286,"Korre":6287,"AQShning":6288,"erlar":6289,"gratsiya":6290,"Ġmush":6291,"Ġzavodi":6292,"mdagi":6293,"Ġkvar":6294,"lasiz":6295,"Ġmuvofiqlashtirish":6296,"Ġbuzilishi":6297,"Ġ42":6298,"ngir":6299,"munal":6300,"enesu":6301,"lumotga":6302,"Ġfaxriy":6303,"Ġholatni":6304,"ĠAhmad":6305,"Ġoktyabr":6306,"shilgan":6307,"lashtiradi":6308,"lashtirgan":6309,"Ġissiqlik":6310,"ĠUlardan":6311,"lmaydigan":6312,"Ġkasalxonaga":6313,"Ġdarhol":6314,"Ġkimga":6315,"Ogohlantirish":6316,"ras":6317,"nalishini":6318,"sosiy":6319,"Ġson":6320,"Ġ49":6321,"Ġkerakligi":6322,"Ġqotil":6323,"Ġsazo":6324,"Ġ120":6325,"Ġtarqaldi":6326,"Ġquyidagilar":6327,"33":6328,"ĠNukus":6329,"Ġtadbirlari":6330,"minoti":6331,"Ġ2011":6332,"Ġyoshi":6333,"Ġtaga":6334,"ĠGe":6335,"din":6336,"Ġtushirilgan":6337,"Ġhikoya":6338,"dina":6339,"Ġjoizki":6340,"Ġavtomat":6341,"Avval":6342,"smir":6343,"Ġkirdi":6344,"ĠKonstitutsiya":6345,"viz":6346,"Ġyorqin":6347,"Ġvitse":6348,"Ġyashagan":6349,"diri":6350,"Ġdevor":6351,"Ġkeksa":6352,"Ve":6353,"Ġetilib":6354,"Ġyuvish":6355,"ĠBarcha":6356,"och":6357,"Ġmagist":6358,"Ġdemokratik":6359,"ĠPor":6360,"kori":6361,"Ġshaffof":6362,"Ġshaxsan":6363,"him":6364,"jia":6365,"lansa":6366,"etasi":6367,"Ġpost":6368,"Ġkoronavirusdan":6369,"pak":6370,"Ġekstre":6371,"ĠVal":6372,"199":6373,"ahongir":6374,"rohlik":6375,"doy":6376,"ĠPi":6377,"Ġ76":6378,"yn":6379,"Ġhisobla":6380,"Ġvaziyatda":6381,"Ġtezligi":6382,"ĠCha":6383,"ĠĠĠ":6384,"llagan":6385,"Ġoldiga":6386,"ĠYunusobod":6387,"ddam":6388,"zbon":6389,"Ġnafarni":6390,"Ġtushuni":6391,"Ġijrosi":6392,"ĠBAA":6393,"Ġuchuvchi":6394,"Ġtashkiliy":6395,"ishlab":6396,"Ġturk":6397,"Ġsazovor":6398,"foda":6399,"ĠInve":6400,"gog":6401,"Ġ2000":6402,"niye":6403,"Ġyuksak":6404,"Ġqahramon":6405,"Ġuyga":6406,"dli":6407,"Ġishtirokidagi":6408,"kada":6409,"losi":6410,"Ġ68":6411,"xonada":6412,"ĠSherzod":6413,"Ġishlaydigan":6414,"Ġqilinmagan":6415,"Ġyubordi":6416,"Ġmis":6417,"Ġgazetasi":6418,"Ġtransfer":6419,"ll":6420,"Yig":6421,"ĠAQSH":6422,"Ġ74":6423,"Ġpenal":6424,"epi":6425,"rinishi":6426,"Ġyaqinda":6427,"tartibot":6428,"ubay":6429,"Ġ71":6430,"Ġhajmini":6431,"Ġnarxlar":6432,"xonalar":6433,"Ġbeshta":6434,"Ġqandaydir":6435,"enesuela":6436,"hom":6437,"Ġ250":6438,"Ġafzal":6439,"zlarining":6440,"Ġsahna":6441,"Ġuyushma":6442,"Ġsinovdan":6443,"ĠVo":6444,"eterburg":6445,"Ġterrorchilik":6446,"Ġostidagi":6447,"laxy":6448,"Ġtopib":6449,"raman":6450,"Ġketma":6451,".,":6452,"Ġnikoh":6453,"Ġmarkazining":6454,"Korrespondent":6455,"Ġbitiruvchi":6456,"ĠTimes":6457,"Ġrafiqasi":6458,"ĠNexia":6459,"Bavariya":6460,"Ġboriladi":6461,"inch":6462,"Ġveb":6463,"kala":6464,"rayev":6465,"ullayev":6466,"rsatmoqda":6467,"Ġterakt":6468,"Ġoshirishda":6469,";-":6470,"Ġnamoyon":6471,"Ġoso":6472,"rip":6473,"Ġbosim":6474,"stona":6475,"Ġkelingan":6476,"Ġseshanba":6477,"Ġchorva":6478,"Ġruxsatnoma":6479,"lavha":6480,"Ġniyatida":6481,"park":6482,"Ġkapital":6483,"Jumladan":6484,"Ġsavdosi":6485,"Ġqatnashgan":6486,"rnida":6487,"Ġagentlik":6488,"ĠčĊ":6489,"Ġbizda":6490,"midan":6491,"ĠPer":6492,"Ġqadri":6493,"Ġkito":6494,"maslikka":6495,"Ġelchixonasi":6496,"gal":6497,"Ġshartnomasi":6498,"Ġ59":6499,"imli":6500,"Ġmanfaatlarini":6501,"70":6502,"Ġchiqargan":6503,"yoz":6504,"Ġsotuvga":6505,"Ġbayonotida":6506,"surat":6507,"Ġtahriri":6508,"sinf":6509,"Ġbahra":6510,"Ġkerakki":6511,"ĠMil":6512,"Ġimzolandi":6513,"ĠGoogle":6514,"Ġbajaruvchi":6515,"nam":6516,"Ġifoda":6517,"kamma":6518,"irchiq":6519,"ell":6520,"Yana":6521,"Ġoralig":6522,"Ġaylanadi":6523,"Ġtahsil":6524,"toshqin":6525,"ĠShuhrat":6526,"Ġtortish":6527,"Ġhuquqiga":6528,"Ġtahli":6529,"Ġnormativ":6530,"Ġdengi":6531,"dorlari":6532,"lit":6533,"Ġvoqealar":6534,"Ġoldidan":6535,"Ġmarhum":6536,"Ġzil":6537,"Ġtafsi":6538,"drid":6539,"Ġkelaja":6540,"aroy":6541,"tellekt":6542,"ĠFuqaro":6543,"Ġdarajasida":6544,"Ġtushirish":6545,"Ġloyihalarini":6546,"qulay":6547,"yora":6548,"ĠYoshlar":6549,"Ġdisp":6550,"Ġdon":6551,"Ġkuzatish":6552,"Ġmanfaatdor":6553,"Ġishlariga":6554,"char":6555,"Ġ700":6556,"Ġharakatlanish":6557,"Ġkuzatildi":6558,"niki":6559,"Ġhomila":6560,"Ġyashab":6561,"Ġaytilmoqda":6562,"toshqindaryo":6563,"Ġmuomala":6564,"Ġkechik":6565,"Ġqizil":6566,"ganiga":6567,"ĠQay":6568,"Ġmaqsadga":6569,"tadqiqot":6570,"ahor":6571,"Ġakademiya":6572,"Ġpoyezd":6573,"nlab":6574,"Ġefir":6575,"Ġdaromadi":6576,"zbekneftgaz":6577,"ideo":6578,"soat":6579,"Ġqarorni":6580,"hod":6581,"Ġorganlarining":6582,"kani":6583,"hem":6584,"jam":6585,"Ġkelgusida":6586,"ej":6587,"Ġakademik":6588,"laziz":6589,"Ġbolalarni":6590,"Ġkonser":6591,"Ġkirishi":6592,"32":6593,"Ġbunyod":6594,"ĠRu":6595,"Bunday":6596,"lishingiz":6597,"kammal":6598,"Ġetishda":6599,"Ġboradagi":6600,"IS":6601,"Kning":6602,"Co":6603,"ual":6604,"Ġyod":6605,"Ġidorasi":6606,"Ġqilsa":6607,"Qaror":6608,"Ġrivojlanishi":6609,"Ġimtiyozli":6610,"zlab":6611,"Ġ72":6612,"Ġviloyatda":6613,"Ġyuqumli":6614,"Ġpullarni":6615,"Ġchorshanba":6616,"sadi":6617,"Ġmarkaziga":6618,"Ġtashlash":6619,"ensatsiya":6620,"55":6621,"Ġegalik":6622,"eyn":6623,"loom":6624,"Ġbergandi":6625,"Ġpol":6626,"nomani":6627,"smik":6628,"ĠSamsung":6629,"zer":6630,"qaloq":6631,"Ġfut":6632,"Ġshaxsga":6633,"Ġjoyidan":6634,"Ġrasmiylashtirish":6635,"Viloyat":6636,"Ġyonib":6637,"Ġmazmun":6638,"Ġauksion":6639,"Ġkutub":6640,"Ġmasalasini":6641,"lsin":6642,"Meh":6643,"Ġtarji":6644,"Ġhokimlik":6645,"Ġfoizgacha":6646,"Ġinspeksiyasi":6647,"Ġfarzandlari":6648,"loomberg":6649,"Ġyerdan":6650,"ovning":6651,"Ġkambag":6652,"ĠMav":6653,"Ġolinishi":6654,"Ġnoqulay":6655,"limlar":6656,"maymiz":6657,"ĠGroup":6658,"raf":6659,"Ġayta":6660,"Ġbax":6661,"rand":6662,"Ġyukla":6663,"Ġaytgandi":6664,"uliston":6665,"Ġerishdi":6666,"ĠSharqiy":6667,"chinchi":6668,"Ġtovarlar":6669,"Ġuchragan":6670,"Ġgvar":6671,"Ġkechki":6672,"Ġaskar":6673,"IB":6674,"rinib":6675,"Ġqoidabuzar":6676,"Ġtizimlari":6677,"yxatiga":6678,"Ġtrln":6679,"Ġtopil":6680,"Yaponiya":6681,"Ġtasavvur":6682,"qay":6683,"Ġuchrashuvlar":6684,"Ġrejalashtirilmoqda":6685,"Ġketib":6686,"lla":6687,"Hi":6688,"smon":6689,"zak":6690,"shinlari":6691,"Ġfuqarolarni":6692,"Ġkelgusi":6693,"ĠChilonzor":6694,"ĠNews":6695,"tara":6696,"lament":6697,"yuy":6698,"ĠJamoatchilik":6699,"ĠShunga":6700,"Ġqarshilik":6701,"han":6702,"Ġnomidan":6703,"Ġoyiga":6704,"limga":6705,"irof":6706,"Pro":6707,"Ġbuyuk":6708,"Ġchang":6709,"Ġvita":6710,"mining":6711,"bayjon":6712,"Ġvakolatli":6713,"moqchiman":6714,"Ġchiroyli":6715,"xtab":6716,"kashenko":6717,"Ġrazvedka":6718,"rishini":6719,"Ġpog":6720,"ĠGol":6721,"Ġxizmatiga":6722,"Ġinvestor":6723,"ksiz":6724,"Ġislom":6725,"AN":6726,"Ġtuzilma":6727,"Ġkampaniya":6728,"Ġmasalan":6729,"chli":6730,"Ġkommunal":6731,"yishiga":6732,"Ġmonitoring":6733,"Ġoydin":6734,"Ġoydan":6735,"Ġaudi":6736,"ngizda":6737,"doni":6738,"Ġradio":6739,"mlagan":6740,"Ġayo":6741,"instagram":6742,"istonning":6743,"Ġtopshirilgan":6744,"Ġiqtisodiyoti":6745,"Ġhamja":6746,"Ġquti":6747,"Ġovozli":6748,"Ġyopiq":6749,"Ġbirorta":6750,"Ġehtimol":6751,"Ġloyihani":6752,"giga":6753,"Ġbuzib":6754,"Ġberishini":6755,"ĠAna":6756,"Po":6757,"Ġishlovchi":6758,"Ġyoshgacha":6759,"oroj":6760,"inot":6761,"Ġatrofidagi":6762,"Ġmalakasini":6763,"Ġqutqa":6764,"Ġtanishish":6765,"Ġmuayyan":6766,"Ġxizmatlarini":6767,"Ġvazifalarni":6768,"onat":6769,"qos":6770,"Ġorol":6771,"allu":6772,"inlaydi":6773,"Koronavirus":6774,"Ġmiqdordagi":6775,"Ġpat":6776,"lamchi":6777,"gapur":6778,"Ġtaqsim":6779,"Ġzilzila":6780,"hor":6781,"Ġlibos":6782,"ĠAziz":6783,"Ġ63":6784,"Ġafg":6785,"ĠDmit":6786,"zildi":6787,"iderlandiya":6788,"slar":6789,"Ġtir":6790,"Ġqurib":6791,"Ġaytganda":6792,"ĠHukumat":6793,"Ġrestoran":6794,"Ġbuyu":6795,"Ġrejasi":6796,"shinchi":6797,"Ġtanlash":6798,"Ġsudya":6799,"Fuqaro":6800,"Ġadabiyot":6801,"ĠOlimpiada":6802,"Ġbrifi":6803,"natsiya":6804,":âĢľ":6805,"Ġshun":6806,"Ġchiqaradi":6807,"Kompaniya":6808,"mitasining":6809,"xud":6810,"vaning":6811,"striya":6812,"rar":6813,"Ġmiqdoridagi":6814,"qorat":6815,"doq":6816,"Ġchiqarishga":6817,"qimachilik":6818,"soy":6819,"Ġ69":6820,"Ġminimal":6821,"Ġinspektori":6822,"chasiga":6823,"Ġfilial":6824,"ugaliya":6825,"ĠDev":6826,"Ġtafsilot":6827,"Ġortib":6828,"Ġprotses":6829,"Ġinso":6830,"radan":6831,"yatiga":6832,"Ġmaqsadli":6833,"Ġux":6834,"ĠNav":6835,"Nor":6836,"kr":6837,"nis":6838,"Ġopa":6839,"Siz":6840,"Ġdasturini":6841,"Ġsanoati":6842,"Ġidi":6843,"Ġtushish":6844,"Ġerishilgan":6845,"unyodkor":6846,"Yuqori":6847,"Ġtutadi":6848,"Ġram":6849,"Ġkorpo":6850,"Ġtopshirgan":6851,"Ġyetarlicha":6852,"Ġtelefo":6853,"Ġtarqatish":6854,"ani":6855,"Ġoxiriga":6856,"Ġjabrlanuvchi":6857,"Ġkishidan":6858,"Ġmehmonlar":6859,"ĠAbdullayev":6860,"Ġangla":6861,"Ogohlantirishlar":6862,"Ġdala":6863,"Ġmashq":6864,"Ġradi":6865,"Ġmiya":6866,"Ġaniqlanib":6867,"Ġquyi":6868,"Ġmukammal":6869,"Ġmuassasalariga":6870,"ĠBol":6871,"Ġajratib":6872,"Ġnoyob":6873,"ĠUchrashuv":6874,"Ġotish":6875,"Si":6876,"sl":6877,"Ġjanu":6878,"ĠYong":6879,"Ġ84":6880,"pincha":6881,"jahon":6882,"minar":6883,"Ġeshik":6884,"tishiga":6885,"Ġshaklda":6886,"tarilgan":6887,"ĠDu":6888,"Ġraisining":6889,"Ġaralash":6890,"Sog":6891,"Ġsekin":6892,"Ġaxbor":6893,"Ġkarto":6894,"Ġbahramand":6895,"Ġ41":6896,"Ġvazifalari":6897,"uto":6898,"Ġ2010":6899,"Ġhalokat":6900,"vud":6901,"Ġtilini":6902,"foga":6903,"Ġkonstitutsiya":6904,"Ġkutilmagan":6905,"Ġaxboro":6906,"Ġmuzey":6907,"Ġixtisoslashgan":6908,"Ġ1000":6909,"San":6910,"ĠJor":6911,"Ġhududlari":6912,"if":6913,"vit":6914,"rolli":6915,"naltirilgan":6916,"Kom":6917,"yla":6918,"Ġchiqariladi":6919,"faks":6920,"Ġmasalasida":6921,"Ġfoydalanuvchilar":6922,"ĠDar":6923,"Tra":6924,"yilga":6925,"Ġsohalarda":6926,"ĠQishloq":6927,"qnashuv":6928,"Ġerishi":6929,"zit":6930,"Ġjamoalari":6931,"Ġumr":6932,"ktiv":6933,"Ġiqlim":6934,"ĠGruziya":6935,"ĠAynan":6936,"ĠBal":6937,"ĠIstanbul":6938,"Ġdavlatlarda":6939,"ĠToshkentga":6940,"Ġapp":6941,"Ġvakillarining":6942,"rom":6943,"ĠHozirgi":6944,"Ġsui":6945,"ĠYPX":6946,"Ġsheriklik":6947,"Ġbosqichida":6948,"Ġqilmaydi":6949,"Ġbandi":6950,"Ġtabiat":6951,"KA":6952,"ĠGalaxy":6953,"Ġsalohiyatini":6954,"Ham":6955,"Ġmamlakatimizda":6956,"sant":6957,"Ġmunosabatda":6958,"Ġlarda":6959,"Ġpayshanba":6960,"dorlar":6961,"Ġmaskan":6962,"Ġendilikda":6963,"Ġiyu":6964,"kib":6965,");":6966,"lsangiz":6967,"Ġiloji":6968,"Ġchempionati":6969,"Ġobodonlashtirish":6970,"Ġur":6971,"qaldi":6972,"Ġasossiz":6973,"qibatda":6974,"ĠMaktab":6975,"Ġarti":6976,"Ġvaziyatga":6977,"kologiya":6978,"Ġberiladigan":6979,"Ġholatini":6980,"Ġhodisasi":6981,"ylayman":6982,"ergeli":6983,"Nav":6984,"Ġfoydalanishni":6985,"matsev":6986,"ĠFran":6987,"Ġinspektor":6988,"Ġtom":6989,"Ġnatijasi":6990,"ĠQurbon":6991,"Ġshov":6992,"ĠAd":6993,"ĠParij":6994,"Ġquvvati":6995,"komo":6996,"Ġolinib":6997,"ĠGre":6998,"Ġarmiyasi":6999,"mimiy":7000,"Ġprin":7001,"Ġtra":7002,"Ġyoni":7003,"Ġqoldirgan":7004,"Akt":7005,"Bel":7006,"ĠGi":7007,"Ġboshlash":7008,"ĠShvey":7009,"Ġpochta":7010,"Ġjam":7011,"Nashr":7012,"Ġhujjatlarini":7013,"Ġolingani":7014,"ĠOba":7015,"Fransiya":7016,"shayotgan":7017,"Ġadvokat":7018,"ĠRas":7019,"Ġmuqaddam":7020,"Ġedim":7021,"del":7022,"Ġmunosabatlarni":7023,"Ġsoti":7024,"Ġchiqara":7025,"Ġdavlatga":7026,"Ġserial":7027,"Ġshoshilinch":7028,"zayev":7029,"Ġmayda":7030,"Ġprezidentning":7031,"ĠRustam":7032,"lashtiriladi":7033,".-":7034,"Ġkechgan":7035,"Ġtaqiqlangan":7036,"Atle":7037,"Ġsel":7038,"ĠTemur":7039,"36":7040,"Ġhayotini":7041,"Qonun":7042,"Ġrespublikaning":7043,"ĠKomilov":7044,"Ġyuqorida":7045,"Ġdasturlari":7046,"videniye":7047,"muriyati":7048,"qinlik":7049,"Ġkada":7050,"Ġekspertlar":7051,"biiy":7052,"Ġyakunlari":7053,"Ġdoirasidagi":7054,"zgu":7055,"Ġijrosini":7056,"Ġmasalalarni":7057,"Ġhaqorat":7058,"Ġhimoyachisi":7059,"Ġochilishi":7060,"Ġurug":7061,"Rossiyaning":7062,"Ġyetkazgan":7063,"ĠAsh":7064,"Ġtopdi":7065,"Ġmurojaatlar":7066,"ĠOdam":7067,"Ġahvolda":7068,"onistonda":7069,"ĠSuperliga":7070,"ĠAbdulaziz":7071,"qini":7072,"rinadi":7073,"lip":7074,"Ġbema":7075,"Ġlitr":7076,"Ġmuolaja":7077,"Ġsavollarga":7078,"sob":7079,"ĠUndan":7080,"ĠKeyinchalik":7081,"Ġbenzin":7082,"Gollar":7083,"ĠMuro":7084,"chilikka":7085,"El":7086,"qida":7087,"Ġqatnov":7088,"matika":7089,"Hozirgi":7090,"dagilar":7091,"ĠLG":7092,"Ġmezbon":7093,"Ġ79":7094,"zlashtirish":7095,"ĠJy":7096,"Ġnazora":7097,"Ġumumta":7098,"Afg":7099,"usi":7100,"ĠPort":7101,"ĠVe":7102,"kredi":7103,"Ġkimyoviy":7104,"ĠĊ":7105,"Ġkungacha":7106,"kovnik":7107,"rafik":7108,"Ġmeda":7109,"Ġmax":7110,"ĠXon":7111,"ĠXavfsizlik":7112,"lmayapti":7113,"missiya":7114,"Ġterrori":7115,"ĠDmitriy":7116,"Ġyoxud":7117,"rsatkichi":7118,"Ġhomiy":7119,"aydi":7120,"Ġfina":7121,"Ġagentligining":7122,"As":7123,"porta":7124,"uber":7125,"spi":7126,"Tube":7127,"Ġimkoniyatiga":7128,"ĠJahongir":7129,"Eron":7130,"Ular":7131,"Ġaylanishi":7132,"Ġsavollar":7133,"Interfaks":7134,"Ġurushi":7135,"Ġtasvirlangan":7136,"ĠMustaqil":7137,"taga":7138,"Ġprovin":7139,"uTube":7140,"Ġliniya":7141,"jar":7142,"Ġ52":7143,"Ġmamlakatlarda":7144,"larsiz":7145,"lastin":7146,"Ġshakar":7147,"bert":7148,"ulla":7149,"Ġchalinganlar":7150,"Ġkorrupsiyaga":7151,"Ġkvartira":7152,"Ġvay":7153,"rinlari":7154,"Ġmasjid":7155,"ore":7156,"arak":7157,"ĠShvetsiya":7158,"Ġdavlatning":7159,"esla":7160,"Ġchoy":7161,"Ġqoidalari":7162,"Ġfinali":7163,"Peterburg":7164,"Ġpod":7165,"Ġkompensatsiya":7166,"Ġyaxshiroq":7167,"Ġvertol":7168,"Ġturistik":7169,"34":7170,"rafiya":7171,"gol":7172,"shat":7173,"Ġtalablari":7174,"Ġuslubi":7175,"Ġjin":7176,"Ġmavjudligi":7177,"rlik":7178,"Ġgeneral":7179,"Ġmamlakatni":7180,"Janubiy":7181,"Ġmisol":7182,")_":7183,"Ġqarash":7184,"rsatuvchi":7185,"xen":7186,"Ġbuyurdi":7187,"Ġyashaydi":7188,"Tan":7189,"Ġ62":7190,"ĠAQShga":7191,"qaldiroq":7192,"Ġsotilgan":7193,"zingiz":7194,"ĠBaho":7195,"Ġfederal":7196,"komotiv":7197,"Ġqiyna":7198,"ĠUsmon":7199,"Unda":7200,"ĠUm":7201,"Ġ88":7202,"veradi":7203,"Ġpulni":7204,"Ġteleviz":7205,"ĠQayd":7206,"ĠNiz":7207,"Ġrivojlangan":7208,"yishta":7209,"zgartish":7210,"ger":7211,"Ġmuqo":7212,"ĠTermiz":7213,"Ġsen":7214,"Ġsanaladi":7215,"Ġombor":7216,"shoq":7217,"Ġbilib":7218,"Ġyuqtirib":7219,"Ġxarajatlar":7220,"Ġikkala":7221,"Ġxitoy":7222,"Ikki":7223,"Ġrolini":7224,"elli":7225,"Ġfran":7226,"Ġboshqacha":7227,"ser":7228,"Bor":7229,"Ġmarka":7230,"ĠLukashenko":7231,"ÂŃ":7232,"Ġshtati":7233,"Ġqildim":7234,"Ġfotosurat":7235,"Ġtepa":7236,"qiz":7237,"Ġavtomatik":7238,"maqaldiroq":7239,"Ġsafa":7240,"utnik":7241,"ĠBah":7242,"ĠSamarqandda":7243,"senal":7244,"sqinlik":7245,"Ġkiritib":7246,"Ġnomini":7247,"Ġviloyatiga":7248,"rq":7249,"bora":7250,"Ġbayrami":7251,"ldirilgan":7252,"sena":7253,"Ġsarat":7254,"ksp":7255,"Ġturishi":7256,"Ġtizimidagi":7257,"xay":7258,"Sho":7259,"luksiz":7260,"Ġsamimiy":7261,"ĠFan":7262,"Ġmukofoti":7263,"Ġxarajatlari":7264,"masini":7265,"ĠQurolli":7266,"ĠSavdo":7267,"Ġqirol":7268,"jini":7269,"Ġodat":7270,"Ġdush":7271,"Ġbaribir":7272,"Ġappara":7273,"Ġnomlangan":7274,"yar":7275,"Ġopera":7276,"Ġqilishdan":7277,"ĠQolaversa":7278,"Ġyetishmov":7279,"murod":7280,"Shar":7281,"mn":7282,"kte":7283,"arru":7284,"yinlar":7285,"Ġchaqirgan":7286,"Ġklinika":7287,"midagi":7288,"ĠPan":7289,"Ġuslub":7290,"xtalib":7291,"Ġshaklida":7292,"nora":7293,"ergo":7294,"Ġyadroviy":7295,"Ġogohlantirish":7296,"Ġishbilarmon":7297,"ullanuvchi":7298,"quvchilari":7299,"yektlari":7300,"latish":7301,"Ġhisoblaydi":7302,"Moskva":7303,"ĠHatto":7304,"ĠChirchiq":7305,"tual":7306,"Ġyetadi":7307,"Ġparva":7308,"Ġdalillar":7309,"Ġishlashga":7310,"Ġgram":7311,"Ġyerdagi":7312,"Ġmetall":7313,"ĠRossiyadan":7314,"Ġqano":7315,"arri":7316,"Ġshtam":7317,"sub":7318,"ĠViloyat":7319,"limda":7320,"Ġtexnologiyalarni":7321,"shev":7322,"rsatkichlari":7323,"aniy":7324,"qishi":7325,"Ġoshirdi":7326,"jiz":7327,"Ġasbob":7328,"Ġetadigan":7329,"Ġmehnatga":7330,"sen":7331,"lashdan":7332,"lumotni":7333,"ĠPekin":7334,"Ġyanva":7335,"losipe":7336,"mlari":7337,"lganidan":7338,"Ġlavozimini":7339,"Ġshahridan":7340,"Ġaholisining":7341,"Ġistagan":7342,"Ġashyoviy":7343,"XR":7344,"ĠRav":7345,"toshka":7346,"ĠSk":7347,"ungacha":7348,"mondon":7349,"Ġodamlarga":7350,"Ġkungi":7351,"ĠToy":7352,"ĠOzarboyjon":7353,"Ġbermaydi":7354,"Ġyotoq":7355,"pora":7356,"lumotlari":7357,"Ġqatorda":7358,"lova":7359,"Ġfiribgarlik":7360,"Ġobla":7361,"Ġmakt":7362,"lashtir":7363,"Ġbermagan":7364,"ĠSal":7365,"Ġyangiliklardan":7366,"Ġsabablari":7367,"qarshi":7368,"ĠMon":7369,"Ġchaqaloq":7370,"zaviy":7371,"Tele":7372,"Ġtergovga":7373,"Ġdollarini":7374,"Ġseriya":7375,"Ġadliya":7376,"Ġholatlarda":7377,"ĠIbro":7378,"Ġrubl":7379,"opoliya":7380,"Ġkont":7381,"Ġkunning":7382,"Ġavariya":7383,"inlangan":7384,"borak":7385,"vozab":7386,"Ġtantanali":7387,"ĠBek":7388,"Ġyaratib":7389,"Ġdeklar":7390,"ĠFV":7391,"Ġobro":7392,"Facebook":7393,"bola":7394,"done":7395,"Ġamaliyo":7396,"xu":7397,"Ġayi":7398,"Ġqisman":7399,"Ġsalomatligi":7400,"tiko":7401,"Ġfakul":7402,"Ġtasarru":7403,"Ġqadriyat":7404,"Ġdarajasiga":7405,"Ġhamkasb":7406,"ĠQon":7407,"Ġax":7408,"Ġturmu":7409,"kalav":7410,"Ġchiqardi":7411,"dasi":7412,"Ġ95":7413,"Ġoshxona":7414,"Ġc":7415,"Arsenal":7416,"Ġ61":7417,"diiy":7418,"Ġmomaqaldiroq":7419,"maning":7420,"ngga":7421,"Ġqozo":7422,"format":7423,"Ġqarorga":7424,"ĠFederatsiyasi":7425,"Ġqaytgan":7426,"Ġboshqaruvidagi":7427,"Ġkuchayti":7428,"Ġuzunligi":7429,"Ġruhiy":7430,"ĠJoriy":7431,"lovlarni":7432,"gird":7433,"voldi":7434,"ĠSil":7435,"ĠAyniqsa":7436,"way":7437,"tarildi":7438,"Ġatadi":7439,"Ġmamn":7440,"Ġkunida":7441,"Ġqarama":7442,"Ġuzluksiz":7443,"Ġversiya":7444,"Ga":7445,"boyeva":7446,"Bola":7447,"tilishini":7448,"Ġurdi":7449,"Ġraq":7450,"Ġdeputatlar":7451,"Ġqarorini":7452,"Ġayolning":7453,"Ġchiqarilishi":7454,"Mir":7455,"lardim":7456,"chilikni":7457,"Ġhayrat":7458,"ĠMiro":7459,"ĠUrganch":7460,"Ġbirini":7461,"Ġbolaning":7462,"Diqqat":7463,"MA":7464,"Ġetgandi":7465,"Ġvaqtning":7466,"71":7467,"ĠBloomberg":7468,"rovnoma":7469,"Ġqoldirdi":7470,"Bunyodkor":7471,"Ġdamda":7472,"Ġishlayotgan":7473,"Ġmansub":7474,"Ġhisobni":7475,"Ġyurituvchi":7476,"Ġservis":7477,"ĠAslida":7478,"Kar":7479,"zimiz":7480,"Ġxodimlarini":7481,"tkazishni":7482,"Ġintellekt":7483,"ĠSharq":7484,"PL":7485,"arder":7486,"Ġkeyinroq":7487,"Ġtarixida":7488,"Ġkub":7489,"Ġkasalligi":7490,"Ġtun":7491,"ĠIsmo":7492,"Ġoshirishi":7493,"Ġpor":7494,"Ġtarmoqlar":7495,"Keyin":7496,"Ġorganlariga":7497,"ĠAt":7498,"doneziya":7499,"ĠAsa":7500,"ullanish":7501,"Ġ99":7502,"Ġuzr":7503,"rux":7504,"Ġdarax":7505,"Ġuringan":7506,"preziden":7507,"Ġizchil":7508,"75":7509,"mik":7510,"eksika":7511,"rad":7512,"isi":7513,"qotgan":7514,"Ġolishda":7515,"rot":7516,"ĠJSST":7517,"Ġalmashtirish":7518,"Ġomad":7519,"Ġfaoliyatida":7520,"ĠMotors":7521,"laringiz":7522,"Ġkengay":7523,"Ġyaqindan":7524,"Ġmarosimida":7525,"ĠQatar":7526,"Ġishoni":7527,"ford":7528,"IN":7529,"Ġgvardiya":7530,"yxatini":7531,"ammoni":7532,"Ġtalabi":7533,"itti":7534,"Ġochilish":7535,"yuq":7536,"Ġsuri":7537,"Ġtomonga":7538,"Ġiltimos":7539,"aygan":7540,"ĠNega":7541,"Ġif":7542,"Ġmahallasi":7543,"ĠButun":7544,"Ġchalini":7545,"senariy":7546,"Ġtungi":7547,"Ġtalablar":7548,"Navoiy":7549,"matsevtika":7550,"vili":7551,"Ġhujjatlariga":7552,"Ġsayyohlar":7553,"Ġ2008":7554,"Ġmasalani":7555,"Ġimzolagan":7556,"ensi":7557,"Ġtarixidagi":7558,"liklini":7559,"moddasiga":7560,"nova":7561,"bahor":7562,"ct":7563,"voq":7564,"Ġkoronavirusning":7565,"saroy":7566,"ngress":7567,"asur":7568,"Ġtelevideniye":7569,"Uchrashuvda":7570,"Ġuchrashdi":7571,"Hindiston":7572,"Ġtirik":7573,"ĠJe":7574,"Ġtuzatish":7575,"alar":7576,"Ġsim":7577,"Ġzararli":7578,"ĠQi":7579,"Ġbildirilgan":7580,"ĠMisr":7581,"kiy":7582,"ĠJan":7583,"Ġdeyilgan":7584,"Ġ51":7585,"Ġfutbo":7586,"Ġbosti":7587,"Ġbolalarning":7588,"Ġvodiy":7589,"ĠSingapur":7590,"Ġbiladi":7591,"Ġmajlisi":7592,"ĠShahri":7593,"Ġpedagog":7594,"Ġharbiylari":7595,"Ġboshiga":7596,"Telegram":7597,"urt":7598,"pik":7599,"ĠMask":7600,"Ġoshadi":7601,"Ġyaqinidagi":7602,"Ġichidagi":7603,"oselekt":7604,"Par":7605,"twitter":7606,"yxatidan":7607,"Ġgapirib":7608,"sori":7609,"Ġyoshlarni":7610,"Ġbanklari":7611,"âĢĺ-":7612,"Ġbazaviy":7613,"Holat":7614,"rinli":7615,"Qa":7616,"Ġokru":7617,"Ġxorijda":7618,"plangan":7619,"noda":7620,"onada":7621,"Ġqilishlari":7622,"tkazilayotgan":7623,"tim":7624,"toroj":7625,"Ġoldinga":7626,"Ġmaktablar":7627,"Ġyilligi":7628,"Ġpsixo":7629,"Ġfosh":7630,"Ġimkoniyatlari":7631,"zgartirishlar":7632,"Ġbom":7633,"rikdan":7634,"Ġbayonnoma":7635,"onistondagi":7636,"KO":7637,"Ġtumanlarida":7638,"Foto":7639,"saf":7640,"all":7641,"lumki":7642,"ulotlar":7643,"Ġsari":7644,"For":7645,"lashgani":7646,"ldik":7647,"ĠUsmonov":7648,"Ġqochi":7649,"Ġbudjeti":7650,"mumiy":7651,"ssen":7652,"Ġketmoqda":7653,"Ġqaytish":7654,"guncha":7655,"qishni":7656,"ĠTurizm":7657,"Ġoshirishni":7658,"Ġistiqbolli":7659,"Ġmaz":7660,"boshi":7661,"Barcha":7662,"Ġklaster":7663,"Ġqodir":7664,"ĠToki":7665,"Ġetilmagan":7666,"Ġmega":7667,"Ġtanlab":7668,"Ġbazasini":7669,"dara":7670,"Ġnur":7671,"ĠNazarboyev":7672,"erina":7673,"kel":7674,"Ġomon":7675,"voni":7676,"Ġhaqiqa":7677,"parvarlik":7678,"Ġgumanitar":7679,"olo":7680,"Ġbadiiy":7681,"Ġmaktabda":7682,"Ġfuqaroning":7683,"nasi":7684,"Ġhaqining":7685,"Ġqatnashish":7686,"gentlik":7687,"Ġbuyrug":7688,"Ġunut":7689,"Ġpolitsiyasi":7690,"ĠMadaniyat":7691,"Ġsessiya":7692,"xum":7693,"Ġkuchay":7694,"Ġinfratuzil":7695,"Ġtizimining":7696,"Ang":7697,"Ġ73":7698,"lmasligini":7699,"llangan":7700,"ity":7701,"Ġdavlatlarning":7702,"Ġbozorda":7703,"zgidromet":7704,"ĠYuqori":7705,"yilishi":7706,"Ġishsiz":7707,"ĠShoh":7708,"shak":7709,"dat":7710,"Ġrangli":7711,"TV":7712,"Ġbut":7713,"xiya":7714,"Ġtanishdi":7715,"Ġamaliyoti":7716,"Ġold":7717,"ĠInson":7718,"Ġqurilmalar":7719,"Ġrey":7720,"Ġkeltirish":7721,"44":7722,"âĢ¦":7723,"Ġ53":7724,"Toshqin":7725,"Ġsharoitda":7726,"ĠTursun":7727,"qqiz":7728,"Ġsiyosatini":7729,"Ġtamomlagan":7730,"Ġosoyishta":7731,"ĠSS":7732,"suz":7733,"Ġtransporti":7734,"zarov":7735,"ĠKubogi":7736,"udi":7737,"xl":7738,"Ġdurang":7739,"Ġsayyora":7740,"Ġturnir":7741,"otten":7742,"Ġnegi":7743,"Atletiko":7744,"ligicha":7745,"Ġqayt":7746,"ĠSergeli":7747,"Ġzarurligini":7748,"ope":7749,"Ġberayotgan":7750,"Ġkunidan":7751,"Ġmateriallari":7752,"vas":7753,"Ġuniversitetining":7754,"Ġprognoz":7755,"Ġesla":7756,"Ġhamkorlikning":7757,"Lokomotiv":7758,"Sp":7759,"Ġshaxsning":7760,"Yaqin":7761,"Ġmiqdorini":7762,"Ġdasturiy":7763,"ĠZe":7764,"rgentina":7765,"Ġdavolanish":7766,"Ġhayda":7767,"Ġmuxlislar":7768,"ortini":7769,"Ġtopa":7770,"qur":7771,"Ġoshiri":7772,"Hodisa":7773,"illa":7774,"sioner":7775,"Ġalmashish":7776,"Ġmudiri":7777,"zbekistondan":7778,"Ġqilishning":7779,"siv":7780,"Ġmao":7781,"Ġyaratadi":7782,"Ġmavsumida":7783,"?âĢĿ":7784,"sidiya":7785,"Ġfaoliyatining":7786,"Ġkiruvchi":7787,"Ġsuhbatda":7788,"Ġchap":7789,"Ġtamoyil":7790,"lashini":7791,"Ġtomor":7792,"ĠTele":7793,"ĠYeI":7794,"ED":7795,"ozi":7796,"prezidenti":7797,"ĠKan":7798,"stri":7799,"Ġkeltiradi":7800,"Ġjoylarida":7801,"Ġnatijada":7802,"nev":7803,"Ġshtabi":7804,"Ġgapirdi":7805,"Ġfoydasiga":7806,"Ġshaxslarni":7807,"Ġajralib":7808,"Ġtemiryo":7809,"tig":7810,"Ġetishdi":7811,"Ġmaktabga":7812,"ĠNima":7813,"Ġvelosipe":7814,"rishti":7815,"Ġbuyruq":7816,"Tojikiston":7817,"Ġyarmida":7818,"Ġanglatadi":7819,"Ġkeltirmoqda":7820,"Ġkamchiliklar":7821,"ittifo":7822,"Uy":7823,"Ġshtab":7824,"ĠShunda":7825,"jaliklari":7826,"Ġshartnomalar":7827,"Ġtopshiriqlar":7828,"Ġraqi":7829,"Ġtezda":7830,"ĠBank":7831,"Ġquvon":7832,"ĠKam":7833,"Ġkimdir":7834,"Ġboshqarib":7835,"Ġ83":7836,"Ġportali":7837,"ĠIqtisodiy":7838,"Ġekipa":7839,"âĢĻâĢĿ":7840,"Ġishlangan":7841,"lganida":7842,"Ġqilishadi":7843,"Ġmashinalar":7844,"ĠMajlisi":7845,"Ġbemalol":7846,"Ġshahzoda":7847,"Ġ#":7848,"Ġimmuni":7849,"Ġnatijalarini":7850,"ĠOzarbayjon":7851,"ĠAkt":7852,"ĠAleks":7853,"Ġajratiladi":7854,"Ġmuloqotda":7855,"?âĢĵ":7856,"limida":7857,"qor":7858,"Ġaylanma":7859,"ĠIT":7860,"Ġhunar":7861,"Ġpasp":7862,"Ġistisno":7863,"Ġqamoqqa":7864,"Ġplan":7865,"ratsion":7866,"Ġnota":7867,"Hukumat":7868,"Ġarxite":7869,"tirilmoqda":7870,"ayra":7871,"Ġofat":7872,"ĠHujjat":7873,"Ġmuxolifat":7874,"Ġdia":7875,"Ġsti":7876,"ĠVenesuela":7877,"Ġborayotgani":7878,"gohi":7879,"line":7880,"ĠAyrim":7881,"jan":7882,"atida":7883,"ulyat":7884,"Ġrejalashtirgan":7885,"Ġprinsi":7886,"Ġasorat":7887,"shod":7888,"ĠKur":7889,"Ġtekshir":7890,"Ġpoliklini":7891,"Bunda":7892,"Ġteatr":7893,"Ġshaharda":7894,"Ġ2009":7895,"Ġsalohiyati":7896,"Ġmuassasalarining":7897,"Ġcheklash":7898,"Ġ89":7899,"Ġnorma":7900,"Ġassotsiatsiyasi":7901,"ld":7902,"Ġpullar":7903,"stiq":7904,"Ġ87":7905,"Ġpedago":7906,"ĠTurkiyaning":7907,"mok":7908,"Ġhayotdan":7909,"Ġsinovlari":7910,"Pe":7911,"ĠUlarga":7912,"Ġqilmoqchi":7913,"ibot":7914,"rio":7915,"Ġmarosim":7916,"Ġkat":7917,"ottenhem":7918,"Sev":7919,"udrat":7920,"ldoshev":7921,"Ġvositalar":7922,"Ġmanfaatli":7923,"Ġyodgor":7924,"Ġolo":7925,"Ġmast":7926,"Ġdekab":7927,"Che":7928,"Ġimkoniyatlarini":7929,"Ġmaxfiy":7930,"Ġshogird":7931,"ete":7932,"ama":7933,"zali":7934,"Ġhimoyachi":7935,"Ġtomorqa":7936,"ĠJalo":7937,"Ġisitish":7938,"Elekt":7939,"ĠSardor":7940,"shlar":7941,"bass":7942,"Ġolinadigan":7943,"Ġmadaniyati":7944,"Ġ97":7945,"Ġjinoyatni":7946,"ĠUlarni":7947,"Ġtilga":7948,"Ġbakalav":7949,"lka":7950,"livud":7951,"xonaga":7952,"ĠKoreyaning":7953,"Ġshaharlarida":7954,"lanayotgani":7955,"movning":7956,"Ġmasalalariga":7957,"Ġvositalarining":7958,"Er":7959,"Ġ195":7960,"aniyev":7961,"PSJ":7962,"Ġtasdiqlovchi":7963,"ĠYouTube":7964,"Ġedik":7965,"ĠRamazon":7966,"Ġekologiya":7967,"ĠShahar":7968,"lovni":7969,"Ġshtatida":7970,"Ġnihoyat":7971,"gle":7972,"ĠAbu":7973,"Ġmuhokamasi":7974,"Ġmuammoni":7975,"Ġqulaylik":7976,"rishtianu":7977,"Ġgran":7978,"Ġtobora":7979,"Ġvaqtlarda":7980,"sizmi":7981,"lovi":7982,"layziya":7983,"Ġsayt":7984,"Ġyashaydigan":7985,"Ġkvo":7986,"ĠYevropada":7987,"liddin":7988,"Ġqilinishini":7989,"Ġthe":7990,"Ġqaratish":7991,"Ġuzatish":7992,"MK":7993,"yiga":7994,"Ġsotuvchi":7995,"Ġkassa":7996,"Ġismi":7997,"Ġiqtisod":7998,"Ġoydinlik":7999,"Ġkolleji":8000,"tgandi":8001,"Ġishlatish":8002,"Ġbarobarga":8003,"lashtirdi":8004,"ĠUmuman":8005,"ĠFin":8006,"Ġmateriallar":8007,"talar":8008,"Ġxohla":8009,"TS":8010,"assu":8011,"Ġuskunalar":8012,"tmay":8013,"Ġdoimo":8014,"ĠVazir":8015,"Ġyoqi":8016,"yinida":8017,"Ġssenariy":8018,"ĠSankt":8019,"mag":8020,"ffus":8021,"**":8022,"Ġkasallangan":8023,"Jizzax":8024,"Ġyengi":8025,"Ġyuzlab":8026,"SSR":8027,"Ġjarohatlari":8028,"Ġkuy":8029,"xtatilgan":8030,"yishga":8031,"ziy":8032,"Ġqoldirilgan":8033,"Ġrespublikada":8034,"irlab":8035,"Ġtashlangan":8036,"Ġodatda":8037,"Ġyangiliklar":8038,"ababi":8039,"Ġkilogramm":8040,"Chi":8041,"raqa":8042,"Ġchiqarishi":8043,"kilot":8044,"Ġintizo":8045,"limni":8046,"Ġstadioni":8047,"lashtirilishi":8048,"Ġarab":8049,"ers":8050,"ĠKos":8051,"Ġbelgisi":8052,"lding":8053,"Ġoilalar":8054,"ĠSenati":8055,"yishni":8056,"uliyati":8057,"Tottenhem":8058,"ĠBahodir":8059,"Ġtaallu":8060,"linma":8061,"Ġsohasini":8062,"ĠMehnat":8063,"Ġib":8064,"Ġniyat":8065,"ddas":8066,"Ġorganlar":8067,"Ġkiritiladi":8068,"Ġochildi":8069,"Ġoblasti":8070,"olog":8071,"Ġindek":8072,"stansiya":8073,"ĠInvestitsiya":8074,"ĠNiderlandiya":8075,"Ġsizning":8076,"yek":8077,"sis":8078,"taloniya":8079,"Ġzarurligi":8080,"lumotnoma":8081,"payib":8082,"Ġtayyorligini":8083,"Ġzaif":8084,"Ġtish":8085,"zmi":8086,"Ġtaalluqli":8087,"Ġsmartfo":8088,"Ġsaralash":8089,"Ġshe":8090,"Ġkul":8091,"Ġmemo":8092,"Ġtelekanal":8093,"Ġ00":8094,"lagi":8095,"rovi":8096,"ĠSport":8097,"Ġvideoselekt":8098,"sincha":8099,"AZ":8100,"tatlar":8101,"Ġpoyga":8102,"Ġtashkilotining":8103,"ovich":8104,"Ġ81":8105,"Ġyakunlandi":8106,"forniya":8107,"Ġfojia":8108,"Ġnemis":8109,"Ġaksincha":8110,"ĠMartin":8111,"Ġsudining":8112,"Ġnizom":8113,"Go":8114,"zimni":8115,"Ġkartoshka":8116,"Ġnazoratga":8117,"Ġkarantinga":8118,"Ġqama":8119,"Ġchiqishni":8120,"Ġfarqli":8121,"Avto":8122,"Sam":8123,"rsatmalar":8124,"Ġberilmagan":8125,"uza":8126,"Ġerkaklar":8127,"Ġxalqimiz":8128,"ĠBoy":8129,"baki":8130,"Ġombo":8131,"vegiya":8132,"Ġparlamenti":8133,"Ġhaqiqatan":8134,"Ġmuze":8135,"Ġtashuvchi":8136,"rsatishi":8137,"Ġsohaga":8138,"Ġforum":8139,"Ġbeshinchi":8140,"haza":8141,"Ġyorug":8142,"Ġmaqsadda":8143,"Ġnashrining":8144,"Ġfutbolchisi":8145,"Ġmuammosi":8146,"Ġsportchi":8147,"Ġmasofadan":8148,"nalishlar":8149,"Lekin":8150,"Ġkomissiyasining":8151,"zni":8152,"Ġudda":8153,"Ġ82":8154,"ĠBritaniyaning":8155,"TE":8156,"ĠHech":8157,"linmalari":8158,"qqol":8159,"ismoniy":8160,"qituvchisi":8161,"ngilo":8162,"Ġposti":8163,"ddinov":8164,"Tadbirda":8165,"ĠBizning":8166,"Ġtashxisi":8167,"Ġyetishmovchiligi":8168,"Ġyutqa":8169,"atini":8170,"Ġyoqa":8171,"Ġaziyat":8172,"Xabarda":8173,"ldim":8174,"ĠDemak":8175,"ĠPutinning":8176,"tarilib":8177,"Ġaytiladi":8178,"Ġvazirligida":8179,"Ġqarorlar":8180,"Ġhayotga":8181,"ĠOlmazor":8182,"zbo":8183,"erial":8184,"Ġxonado":8185,"Ġyaratiladi":8186,"Ġyuboradi":8187,"ĠKuch":8188,"ĠGap":8189,"rovning":8190,"ngilochar":8191,"Ġtopshirig":8192,"Ġeslatib":8193,"ĠShHT":8194,"Natijada":8195,"Ġjanubi":8196,"ĠIqtisodiyot":8197,"Ġtajribasi":8198,"Ġvertolyot":8199,"Ġetilishini":8200,"Ġoperator":8201,"Ġyetishi":8202,"ĠÐ":8203,"ĠBirlashgan":8204,"Ġjamoalar":8205,"lanmaydi":8206,"Ġbolalarga":8207,"randa":8208,"Ġfoydalanishi":8209,"Ġsayyohlik":8210,"Ġsaylangan":8211,"Ġshara":8212,"Ġmero":8213,"Ġmedal":8214,"Ġfanlari":8215,"Ġxohi":8216,"stitsion":8217,"Ġgiyohvand":8218,"Ġsaylovlar":8219,"ĠShifo":8220,"teti":8221,"Ġjinoyatlar":8222,"Ġatom":8223,"77":8224,"Ġtaksi":8225,"Ġjangi":8226,"Ġbron":8227,"tarib":8228,"dagina":8229,"Ġxayr":8230,"chog":8231,"ĠBobo":8232,"Ġbostirib":8233,"ĠVol":8234,"Ġresurslari":8235,"nob":8236,"Ġmezon":8237,"Ġkirit":8238,"rsatuv":8239,"Ġyurib":8240,"Ġvositasini":8241,"Ġbrendi":8242,"shu":8243,"ziyev":8244,"Ġyaqqol":8245,"ĠYakka":8246,"ĠSSSR":8247,"ĠPrezidentimiz":8248,"tarilishi":8249,"Ġxizmatchi":8250,"latsiya":8251,"Ġjarayonlari":8252,"Oltin":8253,"lipp":8254,"oytax":8255,"Ġmumkinki":8256,"Ġkuzatilmoqda":8257,"Ġsubsidiya":8258,"ĠAbdurah":8259,"ĠUkrainadagi":8260,"Ban":8261,"tdan":8262,"Ġolamiz":8263,"Albatta":8264,"Ġklinik":8265,"MS":8266,"cro":8267,"Ġshaharning":8268,"ussiya":8269,"ĠDubay":8270,"ĠRossiyadagi":8271,"Ġbildiradi":8272,"xonto":8273,"Ġaylantirish":8274,"gistika":8275,"Ġrahba":8276,"Yil":8277,"Ġdiplomat":8278,"Ġhovli":8279,"kis":8280,"soz":8281,"ĠTesla":8282,"Ġroli":8283,"ĠSharqdan":8284,"Ġkutubxona":8285,"IFA":8286,"Ġsohadagi":8287,"Ġyashayotgan":8288,"Ġmessen":8289,"Ġyuritayotgan":8290,"Ġkuzati":8291,"pni":8292,"Ġqilganini":8293,"lovchilarning":8294,"ĠBMTning":8295,"rid":8296,"Ġbazasi":8297,"Ġhojat":8298,"Ġpulini":8299,"ovuz":8300,"Ġdekabrda":8301,"gus":8302,"Ġqiroli":8303,"movchilik":8304,"Ùİ":8305,"Ġjamoasining":8306,"Ġpic":8307,"ullo":8308,"inlashga":8309,"itob":8310,"Ġberishdi":8311,"Ġalda":8312,"Ġxush":8313,"Ġmaydoniga":8314,"urgiya":8315,"Ġboshliq":8316,"oyev":8317,"Ġxotir":8318,"Ġsuratlar":8319,"Ġdemak":8320,"Ġkiritadi":8321,"Ġuyning":8322,"ĠHabi":8323,"Ġbyurosi":8324,"65":8325,"Ġmigratsiya":8326,"ullanadi":8327,"Ġhukumatining":8328,"Ġprovinsiya":8329,"masidan":8330,"Ġqatlam":8331,"Ġguruhlar":8332,"ken":8333,"Ġmutaxassi":8334,"Yosh":8335,"yad":8336,"Ġloyihasida":8337,"ĠKeyinroq":8338,"Ġdeputati":8339,"ĠArab":8340,"mersant":8341,"Ġyordami":8342,"Jinoyat":8343,"Ġbosqichga":8344,"ĠRahmon":8345,"Ġmenej":8346,"Ġahamiyati":8347,"Ġfond":8348,"ĠUniversi":8349,"Ġseminar":8350,"Ġolishdi":8351,"Ġchorasi":8352,"uvchan":8353,"ĠAholi":8354,"Ġportalida":8355,"Ġepidemiya":8356,"Ġqatorida":8357,"ĠAyol":8358,"Ġsohasiga":8359,"Ġyozma":8360,"Ġ168":8361,"Shunday":8362,"maslikni":8363,"Ġfederatsiyasi":8364,"Ġbelgilari":8365,"Ġmasalalarini":8366,"ĠNig":8367,"sepsiya":8368,"Ġkasa":8369,"eing":8370,"lina":8371,"Ġmilliarder":8372,"Ġjarrohlik":8373,"ĠQrim":8374,"Ġyuritgan":8375,"Ġfoydalanuvchilari":8376,"Ġuzilish":8377,"mulk":8378,"Ġnatijalar":8379,"ĠKoronavirus":8380,"48":8381,"ĠMark":8382,"Ġkaltak":8383,"Ġterrorizm":8384,"Ġuya":8385,"Ġtadbirlarni":8386,"Ġyaratishga":8387,"Ġguber":8388,"Ġdeklaratsiya":8389,"ĠSoliq":8390,"Ki":8391,"novatsion":8392,"Ġfonida":8393,"Masalan":8394,"Ġaytadi":8395,"skaya":8396,"Ġrahbarlarining":8397,"Ġinnovatsiya":8398,"qir":8399,"Ġbyudjyet":8400,"Ġyondashuv":8401,"Ġishona":8402,"ĠUFC":8403,"ĠBaxtiyor":8404,"xontohur":8405,"Ti":8406,"laning":8407,"Italiya":8408,"ess":8409,"Ġuyqu":8410,"Ġimtiyoz":8411,"Ġshay":8412,"bud":8413,"ĠAfsuski":8414,"Ġalmashin":8415,"La":8416,"vogar":8417,"Ġsuya":8418,"rifiy":8419,"Ġchempionat":8420,"Shimoliy":8421,"atri":8422,"fini":8423,"Ġxodimlarning":8424,"Ġulug":8425,"Ġavtomobi":8426,"Ġobra":8427,"Qishloq":8428,"ĠPrezidentning":8429,"Ġplatforma":8430,"Ġdarajagacha":8431,"Ġchiqaruvchilar":8432,"Ġkeltirdi":8433,"Ġquduq":8434,":Â«":8435,"ĠSababi":8436,"ĠToyyib":8437,"lagandi":8438,"Ġintegratsiya":8439,"nalar":8440,"Ġyumsha":8441,"lovoldi":8442,"Ġkartochka":8443,"Ġnegizida":8444,"mokrat":8445,"Manba":8446,"Ġmanzara":8447,"sekundgacha":8448,"Dastlabki":8449,"lus":8450,"Ġyoshlarning":8451,"limning":8452,"Ġmuddatidan":8453,"harakatlari":8454,"Ġgav":8455,"ĠAhmedov":8456,"Aholi":8457,"NN":8458,"Ġbuzilgan":8459,"Ġrasmiylari":8460,"Yoshlar":8461,"maganini":8462,"Ġboshdan":8463,"Ġijodkor":8464,"yum":8465,"aw":8466,"Ġsoatiga":8467,"Ġhamshi":8468,"ĠQolgan":8469,"Ġnazaridan":8470,"riddin":8471,"Ġanjuman":8472,"kana":8473,"Ġsevimli":8474,"ymaslik":8475,"ĠDaily":8476,"Ġminnatdorlik":8477,"ksiyasi":8478,"Ġavj":8479,"fera":8480,"Ġkirishga":8481,"ĠMas":8482,"Ġmato":8483,"Ġbanklar":8484,"Ġhaqli":8485,"BMT":8486,"skar":8487,"Kommersant":8488,"ĠQurilish":8489,"sizlar":8490,"Ġhujumchi":8491,"Ġnuqtai":8492,"?!":8493,"krak":8494,"ganingiz":8495,"Ġaprelda":8496,"ĠShan":8497,"ĠBobur":8498,"Uz":8499,"ĠSulton":8500,"Ġbaxt":8501,"Ġkuchlar":8502,"ĠKeyingi":8503,"Ġshou":8504,"nimcha":8505,"rmagan":8506,"Ġyordamga":8507,"Ġpenalti":8508,"Ð°":8509,"ĠFil":8510,"Ben":8511,"Ġoxir":8512,"oshenko":8513,"Ġyozuv":8514,"Ġbildiri":8515,"Ġkombi":8516,"onda":8517,"Ġkelmaydi":8518,"Ġkompaniyasiga":8519,"ĠInternet":8520,"rilik":8521,"ralgan":8522,"sulot":8523,"Oq":8524,"xizmat":8525,"ribon":8526,"Ġchin":8527,"Ġbizne":8528,"ĠUmid":8529,"lement":8530,"Ġxorijga":8531,"Ġbuyumlar":8532,"Ter":8533,"eo":8534,"Ġkiritilishi":8535,"Ġtiklanish":8536,"licha":8537,"Ġtumanda":8538,"Ġbekat":8539,"Ġtayyorladi":8540,"latlar":8541,"Ġtasvirga":8542,"Ġmuddatini":8543,"Ġinvestitsion":8544,"Ġkommunikatsiyalar":8545,"tayotgani":8546,"Ġezgu":8547,"Il":8548,"droid":8549,"Ġboshlanganidan":8550,"piya":8551,"biz":8552,"foya":8553,"balt":8554,"Ġjadva":8555,"Ġsolingan":8556,"Ġmasalaga":8557,"Ġsenator":8558,"Ġvaqtgacha":8559,"vaqti":8560,"Ġmahkum":8561,"ĠBozor":8562,"ĠUkrainaning":8563,"Ġrejissor":8564,"tarish":8565,"tirof":8566,"Ġhattoki":8567,"ĠOtabek":8568,"Tramp":8569,"Ġinqiro":8570,".)":8571,"yindan":8572,"lovlari":8573,"Ġkurashda":8574,"Ġabon":8575,"Ġkos":8576,"stlari":8577,"Ġunu":8578,"nobod":8579,"ligidagi":8580,"Ġkifoya":8581,"Ġgiyohvandlik":8582,"Ġqiyofa":8583,"Ġjoylar":8584,"Ġsohalarida":8585,"Ġhamkorligida":8586,"Ġoldidagi":8587,"Ispaniya":8588,"ikki":8589,"Ġdaxl":8590,"Ġberamiz":8591,"Ġjoylashtirildi":8592,"ĠAvtomobil":8593,"Ġqasddan":8594,"ĠTar":8595,"Ġrefer":8596,"ets":8597,"video":8598,"Ġnoyabrda":8599,"Ġmashinalari":8600,"mistik":8601,"Ġshartlari":8602,"ĠAnqara":8603,"Ġxasta":8604,"Ġelektromobil":8605,"Ġhududdagi":8606,"samb":8607,"ngilli":8608,"Ġkreditlar":8609,"Ġboshi":8610,"The":8611,"Ġsaf":8612,"Ġchiqilishi":8613,"Ġetganlar":8614,"Maktab":8615,"endum":8616,"Ġosmon":8617,"awei":8618,"Sar":8619,"antin":8620,"ĠJasur":8621,"alitsiya":8622,"Ġqoplash":8623,"Vt":8624,"Ġtarzi":8625,"Ġyakunlariga":8626,"Ġxala":8627,"42":8628,"roni":8629,"qit":8630,"Ġloyiq":8631,"Ġeshit":8632,"Ġjonli":8633,"Ġfizi":8634,"OS":8635,"rama":8636,"Respublikaning":8637,"ĠTex":8638,"Ġkutilayotgan":8639,"Ġkelishgan":8640,"Ġkuzatuvchi":8641,"vara":8642,"ĠMadrid":8643,"ven":8644,"Ġchoralarni":8645,"ways":8646,"Ġchiroq":8647,"orod":8648,"urilma":8649,"Ġetishini":8650,"ĠSuv":8651,"Ġtarkibidagi":8652,"ĠFarhod":8653,"Ġolimpiya":8654,"Ġkayfiyat":8655,"Ġurilgan":8656,"abo":8657,"Ġyaqinlari":8658,"Ġmanbalari":8659,"Ġiflos":8660,"ĠUma":8661,"Ġbalan":8662,"ty":8663,"ĠFederatsiya":8664,"Ġolimpiada":8665,"49":8666,"Ġshirin":8667,"Ġmuammolari":8668,"ĠKrishtianu":8669,"Ġnogironligi":8670,"navi":8671,"rova":8672,"ĠKobul":8673,"Ġsalohiyat":8674,"Ġochil":8675,"rayotgani":8676,"Ġtelevizor":8677,"Ġtaqqos":8678,"Ġkelishilgan":8679,"tey":8680,"Ġmulki":8681,"llanilgan":8682,"lyut":8683,"Ġgar":8684,"Ġqoni":8685,"lashtirildi":8686,"Ġdyuy":8687,"lloh":8688,"Ġimtiyozlar":8689,"Ġaviakompaniyasi":8690,"Pu":8691,"Ġmoy":8692,"Ġchiqmoqda":8693,"Ġmiso":8694,"valniy":8695,"band":8696,"Ġshimoli":8697,"Ġrost":8698,"Ġortida":8699,"Ġhududga":8700,"Ġpasayishi":8701,"Ġqaratildi":8702,"cetti":8703,"Ġdushman":8704,"Ġ98":8705,"Ġharakatlarini":8706,"sia":8707,"Ġaviatsiya":8708,"Ġiqtidor":8709,"Ġparvarish":8710,"raha":8711,"Ġaudio":8712,"Val":8713,"kirov":8714,"Ġkosmik":8715,"ĠAsosiy":8716,"41":8717,"Ġaloqasi":8718,"Ġfarmatsevtika":8719,"Ġtanaffus":8720,"Britaniya":8721,"llarini":8722,"ĠBelgiya":8723,"Ġmasalada":8724,"plagan":8725,"Ġortga":8726,"linmasi":8727,"har":8728,"ad":8729,"Ġturuvchi":8730,"maktab":8731,"Ġagro":8732,"Ġuniversitetida":8733,"ris":8734,"Ġfakt":8735,"Ġbinolar":8736,"Ġmutaxassisi":8737,"lovga":8738,"ĠYevroittifo":8739,"sabzavot":8740,"Ġbahslari":8741,"Ġyonilg":8742,"irligi":8743,"Ġbarham":8744,"Ġyashil":8745,"Ġolam":8746,"Ġhomilador":8747,"Ġsharti":8748,"ravonlik":8749,"Ġqizlar":8750,"abet":8751,"Ġnimalar":8752,"Mat":8753,"dod":8754,"Ġsez":8755,"Ġnashriga":8756,"soq":8757,"sizligi":8758,"Ġhujumi":8759,"ĠMutaxassis":8760,"Ġyanvardan":8761,"ngiota":8762,"ĠXol":8763,"Ġvra":8764,"Ġjarimaga":8765,"ĠEndilikda":8766,"76":8767,"pka":8768,"layeva":8769,"Ġharakatlanib":8770,"Ġxorijlik":8771,"Ġberilgani":8772,"tkaza":8773,"Ġ900":8774,"Ġjazoni":8775,"Ġpaytgacha":8776,"Ġdvigate":8777,"Ġbozoriga":8778,"Ġsuhbatlashdi":8779,"Ġdepartament":8780,"Ġraisligida":8781,"buk":8782,"Ġsizni":8783,"ĠTransport":8784,"Ġyurtdosh":8785,"Ġasa":8786,"Ġ2006":8787,"Ġtartibida":8788,"ĠAvval":8789,"ĠMirzayev":8790,"Ġoldinroq":8791,"ChL":8792,"Ġkundalik":8793,"Ġmamlakatdan":8794,"Dav":8795,"yinga":8796,"molyot":8797,"Ġtransformat":8798,"ender":8799,"Ġqonunni":8800,"Ġtadan":8801,"Ġkemasi":8802,"ĠGb":8803,"Ġshaharlar":8804,"Ġtoifasida":8805,">>":8806,"Ġkasallanganlar":8807,"Ġsonli":8808,"Ġettiradi":8809,"Ġmuqobil":8810,"Ġvata":8811,"ĠOrol":8812,"ĠQQS":8813,"ĠTV":8814,"ĠVoqea":8815,"tina":8816,"mah":8817,"ĠMirza":8818,")._":8819,"ĠMatbuot":8820,"AM":8821,"Ġagentligiga":8822,"ĠKasal":8823,"lag":8824,"tsariya":8825,"giye":8826,"Ġtolib":8827,"Ġkasallikdan":8828,"Milan":8829,"riat":8830,"orijiy":8831,"Ġmessenj":8832,"ĠDunyo":8833,"Ġdah":8834,"Ġdollariga":8835,"Ġobektlari":8836,"Ġjabrlangan":8837,"Ġ/":8838,"Maj":8839,"Ġnomzodlar":8840,"Ġbrend":8841,"sual":8842,"Ġsuh":8843,"Ġdron":8844,"Ġokrug":8845,"Ġspir":8846,"shidov":8847,"rina":8848,"Ġhujja":8849,"Ġtushum":8850,"ushan":8851,"Bay":8852,"Ġhisoblab":8853,"yillar":8854,"rinishida":8855,"Toshkentda":8856,"Ġchempionatida":8857,"Ġqir":8858,"Ġjahonning":8859,"Ġmanbasi":8860,"Uni":8861,"bali":8862,"misha":8863,"Ġzal":8864,"Ġchiqqani":8865,"Ġhaydovchilar":8866,"Ġminnatdorchilik":8867,"ĠNew":8868,"Ġdollargacha":8869,"ĠHamma":8870,"Ġlitsey":8871,"Ġrivojlantirishning":8872,"Ġtalablarini":8873,"Ġmuhimi":8874,"Ġkelajagi":8875,"Ġpnev":8876,"Ġberishda":8877,"amaliy":8878,"Ġfunt":8879,"ĠXay":8880,"Ġfikrini":8881,"Ku":8882,"Ġberilishini":8883,"Ġolishlari":8884,"MB":8885,"Ġoqimi":8886,"Ġshifoxonada":8887,"lanuvchilar":8888,"ĠJonson":8889,"Ġistiqbollari":8890,"Ġtashkilotlarning":8891,"Ġqozongan":8892,"Ġbolani":8893,"ayeva":8894,"Ġdasturlar":8895,"Ġvatandosh":8896,"Ġugle":8897,"ĠOqibatda":8898,"Ġoldik":8899,"dimiy":8900,"Ġtutilmoqda":8901,"Ġdarvozab":8902,"Ġorasidan":8903,"psi":8904,"ngni":8905,"ĠCho":8906,"Ġnutq":8907,"Ġtuproq":8908,"ĠKali":8909,"Ġpaytlarda":8910,"Ġdavlatimiz":8911,"simov":8912,"Ġimom":8913,"Ġtumanining":8914,"Ġharakatlarni":8915,"Ġyetakchilik":8916,"bara":8917,"jxona":8918,"Ġmahsuloti":8919,"Ġnomzodi":8920,"rlar":8921,"sariya":8922,"qolgan":8923,"rinishga":8924,"Ġishlamoqda":8925,"Ġqah":8926,"ĠMun":8927,"Ġbarre":8928,"Ġolgandi":8929,"Quyidagi":8930,"ĠSaid":8931,"Ġpiyodalar":8932,"Ġtutish":8933,"Ġuchish":8934,"Ġkesimida":8935,"mud":8936,"atrul":8937,"Ġqalbaki":8938,"Ġchalinish":8939,"Ġtvit":8940,"ĠGon":8941,"Ġqonunchiligi":8942,"kimov":8943,"ĠSeriya":8944,"Ġoshiriladigan":8945,"ĠAvstriya":8946,"Ġalomatlari":8947,"Ġabonent":8948,"movich":8949,"Ġqoshidagi":8950,"Ġqadimiy":8951,"46":8952,"nimat":8953,"Buning":8954,"Ġyordamchisi":8955,"Ġyakuni":8956,"ĠOlimpiya":8957,"llan":8958,"Voqea":8959,"Qizil":8960,"yani":8961,"uruh":8962,"Ġvideoselektor":8963,"tirgani":8964,"ĠMoskvada":8965,"ĠAmerikaning":8966,"Ġtutgan":8967,"tkazilib":8968,"Shah":8969,"Ġsuyuq":8970,"lor":8971,"Ġtermi":8972,"Ġmusulmonlari":8973,"ĠFanlar":8974,"ĠAxir":8975,"Ġmehna":8976,"Ġmuammolarga":8977,"Ġnarxini":8978,"Ġdasturida":8979,"Ġbuyurt":8980,"Ġsahifasiga":8981,"Ġkuchiga":8982,"xalq":8983,"yg":8984,"tirilib":8985,"moniya":8986,"Ġhujjatlarida":8987,"Ġjasadi":8988,"ĠOrtiq":8989,"ĠRay":8990,"demiologiya":8991,"Ġbajarilishi":8992,"Ġadabi":8993,"muhitni":8994,"minist":8995,"ĠBoeing":8996,"Ġfanlar":8997,"Ġketilgan":8998,"Ġvariant":8999,"stov":9000,"ĠFutbol":9001,"Ġbemorlarning":9002,"Ġkumush":9003,"Ġyillardan":9004,"ĠOsiyoda":9005,"Ġqutqar":9006,"Ġrejasini":9007,"Ġsaylovlarda":9008,"tas":9009,"ĠMashina":9010,"Ġdengizi":9011,"Hay":9012,"Ġdavlati":9013,"yinni":9014,"ĠTuman":9015,"Mahalla":9016,"Ġnam":9017,"Ġkuzatiladi":9018,"Ġ2007":9019,"rimi":9020,"hatidan":9021,"kto":9022,"ĠAripov":9023,"ngina":9024,"Ġoshiq":9025,"Ġmillionlab":9026,"Ġsafarbar":9027,"Ġomillar":9028,"Ġmagistratura":9029,"darmon":9030,"Ġsababdan":9031,"Ġtaqdimoti":9032,"rinbosarlari":9033,"Ġbajara":9034,"Ġinvestorlar":9035,"ĠJamshid":9036,"Borussiya":9037,"Ġyozish":9038,"Ġtut":9039,"ĠOdil":9040,"Mash":9041,"ĠTurkiyada":9042,"Ichki":9043,"Ġyaratildi":9044,"Ġdasturiga":9045,"ĠTokio":9046,"Ġortig":9047,"Ġmasalasiga":9048,"Ġmasofasi":9049,"Ġtanqidiy":9050,"Ġkoalitsiya":9051,"Ġ110":9052,"Ġbrifingda":9053,"ĠPress":9054,"Ġichim":9055,"May":9056,"Ġbering":9057,"Ġamaldor":9058,"Ġchorraha":9059,"Ġtama":9060,"ĠAK":9061,"198":9062,"ĠShayxontohur":9063,"Ġstipen":9064,"Ġtekshiruvi":9065,"desh":9066,"ĠMeksika":9067,"Ġtutuvchi":9068,"Ġxizmatlarni":9069,"Ġort":9070,"Ġfikrlar":9071,"ĠFlo":9072,"Ġtayyorlab":9073,"lishgan":9074,"Ġgazni":9075,"Ġaeroportida":9076,"Ġkoope":9077,"Ġmineral":9078,"ynagan":9079,"ĠErga":9080,"Ġtaklifini":9081,"ĠVer":9082,"ĠUil":9083,"ddiyat":9084,"qurilish":9085,"shimiz":9086,"ĠXitoyga":9087,"Ġyuboriladi":9088,"Ġlavozimga":9089,"ĠBre":9090,"Ġboshqargan":9091,"quvchisi":9092,"Ġokea":9093,"âĢĺ.":9094,"Ġkelishini":9095,"ulov":9096,"Ġ(+":9097,"Ġtalablarga":9098,"terror":9099,"Ġpishi":9100,"Katta":9101,"limlari":9102,"Ġmodeli":9103,"Ġixtiyoriy":9104,"xususiy":9105,"Ġhujayra":9106,"Ġxususida":9107,"TI":9108,"kay":9109,"ĠIm":9110,"kidlangan":9111,"Ġ2005":9112,"ĠRobert":9113,"Ġiqtibos":9114,"Ġtomir":9115,"etall":9116,"urnalist":9117,"Ġboshqarmasining":9118,"Ġreg":9119,"cedes":9120,"Ġkutish":9121,"Ġmunosabatlarini":9122,"Ġqatnashdi":9123,"Ġimmunitet":9124,"Ġchekka":9125,"Ġislohotlarni":9126,"mlakatimiz":9127,"eyms":9128,"shdi":9129,"Ġism":9130,"Ġkasallikka":9131,"Nasaf":9132,"tifikatsiya":9133,"sanov":9134,"Ġchizi":9135,"eskov":9136,"Ġtumandagi":9137,"ĠAvva":9138,"ĠPoroshenko":9139,"Ġurg":9140,"qas":9141,"Islom":9142,"Ġaeroporti":9143,"ij":9144,"Ġqarorlari":9145,"kek":9146,"sher":9147,"entagon":9148,"ulyator":9149,"Ġwww":9150,"ĠKrem":9151,"Ġbahsda":9152,"sgan":9153,"Ġam":9154,"Ġtaassu":9155,"mayotgan":9156,"hamedov":9157,"Ġqondi":9158,"bilitatsiya":9159,"47":9160,"matida":9161,"national":9162,"shab":9163,"Ġasl":9164,"Ġeksporti":9165,"43":9166,"iland":9167,"Ġbankning":9168,"ĠMisol":9169,"!âĢĿ":9170,"Ġstansiyasi":9171,"Suhbat":9172,"ĠAndrey":9173,"ĠBor":9174,"Ġmeto":9175,"Ġvaqtdan":9176,"Ġasosda":9177,"Ġdiplom":9178,"Ġokrugi":9179,"tadbirlarni":9180,"Ġrejimi":9181,"ĠSena":9182,"Ġjoniga":9183,"Kim":9184,"shig":9185,"ĠLit":9186,"Ġquro":9187,"evrolet":9188,"nge":9189,"Shahar":9190,"Ġboyligi":9191,"llarni":9192,"miliya":9193,"doba":9194,"gin":9195,"Ġtavsiyalar":9196,"Ġishtirokchilar":9197,"sharoitlar":9198,"ĠCa":9199,"Boshqa":9200,"Ġkadastr":9201,"bov":9202,"Ġmahsulotlarining":9203,"odri":9204,"ĠAirways":9205,"Ġbildirishicha":9206,"Ġblo":9207,"Ġ96":9208,"Ġfikrlari":9209,"Ġoqibatlarini":9210,"lass":9211,"Ġfransuz":9212,"ĪĴ":9213,"rifat":9214,"xail":9215,"Ġqarorida":9216,"Ġhayotiga":9217,"ER":9218,"hron":9219,"kinchisi":9220,"Ġolimlari":9221,"engriya":9222,"buriy":9223,"Ġnarsalar":9224,"Ġyetakchilari":9225,"ĠLacetti":9226,"Ġvirtual":9227,"ladim":9228,"Ġtashlandi":9229,"Ġboshqaruvchi":9230,"Ġtuxum":9231,"Ġbeza":9232,"Ġnominatsiya":9233,"para":9234,"Ġellik":9235,"cs":9236,"fiya":9237,"masin":9238,"Ġhamkorligi":9239,"kimyo":9240,"ĠObama":9241,"95":9242,"Ġrahmat":9243,"Ġabituriyentlar":9244,"loqa":9245,"Ġteja":9246,"Ġjamoasiga":9247,"Ġ2001":9248,"Ġmavzusida":9249,"Ġtadbirkorlarga":9250,"ĠMus":9251,"Ġyerni":9252,"Ġhukumatning":9253,"sabz":9254,"ĠErkin":9255,"EL":9256,"Ġbin":9257,"Ġholatlarining":9258,"Ġmuvoza":9259,"Ġjarayoniga":9260,"Ġolishini":9261,"Ġalay":9262,"Ġvaqtga":9263,"len":9264,"ĠDXX":9265,"Ġyulduz":9266,"Ġhuquqbuzarlik":9267,"ĠIlhom":9268,"Ġbobo":9269,"Ġkonsepsiya":9270,"atareya":9271,"ĠMalayziya":9272,"qonli":9273,"Ġyozuvchi":9274,"Huquq":9275,"leksi":9276,"Ġvara":9277,"Ġturda":9278,"Ġsaylovoldi":9279,"Bizning":9280,"Ġhuzurida":9281,"Ġhukmron":9282,"yabrida":9283,"Aniq":9284,"ĠIndoneziya":9285,"Ġvayron":9286,"ushanbe":9287,"hil":9288,"Ġsto":9289,"latib":9290,"olibi":9291,"ilof":9292,"ĠFay":9293,"Ġtumaniga":9294,"Ġsolib":9295,"Ġfuqaroga":9296,"Ġ130":9297,"Ġqasd":9298,"Ġbirlamchi":9299,"Ġquloq":9300,"Ġrejalari":9301,"ĠBritaniyada":9302,"rbosh":9303,"Ġfoizlik":9304,"ĠUkrainada":9305,"Ġyanvarda":9306,"Ġketishga":9307,"Ġmissiya":9308,"Ġfoydalanilgan":9309,"Ġjamoaga":9310,"Ġmasjidi":9311,"Ġmiqyosida":9312,"Ġmuhandislik":9313,"lif":9314,"Ġdavra":9315,"Ġdavlatlarga":9316,"Ġdarajali":9317,"kir":9318,"Ġkutmoqda":9319,"Ġyoshlarga":9320,"Ġijrochi":9321,"Ġinflyatsiya":9322,"Port":9323,"Ġqaytadan":9324,"urat":9325,"Ġw":9326,"rilish":9327,"Ġotib":9328,"Ġjoylari":9329,"timizda":9330,"Belarus":9331,"girma":9332,"Ġhamisha":9333,"ĠBog":9334,"Ġorasidagi":9335,"Ġsamaradorligi":9336,"rtalarida":9337,"ĠLion":9338,"Ġsuratini":9339,"Ġxavfsizlikni":9340,"78":9341,"Ġolishgan":9342,"Ġrozilik":9343,"Ġpreparat":9344,"Ġqilayotgani":9345,"Ġvaqtini":9346,"echeni":9347,"Ġhaydovchilik":9348,"ĠAndroid":9349,"Ġyordamchi":9350,"Ġbozorga":9351,"Ġqayg":9352,"qova":9353,"Ġmarkazidagi":9354,"Ġtaqiqlanadi":9355,"ĠPost":9356,"Ġindi":9357,"Ġtre":9358,"Ġaytildi":9359,"Ġarxitektura":9360,"dig":9361,"Ġtortdi":9362,"?Â»":9363,"Ġxizmatini":9364,"mosfera":9365,"yori":9366,"lashtiruvchi":9367,"Ġreye":9368,"dimu":9369,"hid":9370,"Ġproto":9371,"Ġbaholangan":9372,"Ġmanfaatlari":9373,"Ġapparat":9374,"ĠDey":9375,"echeniston":9376,"ĠRam":9377,"Ġbemorning":9378,"Ġishlashni":9379,"Surxondaryo":9380,"rishiga":9381,"sulton":9382,"Mening":9383,"Ġreferendum":9384,"Ġqatnovi":9385,"Ġkasalliklari":9386,"batini":9387,"ĠMaq":9388,"Ġkarra":9389,"Ġmashinani":9390,"Ġinternetda":9391,"kot":9392,"Ġmualliflik":9393,"qilo":9394,"nologiya":9395,"ĠSodiq":9396,"Ġoradan":9397,"Ġinstitutlari":9398,"Ġmartalik":9399,"lubiyatga":9400,"ĠTog":9401,"Ġyaratgan":9402,"Ġyoqib":9403,"piska":9404,"Ri":9405,"Ġtalabalari":9406,"ullar":9407,"ĠDastlabki":9408,"Ġkasbiy":9409,"Ġrivojlan":9410,"Ġkelishuvi":9411,"Ġharakatini":9412,"Ø§":9413,"ĠNavalniy":9414,"Ġbinosida":9415,"Saudiya":9416,"Ġerishildi":9417,"Ġayirbosh":9418,"laqonli":9419,"Ġjamiyatda":9420,"Ġyozgi":9421,"Ġstrategiyasi":9422,"Ġdaraxtlar":9423,"Ġavgustda":9424,"Ġmoddasi":9425,"Ġqozondi":9426,"Ġyurtimizda":9427,"apre":9428,"Ġaniqladi":9429,"boni":9430,"Ġmahbus":9431,"rovga":9432,"Ġqurbonlari":9433,"Ġshunchalik":9434,"ĠSharo":9435,"rindiq":9436,"Ġfikriga":9437,"Ġusuli":9438,"Yer":9439,"Ġjihati":9440,"Ġ140":9441,"Ġip":9442,"ĠYan":9443,"ĠNey":9444,"ĠDilshod":9445,"ĠAQShdagi":9446,"ĠGaz":9447,"Ġquyish":9448,"fiz":9449,"Ġoyog":9450,"kaun":9451,"Ġbilgan":9452,"Ġmolik":9453,"Ġparvo":9454,"Ġvaksinasi":9455,"ĠAtam":9456,"Instagram":9457,"Ġertaga":9458,"Ġsumma":9459,"Ġ2023":9460,"kilgan":9461,"ĠPolitsiya":9462,"Ġast":9463,"Ġvu":9464,"Ġqarindoshlari":9465,"nalishdagi":9466,"Ġtexnologiyalarini":9467,"66":9468,"oqibat":9469,"mash":9470,"kish":9471,"Ġpress":9472,"ĠOlim":9473,"ĠPay":9474,"gim":9475,"bes":9476,"ullangan":9477,"Ġqaysidir":9478,"ĠZangiota":9479,"Ġunchalik":9480,"ulduz":9481,"pchiligi":9482,"langach":9483,"ĠBori":9484,"Ġmaho":9485,"monaviy":9486,"Ġakkaun":9487,"ylik":9488,"ĠArgentina":9489,"ĠRIA":9490,"Ġkamaygan":9491,"Abdu":9492,"Ġhamshira":9493,"rnatiladi":9494,"uriyat":9495,"ĠYaIM":9496,"ĠMaykl":9497,"soft":9498,"Ġsuvga":9499,"lganligi":9500,"Ġkanalida":9501,"riz":9502,"Ġsinovi":9503,"ĠYaxshi":9504,"Ġtajovuz":9505,"Ġdasturlarini":9506,"imov":9507,"Ġjanubiy":9508,"evara":9509,"ĠHodisa":9510,"ches":9511,"Ġit":9512,"minlangan":9513,"Ġmetrgacha":9514,"Ġpeshqa":9515,"Ġuchradi":9516,"Ġqutu":9517,"Ġchempionatining":9518,"rdik":9519,"riqlash":9520,"Ġtarafdori":9521,"kong":9522,"Ġfido":9523,"Ġaxborotida":9524,"Ġkira":9525,"Ġajrat":9526,"Ġfikrlarini":9527,"ĠKaliforniya":9528,"Ġ&":9529,"bardosh":9530,"Ġsudlangan":9531,"ĠLuka":9532,"rali":9533,"Ġishchilar":9534,"Ġundirish":9535,"ĠMey":9536,"Ġinspeksiya":9537,"ĠPF":9538,"ishkek":9539,"Ġhukmi":9540,"Ġmaktub":9541,"Ġxotini":9542,"Ġxolis":9543,"ĠBizda":9544,"Xonanda":9545,"Ġnarxining":9546,"dorod":9547,"Ġushlandi":9548,"Ġdafn":9549,"ĠAleksey":9550,"ĠVan":9551,"Ġsababchi":9552,"Ġziddiyat":9553,"Ġraqamiga":9554,"tijorat":9555,"Ġir":9556,"Video":9557,"Ġhav":9558,"market":9559,"Ġvakolatxona":9560,"Ġgidro":9561,"Ġsinab":9562,"Ġobek":9563,"Ġsoatdan":9564,"shnobod":9565,"Ġboshpa":9566,"Ġmahsulotni":9567,"ĠNuri":9568,"Ġhokimliklari":9569,"nikma":9570,"Ġehtiyojlari":9571,"Ġtarjima":9572,"Ġqilishingiz":9573,"ine":9574,"Ġyoshdagi":9575,"Ġsiyosatchi":9576,"Ġazo":9577,"ĠMahalliy":9578,"Ġdvigatel":9579,"lamagan":9580,"Ġinkor":9581,"Ġdahshat":9582,"Ayol":9583,"shti":9584,"ĠKoreyada":9585,"Ġjumla":9586,"Ġrahbarlar":9587,"ĠAbduha":9588,"Ġtasdiqlagan":9589,"Ġbeton":9590,"ĠTs":9591,"Ġand":9592,"Ġreabilitatsiya":9593,"Ġsabablarga":9594,"randum":9595,"Ġnusxasi":9596,"Ġtarqatgan":9597,"Ġtanishib":9598,"Ġnomzodini":9599,"zavto":9600,"feksiya":9601,"Ġolmoqda":9602,"Ġ350":9603,"Ġhisoblagich":9604,"dni":9605,"raj":9606,"qizil":9607,"Ġmedia":9608,"ĠBandlik":9609,"Ġtasarrufi":9610,"Ġmish":9611,"chir":9612,"Ġqilmaslik":9613,"ĠPQ":9614,"Ġfoydalanadi":9615,"Ġyevroga":9616,"Ġuydan":9617,"Ġgramm":9618,"Ġstart":9619,"rsatayotgan":9620,"Ġzan":9621,"lyandi":9622,"Ġqolmaydi":9623,"Ġavtomatlashtirilgan":9624,"lgacha":9625,"Ġtelekommunikatsiya":9626,"rsatishga":9627,"zboshimcha":9628,"raza":9629,"ldirib":9630,"Ġjinoyatlarga":9631,"Ġxorijdan":9632,"Ġoshishiga":9633,"Ġkitobi":9634,"ĠKUN":9635,"Ġmiqdorining":9636,"ĠNizom":9637,"En":9638,"moyish":9639,"Ġfoydalana":9640,"Ġjamoaning":9641,"Ġyetishmasligi":9642,"crosoft":9643,"ĠBur":9644,"Ġtaklifiga":9645,"Ġxarajatlarni":9646,"ĠFilipp":9647,"Apple":9648,"Ġmillionga":9649,"Ġboyi":9650,"noza":9651,"qatnov":9652,"Ġraqamlar":9653,"Ġxarajatlarini":9654,"ĠXar":9655,"Ġsanasida":9656,"Ġtushunib":9657,"Ġchiqilmoqda":9658,"of":9659,"gika":9660,"Ġhaddan":9661,"Ġqiza":9662,"lishidan":9663,"Ġqarzi":9664,"Prezidentning":9665,"Ġtaqdiri":9666,"chasidagi":9667,"odatiy":9668,"lashmoqda":9669,"Ġtutash":9670,"Tez":9671,"Ġerkinligi":9672,"zlangan":9673,"ĠHarbiy":9674,"Tuman":9675,"Ġvitamin":9676,"qurun":9677,"ilova":9678,"laroq":9679,"Ġhalol":9680,"Ġakkum":9681,"Ġmavsumi":9682,"Ġelement":9683,"ĠShtat":9684,"Ġyakunlangan":9685,"Ġkadrlarni":9686,"Ġnuqtayi":9687,"Ġqochqin":9688,"Xitoyning":9689,"ĠEldor":9690,"Ġshubhasiz":9691,"Ġbankining":9692,"Ġinfeksiyasiga":9693,"Ġgal":9694,"quvvatlashga":9695,"Ġfilmida":9696,"asi":9697,"argoh":9698,"ĠMinsk":9699,"gori":9700,"Ġyaroq":9701,"Ġkash":9702,"Ġtender":9703,"ygani":9704,"abbat":9705,"Ġbormi":9706,"Ġnatijalarga":9707,"ĠRashidov":9708,"Ġishonchi":9709,"Ġxususiyat":9710,"ĠSta":9711,"abri":9712,"Ġqaytdi":9713,"Ġjihatidan":9714,"ðŁ":9715,"sodi":9716,"ĠOradan":9717,"Ġviloyatning":9718,"Ġerisha":9719,"onning":9720,"Ġishlarga":9721,"Ġmutaxassislarni":9722,"tibori":9723,"Ġidish":9724,"ĠPortugaliya":9725,"Ġnasib":9726,"lmaganini":9727,"tova":9728,"Ġtizimni":9729,"Mutaxassis":9730,"Ġyarmar":9731,"Ġbaravari":9732,"Â»)":9733,"terling":9734,"Ġintellektual":9735,"tuv":9736,"lomat":9737,"ĠEm":9738,"lsam":9739,"ĠShomurodov":9740,"Ġatagan":9741,"Navbahor":9742,"ĠKey":9743,"Ġbatareya":9744,"Ġpullarini":9745,"Ġyov":9746,"yilgani":9747,"Ġtexnologiyasi":9748,"idov":9749,"lamini":9750,"Ġodatiy":9751,"ĠBerdimu":9752,"rani":9753,"Ġamaliyotga":9754,"Ġborishga":9755,"ĠPav":9756,"Ġnatijasiga":9757,"ĠMixail":9758,"Hudud":9759,"Ġyotoqxona":9760,"Ġavtomobilni":9761,"Ġtartibiga":9762,"onalari":9763,"ĠHozircha":9764,"Ġbirgina":9765,"Ġtarafdorlari":9766,"zorat":9767,"Ġberilmoqda":9768,"erini":9769,"siyosiy":9770,"urin":9771,"Ġkodeksning":9772,"yurt":9773,"Ġukraina":9774,"leya":9775,"Ġtopshirdi":9776,"oteka":9777,"ĠMes":9778,"Ġpalatasining":9779,"Ġqit":9780,"Ġfron":9781,"ĠPeskov":9782,"Ġxulosaga":9783,"Mahalliy":9784,"Ġdoktori":9785,"Ġbellashuv":9786,"Ġloyihaning":9787,"Ġtezlik":9788,"yxatda":9789,"Ġqiymatini":9790,"ĠOila":9791,"yabzal":9792,"akash":9793,"ying":9794,"illi":9795,"Ġhamkas":9796,"UK":9797,"inter":9798,"Ġquvuri":9799,"Ġsof":9800,"Ġpoytaxtda":9801,"Ġadolatli":9802,"lganlarning":9803,"Ġyax":9804,"Ġehtimoliy":9805,"natori":9806,"ĠIjtimoiy":9807,"Ġtarkibiy":9808,"Ġtayanch":9809,"ĠFVV":9810,"orologiya":9811,"LAR":9812,"atildi":9813,"Ġdog":9814,"Ġsafiga":9815,"ĠCity":9816,"Ġfestival":9817,"ĠFe":9818,"Ġforumi":9819,"Ġtushuncha":9820,"ĠIbrohim":9821,"Ġmaktablari":9822,"Ġepidemiologik":9823,"Ġvujud":9824,"enni":9825,"Ġ180":9826,"xovat":9827,"Ġtortilgan":9828,"zbekistonliklar":9829,"Ġavgus":9830,"Lu":9831,"Ġtartibdagi":9832,"Ġxiyo":9833,"Ġxaritasi":9834,"ĠSuriyadagi":9835,"ĠBalki":9836,"OKA":9837,"iste":9838,"Ġbarmoq":9839,"Ġtartibsiz":9840,"Ġballi":9841,"Ġyotgan":9842,"ĠDaniya":9843,"lovning":9844,"datda":9845,"kich":9846,"lumbiya":9847,"Ġyuborildi":9848,"ĠMahalla":9849,"Ġbortida":9850,"Ġmanbalariga":9851,"Ġmahorat":9852,"ak":9853,"Ġkontrakt":9854,"Ġmintaqada":9855,"Ġmustasno":9856,"Ġinsonning":9857,"2014":9858,"Ġtoshqin":9859,"Ġqahva":9860,"Ġkiber":9861,"Ġchalin":9862,"zAuto":9863,"Ġmustahkamlashga":9864,"ĠKarimova":9865,"Ġesda":9866,"Ġqaytardi":9867,"epidemiologik":9868,"Ġboshqarmalari":9869,"ĠElekt":9870,"Ġsabzavot":9871,"Ġreali":9872,"testa":9873,"Ġetilgandi":9874,"lereya":9875,"Ġapel":9876,"portaj":9877,"Ġkunlar":9878,"Ġlogistika":9879,"Ġmuharri":9880,"Ġmotor":9881,"ĠYosh":9882,"ĠYork":9883,"Ġrasso":9884,"jara":9885,"Ġbriga":9886,"nalishlarda":9887,"mlanadi":9888,"Ġshaharlari":9889,"Ġtashkilotlarga":9890,"ĠGuliston":9891,"Ġaylanmasi":9892,"tnoma":9893,"sdi":9894,"chalarida":9895,"avto":9896,"tkazishi":9897,"Ġkuchlarining":9898,"ĠAvto":9899,").âĢľ":9900,"IZ":9901,"miniy":9902,"Ġdin":9903,"Ġbirlashmasi":9904,"ĠIIO":9905,"gumanitar":9906,"Ġrivojlanishiga":9907,"Ġbaxtli":9908,"ĠShtatlar":9909,"Ġdavlatlardan":9910,"zgartirilgan":9911,"Ġqahramoni":9912,"roda":9913,"Ġmuammolarini":9914,"tiramiz":9915,"Ġaksiyalari":9916,"\".":9917,"Ġtashqarida":9918,"Ġavtomobillari":9919,"Ġmaktablarda":9920,"ĠIIBga":9921,"lyandiya":9922,"Ġraqobatbardosh":9923,"nalishidagi":9924,"Vazirlik":9925,"Ġ2004":9926,"Ġqilishimiz":9927,"Jamo":9928,"Ġdezin":9929,"Ġnarko":9930,"AB":9931,"Ġhududlarni":9932,"Ġmoslama":9933,"Ġekstremistik":9934,"Ġdarak":9935,"ĠMakron":9936,"inlar":9937,"ĠEslatib":9938,"Ġtoifadagi":9939,"polkovnik":9940,"Ġburchak":9941,"Ġefirga":9942,"ĠNavro":9943,"Ġpoliklinika":9944,"ĠMustaqillik":9945,"100":9946,"Ju":9947,"Ġtakliflarni":9948,"Ġyarmi":9949,"Roma":9950,"ĠQizil":9951,"Ġgaplar":9952,"Ġmaqbul":9953,"Ġkorporatsiyasi":9954,"Ras":9955,"slo":9956,"lad":9957,"Ġetmagan":9958,"ekshi":9959,"ĠRossiyani":9960,"Suriya":9961,"qigan":9962,"Ġlozimligi":9963,"Ġyigirma":9964,"Ota":9965,"Ġichka":9966,"Ġraun":9967,"ĠGretsiya":9968,"Ġishiga":9969,"ĠAka":9970,"uskuna":9971,"ynaydi":9972,"lashning":9973,"Ġquriladi":9974,"qituvchilari":9975,"Ġsudda":9976,"Ġvakillariga":9977,"rgut":9978,"Ġvujudga":9979,"cher":9980,"ĠLat":9981,"Ġviloyatdagi":9982,"Angliya":9983,"lanki":9984,"Ġkans":9985,"Ġfuqarolariga":9986,"Ġqurilayotgan":9987,"Ġqismlari":9988,"ĠAkmal":9989,"tiz":9990,"Ġguruhida":9991,"ĠWi":9992,"LG":9993,"ullas":9994,"Ġshimoliy":9995,"ĠDamas":9996,"onga":9997,"lishlari":9998,"yultirilgan":9999,"Ġtushunish":10000,"tilishiga":10001,"vob":10002,"Ġorde":10003,"Ġhamdard":10004,"Ġqobiliyati":10005,"Ġapparati":10006,"kning":10007,"sdagi":10008,"Ġado":10009,"ĠLin":10010,"Ġavtotur":10011,"Ġsayr":10012,"Ġkonsep":10013,"Ġiyulda":10014,"shuv":10015,"Ġzarurat":10016,"Ġnazoratini":10017,"Ġjarayonda":10018,"Ġemlangan":10019,"Ġparametr":10020,"ĠYevropaning":10021,"Ġmijozlar":10022,"hir":10023,"lantiruvchi":10024,"rnatildi":10025,"Isroil":10026,"IC":10027,"lovchilarga":10028,"Qay":10029,"ĠTez":10030,"ĠTurkiyaga":10031,"ĠMurod":10032,"Uch":10033,"gov":10034,"ĠQorabog":10035,"Ġboshpana":10036,"rof":10037,"alt":10038,"Ġqabulxona":10039,"Ġochdi":10040,"Ġishtirokini":10041,"Ġqizning":10042,"Ġep":10043,"abari":10044,"Ġrangi":10045,"rilganini":10046,"ĠOxirgi":10047,"Ġkeluvchi":10048,"Ġfilmlar":10049,"ĠJorj":10050,"au":10051,"siri":10052,"Ġbiridir":10053,"Ġsalkam":10054,"Ġqurbonlar":10055,"Ġkv":10056,"uvon":10057,"Ġnaf":10058,"Ġatmosfera":10059,"Ġyaroqsiz":10060,"ĠKel":10061,"ĠMax":10062,"Ġparranda":10063,"Ġuchrashuvida":10064,"Ġsovet":10065,"ĠUchtepa":10066,"Ġchakana":10067,"Ġodamning":10068,"AK":10069,"qayev":10070,"Ġxalqiga":10071,"Ġbritaniya":10072,"Ġtumanlari":10073,"Ġyoritish":10074,"Ġbomba":10075,"Ġsav":10076,"Ġkunlarida":10077,"Ġkitoblar":10078,"Ġaktivlarini":10079,"Politsiya":10080,"Ġ09":10081,"rsatkichlar":10082,"plar":10083,"Ġyuritadi":10084,"chilardan":10085,"ĠAES":10086,"Ġishlay":10087,"Ġtutib":10088,"Ġyopish":10089,"ysun":10090,"Ġtopadi":10091,"taroq":10092,"ĠMIB":10093,"ĠImom":10094,"ovid":10095,"Ġxarita":10096,"con":10097,"Ġich":10098,"Ġpunktlari":10099,"Ġtarqalishining":10100,"Ġtanga":10101,"Ġkelganini":10102,"kontrakt":10103,"Ġtayinlash":10104,"Ġqanaqa":10105,"ĠTurizmni":10106,"Ġolganini":10107,"Ġyuvi":10108,"Ġxilof":10109,"ĠGermaniyaning":10110,"qora":10111,"Ġoqil":10112,"ldin":10113,"Ġnatijaga":10114,"Ġayollarning":10115,"joylar":10116,"ĠMerkel":10117,"dira":10118,"zolariga":10119,"ĠXabar":10120,"Ġnimani":10121,"Ð¸":10122,"Ġsuver":10123,"ĠQuyida":10124,"Ġbyudjye":10125,"grafiya":10126,"Ġboshlashi":10127,"ĠXur":10128,"Ġpaket":10129,"ĠChexiya":10130,"sni":10131,"Ġvazirlari":10132,"Ġpropiska":10133,"ĠMarkaz":10134,"zoqov":10135,"ĠYaman":10136,"Ġtortgan":10137,"Ġburg":10138,"markaz":10139,"Ġqurgan":10140,"Ġmutasaddilari":10141,"suv":10142,"chenko":10143,"entining":10144,"Ġegi":10145,"ĠHarakat":10146,"Ġkimning":10147,"Ġbronza":10148,"ppe":10149,"Ġmuso":10150,"satdan":10151,"Ġxitoylik":10152,"zboshimchalik":10153,"OL":10154,"atkor":10155,"Ġaloqalarini":10156,"Ġtanqis":10157,"Ġbajarilgan":10158,"Ġuyushtirilgan":10159,"Ġmagni":10160,"Ġturmushga":10161,"Ġdizayn":10162,"Ġopti":10163,"88":10164,"qlli":10165,"Ġvafo":10166,"liment":10167,"Olma":10168,"Ġkiy":10169,"midi":10170,"Ġ2003":10171,"Ġxavfini":10172,"57":10173,"yotib":10174,"novich":10175,"kobod":10176,"masdi":10177,"Ġboshqarmasiga":10178,"Ġmuzlat":10179,"qt":10180,"Ġmuxlislari":10181,"hli":10182,"madim":10183,"Ġturlarini":10184,"Ġchiqishini":10185,"sekin":10186,"ĠAnvar":10187,"Ġpnevmoniya":10188,"Ġdub":10189,"shiqchi":10190,"lovchisi":10191,"llaniladi":10192,"Vo":10193,"Ġsement":10194,"Umuman":10195,"kanali":10196,"Ġdina":10197,"Ġoperatsion":10198,"52":10199,"Ġmushuk":10200,"Ġstipendiya":10201,"ilib":10202,"Ġvazirning":10203,"Ġchoragida":10204,"Ġekipaj":10205,"Samsung":10206,"Ak":10207,"Ġyilida":10208,"Ġyopib":10209,"poq":10210,"Ġkengayti":10211,"Ber":10212,"Ġchiqarildi":10213,"Ġrejimida":10214,"Ġmanzili":10215,"lishadi":10216,"ĠCNN":10217,"ĠTehron":10218,"Ġvaziyatdan":10219,"Ġvrach":10220,"ASA":10221,"ĠInvestitsiyalar":10222,"mann":10223,"larimizda":10224,"ĠPaxta":10225,"ĠNursulton":10226,"Ġiyunda":10227,"Ġ1990":10228,"ĠAbdurahmonov":10229,":-":10230,"Xorazm":10231,"ayib":10232,"Ġvagon":10233,"Ġyilidan":10234,"Ġsoz":10235,"Ġrobot":10236,"Ġgeo":10237,"Ġbozoridagi":10238,"leg":10239,"ĠFIFA":10240,"Ġdegandi":10241,"Ġehtiyoji":10242,"Ġinqilo":10243,"olchilar":10244,"Mana":10245,"Ġtashkilotning":10246,"Ġ160":10247,"Ġmatematika":10248,"ĠInternational":10249,"Ġfuqarolarining":10250,"Ġqabri":10251,"Ġtarmoqli":10252,"Ġkvota":10253,"ÙĦ":10254,"zolyut":10255,"ĠShuni":10256,"Ġsharh":10257,"ĠMercedes":10258,"Ġbahosi":10259,"Ġtajribali":10260,"vel":10261,"Ġhayi":10262,"ĠHasan":10263,"Ġvideoni":10264,"ĠYi":10265,"Ġkompleksi":10266,"Ġolaman":10267,"Ġyopilgan":10268,"omedov":10269,"Ġpatent":10270,"Ġurf":10271,"ĠKen":10272,"leri":10273,"Ġtanlagan":10274,"Ġguruhlari":10275,"Ġbokschi":10276,"dit":10277,"kaut":10278,"yilgacha":10279,"milliy":10280,"Nyu":10281,"miya":10282,"ĠMol":10283,"Putin":10284,"Ġhavza":10285,"mili":10286,"Ġfaollari":10287,"berdiyev":10288,"lladi":10289,"ĠSpark":10290,"Ġqimmatli":10291,"ĠJoze":10292,"Ġdaftar":10293,"Ġfuqarolarini":10294,"Ġpunkti":10295,"NT":10296,"rit":10297,"ĠToshkentning":10298,"Ġshoir":10299,"ĠOlmaota":10300,"porativ":10301,"erinariya":10302,"Ġiqtidorli":10303,"Ġspirtli":10304,"ĠNeymar":10305,"keting":10306,"Ġhayvonot":10307,"ĠAPL":10308,"âĢĻ,":10309,"rush":10310,"Ġlozimligini":10311,"yashil":10312,"Ġsuvni":10313,"ibbiyot":10314,"Ġsanab":10315,"Ġqolamiz":10316,"Ġrektori":10317,"kora":10318,"ĠJCh":10319,"Ġquvva":10320,"Ġsafari":10321,"Ġoshir":10322,"Ġkamayib":10323,"Ġinfratuzilmasini":10324,"martfon":10325,"ĠNorvegiya":10326,"ĠShveytsariya":10327,"Ġtovarlarni":10328,"ĠMamlakatda":10329,"ĠBotir":10330,"ĠLionel":10331,"ekto":10332,"qolib":10333,"Ġaniqlangani":10334,"Ġshaxsni":10335,"Ġmuqaddas":10336,"Ġfevralda":10337,"Ġmasofani":10338,"Ġtanlovi":10339,"ĠChor":10340,"ĠAntoni":10341,"Ġshogirdlari":10342,"bli":10343,"chirilgan":10344,"Ġvazirliklar":10345,"Ġissiqxona":10346,"Ġjurnalistlarga":10347,"ĠCon":10348,"ĠDastur":10349,"Ġosoyishtalik":10350,"llarda":10351,"Ġmuhit":10352,"Ġfaoliyatni":10353,"Ġkechqurun":10354,"ĠRavshan":10355,"Ġbeda":10356,"Ġfoydalan":10357,"Ġqaytishi":10358,"Ġlav":10359,"Ġqoldirish":10360,"Ġturadigan":10361,"Ġhukumatga":10362,"jaligini":10363,"kidlaydi":10364,"Ġkommunikatsiyalarini":10365,"tana":10366,"udu":10367,"Ġfiribgar":10368,"Ġfirma":10369,"ĠYevroittifoq":10370,"larimizdan":10371,"kda":10372,"dagidek":10373,"ĠTom":10374,"utur":10375,"Ġfilia":10376,"ĠKengash":10377,"Ġmetropoli":10378,"Ġoqilona":10379,"ladimi":10380,"Ġxizmatchilar":10381,"Ġmavq":10382,"arlar":10383,"Ġ1992":10384,"ĠFederal":10385,"wa":10386,"ldirgan":10387,"ĠChevrolet":10388,"OR":10389,"taro":10390,"Ġqonunda":10391,"Ġtanishi":10392,"Ġsohil":10393,"Ġ2030":10394,"ĠCobalt":10395,"Ġsurati":10396,"Ġbozorini":10397,"05":10398,"Ġvan":10399,"Ġcharcha":10400,"qna":10401,"lasa":10402,"natorlar":10403,"Ġimkoniga":10404,"lmasdan":10405,"Ġhayotda":10406,"Ġsharoiti":10407,"Ġsayyor":10408,"Ġayollarga":10409,"Ġibodat":10410,"Ġzaxiralari":10411,"Ġseriali":10412,"Ġtranspor":10413,"qiqat":10414,"Ġuyni":10415,"Ġaybladi":10416,"Ġduo":10417,"rosa":10418,"vod":10419,"ĠBey":10420,"Ġgolli":10421,"ĠSov":10422,"lgari":10423,"Ġpen":10424,"Ġshaxmat":10425,"Uchinchi":10426,"Suv":10427,"Ġkasallikning":10428,"ĠFalastin":10429,"Ġketishiga":10430,"ĠIsmoilov":10431,"Mas":10432,"sik":10433,"Ġmamlakatlarida":10434,"Ġsuratlarni":10435,"Ġqolishga":10436,"Ġhazil":10437,"birini":10438,"eterinariya":10439,"Ġkonstruksiya":10440,"Ġjazosiga":10441,"himoya":10442,"ĠMari":10443,"Murojaat":10444,"Ġobektlarini":10445,"HD":10446,"Ġkelmagan":10447,"Ġoyga":10448,"Ġmanbalar":10449,"xush":10450,"qilib":10451,"Ġhokimlari":10452,"Ġreytingida":10453,"ĠYusupov":10454,"magida":10455,"rtaga":10456,"Ġmehr":10457,"Ġalyan":10458,"ĠMirobod":10459,"Ġhunarmand":10460,"shet":10461,"unkali":10462,"Ġruhi":10463,"ĠDani":10464,"Ġqatoriga":10465,"ĠShahrisabz":10466,"Ġpos":10467,"Ġshifokori":10468,"Ġotishma":10469,"ĠVir":10470,"Ġolinmagan":10471,"ĠGermaniyada":10472,"Ġkros":10473,"ĠVaho":10474,"Ġhududlarga":10475,"Ġbiron":10476,"Ġyug":10477,"Ġmoddalari":10478,"Ġqayerga":10479,"trans":10480,"dining":10481,"Ġtakro":10482,"Ġboshqalarga":10483,"ĠVengriya":10484,"ĠLigasining":10485,"ĠYil":10486,"Ġvok":10487,"Ġdisk":10488,"Ġchegarasi":10489,"69":10490,"Tar":10491,"Ġbakt":10492,"Ġbemorlarni":10493,"Ġmaqomini":10494,"Ġsohibi":10495,"Ġqarata":10496,"Ġtaslim":10497,"Ġparcha":10498,"Ġraqibi":10499,"Ġsotishga":10500,"Ġmohi":10501,"Ġberishdan":10502,"omet":10503,"doshlari":10504,"ĠXiva":10505,"Ġalif":10506,"Ġkomil":10507,"Ġfutbolchining":10508,"simliklar":10509,"Ġsaroyi":10510,"irini":10511,"ridagi":10512,"rgangan":10513,"Ġinsoniyat":10514,"zuqa":10515,"Ġyaxshilashga":10516,"Ġchizig":10517,"ĠSun":10518,"lovchilarni":10519,"ĠDushanbe":10520,"rsatiladi":10521,"Ġkamchiliklarni":10522,"Ġoilalarga":10523,"ĠSulay":10524,"Ġguruhining":10525,"Ġobektlar":10526,"ĠTor":10527,"Ġdavlatda":10528,"Ġxizmatchilari":10529,"Ġ1994":10530,"urmatli":10531,"Belgi":10532,"ĠOdamlar":10533,"faviy":10534,"Ġqonunning":10535,"ĠKodek":10536,"Ġtadbirkorlikni":10537,"Shifo":10538,"Ġmamnun":10539,"ĠAlma":10540,"Ġaytmoqda":10541,"Ġetilmaydi":10542,"Ġoilani":10543,"Ġuchrashish":10544,"Ġtashxis":10545,"sio":10546,"ilya":10547,"Ġderaza":10548,"ĠPrem":10549,"Ġyangilangan":10550,"Ġjigar":10551,"vallu":10552,"Ġziyon":10553,"Ġboricha":10554,"Ġchiqilib":10555,"Ġjarohatlangan":10556,"Ġfinalda":10557,"linton":10558,"Ġolganlar":10559,"ĠYagona":10560,"ĠYashnobod":10561,"Ġenergiyasini":10562,"Ġtarbiyalanuvchi":10563,"Ġjonivor":10564,"dromete":10565,"magomedov":10566,"Ġqilar":10567,"Ġdemokrat":10568,"Ġiqtisodiyotni":10569,"Ġtovon":10570,"ĠMahkamasiga":10571,"loni":10572,"Ġloyihasining":10573,"ĠShanxay":10574,"illari":10575,"Ġxabarlarni":10576,"aomi":10577,"Ġtola":10578,"Ġbularning":10579,"Ġkodeksi":10580,"Ġixtiro":10581,"daqiqasida":10582,"Ġboshchiligida":10583,"68":10584,"daniga":10585,"mizdagi":10586,"Ġinstitutining":10587,"ffi":10588,"Ġtasodi":10589,"Ġdyuymli":10590,"Ġichimliklar":10591,"Ġqalin":10592,"quvchilarning":10593,"Ġbuyumlari":10594,"?âĢĿ,":10595,"matli":10596,"Ġshartnomani":10597,"Ġoilaning":10598,"Ġnarsalarni":10599,"Ġoliygoh":10600,"Ġnamoyishlar":10601,"%)":10602,"Ġholatida":10603,"yxatida":10604,"Ġiqtisodiyotning":10605,"Nima":10606,"Odam":10607,"Ġbermadi":10608,"shimni":10609,"Aktrisa":10610,"Ġayirboshlash":10611,"Ð¾":10612,"Ġyutib":10613,"inni":10614,"Ġmamlakatlarning":10615,"Ġnarsaga":10616,"Ġbayonotda":10617,"IL":10618,"ĠJar":10619,"Ġmassa":10620,"Ġxarakt":10621,"ĠSte":10622,"ĠIgor":10623,"ĠTabiiy":10624,"konlar":10625,"Ġsamolyo":10626,"Ġasta":10627,"Ġmusht":10628,"Ġkesish":10629,"Ġxodimlarga":10630,"Chet":10631,"raktiv":10632,"Ġloyihasiga":10633,"Ġbudjetdan":10634,"ynash":10635,"Ġ[":10636,"Ġjurnal":10637,"Ġqov":10638,"Ġsarlavha":10639,"Ġprofilaktikasi":10640,"Tergov":10641,"hay":10642,"ĠBular":10643,"ĠMail":10644,"Ġtekshirib":10645,"Ġyapon":10646,"Ġchiqarilayotgan":10647,"Ġsonining":10648,"Ġochiladi":10649,"Ġqaratdi":10650,"chiligini":10651,"kologik":10652,"mondoni":10653,"Ġkasallikni":10654,"Ġtenden":10655,"Ġqizg":10656,"ĠKarim":10657,"minot":10658,"ĠGur":10659,"izistonda":10660,"Ġolmasligi":10661,"raydi":10662,"ĠJamoa":10663,"Ġhuquqbuzarliklar":10664,"Ġishora":10665,"Ġday":10666,"Ġtashkilotga":10667,"ĠKattaqo":10668,"hra":10669,"ĠXitoydan":10670,"Ġfederatsiya":10671,"naltiriladi":10672,"ĠXudo":10673,"ĠHabib":10674,"Sirdaryo":10675,"ira":10676,"kiga":10677,"vol":10678,"ose":10679,"ĠAbra":10680,"Ġmigran":10681,"ĠKal":10682,"Ġatroflicha":10683,"giyena":10684,"Ġqilishmoqda":10685,"Ġjozi":10686,"Yong":10687,"qotib":10688,"laganda":10689,"Ġbandlik":10690,"01":10691,"Ġyangicha":10692,"Ġbarchasini":10693,"Ġuylari":10694,"Ġmeri":10695,"lashtirilib":10696,"tishimiz":10697,"ĠSSV":10698,"ĠSon":10699,"Ġkuz":10700,"85":10701,"Ġviloyatidan":10702,"Ġshisha":10703,"Ġayolni":10704,"Ġfoydalaniladi":10705,"ĠDonbass":10706,"Ġxalaqit":10707,"nel":10708,"Ġsuyultirilgan":10709,"Ġustasi":10710,"Ġkelsa":10711,"Ġqurilmalari":10712,"Ġfermerlar":10713,"ĠSaf":10714,"ĠQosim":10715,"Ġasosiysi":10716,"Ġmuxbir":10717,"zaki":10718,"ĠKer":10719,"Ġtashkilotiga":10720,"Ġvakola":10721,"Ġfaxr":10722,"rdim":10723,"manov":10724,"Ġterrorchi":10725,"Ġpeshqadam":10726,"ĠBerdimuhamedov":10727,"vard":10728,"Ġmigrant":10729,"ator":10730,"xotin":10731,"Ġinvestitsiyalarni":10732,"naviyat":10733,"shoh":10734,"Ġturtki":10735,"Ġ2002":10736,"tiborga":10737,"rupsiyaga":10738,"ĠStiv":10739,"lmasin":10740,"ĠSoli":10741,"ĠKoreyaga":10742,"ĠHuawei":10743,"Ġshoh":10744,"rgazmasi":10745,"Oila":10746,"Ġtavallu":10747,"Ġrejalar":10748,"Ġvazifalarini":10749,"Ġtadbiri":10750,"Ġrahbariga":10751,"Ġtayyorgar":10752,"Ġnormal":10753,"energo":10754,"Ġbefar":10755,"Ġtashqariga":10756,"Ġkeltir":10757,"Ġattesta":10758,"over":10759,"rsata":10760,"Ġboruvchi":10761,"Ġshartli":10762,"Kecha":10763,"Ġqotillik":10764,"Keyingi":10765,"xun":10766,"Ġjoylardagi":10767,"vizi":10768,"Ġchiqadigan":10769,"zimga":10770,"Internet":10771,"Ġbilaman":10772,"yota":10773,"arog":10774,"Ġvazirlar":10775,"Ġmuhitini":10776,"ĠYoki":10777,"Ġjavobgarlikni":10778,"64":10779,"Ġsxe":10780,"ĠGM":10781,"ĠPS":10782,"Ġsohalardagi":10783,"ĠDiy":10784,"Ġmanfaatlariga":10785,"Ġafsus":10786,"ĠYusuf":10787,"ĠHolat":10788,"Ġkuchini":10789,"Ġhan":10790,"rohat":10791,"Ġchiqishda":10792,"Ġarizasi":10793,"Ġjihozlash":10794,"Eksp":10795,"mayotgani":10796,"Ġocha":10797,"Ġsm":10798,"dual":10799,"Ġmaqomi":10800,"ĠNamanganda":10801,"hti":10802,"Ġyashar":10803,"ildirak":10804,"Ġkisl":10805,"ĠQizi":10806,"Avtomobil":10807,"ĠBra":10808,"Ġnoodatiy":10809,"Ġyuqtirgan":10810,"Ġhamjamiyat":10811,"Obod":10812,"dyus":10813,"ĠMor":10814,"Ġizhor":10815,"ĠNurmagomedov":10816,"Ġyaxlit":10817,"Ġolishiga":10818,"Ġbersa":10819,"MW":10820,"Ġchiziq":10821,"ĠSaakash":10822,"lashiga":10823,"Ġkechish":10824,"Ġberaman":10825,"Ġayolga":10826,"Ġvelosiped":10827,"Ġimo":10828,"voy":10829,"Ġinstitutini":10830,"Tah":10831,"Ġoling":10832,"ladik":10833,"Ġgrant":10834,"yos":10835,"ĠMal":10836,"Ġolishadi":10837,"pini":10838,"Ġsaylovlari":10839,"ĠBishkek":10840,"Ġshahardagi":10841,"rasmiy":10842,"Ġpedagogika":10843,"Ġalayhi":10844,"Ġtushirildi":10845,"rganishlar":10846,"zlarni":10847,"Ġhavas":10848,"Ġkubo":10849,"Ġxom":10850,"Ġshaharlarda":10851,"ĠZidan":10852,"Ġtizimda":10853,"Ġyuklatilgan":10854,"Ġdekabrida":10855,"Moliya":10856,"Ġurish":10857,"Ġfani":10858,"vidual":10859,"ĠKamo":10860,"ĠSeul":10861,"ĠRuslan":10862,"Ġkonsullik":10863,"ĠLav":10864,"Ġtasdiqlanadi":10865,"Sputnik":10866,"vkasi":10867,"Ġolsa":10868,"cham":10869,"Ġyarasha":10870,"Ġpech":10871,"etsk":10872,"Ġqoldiq":10873,"Ġqoldirib":10874,"Ġusulda":10875,"Ġsuiiste":10876,"Ġgubernatori":10877,"utu":10878,"Ġpuxta":10879,"xtatishga":10880,"Ġaytishdi":10881,"Ġulgurgan":10882,"Ġqulab":10883,"97":10884,"natish":10885,"Ġyuritib":10886,"Vi":10887,"Ġret":10888,"Ġmaydonlari":10889,"lmish":10890,"Ġpoyabzal":10891,"67":10892,"ĠQiz":10893,"orish":10894,"zinchi":10895,"stligi":10896,"ĠHy":10897,"ĠXor":10898,"test":10899,"lashtirishi":10900,"Ġrasmiylashtirib":10901,"Ġquyidagilarni":10902,"Ġhamdardlik":10903,"vensiya":10904,"Ġkela":10905,"Ġtelegram":10906,"Tadqiqot":10907,"Ġjahonda":10908,"ĠWe":10909,"Ġartisti":10910,"kni":10911,"Ġaliment":10912,"Ġ(@":10913,"ĠDoni":10914,"hidov":10915,"Ġbahor":10916,"Ġmurojaati":10917,"Tashqi":10918,"Ġfur":10919,"Ġrav":10920,"Ġtumanlar":10921,"ĠUmarov":10922,"ripp":10923,"radio":10924,"veto":10925,"Ġochgan":10926,"Ġsuratlari":10927,"ĠPremyer":10928,"one":10929,"Ġjuftlik":10930,"Ġchegirma":10931,"ĠMahmud":10932,"Ġsarflangan":10933,"Ġtushirib":10934,"iladi":10935,"ĠMariya":10936,"Ġrasmiylashtirilgan":10937,"Ġoqib":10938,"Ġalmashildi":10939,"zgacha":10940,"Ġtranzit":10941,"Ġhaligacha":10942,"ĠRespublikasiga":10943,"ĠInnovatsion":10944,"Ġtizimlarini":10945,"Uzbekistan":10946,"kol":10947,"ĠFMB":10948,"qoti":10949,"Ġbajarishga":10950,"Ġcharter":10951,"Ġsodiq":10952,"ĠViktor":10953,"moddasida":10954,"Ġmuhr":10955,"Ġalifbo":10956,"Ġyozda":10957,"Ġmamlakati":10958,"Ġchiqayotgan":10959,"Ġettirilmoqda":10960,"Ġboradigan":10961,"Ġofis":10962,"smirlar":10963,"Ġhalokatga":10964,"Ġpasay":10965,"Ġdalolatnoma":10966,"Ġsirt":10967,"Ġaniqlab":10968,"Ġchiqishiga":10969,"pace":10970,"ĠCher":10971,"Ġaviaqatnov":10972,"uka":10973,"ĠUS":10974,"Ġchiqari":10975,"Ġfuqarolardan":10976,"Ġhamjamiyati":10977,"Oxirgi":10978,"Ġpudrat":10979,"Ġhamkasbi":10980,"ĠYaponiyaning":10981,"fevra":10982,"ĠOybek":10983,"Ġtopishi":10984,"Ġsohani":10985,"Ġqamrov":10986,"ĠPentagon":10987,"Ġxalqning":10988,"Ġodamni":10989,"Ġvakolatxonasi":10990,"bile":10991,"Ġtashvish":10992,"Ġnavbatdan":10993,"onistonning":10994,"Ġmaoshi":10995,"Ġmahallada":10996,"Pan":10997,"versal":10998,"Ġhozirgacha":10999,"Ġyuksal":11000,"jaligida":11001,"Ġkechdi":11002,"Ġaytgani":11003,"Ġbosimi":11004,"ĠVar":11005,"Ġunitar":11006,"Ġishlatib":11007,"ĠĠĠĠĠĠĠ":11008,"Ġtexnikasi":11009,"Ġbildirgandi":11010,"Ġbandligini":11011,"Ġbiriktirilgan":11012,"Tas":11013,"Ġsotgan":11014,"ruh":11015,"Ġmuvozanat":11016,"allikni":11017,"Ġchaqiriq":11018,"Endilikda":11019,"mana":11020,"Ġdavlatdan":11021,"Ġoshqo":11022,"Ġmuzeyi":11023,"Ġmuxtor":11024,"Ġkomplek":11025,"Ġqulayliklar":11026,"onni":11027,"Ġxabarlari":11028,"Ġegallaydi":11029,"opoliyaga":11030,"Ġmasofada":11031,"gunga":11032,"via":11033,"Ġsportchilar":11034,"Ġsignal":11035,"Telefon":11036,"Agro":11037,"darov":11038,"Ġqolganini":11039,"Ġmamlaka":11040,"Ġhalqa":11041,"qnashuvlar":11042,"tishicha":11043,"qis":11044,"ĠEx":11045,"laylik":11046,"ĠErmatov":11047,"raymiz":11048,"Ġkelasi":11049,"Ġegalariga":11050,"Ġklublari":11051,"Ġrealizatsiya":11052,"huquq":11053,"Ġozuqa":11054,"zolarining":11055,"kovich":11056,"ind":11057,"Ġqanoat":11058,"Ġxohlagan":11059,"Ġustav":11060,"Ġbaravarigacha":11061,"ney":11062,"yom":11063,"ĠEkologiya":11064,"Ġxodimlarni":11065,"Ġhududini":11066,"Ġsudiga":11067,"Ġmintaqadagi":11068,"Ġtelekanaliga":11069,"Ġofisi":11070,"Ġketayotgani":11071,"Ġnotarial":11072,"Ġchetda":11073,"ĠBerlin":11074,"yen":11075,"tip":11076,"voyi":11077,"utqaruv":11078,"chkina":11079,"nglar":11080,"Ġpush":11081,"qoq":11082,"Ġtashkilotlarining":11083,"Ġstandartlar":11084,"Ġuskunalari":11085,"Ġtanilgan":11086,"yevning":11087,"Ġyuborishi":11088,"Ġmajburiyatlarini":11089,"Ġuzaytirish":11090,"lardir":11091,"Ġsektori":11092,"Ġprofilaktik":11093,"ariq":11094,"tkazmoqda":11095,"ĠMed":11096,"xshaydi":11097,"Qarorga":11098,"feri":11099,"Ê»":11100,"Ġovozi":11101,"llohu":11102,"drometeorologiya":11103,"pan":11104,"toy":11105,"zbekistonni":11106,"Ġmatn":11107,"tarbiya":11108,"Ġmaqolada":11109,"Ġatrofdagi":11110,"Ġdiabet":11111,"Ġavtomobillarni":11112,"Ġnarxlarda":11113,"Ġchetla":11114,"Ġbalandligi":11115,"ĠSilva":11116,"Ġbedarak":11117,"Ġhasha":11118,"Ġkoloniya":11119,"Ġkamaydi":11120,"Ġpasaytirish":11121,"Ġtopishga":11122,"Ġuchastkalari":11123,"Ġdezinfeksiya":11124,"56":11125,"Ġstat":11126,"Ġsolinadi":11127,"Ġarzi":11128,"Ġahvol":11129,"Ġojiz":11130,"Ġjome":11131,"oldi":11132,"Ġuzum":11133,"Ġvakilining":11134,"Ġdaromadlari":11135,"Ġfarmoniga":11136,"dev":11137,"Turkmaniston":11138,"Ġkiritilmagan":11139,"Ġdizayner":11140,"larimni":11141,"Ġmashinasini":11142,"zolyutsiya":11143,"Ġdavolanayotgan":11144,"Ġturizmni":11145,"Ġoptimal":11146,"59":11147,"RO":11148,"qmi":11149,"Ġ1999":11150,"Ġotr":11151,"minlashga":11152,"ĠMoskvaga":11153,"Ġqolsa":11154,"Ġaybla":11155,"Ġoyidagi":11156,"Ġyaratdi":11157,"gre":11158,"ua":11159,"ĠXuddi":11160,"Ġolmaymiz":11161,"jik":11162,"tardi":11163,"Ġnazoratni":11164,"ĠSanitariya":11165,"Ġbayrog":11166,"Ġzararni":11167,"Ġbazasida":11168,"Ġsariq":11169,"ĠMadina":11170,"ĠEronning":11171,"ĠBolalar":11172,"Ġaxloq":11173,"ĠJi":11174,"rsatishni":11175,"ĠBuxoroda":11176,"Ġolishingiz":11177,"ĠNorboyeva":11178,"Ġnosoz":11179,"ĠDavron":11180,"xgal":11181,"star":11182,"Ġqilina":11183,"ldir":11184,"kari":11185,"ĠKataloniya":11186,"Ġishida":11187,"Ġdiplomati":11188,"ĠErgashev":11189,"latov":11190,"Ġulanish":11191,"ĠTil":11192,"ĠPxen":11193,"Ġqonunlar":11194,"quvvatlaydi":11195,"turidan":11196,"zavtosanoat":11197,"Yan":11198,"ngres":11199,"Ġyozida":11200,"dom":11201,"ĠAm":11202,"Ġhosi":11203,"yuz":11204,"Ġqad":11205,"ĠGlobal":11206,"ĠMadu":11207,"Ġturgani":11208,"yuta":11209,"Ġbuyuri":11210,"qidiruv":11211,"boz":11212,"Ġistagi":11213,"Ġbaravarga":11214,"ĠIz":11215,"Ġaholisiga":11216,"bror":11217,"turida":11218,"Ġinteraktiv":11219,"anday":11220,"Ġkoronavirusni":11221,"zik":11222,"dovchi":11223,"Avvalgi":11224,"Ġbefarq":11225,"Ġhin":11226,"Ġsaylovi":11227,"ĠBang":11228,"ziv":11229,"rilishiga":11230,"Ġuchrashib":11231,"gra":11232,"Ġqilinsa":11233,"Ġmuassasalar":11234,"Ġning":11235,"chat":11236,"Ġpayqa":11237,"qishini":11238,"Ġshosh":11239,"rinlarni":11240,"ĠYig":11241,"minlaydi":11242,"Ġdizel":11243,"Ġ1996":11244,"ĠJKning":11245,"iroz":11246,"momali":11247,"yinlarida":11248,"xonov":11249,"paydi":11250,"raga":11251,"Shunga":11252,"Ġqilishiga":11253,"ĠFur":11254,"Ġmetrni":11255,"moqchimiz":11256,"Ġligasi":11257,"Ġlavha":11258,"Ġmoto":11259,"Ġshaxslardan":11260,"Ġtarmoqlarini":11261,"urov":11262,"Ġqadoq":11263,"zilgani":11264,"els":11265,"Ġustoz":11266,"ĠMillatlar":11267,"Qi":11268,"ĠVideo":11269,"rup":11270,"Ġemasmi":11271,"Ġshaxslari":11272,"Ġchiqarishda":11273,"Ġmuvaffaqiyatsiz":11274,"Ġmulohaza":11275,"Ġtahlili":11276,"Ġshunaqa":11277,"Ġalmashinuvi":11278,"Ġmamlakatlarga":11279,"and":11280,"Ġhududni":11281,"ĠTadqiqot":11282,"Ġshtatidagi":11283,"ĠSuriyada":11284,"choqlar":11285,"Ġnutqida":11286,"ĠBoris":11287,"ĠKlinton":11288,"Ġtajribaga":11289,"Ġkafedra":11290,"Ġjinoyatlarni":11291,"ĠSanjar":11292,"ktemir":11293,"Ġqul":11294,"ĠMurojaat":11295,"Ġstaji":11296,"Ġoqibatlari":11297,"Ġnotijorat":11298,"Ġney":11299,"Ġajratilishi":11300,"Ġtayangan":11301,"Ġnokaut":11302,"latimiz":11303,"Ġshular":11304,"izistonning":11305,"Ġeshitish":11306,"Ġekish":11307,"Ġmusodara":11308,"ly":11309,"CO":11310,"Qur":11311,"Ġhududlardagi":11312,"Ġodamga":11313,"Ġklublar":11314,"Ġsaroyida":11315,"ĠLitva":11316,"shshoq":11317,"ĠRF":11318,"Ġshir":11319,"Ġmajmuasida":11320,"Ġsmartfonlar":11321,"ĠEnergetika":11322,"Ġsuiqas":11323,"Ġsurunkali":11324,"Ġkasaba":11325,"Soliq":11326,"Ġtunda":11327,"Ġbegona":11328,"Ġmahora":11329,"Ġizolyatsiya":11330,"prom":11331,"Ġtomoshabinlar":11332,"58":11333,"ĠMash":11334,"Ġoldim":11335,"ĠZiyo":11336,"ĠMusa":11337,"rtoqlik":11338,"But":11339,"Ġfal":11340,"Ġxizmatidan":11341,"Ġjangarilar":11342,"Ġtaqsimlash":11343,"Agentlik":11344,"Ġkutilgan":11345,"Ġsado":11346,"ĠHali":11347,"Ġtoliblar":11348,"Pol":11349,"Ġ1998":11350,"Ġhanuz":11351,"Ġshafqat":11352,"lantiradi":11353,"Ġishlarida":11354,"Ġikkinchisi":11355,"Ġorganlarida":11356,"Ġvakillaridan":11357,"Ġamaliyotini":11358,"risi":11359,"Ġafsuski":11360,"Ġdispley":11361,"AL":11362,"Ġder":11363,"roqchi":11364,"ĠSaloh":11365,"paygan":11366,"Ġhissasi":11367,"ares":11368,"Ġyotib":11369,"Ġmemorandum":11370,"ribonlik":11371,"Ġrivojlanayotgan":11372,"Ġinstitutida":11373,"Ġmigratsiyasi":11374,"chaning":11375,"ĠQahra":11376,"Ġtomoniga":11377,"Ġsabablar":11378,"Ġtarmoqlardagi":11379,"Ġsammiti":11380,"klub":11381,"Ġjamoasini":11382,"Ġkelganda":11383,"Ġapellyatsiya":11384,"Ġjamoada":11385,"Ġqilinishiga":11386,"Ġyozuvi":11387,"Ġbaholanmoqda":11388,"Ġmarkazlarida":11389,"Ġogohlantirgan":11390,"mpeo":11391,"Ġnish":11392,"Ġshaklidagi":11393,"Ġkelinmoqda":11394,"ĠSenatining":11395,"Cha":11396,"Ġmustaqillik":11397,"Ġgumonlanuvchi":11398,"Ġyasalgan":11399,"Ġkorporatsiya":11400,"ĠSardoba":11401,"Ġmavqe":11402,"plami":11403,"uniga":11404,"Ġqolaversa":11405,"Ġsudlanuvchi":11406,"Ġhisobotida":11407,"IShID":11408,"lita":11409,"ĠAliyev":11410,"hamat":11411,"Ġtarzida":11412,"Ġmatni":11413,"Ġhayron":11414,"Ġtarqalishiga":11415,"kredit":11416,"Huquqiy":11417,"pus":11418,"kanal":11419,"Ġgolga":11420,"dalar":11421,"Ġfrak":11422,"diyona":11423,":âĢ¢":11424,"Ġishlarning":11425,"arafshon":11426,"Ġtugatish":11427,"Ġsummasi":11428,"ĠAniq":11429,"ĠHe":11430,"Ġqoldir":11431,"ĠAndijonda":11432,"yinlarda":11433,"Ġjamoani":11434,"Ġrejalashtirish":11435,"Ġinsonlarning":11436,"Ġmurabbiylar":11437,"Ġavtoturargoh":11438,"Ġchaqirish":11439,"Ġeshitib":11440,"Ġboshqaruvni":11441,"Ġrivojiga":11442,"sati":11443,"Ġqoplab":11444,"ĠYoz":11445,"Ġxalos":11446,"Ġqarzdorlik":11447,"Amerikalik":11448,"sli":11449,"Ġxonim":11450,"ĠCovid":11451,"Ġgapirgan":11452,"ĠDastlab":11453,"Ġuylarning":11454,"Ġmuammoga":11455,"Ġjarayonlarini":11456,"vetofor":11457,"79":11458,"jesti":11459,"Ġtuh":11460,"ĠUlarda":11461,"qola":11462,"Ġaxborotni":11463,"54":11464,"Ġrivojlanib":11465,"US":11466,"tadan":11467,"tek":11468,"Ġ450":11469,"Ġhaftalik":11470,"ĠUrgut":11471,"kogol":11472,"Ġtim":11473,"xtatdi":11474,"ĠTaq":11475,"Ġtasdiqlaydi":11476,"Ġnarxda":11477,"Ġqurilmasi":11478,"Ġstarta":11479,"tariladi":11480,"Ġqonunbuzar":11481,"Ġochishni":11482,"Ġkuzatilishi":11483,"Ġavvaliga":11484,"ĠTursunov":11485,"06":11486,"Ġprodyus":11487,"Ġmehnati":11488,"ĠZero":11489,"Ġxorijdagi":11490,"Ġinvestitsiyaviy":11491,"Ġmasofaviy":11492,"Ġyonda":11493,"Ġsalomatligini":11494,"Ġoperatori":11495,"lgariya":11496,"lindi":11497,"Ġkorporativ":11498,"Ġtumanidan":11499,"Ġchega":11500,"rgatish":11501,"Ġjihozlar":11502,"irlik":11503,"ĠNashr":11504,"Ġistirohat":11505,"Ġpasayib":11506,"ĠShveysariya":11507,"Ġuyali":11508,"Kam":11509,"Inson":11510,"ĠKomil":11511,"teyner":11512,"Ġmarkazini":11513,"Ġholatlarni":11514,"Ġnamoyishlari":11515,"Ġakasi":11516,"EF":11517,"magi":11518,"ĠUmumiy":11519,"ĠSaida":11520,"Ġizlanish":11521,"jye":11522,"erga":11523,"Ġtashlagan":11524,"Ġajab":11525,"Ġkimni":11526,"plam":11527,"una":11528,"Ġulangan":11529,"Ġ1997":11530,"Ġbeka":11531,"Ġberar":11532,"Ġbaravaridan":11533,"Ġolmoqchi":11534,"Ġjihatlari":11535,"Ġtal":11536,"lmayotgan":11537,"iborga":11538,"Ġhammasini":11539,"Axborot":11540,"undai":11541,"ĠRasu":11542,"Ġraqamlari":11543,"Ġyulduzi":11544,"Ġvahi":11545,"ĠStar":11546,"nalishlarini":11547,"ĠAOKA":11548,"Ġkiritishga":11549,"ĠTailand":11550,"Ġinspektorlari":11551,"Ġishlov":11552,"Ġtashkillashtirish":11553,"teatr":11554,"ĠMux":11555,"Ġdayjesti":11556,"Ġolsak":11557,"Ġkonstru":11558,"Ġhissi":11559,"72":11560,"Ros":11561,"Ġyangidan":11562,"Ġberilayotgan":11563,"Ġkanalizatsiya":11564,"alabaga":11565,"Ġadabiyoti":11566,"ĠPre":11567,"Ġaksiyasi":11568,"ĠBino":11569,"shunoslik":11570,"kino":11571,"Ġorbi":11572,"alabani":11573,"AQShda":11574,"ĠTashkent":11575,"Ġborishni":11576,"Ġyechimini":11577,"ududiy":11578,"ĠXotin":11579,"zing":11580,"Ġsoluvchi":11581,"ĠSen":11582,"Ġyang":11583,"loglar":11584,"Ġtvitter":11585,"Ġchegarasida":11586,"âĢĺ'":11587,"Ġholga":11588,"Ġborgani":11589,"kselli":11590,"rea":11591,"ishon":11592,"Ġiyuldan":11593,"Ġindividual":11594,"ĠAmazon":11595,"metrida":11596,"ĠZelandiya":11597,"ĠLatviya":11598,"Ġjoydan":11599,"Ġroziligi":11600,"Ġqiruvchi":11601,"Ġhimoyaga":11602,"oytaxt":11603,"dali":11604,"Ġtalqin":11605,"Ġberishlaricha":11606,"Ġresurslar":11607,"yoriy":11608,"Ġinten":11609,"zgardi":11610,"ĠLiviya":11611,"partament":11612,"ĠMayk":11613,"uroniy":11614,"minov":11615,"Ġmahsulotlarning":11616,"Ġ1991":11617,"Ġsahifasi":11618,"ĠRahmat":11619,"ĠXudoy":11620,"nitar":11621,"Ġistay":11622,"Ġ1995":11623,"Ġekspertlari":11624,"400":11625,"Ġsat":11626,"Ġtumanning":11627,"Ġbolalari":11628,"slav":11629,"allif":11630,"yorlar":11631,"Ġshaxsi":11632,"ĠBahrom":11633,"Ġqirollik":11634,"Ġsabr":11635,"Ġpullari":11636,"ĠLigasida":11637,"Ġreyslar":11638,"KMK":11639,"Ġoktab":11640,"Ġaniqlanadi":11641,"Ġundagi":11642,"HM":11643,"Ġboshlangani":11644,"onida":11645,"Ġbildirildi":11646,"ĠBemor":11647,"Ġstansiyalari":11648,"xil":11649,"Ġhayotiy":11650,"stoniya":11651,"chilaridan":11652,"Ġuchrab":11653,"bappe":11654,"Ġqilyapti":11655,"Ġharakatlanayotgan":11656,"Ġhujjatda":11657,"ĠAzizbek":11658,"ĠDevid":11659,"Min":11660,"Ġkislo":11661,"ĠPen":11662,"ĠQud":11663,"inlanadi":11664,"Ġolmayman":11665,"Rey":11666,"shiladi":11667,"naltirish":11668,"Ġsanasi":11669,"ĠYaponiyada":11670,"Ġ128":11671,"Ġkelishmovchilik":11672,"ĠMicrosoft":11673,"ret":11674,"Ġguruhiga":11675,"yektlarining":11676,"ĠYangiyo":11677,"Ġmexanizmlarini":11678,"Ġfay":11679,"Ġishda":11680,"Ġoilasiga":11681,"Ġqoidalar":11682,"Ġreanimat":11683,"Ġmerosi":11684,"ĠBarak":11685,"Ġetsa":11686,"Ġistiqbo":11687,"Butun":11688,"Hurmatli":11689,"Ġgeologiya":11690,"Ġjarayonni":11691,"Ġbosqichiga":11692,"Ġuzilishlar":11693,"nom":11694,"ĠBryus":11695,"Ru":11696,"ĠMaxsus":11697,"Ġxizmatga":11698,"Ġmavze":11699,"Ġtopshiriladi":11700,"chilarining":11701,"Ġnabi":11702,"Ġtajribasini":11703,"Ġhayotida":11704,"ngo":11705,"rishda":11706,"Ġteg":11707,"Ġtizimga":11708,"Napoli":11709,"king":11710,"ksim":11711,"ĠSto":11712,"ĠCor":11713,"Ġulushini":11714,"Ġeslat":11715,"Ġhadi":11716,"Ġsoladi":11717,"eksp":11718,"Ġberilishicha":11719,"siness":11720,"Ġtekshiruvdan":11721,"Ġvitamini":11722,"Ġpasporti":11723,"Ġkislorod":11724,"bra":11725,"Ġviloyatlarda":11726,"Ġsanksiyalarni":11727,"Ġversiyasi":11728,"Ġibn":11729,"ekshiruv":11730,"Ġkelinadi":11731,"mura":11732,"ation":11733,"Ġboshlagani":11734,"Ġsentyabrda":11735,"Ġnobud":11736,"ering":11737,"Ġjinoyatchilik":11738,"Ġsanti":11739,"Ġkodeksiga":11740,"yanvardan":11741,"Ġtabrikladi":11742,"zning":11743,"ĠXXR":11744,"krain":11745,"Ġvideolavha":11746,"ĠKitob":11747,"Ġavton":11748,"Ġqozoni":11749,"Ġyodga":11750,"Ġassamb":11751,"Ġchaqirib":11752,"harakatlar":11753,"gishli":11754,"Ġdavolanmoqda":11755,"Ġfuqaroligi":11756,"Ġdeganda":11757,"Ġqiziqtirgan":11758,"Ġreytingini":11759,"Tinch":11760,"Ġsentab":11761,"ĠFir":11762,"Ġsoliqlar":11763,"Ġsamolyotlari":11764,"Ġboshqara":11765,"Ġbildirilmoqda":11766,"Ġjarohatlar":11767,"Ġprotsessual":11768,"53":11769,"ĠRiz":11770,"Ġberuvchilar":11771,"Ġunumli":11772,"Ġyechib":11773,"ĠKengashining":11774,"lashimiz":11775,"Ġyuklab":11776,"Ġaqlli":11777,"Adliya":11778,"ĠTA":11779,"Ġistagini":11780,"Ġsafarda":11781,"ĠNorma":11782,"Ġuyushmalari":11783,"Yuqoridagi":11784,"af":11785,"foto":11786,"Ġavtosa":11787,"Ġaholisini":11788,"Ġoperatsiyasi":11789,"Manzil":11790,"Tashrif":11791,"Ġyanvarida":11792,"DP":11793,"ĠGer":11794,"Ġdollarning":11795,"Ġommabop":11796,"Ġoltita":11797,"Ġbosqin":11798,"pikeri":11799,"04":11800,"Ġklip":11801,"Ġsingli":11802,"Ġtumanlararo":11803,"Ġmaqolalar":11804,"odat":11805,"Ġavtomobilini":11806,"Or":11807,"ĠJye":11808,"Ġtaqsi":11809,"Ġchiqindilarni":11810,"ĠMish":11811,"Ġberganini":11812,"amxo":11813,"Ġaloqada":11814,"Muzokara":11815,"Ġmaslahatlashuv":11816,"Ġtushadigan":11817,"ĠDin":11818,"Ġmarketing":11819,"istonga":11820,"Ġaql":11821,"ĠYevropadagi":11822,"Ġayblanuvchi":11823,"chilariga":11824,"Ġqava":11825,"ĠEksp":11826,"Ġvazirliklari":11827,"itta":11828,"Ġbinoning":11829,"use":11830,"montaj":11831,"ĠChu":11832,"Ġsotuv":11833,"ĠTayvan":11834,"chani":11835,"Ġtumanlarda":11836,"chinarli":11837,"63":11838,"Ġbio":11839,"chasidan":11840,"soci":11841,"Ġtomonida":11842,"Ġbahsi":11843,"Ġnamoyishi":11844,"wagen":11845,"TT":11846,"tlik":11847,"Ġchaqir":11848,"qum":11849,"laganini":11850,"Ġuchdan":11851,"Ġnorasmiy":11852,"Ġqarshisida":11853,"Ġdaqiqada":11854,"tirilgani":11855,"xonasida":11856,"Ġdavomiy":11857,"Ġbritaniyalik":11858,"est":11859,"yishini":11860,"Ġmuborak":11861,"Ġfarqi":11862,"Ġoltinchi":11863,"sko":11864,"Ġ08":11865,"ulotlari":11866,"Ġtendensiya":11867,"lich":11868,"lumotlarini":11869,"Ġtonnadan":11870,"Ġpartiyalar":11871,"Ġqatnashadi":11872,"ĠUsmonova":11873,"Ġakkumulyator":11874,"Ġattestatsiya":11875,"bozlik":11876,"Ġjasad":11877,"Ġraketalar":11878,"Ġyangilash":11879,"Ġhavoda":11880,"ĠOrtiqxo":11881,"Ġboshlanib":11882,"tkazilishini":11883,"Ġlaqa":11884,"onistonga":11885,"zgarishlarni":11886,"ĠSharof":11887,"Ġxati":11888,"Ġsaqlanayotgan":11889,"Ġtalabasi":11890,"yildagi":11891,"Ġsudning":11892,"ĠFoto":11893,"Ġsantimetr":11894,"CH":11895,"Musta":11896,"ynadi":11897,"Ġidoralararo":11898,"Ġhajmining":11899,"Avva":11900,"Ġsaylovlarida":11901,"usni":11902,"Ġhaftadan":11903,"Rossiyada":11904,"Ġkengaytirilgan":11905,"dhi":11906,"yarog":11907,"lamoqchi":11908,"rob":11909,"ĠIkro":11910,"umu":11911,"garon":11912,"ĠZar":11913,"Ġlah":11914,"limini":11915,"Novosti":11916,"yobga":11917,"ĠSputnik":11918,"Bank":11919,"Bunga":11920,"Ġkamaytiradi":11921,"hara":11922,"mira":11923,"Ġdavlatlarida":11924,"himov":11925,"Ġ93":11926,"Ġzamin":11927,"ĠZu":11928,"rovka":11929,"Ġfarzandini":11930,"ullanib":11931,"Ġmetrga":11932,"Ġyakunladi":11933,"lyuziv":11934,"lashishga":11935,"Ġolishning":11936,"Ġteleradio":11937,"Ġxayo":11938,"Ġstrategiyasini":11939,"Nur":11940,"Ġqishki":11941,"alabadan":11942,"Ġtaqdirlash":11943,"91":11944,"Xa":11945,"eline":11946,"chishi":11947,"Ġtuyg":11948,"onaga":11949,"jiss":11950,"Ġyaxshilab":11951,"Mehnat":11952,"yasiga":11953,"moli":11954,"ĠMaro":11955,"Ġstavkasi":11956,"sson":11957,"Ġbiologik":11958,"ĠArt":11959,"Ġfutbolchilari":11960,"Ġ01":11961,"ET":11962,"ĠKol":11963,"kova":11964,"Ġharakatlanishi":11965,"Ġxonali":11966,"Ġoperatsiyalar":11967,"Ġfol":11968,"Ġgiper":11969,"Abdul":11970,"chalarda":11971,"Ġsotsi":11972,"Ġhozirga":11973,"Ġhimoyasi":11974,"Ġhakamlar":11975,"Ġmaska":11976,"Ġtovuq":11977,"tilganini":11978,"ĠQurilma":11979,"lines":11980,"Ġhujjatni":11981,"Ġmetrdan":11982,"Ġvaksinatsiya":11983,"ĠFernan":11984,"Ġolmasligini":11985,"Ġraqs":11986,"Ġqashshoq":11987,"teriya":11988,"Ġsudida":11989,"ĠRober":11990,"Gul":11991,"Ġborildi":11992,"Ġukasi":11993,"Ġzah":11994,"Ġkelayotgandi":11995,"Chor":11996,"ĠEronga":11997,"Ġqalbi":11998,"Mis":11999,"Ġsimp":12000,"Ġtushgani":12001,"Ġtakliflari":12002,"Ġayblangan":12003,"ĠBeh":12004,"ĠDehqon":12005,"Rus":12006,"Ġhuquqidan":12007,"Ġortishi":12008,"Ġgilam":12009,"Ġxususiylashtirish":12010,"Ġtarbiyalash":12011,"Ġsumka":12012,"Ġfarmonni":12013,"epidemiologiya":12014,"ht":12015,"ĠObi":12016,"Ġjoyladi":12017,"Ġvakolatlari":12018,"ĠForbes":12019,"Ġmazmundagi":12020,"ĠFinlyandiya":12021,"Braziliya":12022,"ĠÂ·":12023,"ĠNobel":12024,"Ġtaqdirlandi":12025,"Dil":12026,"Ġsabablarini":12027,"Ġintensiv":12028,"naga":12029,"fessional":12030,"Ġqutqarib":12031,"Ġbakalavriat":12032,"Ġshidda":12033,"KS":12034,"lovchilari":12035,"Ġnazardan":12036,"Ġbarqarorlik":12037,"zinpin":12038,"Ġauditoriya":12039,"ĠBux":12040,"Ġportlovchi":12041,"imi":12042,"Ġchegir":12043,"toriy":12044,"ĠOsiyodagi":12045,"Ġjadval":12046,"Rah":12047,"shildi":12048,"Ġsoya":12049,"yinning":12050,"Ġsaylovda":12051,"ĠOltin":12052,"Ġstadion":12053,"prezident":12054,"Ġsaytiga":12055,"Ġquruvchi":12056,"Ġkutilmaganda":12057,"pti":12058,"loy":12059,"Ġsaylovchilar":12060,"Ġeshitgan":12061,"Ġformat":12062,"Ġkamayishi":12063,"Ġaybi":12064,"ĠBularning":12065,"ĠEle":12066,"Ġbemorlarga":12067,"Ġchetga":12068,"ĠChempiona":12069,"Ġfikrim":12070,"Ġmustahka":12071,"Ġjamiyatning":12072,"Cola":12073,"Oskar":12074,"pgina":12075,"Ġuchraydi":12076,"DA":12077,"salar":12078,"lua":12079,"Ġxaridorlar":12080,"Ġchiqaradigan":12081,"Ġkooperatsiya":12082,"Ġxizmatni":12083,"Ġqismlar":12084,"ĠYevropaga":12085,"Ġtexnikalar":12086,"Ġmanzilli":12087,"aniq":12088,"Ġtarmoqda":12089,"Ġkamsi":12090,"media":12091,"jid":12092,"xanov":12093,"enit":12094,"Ġprinsip":12095,"nya":12096,"Ġmuhitni":12097,"Ġmuomalaga":12098,"Ġshiori":12099,"karta":12100,"ĠYakkasaroy":12101,"pra":12102,"ĠGT":12103,"Ġetganini":12104,"Ġ94":12105,"ĠHindistonda":12106,"Ġterminal":12107,"Avstraliya":12108,"Ġhukumatiga":12109,"Ġmontaj":12110,"cial":12111,"parov":12112,"lanarli":12113,"Ġyillarga":12114,"ĠHol":12115,"Ġkorpu":12116,"Ġhisobvara":12117,"Yagona":12118,"ĠYaqinda":12119,"Yaqinda":12120,"Ġhttps":12121,"Ġtadbirlarini":12122,"Ġchegarasini":12123,"ĠPompeo":12124,"Ġmusobaqada":12125,"ĠIbragi":12126,"Ġsvetofor":12127,"Ġputur":12128,"Ġkunini":12129,"ĠChecheniston":12130,"Ġvakolati":12131,"Ġxotirjam":12132,"jom":12133,"rqi":12134,"uniyat":12135,"Ġpesh":12136,"Ġmasofaga":12137,"Ġahamiyatli":12138,"Ġmajburiyatini":12139,"Ġsharafiga":12140,"Ġnef":12141,"Ġvaksinaning":12142,"Ġtaqiqlash":12143,"Ġsaraton":12144,"Ġyengib":12145,"Ġdahshatli":12146,"Ġildi":12147,"Ġinsonparvarlik":12148,"Ġqoplama":12149,"dona":12150,"Ġqilinganini":12151,"diyeva":12152,"Ġekaniga":12153,"sman":12154,"Ġoldinda":12155,"ĠBekobod":12156,"ĠNodir":12157,"Ġsamolyotlar":12158,"Ġreaksiya":12159,"Ġbilishi":12160,"Ġxiy":12161,"ĠJismoniy":12162,"ĠGor":12163,"ĠKichik":12164,"sche":12165,"lamaydi":12166,"yishadi":12167,"Ġrezolyutsiya":12168,"inlari":12169,"Ġqilinganidan":12170,"ĠTax":12171,"Ġzararlangan":12172,"Ġmusobaqasi":12173,"Ġxabarni":12174,"xtatildi":12175,"Ġyuqtirish":12176,"Ġ91":12177,"Ġyaratilishi":12178,"Ġkubogi":12179,"maldagi":12180,"Ġqayerdan":12181,"Ġxususiyatlari":12182,"Ġhaydab":12183,"rop":12184,"Ġketishini":12185,"bang":12186,"Ġegasiga":12187,"Ġuzoqlikda":12188,"Ġsentabrda":12189,"Ġyechimi":12190,"ĠLuis":12191,"Ġasrab":12192,"Ġhokimligining":12193,"Ġguvohnomasi":12194,"ĠKreml":12195,"ĠAssa":12196,"Ġkata":12197,"Ġsurgan":12198,"Fil":12199,"galereya":12200,"ĠDUK":12201,"Ġnosozlik":12202,"news":12203,"Ġulgurji":12204,"Ularning":12205,"Keyinroq":12206,"):":12207,"61":12208,"MI":12209,"Ġhush":12210,"ĠMarg":12211,"Ġbinolari":12212,"ĠTik":12213,"zmini":12214,"Ġtilla":12215,"Markaz":12216,"Ġaytaman":12217,"qilgan":12218,"qim":12219,"ĠAsad":12220,"Ġtusha":12221,"ĠXe":12222,"Ġqilinmaydi":12223,"ksin":12224,"Ġmaydonini":12225,"Ġstress":12226,"51":12227,"Ġfalokat":12228,"Ġfilmda":12229,"mokratiya":12230,"Ġkonsepsiyasi":12231,"ometrik":12232,"Alisher":12233,"Sin":12234,"ltan":12235,"kswagen":12236,"ĠMChJga":12237,"rishtiruv":12238,"dart":12239,"Ġtasvi":12240,"arix":12241,"Ġbaholadi":12242,"Ġtimso":12243,"chqor":12244,"Ġaloqalari":12245,"Ġshakllangan":12246,"vosi":12247,"Ġkondit":12248,"Ġoqim":12249,"Ġtonnaga":12250,"Ġyutqaz":12251,"07":12252,"Ġqoldim":12253,"Elektron":12254,"Ġdevo":12255,"Ġnamunaviy":12256,"Ġchidam":12257,"Ġbarchaga":12258,"ĠFransiyaning":12259,"Ġasrning":12260,"QB":12261,"Ġipak":12262,"Ġzargarlik":12263,"Ġuchrashuvlari":12264,"Ġkechadi":12265,"Ġsevgi":12266,"Ġsotix":12267,"Ġjamoaviy":12268,"Ġkonteyner":12269,"mitasiga":12270,"Ġtelekanalining":12271,"Ġfestivali":12272,"ĠBun":12273,"stonliq":12274,"ĠUchinchi":12275,"siqlar":12276,"Dastur":12277,"Quyidagilar":12278,"Ġsoati":12279,"Ġmurojaatlari":12280,"Ġkrip":12281,"gurish":12282,"ĠVatan":12283,"Ġiqtisodiyotiga":12284,"Ġtelefoni":12285,"natilgan":12286,"rena":12287,"ĠTinch":12288,"zoni":12289,"ulmon":12290,"kreditatsiya":12291,"stiqlol":12292,"Ġkongress":12293,"guni":12294,"Ġsharqiy":12295,"ĠAirlines":12296,"Ġtartibsizliklar":12297,"Ġklas":12298,"Ġtadbirkorlarning":12299,"Ġyetkazadi":12300,"Ðµ":12301,"Ġsohalar":12302,"Ġdorixona":12303,"Ġavtobuslar":12304,"ĠStre":12305,"Ġtushirdi":12306,"Ġmuhojirlar":12307,"Ġbila":12308,"bidagi":12309,"Ġbirdaniga":12310,"Ġqarorgohi":12311,"Ġketganini":12312,"ministratsiyasi":12313,"Rasmiy":12314,"qaradi":12315,"ĠTah":12316,"ynab":12317,"Ġhaftasiga":12318,"ĠSurat":12319,"Ġzonasi":12320,"Ġistagida":12321,"Ġuglevo":12322,"Ġelda":12323,"chiligiga":12324,"ĠIlon":12325,"Ġtaolo":12326,"zlaridan":12327,"Ġchindan":12328,"Ġmavjudligini":12329,"Ġturlicha":12330,"Ġbinosiga":12331,"yozuv":12332,"hangaron":12333,"qacha":12334,"ĠAstra":12335,"2023":12336,"Ġrespublikasi":12337,"oyalar":12338,"ĠTashkilo":12339,"Ġkampaniyasi":12340,"Ġobod":12341,"Ġimkoniyatni":12342,"Ġtennis":12343,"ph":12344,"masida":12345,"Ġbilamiz":12346,"Ġcheka":12347,"Ġqismidan":12348,"ylaymanki":12349,"ĠOAVda":12350,"alati":12351,"Ġkelini":12352,"ĠRim":12353,"Ġyuragi":12354,"Ġtiliga":12355,"ĠXX":12356,"ĠGey":12357,"Ġmajburiyatlari":12358,"Ġmutlaq":12359,"Ġsaviya":12360,"ssi":12361,"Ġzaruriy":12362,"Ġtugagan":12363,"Ġkonstitutsiyaviy":12364,"Ġkosme":12365,"Ġetganligi":12366,"lmaganda":12367,"Ġinflatsiya":12368,"Ġdasturining":12369,"Ġxulosasiga":12370,"Ġkapita":12371,"Jan":12372,"ĠMbappe":12373,"Ġvaqtni":12374,"Ġmoyil":12375,"Ġsolgan":12376,"qqiyot":12377,"Ġqidirish":12378,"Ġbutkul":12379,"Ġukrainalik":12380,"Ġqum":12381,"orld":12382,"Ġyumshoq":12383,"Ħĸ":12384,"Ġbular":12385,"Ġkelishuvlar":12386,"Ġoshirilishini":12387,"ĠOlmaliq":12388,"Ġmegapi":12389,"Ġbakteriya":12390,"Ġkelayotgani":12391,"Ġyoniga":12392,"Ġhamroh":12393,"span":12394,"Ġbuyrak":12395,"ĠKolumbiya":12396,"ĠKlo":12397,"Tex":12398,"Ġtahrir":12399,"Ġhujjati":12400,"Ġqilishlaricha":12401,"Ġtarmoqlarida":12402,"Ġshaxsini":12403,"Ġtren":12404,"leriya":12405,"stav":12406,"yera":12407,"Ġavtomashinasi":12408,"Ġtuziladi":12409,"Ġnihoyatda":12410,"Ġpley":12411,"Ġger":12412,"vardio":12413,"Ġxalqqa":12414,"Ġmushak":12415,"ĠHudud":12416,"Ġgadj":12417,"Ġbolakay":12418,"Ġichidan":12419,"Ġtiklanishi":12420,"Ġapreldan":12421,"Ġogohlantirdi":12422,"lanta":12423,"rinlarini":12424,"Ġmuassasalarini":12425,"Ġsharoitlarni":12426,"zallik":12427,"74":12428,"rquv":12429,"Ġhukumatlararo":12430,"Ġhodisalar":12431,"ĠAbdusa":12432,"rsatadigan":12433,"Ġkunlarning":12434,"lumotda":12435,"Ġfit":12436,"Ġbozorlarida":12437,"Ġvaksinalar":12438,"Ġusullari":12439,"AC":12440,"off":12441,"osus":12442,"Ġfuqaroni":12443,"ĠQosimov":12444,"Shuni":12445,"Nashrning":12446,"86":12447,"qidagi":12448,"Ġrahbariyat":12449,"Ġ170":12450,"Ġmaqsadlar":12451,"dob":12452,"Ġchalg":12453,"Ġlavozimda":12454,"Niz":12455,"ĠBBC":12456,"ĠMuh":12457,"onistondan":12458,"qnashuvi":12459,"Ġmamlakatimizning":12460,"Ġyallig":12461,"istonlik":12462,"Ġulush":12463,"Neft":12464,"ing":12465,"Ġqilayotganini":12466,"ĠOzod":12467,"ramvay":12468,"Ġlayo":12469,"Ġqarov":12470,"Ġoktyabrda":12471,"Ġintizomiy":12472,"esh":12473,"ylagan":12474,"ruz":12475,"martdan":12476,"Ġqonunchilikda":12477,"Ġrejissyor":12478,"Ġoqsho":12479,"ĠRasmiy":12480,"ST":12481,"klari":12482,"Ġborsa":12483,"Ġqonuni":12484,"Ġmahsulotning":12485,"Ġdarvozasiga":12486,"73":12487,"Zo":12488,"ĠBon":12489,"Ġolmayapti":12490,"Ġpastga":12491,"Ġustunlik":12492,"uno":12493,"Ġavtomobillarga":12494,"Ġmuhokamasiga":12495,"Ġxalqining":12496,"ĠQashqadaryoda":12497,"ĠAngren":12498,"Ġtaqdimot":12499,"Ġsupermarket":12500,"kut":12501,"Ġlay":12502,"Ġhaqini":12503,"yektlariga":12504,"Ġkengaytirishga":12505,"Ġsababini":12506,"Ġplanshet":12507,"Ġballon":12508,"Ġishlashini":12509,"ĠGidrometeorologiya":12510,"Ġballistik":12511,"xel":12512,"erson":12513,"Ġmunosabatini":12514,"ermatov":12515,"Umumiy":12516,"aqlli":12517,"pal":12518,"Ġvakillarini":12519,"Ġblogerlar":12520,"eno":12521,"sotdi":12522,"yinchi":12523,"Ġkiritishni":12524,"ylak":12525,"Ġqolmadi":12526,"Ġtiz":12527,"Ġ105":12528,"Ġvideoga":12529,"Ġhajmdagi":12530,"Ġsutkada":12531,"ordaniya":12532,"Ġchorvachilik":12533,"Ġshovqin":12534,"ozlar":12535,"yiladigan":12536,"ĠPat":12537,"Ġbuyurib":12538,"Ġbankno":12539,"jassa":12540,"ĠKas":12541,"Ġcheki":12542,"rganishga":12543,"tirayotgan":12544,"matologiya":12545,"ĠPara":12546,"Ġsenatorlar":12547,"Ġmartdan":12548,"ĠChiroqchi":12549,"Ġtamaki":12550,"Ġtaassurot":12551,"plash":12552,"ĠToshkentdan":12553,"Ġtushirilishi":12554,"ĠMoskvadagi":12555,"Harbiy":12556,"enbekov":12557,"Ġoshiruvchi":12558,"ĠQodi":12559,"Ġimkoniyatlarni":12560,"Ġ1993":12561,"Ġtopilib":12562,"yliq":12563,"ĠSat":12564,"Ġoilada":12565,"Ġuyidan":12566,"fizer":12567,"qutqaruv":12568,"araqqiyot":12569,"Ġzalida":12570,"Ġtekshiruvlar":12571,"Ikkinchidan":12572,"Ġnishoni":12573,"Ġmujassa":12574,"Ġdaha":12575,"Ġ(-":12576,"Ġborayotganini":12577,"Ġuyushtirgan":12578,"Ġburcha":12579,"Ġplatformasi":12580,"Ġaeroportiga":12581,"Ġsovi":12582,"katta":12583,"Ġvideoda":12584,"Ġarava":12585,"Ġjadvali":12586,"Ġtafsilotlari":12587,"Dina":12588,"ĠDS":12589,"Taq":12590,"Ġbuzilishiga":12591,"Ġhomiylik":12592,"Ġfinalga":12593,"Ġordeni":12594,"Jon":12595,"Ġreziden":12596,"lanishni":12597,"Ġqismidagi":12598,"eneva":12599,"iyuldan":12600,"Ġmutasaddilar":12601,"Ġchempionlik":12602,"Ġyashiringan":12603,"Ġparo":12604,"Ġtuzib":12605,"zimning":12606,"Ġtalabalarga":12607,"Ġqonunchilikka":12608,"sociat":12609,"mpton":12610,"Ġgaplash":12611,"Ġmadaniyatini":12612,"stro":12613,"ĠUmar":12614,"Ġkelishuvni":12615,"Ġhissasiga":12616,"Ġmarhumning":12617,"Ġdayjestida":12618,"kos":12619,"ĠYulduz":12620,"umda":12621,"Ġretsep":12622,"Ġboji":12623,"Ġshaharga":12624,"Ġalkogol":12625,"Ġhisobidagi":12626,"ĠTashkilot":12627,"Ġmazmuni":12628,"Ġdetal":12629,"ĠKara":12630,"Ġchiqariladigan":12631,"Ġasrash":12632,"rnatilishi":12633,"Ġkechishi":12634,"tilleriya":12635,"Ġhayvonlar":12636,"Ġesdalik":12637,"Ġhavoga":12638,"Ġgeog":12639,"Ġgapirish":12640,"Ġehtiyojmand":12641,"alle":12642,"kamera":12643,"Ġhaftaning":12644,"ĠChim":12645,"ĠTanzila":12646,"ĠYHXBB":12647,"ijtimoiy":12648,"Ġbuxgal":12649,"timizning":12650,"Ġjarayonlar":12651,"Ġsavollariga":12652,"Ġmijozlarga":12653,"ction":12654,"Ġspikeri":12655,"ĠMening":12656,"Ġ%":12657,"Ġtup":12658,"Ġichish":12659,"Hozircha":12660,"Ġhaqiqatga":12661,"Ġchorakda":12662,"Farmon":12663,"Ġtransformator":12664,"Ġlahza":12665,"tran":12666,"Ġishlat":12667,"ĠYon":12668,"Ġjazosini":12669,"Ġoilaga":12670,"Ġqamrovli":12671,"Ġquroli":12672,"Koreya":12673,"ĠPast":12674,"Ġtalabiga":12675,"Ġsotiladi":12676,"Ġishlama":12677,"uduq":12678,"Ġxabarlarga":12679,"ĠLyu":12680,"xtash":12681,"limidan":12682,"Ġbozordagi":12683,"oliqov":12684,"62":12685,"ĠTech":12686,"Ġ104":12687,"ĠMajburiy":12688,"Ġvakolatlarini":12689,"ylar":12690,"komat":12691,"ĠHuquq":12692,"Ġnoxush":12693,"ĠToyota":12694,"Ġbiznesni":12695,"Ġqamoqxona":12696,"Ġkiritishicha":12697,"Ġsmartfoni":12698,"ĠDoniyor":12699,"Ġgene":12700,"rsatilayotgan":12701,"orlik":12702,"Ġtuyu":12703,"ĠShuncha":12704,"Ġvositalarida":12705,"konlari":12706,"Ġpolitsiyachilar":12707,"Ġsolishga":12708,"Ġtuzildi":12709,"tiboringizga":12710,"Ġkelishiga":12711,"ĠQor":12712,"dorligini":12713,"laysiz":12714,"shimga":12715,"kilometrida":12716,"ego":12717,"Ġqoshida":12718,"Ġvaqtlar":12719,"Ġmuammosini":12720,"Ġanglab":12721,"ĠOna":12722,"Ġhaqdagi":12723,"Ġshubhali":12724,"Ġtasarrufidagi":12725,"ĠHarakatlar":12726,"Ġoshqozon":12727,"yana":12728,"ant":12729,"Ġbelgiladi":12730,"rabanda":12731,"Ġhukumatni":12732,"Ġqurollangan":12733,"Ġmanzilga":12734,"Ġnihoyasiga":12735,"yalar":12736,"Ġtasida":12737,"qadi":12738,"yilmaydi":12739,"Ġxulosasi":12740,"Ġmujassam":12741,"sidir":12742,"Ġyillarida":12743,"Ġharf":12744,"Ġtanishlari":12745,"Ġramziy":12746,"ĠAu":12747,"Ġqariya":12748,"Ġsuvdan":12749,"Ġstandartlari":12750,"Ġveterinariya":12751,"Ġmumkinmi":12752,"mudov":12753,"moqli":12754,"Ġkishilik":12755,"Ġ92":12756,"Ġkichkina":12757,"ĠSamolyot":12758,"Ġuylarni":12759,"Ġkunduzgi":12760,"Muh":12761,"key":12762,"zina":12763,"essiyasi":12764,"Ġaviatsiyasi":12765,"ĠSuares":12766,"Ġkapitali":12767,"Amerikaning":12768,"Mamlakatda":12769,"Aslida":12770,"Preziden":12771,"Ġfinalida":12772,"ĠSalmon":12773,"ĠKoson":12774,"ĠMoldova":12775,"saka":12776,"Ġsherigi":12777,"Ġservi":12778,"zlagan":12779,"Ġcher":12780,"Ġetishdan":12781,"xtatgan":12782,"nalishlarida":12783,"Ġimzolash":12784,"ĠSaylov":12785,"iborini":12786,"terrorchilik":12787,"ĠBMW":12788,"Ġunvon":12789,"ĠUilyam":12790,"Ġhind":12791,"Ġmm":12792,"Mada":12793,"molchilar":12794,"Ġyaralangan":12795,"Ġqolgandi":12796,"2013":12797,"Ġmehmonxonalar":12798,"vatiya":12799,"Ġbudjetidan":12800,"joriy":12801,"litsiya":12802,"Ġholatlarga":12803,"Ġkechirish":12804,"Ġbuzilish":12805,"Ġassotsiatsiya":12806,"git":12807,"Ġishsizlik":12808,"ssar":12809,"ĠJuda":12810,"ĠEd":12811,"Ġbilmaydi":12812,"Ġjamoasida":12813,"Ġkorxonalarga":12814,"98":12815,"jaligiga":12816,"ĠFre":12817,"uyda":12818,"Ġtahririyat":12819,"Ġbunyodkorlik":12820,"03":12821,"uridik":12822,"Ġpaytga":12823,"ĠBektemir":12824,"Ġpasayti":12825,"Ġparvozlar":12826,"Ġtarqatdi":12827,"Ġhamkasblari":12828,"Ġishlan":12829,"ĠIvan":12830,"quvvatlagan":12831,"Ġhamkorlar":12832,"Ġqochish":12833,"Ġchidamli":12834,"Ġtok":12835,"Ġnotari":12836,"ĠEk":12837,"ĠEdu":12838,"ĠSaidov":12839,"Ġyerning":12840,"Ġakkreditatsiya":12841,"ligatsiya":12842,"Ġmuxbirining":12843,"XHT":12844,"gul":12845,"ĠLos":12846,"Ġaniqlagan":12847,"payishi":12848,"Ġmaktablarida":12849,"Ġqutqaruv":12850,"Ð½":12851,"Ġkelishdi":12852,"Ġstatistik":12853,"500":12854,"abul":12855,"Ġqulagan":12856,"erali":12857,"Ġtuzilmalari":12858,"Ġavvalida":12859,"Ġdinami":12860,"Ġmoddalarni":12861,"Im":12862,"ĠMuhamma":12863,"Ġoshkora":12864,"Ġzavq":12865,"ĠBenze":12866,"Ġkattaroq":12867,"ĠPxenyan":12868,"bina":12869,"vohi":12870,"ĠKra":12871,"onali":12872,"Mamlakatimiz":12873,"Kamo":12874,"ĠRasul":12875,"Osiyo":12876,"Ġmalika":12877,"ribgarlik":12878,"rinlarda":12879,"Ġkorpus":12880,"Ġisyon":12881,"Shuhrat":12882,"Ġvaziyatlarda":12883,"Ġnamoyishchilar":12884,"ĠModel":12885,"inga":12886,"Ġfoydalanishda":12887,"kechak":12888,"gichlar":12889,"Ġchegirmalar":12890,"yangi":12891,"Ġemasdi":12892,"ĠMuhi":12893,"Ġmustaqilligi":12894,"Ġxalqimizning":12895,"irlangan":12896,"Ġhududlaridan":12897,"Tomonlar":12898,"Ġtalabalarning":12899,"Ġtashabbuskor":12900,"Ġiden":12901,"ratli":12902,"Ġtarqatib":12903,"Ġyovvoyi":12904,"08":12905,"Ġkoreya":12906,"Ġtezkorlik":12907,"Ġtanlangan":12908,"Ġsavod":12909,"Ġtortildi":12910,"zavotlar":12911,"gidan":12912,"Ġboshlarida":12913,"ĠGen":12914,"Ġjoyni":12915,"kerlar":12916,"ralar":12917,"Ġqola":12918,"ĠAsaka":12919,"uti":12920,"lashicha":12921,"ĠSMS":12922,"Ġishg":12923,"Ġqurishga":12924,"pital":12925,"Ġbolaga":12926,"ĠKarimovning":12927,"Ġjoziba":12928,"atch":12929,"stal":12930,"Ġemasman":12931,"Ġmashinasida":12932,"Ġlavozimlarida":12933,"Ġimkonsiz":12934,"Ġsalomatlik":12935,"Asosiy":12936,"ere":12937,"Ġholatlarini":12938,"Ġartist":12939,"Ġishonib":12940,"Ġloyihaga":12941,"kri":12942,"Ġmurosa":12943,"eneca":12944,"ĠAtamboyev":12945,"lizav":12946,"Ġetilishiga":12947,"Ġeksplua":12948,"alabasi":12949,"Ġyoqimli":12950,"Ġdepo":12951,"ĠUzAuto":12952,"kins":12953,"Ġtayyorlanadi":12954,"Ġjavobi":12955,"Ġarxe":12956,"Ġbildirmoqda":12957,"Ġoktabrda":12958,"Ġtalabini":12959,"ĠMaktabgacha":12960,"Gap":12961,"umumiy":12962,"Dinamo":12963,"Ġolov":12964,"ĠKush":12965,"Ġyuzi":12966,"Ġpanel":12967,"Ġklubiga":12968,"Ġbarqarorlikni":12969,"Ġfidoyi":12970,"htimol":12971,"Lat":12972,"erning":12973,"Ġhujjatlarga":12974,"ĠShax":12975,"Ġtarkibda":12976,"Ġhaqqi":12977,"roqda":12978,"ĠOli":12979,"ĠIrlandiya":12980,"Ġlotin":12981,"Ġdizayni":12982,"Ġfilmidagi":12983,"ĠVaholanki":12984,"sociated":12985,"ĠMag":12986,"rnatgan":12987,"Ġxaridlari":12988,":âĢĵ":12989,"titsiya":12990,"Ġqolmagan":12991,"Ġberishgan":12992,"uzat":12993,"Ġbayroq":12994,"ĠHisob":12995,"Ġqolayotgan":12996,"ovul":12997,"Tanlov":12998,"ngizdan":12999,"ĠChar":13000,"xshab":13001,"Ġjinsiy":13002,"ĠVazirlik":13003,"Zeneca":13004,"ĠKlub":13005,"Ġoshirmoqda":13006,"Ġtalabgor":13007,"Ġvositalaridan":13008,"Ġyetkazdi":13009,"kazo":13010,"Ġzarura":13011,"Ġtransferi":13012,"ibori":13013,"rodar":13014,"Ġimmun":13015,"Shuning":13016,"ĠJournal":13017,"rilganidan":13018,"Ġvij":13019,"Ġmualliflari":13020,"Ġqirrali":13021,"atining":13022,"Ġmartabali":13023,"Ġyetkaziladi":13024,"Ġkuchayadi":13025,"vohir":13026,"Ġliberal":13027,"Sayt":13028,"sariyat":13029,"Ġshartnomalari":13030,"Ġmedali":13031,"OII":13032,"limetr":13033,"Ġmurojaatida":13034,"zatsiyasi":13035,"Ġprofessori":13036,"ĠRamos":13037,"Benz":13038,"âĢĺ,":13039,"rilganda":13040,"Ġmebel":13041,"Ġyelka":13042,"sionar":13043,"Ġtarqatilgan":13044,"Ġbiznesmen":13045,"Ġkitobxon":13046,"Ġxotirasiga":13047,"Ġmete":13048,"Ġtushayotgan":13049,"yotr":13050,"Ġettirmoqda":13051,"Ġuchrashgan":13052,"Journal":13053,"Ġmissiyasi":13054,"Ġmazali":13055,"mpir":13056,"Ġkelgandi":13057,"Ġvaksinani":13058,"Nar":13059,"ls":13060,"lian":13061,"ping":13062,"Ġrahbarlariga":13063,"Ġombori":13064,"Ġqilmi":13065,"Ġkara":13066,"ĠXV":13067,"limdan":13068,"qoida":13069,"banguli":13070,"Ġhor":13071,"stian":13072,"ĠBag":13073,"Ġtahririyati":13074,"Jam":13075,"lilar":13076,"Ġqilyapmiz":13077,"Ġpake":13078,"ĠMing":13079,"Ġkali":13080,"ĠHayot":13081,"ĠKuba":13082,"ĠPSJ":13083,"loqda":13084,"Ġsotishni":13085,"Ġnoyabrida":13086,"Ġyuritdi":13087,"Ġmaqsadlarda":13088,"Ġamerikaliklar":13089,"tkazishda":13090,"Ġasf":13091,"Ġoshgani":13092,"mey":13093,"tfil":13094,"ĠMadri":13095,"xio":13096,"Ġuncha":13097,"Ġvideomu":13098,"Ġsotilishi":13099,"Ġmuammoli":13100,"Ġtayinlangani":13101,"Ġfotogalereya":13102,"ĠĠĠĠĠĠĠĠĠĠĠĠĠĠĠĠĠĠĠĠĠĠĠĠĠĠĠĠĠĠĠĠ":13103,"pligi":13104,"logi":13105,"ĠSot":13106,"ĠAgentlik":13107,"ĠOn":13108,"ĠMuborak":13109,"Ġhokimligiga":13110,"Ġyurti":13111,"Ġuchastkasi":13112,"Ġmiqyosda":13113,"rishimiz":13114,"Ġkorxonalarning":13115,"ĠHaj":13116,"Ġayblanib":13117,"Ġaralashuvi":13118,"ĠAJning":13119,"Ġterrorchilar":13120,"Ġarxiv":13121,"simon":13122,"Ġachinarli":13123,"Ġtadbirlarda":13124,"Ġmaktabida":13125,"Sevilya":13126,"Ġsotildi":13127,"ĠBill":13128,"avi":13129,"ĠErta":13130,"Ġvideoro":13131,"Ġasab":13132,"nad":13133,"Ġavtomobilning":13134,"Ġmexanizmi":13135,"Ġmamnuniyat":13136,"xara":13137,"yim":13138,"rakli":13139,"Ġsudlar":13140,"Ġmonitoringi":13141,"lizaveta":13142,"ĠSpace":13143,"Ġyaqinlariga":13144,"dovski":13145,"Ġqurollar":13146,"ĠMenga":13147,"ett":13148,"inan":13149,"Ġartilleriya":13150,"Ġqurilmalarni":13151,"Ġneftni":13152,"Ġvirusning":13153,"Ġdiagno":13154,"rosti":13155,"ĠGvardio":13156,"Ġavtonom":13157,"araz":13158,"Ġettirishga":13159,"ĠWa":13160,"Ġrejimini":13161,"ream":13162,"Ġpoyde":13163,"Ġasoratlari":13164,"sert":13165,"dirgan":13166,"Ġqasam":13167,"Ġyakunlanishi":13168,"llanilishi":13169,"Ġjangda":13170,"Gazprom":13171,"Afsuski":13172,"Ana":13173,"tis":13174,"yudo":13175,"Ġnimaga":13176,"Ġishlatilgan":13177,"planib":13178,"ĠUzoq":13179,"Ġfazo":13180,"Ġberishadi":13181,"Ġchiqishdi":13182,"Ġxiyonat":13183,"Ġkab":13184,"ĠErik":13185,"Ġholatlarning":13186,"Ġmahsulotlariga":13187,"Ġetayotgani":13188,"Ġzaharlanish":13189,"tganini":13190,"Ġxodimlaridan":13191,"Ġvazifani":13192,"Ġqizni":13193,"Ġbajargan":13194,"Ġbayonotiga":13195,"Ġyuksaltirish":13196,"Ġahli":13197,"Ġreytingda":13198,"ĠHyundai":13199,"Ġtongda":13200,"Ġqulashi":13201,"Ġdini":13202,"ĠTomas":13203,"vandovski":13204,"Ġimporti":13205,"ĠFlorida":13206,"Ġolis":13207,"ĠUZ":13208,"Ġfarmo":13209,"Ġmetrlik":13210,"Ġahvolga":13211,"uminiya":13212,"Ġ1500":13213,"Ġvositasida":13214,"Ġjadallashtirish":13215,"Ġlitrli":13216,"ĠShermatov":13217,"rnatdi":13218,"Ġuyushtirish":13219,"Ġjihozlari":13220,"Ġinfratuzilmasi":13221,"ijo":13222,"jiza":13223,"Ġhokazo":13224,"otensi":13225,"shilishi":13226,"Ġshartnomasini":13227,"yunxen":13228,"Ġqizaloq":13229,"ĠFurqat":13230,"ĠElect":13231,"Ġ210":13232,"Ġchaqiruv":13233,"masligiga":13234,"Ġmillimetr":13235,"Ġ750":13236,"hozir":13237,"Ġguruch":13238,"Ġchiqqandi":13239,"Ġgen":13240,"Ġaniqlanmagan":13241,"Ġajratildi":13242,"Ġishbilarmonlik":13243,"ĠAbduhakimov":13244,"Ġkansleri":13245,"ltanla":13246,"Ġaziz":13247,"Ġdov":13248,"lmaslik":13249,"ĠRahim":13250,"Ġuchastkalarini":13251,"Ġmavsumiy":13252,"Normativ":13253,"Ġsathi":13254,"run":13255,"yga":13256,"âĪĴ":13257,"Ġtej":13258,"Ġsaboq":13259,"02":13260,"ayt":13261,"ĠAlib":13262,"otlandiya":13263,"qotar":13264,"ilu":13265,"abrika":13266,"ĠMama":13267,"ibray":13268,"Ġinshootlar":13269,"Ġazob":13270,"Ġxabari":13271,"erik":13272,"Ġmunosabatlarning":13273,"Ġtavsi":13274,"rtoqlashdi":13275,"Ġsaqlangan":13276,"istondagi":13277,"Ġbosma":13278,"lovakiya":13279,"Nukus":13280,"Savdo":13281,"ayri":13282,"ĠXAB":13283,"lomlashtirish":13284,"Ġsessiyasida":13285,"Ġreyest":13286,"llarida":13287,"uning":13288,"Ġdesak":13289,"Ġqilmadi":13290,"Ġkompaniyaga":13291,"Ġxavotirda":13292,"Don":13293,"Ġtannar":13294,"Ġchegarada":13295,"ĠFransiyada":13296,"chuk":13297,"ĠMatiz":13298,"isht":13299,"Ġbajarib":13300,"Ġqoplangan":13301,"Ġsiyosatining":13302,"Ġzarbasi":13303,"Ġimtihonlari":13304,"Birinchidan":13305,"Ġpulga":13306,"Ġkartina":13307,"Ġfevralida":13308,"Ġsammitida":13309,"JSST":13310,"xar":13311,"diyasi":13312,"lganiga":13313,"Ġinternetga":13314,"Ġchiqindilar":13315,"Aniqlanishicha":13316,"LARI":13317,"wer":13318,"xov":13319,"Ġnomida":13320,"Ġshartlar":13321,"qituvchilarning":13322,"Ġxonadonlar":13323,"Ġzarbalar":13324,"ĠAktrisa":13325,"Ġmuharriri":13326,"ĠMaduro":13327,"Ġishtirokchisi":13328,"Ġvoqeani":13329,"Ġzararlanish":13330,"Ġxodimining":13331,"Ġtuzilishi":13332,"Ġtashladi":13333,"Ġnout":13334,"Ġjoyini":13335,"Ġketyapti":13336,"Ġshimolidagi":13337,"tiborini":13338,"Ġtovush":13339,"Ġtarzini":13340,"guniga":13341,"Ġrahbarligida":13342,"09":13343,"Ġyuan":13344,"Ġfoydasi":13345,"Ġdirektorining":13346,"ĠZafar":13347,"mental":13348,"Ġaprelida":13349,"Qurilish":13350,"por":13351,"Ġtadqiq":13352,"Ġmamlakatlardan":13353,"Ġqurilishini":13354,"Ġarg":13355,"Ġayollarni":13356,"Ġmuhimligi":13357,"Qarshi":13358,"ĠGulnora":13359,"Ġsoddalashtirish":13360,"zimizning":13361,"Ġhazm":13362,"Ġjanob":13363,"Ġsing":13364,"ĠNASA":13365,"Ġmaktabining":13366,"lamo":13367,"ril":13368,"Ġborilishi":13369,"yod":13370,"ĠNote":13371,"Ġyerlar":13372,"Ġmendan":13373,"Ġvirusga":13374,"Ġjamiyatining":13375,"Ġgolini":13376,"Ġbuyurish":13377,"Fer":13378,"stikasi":13379,"Ġsaqlashga":13380,"Ġpolitsiyachi":13381,"Ġbuyuradi":13382,"ĠTrampga":13383,"zgartirishga":13384,"ĠâĦĸ":13385,"-,":13386,"IH":13387,"tmi":13388,"ilgani":13389,"demokratik":13390,"sog":13391,"Ġoshirayotgan":13392,"ĠYeChL":13393,"Ġgripp":13394,"Ġnim":13395,"Ġbahona":13396,"Ġrul":13397,"Ġhajm":13398,"Ġbittadan":13399,"Ġqoramol":13400,"sishiga":13401,"Ġxuru":13402,"ĠTJournal":13403,"Ġhuquqshunos":13404,"azab":13405,"Ġyarimhimoya":13406,"Ġkamaytirishga":13407,"Ġaytilgandi":13408,"ĠQurbonov":13409,"lohida":13410,"ĠIsa":13411,"rinishidagi":13412,"Ġkattalar":13413,"Ġtarqalib":13414,"Ġkirishdi":13415,"lqo":13416,"Ġkoman":13417,"Ġmashinada":13418,"Ġxonadonda":13419,"Hech":13420,"Jismoniy":13421,"layapti":13422,"tiriladigan":13423,"ure":13424,"Ġaylanish":13425,"ĠPfizer":13426,"ĠGES":13427,"Ġisbo":13428,"sburg":13429,"Ġbitimlar":13430,"Ozar":13431,"lanmadi":13432,"Ġxabarga":13433,"Ġyuborib":13434,"ĠOlti":13435,"Ġtahliliy":13436,"ĠLavrov":13437,"Ata":13438,"ortiga":13439,"ĠAx":13440,"Ġtus":13441,"laklari":13442,"Ġsarflagan":13443,"Ġpasayish":13444,"Ġyigitlar":13445,"ĠTadbirda":13446,"Ġsaratoni":13447,"nau":13448,"Ġyoshlari":13449,"Ġtanlovda":13450,"kerberg":13451,"und":13452,"Ġolishdan":13453,"Ġbilmayman":13454,"Ġbiznesi":13455,"chasining":13456,"loyiha":13457,"ĠOstona":13458,"jihat":13459,"Ġ102":13460,"Ġsexi":13461,"rilishicha":13462,"ĠIII":13463,"Ġhokimlar":13464,"azna":13465,"ĠAgarda":13466,"ĠPop":13467,"desliga":13468,"ĠMyan":13469,"ĠEstoniya":13470,"Ġmateriallarni":13471,"Aktyor":13472,"Ġmisolida":13473,"Ġmetropolite":13474,"cal":13475,"Ġkotib":13476,"atlar":13477,"yinini":13478,"Ġxafa":13479,"Ġaktyorlar":13480,"ĠXABAR":13481,"Um":13482,"nazarov":13483,"Ġbeqaror":13484,"Ġsindi":13485,"lamjonov":13486,"rollik":13487,"ĠBizga":13488,"Ġqiyinchiliklar":13489,"ĠJeenbekov":13490,"ĠAvvaliga":13491,"tirmoqchi":13492,"Ġiyundan":13493,"Ġkreditlari":13494,"Ġqiyos":13495,"Ġsoniyada":13496,"Ġindeksi":13497,"Ġfizika":13498,"Ji":13499,"Ġoshpa":13500,"medova":13501,"Ġsuratlarini":13502,"shinyan":13503,"Ġdeyishdi":13504,"ĠSpot":13505,"Ġgavjum":13506,"Ġdoktor":13507,"Gu":13508,"Ġaniqlashga":13509,"Ġqoidalarga":13510,"Ġtakomillashtirishga":13511,"ĠGurbanguli":13512,"81":13513,"sirini":13514,"Ġmakro":13515,"Ġtashlanadi":13516,"ĠUl":13517,"Ġasarlari":13518,"Xi":13519,"Ġukrain":13520,"Ġjosus":13521,"Ġkelsak":13522,"lumoti":13523,"Ġlogo":13524,"lashishiga":13525,"uliyatli":13526,"Ġqobiliyatini":13527,"Ġmajlisda":13528,"Ġmagistral":13529,"Ġqanot":13530,"mav":13531,"Ġhamyon":13532,"Ġnozik":13533,"Ġetishning":13534,"vest":13535,"Ġqolishini":13536,"vatt":13537,"Ġtasdig":13538,"Ġkonver":13539,"quvvatladi":13540,"umta":13541,"Ġqaytadi":13542,"Ġnarxlarni":13543,"Ġtarafi":13544,"Ġulgurdi":13545,"Ġpsixologik":13546,"oron":13547,"ĠBusiness":13548,"Ġsavdolari":13549,"Ġhujumlar":13550,"Ġfikrda":13551,"ĠOsiyoning":13552,"Ġjoylashtiriladi":13553,"qayta":13554,"Ġqolingan":13555,"iyunda":13556,"Ġsammit":13557,"ĠStreet":13558,"Ġfb":13559,"Ġhid":13560,"Ġinfor":13561,"HDYo":13562,"chadan":13563,"Ġmaydonni":13564,"zgarishsiz":13565,"Ġjonlantirish":13566,"Ġokeani":13567,"IR":13568,"Ġtekin":13569,"Ġshuki":13570,"ĠAQShdan":13571,"Ġguruhga":13572,"Ġerkinlik":13573,"sentabrda":13574,"ĠBozorov":13575,"Ġulash":13576,"Ġtayyorlagan":13577,"rah":13578,"Ġqozog":13579,"Ġbizdan":13580,"Ġmegapikselli":13581,"rfa":13582,"mot":13583,"Ġflag":13584,"Ġpatrul":13585,"Ġtaklifni":13586,"Ġdasturlarni":13587,"Ġtushuntirib":13588,"ĠErkak":13589,"Ġmuxlislariga":13590,"ĠKodeksining":13591,"Ġbirdam":13592,"Ġmiting":13593,"Ġfazi":13594,"Ġilhom":13595,"Ġinsonlarga":13596,"Ġshifoxonasiga":13597,"Ġbajaradi":13598,"Nega":13599,"oti":13600,"indan":13601,"ĠXitoydagi":13602,"ĠAbdug":13603,"Ġbiriktirib":13604,"takror":13605,"Ġimzolanishi":13606,"ĠFarmon":13607,"Ġoqibatda":13608,":âĢĶ":13609,"Ġislo":13610,"Ġchegaradosh":13611,"Ġofits":13612,"Ġiroda":13613,"dengiz":13614,"ĠRos":13615,"Ġbadavlat":13616,"Ġxizmatlaridan":13617,"Ġharakatni":13618,"Ġ169":13619,"Ġsuhbati":13620,"PO":13621,"tibbiy":13622,"Ġagrar":13623,"Ġislohotlarning":13624,"Ġekspluatatsiya":13625,"ĠBungacha":13626,"ĠYoq":13627,"Ġnatijani":13628,"Ġbajari":13629,"gohida":13630,"Ġavgustida":13631,"Ġetishlari":13632,"rimda":13633,"riqnoma":13634,"Ġbarqarorligini":13635,"Ġkripto":13636,"ano":13637,"tili":13638,
[...]
